#version: 0.2
Ġ t
Ġ a
Ġ i
Ġ s
Ġt h
r e
i n
Ġ w
o n
Ġth e
e r
Ġ c
a n
Ġ m
Ġ b
o u
Ġ f
o r
a t
Ġ p
e n
Ġ h
in g
Ġa n
Ġt o
Ġ l
Ġ d
e s
e d
Ġi n
Ġ n
i t
a l
Ġ o
Ġan d
o m
a r
i s
Ġ g
r i
a s
Ġ e
Ġo f
v e
i c
l e
Ġ re
i on
l y
s t
l l
Ġw h
Ġ y
o w
Ġb e
Ġf or
o t
en t
Ġi s
Ġ u
e t
a y
Ġi t
Ġ on
Ġy ou
an k
a c
Ġs t
l d
u t
a m
v er
Ġw e
Ġh a
i d
č Ċ
s e
Ġth at
Ġh e
r o
o l
it h
c t
c e
Ġ k
t h
a d
Ġth is
Ġs ri
Ġw ith
Ġl ank
at ion
Ġ or
g h
Ġm y
o o
Ġa re
c h
k e
i r
u r
Ġan y
ou t
Ġd o
Ġa s
Ġ j
Ġl i
es t
on e
n t
Ġ r
i m
p p
Ġn e
Ġs h
Ġ 1
Ġha ve
ou ld
Ġs e
Ġ 2
i l
om e
t er
Ġd e
Ġb ut
Ġlank a
Ġs o
Ġm e
o p
Ġf r
Ġ v
Ġt r
i ll
Ġe x
Ġc on
an d
at e
Ġn ot
Ġs u
ou r
n d
Ġc om
Ġfr om
Ġa t
Ġc h
en d
g e
Ġc an
Ġw as
Ġa b
u st
er s
Ġp l
an t
Ġa l
k ing
Ġm o
al ly
m ent
u l
Ġi f
gh t
Ġp ro
or t
e re
Ġthe y
Ġg o
a in
Ġwh at
Ġs ome
n ow
Ġw or
u s
i g
Ġli ke
a b
Ġthe re
is t
0 0
it y
i es
u n
e l
Ġg et
es s
Ġk now
c i
a re
p e
q u
oo d
ou nt
Ġab out
Ġa d
u d
e m
ar t
Ġu n
Ġb y
Ġl e
b o
Ġw ould
r ou
Ġh ow
a p
Ġa ll
Ġp e
ar d
Ġu s
Ġc ol
Ġl o
Ġa c
Ġa m
ver y
ic e
Ġj ust
Ġyou r
re s
f f
Ġf e
Ġ 3
Ġwh o
Ġh as
in d
Ġex p
in e
o s
Ġw ill
v en
ion s
om bo
Ġa pp
ac k
i ve
r y
op le
o re
l i
Ġpe ople
Ġd ay
u y
a ke
al l
as t
Ġre c
Ġt im
Ġ out
Ġcol ombo
Ġ en
Ġ ve
Ġh i
Ġs a
Ġu p
e ar
s o
a k
u m
h er
Ġi m
p t
Ġw ant
a g
an s
re e
Ġcom p
u re
Ġg ood
e ct
Ġ our
Ġn o
Ġon e
Ġa g
a ge
c k
Ġc o
Ġd on
Ġy ear
Ġt e
Ġd i
ac e
Ġtim e
th er
Ġ qu
Ġthe ir
Ġin t
Ġal so
as e
en ce
er i
Ġany one
ab le
Ġbe en
Ġl oo
am e
Ġ2 0
Ġm an
Ġp ri
ic h
Ġ 5
at ed
Ġp o
i a
ou s
Ġc l
an ce
Ġne w
a ve
p ort
Ġc ount
Ġ 4
Ġe ven
i ght
a u
Ġof f
ation s
Ġwh ich
Ġe very
Ġwh en
Ġne ed
u e
Ġn ow
Ġhe l
ac h
on g
v ing
Ġthe m
Ġa f
Ġhel p
i f
Ġad v
id e
Ġcon t
n ing
w h
b er
Ġhe re
Ġac c
Ġmo re
i p
Ġo ther
Ġbe c
Ġa r
rou nd
as s
in k
Ġs in
Ġha d
ul t
Ġth ank
ac t
nd er
Ġ ri
Ġv is
Ġcom m
i e
Ġsh ould
Ġwor k
Ġs p
ar y
it e
Ġre s
Ġin d
Ġaf ter
Ġu nder
i v
Ġm on
Ġthe se
Ġlank an
a il
Ġs l
is h
Ġst ud
Ġp re
Ġwh ere
Ġdo es
Ġd id
au se
ver s
a w
b le
Ġp r
Ġp ol
Ġwe re
it ies
Ġo ver
Ġa round
Ġon ly
Ġre ally
Ġp art
Ġg uy
Ġcount ry
Ġa ct
d it
ic al
h ing
c es
Ġm u
ic k
ig n
Ġexp eri
om m
Ġg ot
or m
Ġd is
er ing
Ġc ould
ay s
i le
Ġun i
Ġb r
Ġse e
Ġbec ause
t ing
Ġin ter
g g
Ġc ur
Ġf ri
Ġin c
f e
Ġs pe
Ġ ro
Ġpl an
Ġloo king
Ġmu ch
Ġj o
y a
Ġb ack
d e
Ġth ing
u b
Ġp h
i z
o g
Ġth ink
on d
Ġs c
p l
Ġt ri
Ġtr ave
al a
k s
at h
an g
Ġm ar
Ġbe t
o se
e p
le ase
omm end
Ġmo st
Ġ 6
Ġst art
Ġb us
om et
r u
Ġlo c
Ġto o
Ġmon th
Ġp er
Ġh is
Ġg r
Ġf ind
Ġen g
Ġp ay
a v
Ġc re
Ġfri end
Ġrec ommend
Ġs omet
Ġp lease
Ġf ir
Ġpl ace
Ġb uy
Ġh er
res s
d ay
Ġo p
Ġm a
Ġvis it
ver n
i ly
Ġyear s
er v
Ġguy s
en s
le ct
Ġin f
Ġgo vern
Ġm in
Ġsh e
Ġfir st
Ġp ers
Ġgo ing
Ġs ch
Ġre l
Ġcur re
Ġfe el
ow n
Ġthank s
Ġde c
Ġw ay
al s
Ġgovern ment
ad e
Ġt ake
Ġwe ll
Ġ20 2
Ġb est
Ġday s
is s
Ġth ou
Ġint o
ot her
ation al
Ġpo st
Ġth an
i re
Ġ 7
Ġm ake
ll a
Ġthe n
l ed
Ġt a
d u
ent s
Ġ 8
Ġhi gh
b s
y ing
Ġf u
f ore
Ġf o
Ġcon s
Ġ 0
Ġt w
00 0
Ġ very
Ġch e
Ġsa id
Ġc ar
Ġacc ount
i ld
Ġman y
ac es
Ġpers on
Ġre g
n e
Ġwe e
st and
f ul
or s
Ġin v
Ġst ill
l ic
Ġ ed
Ġe m
ment s
Ġsomet hing
ci al
re at
Ġg en
Ġwor ld
Ġs ay
in t
o d
Ġcurre nt
ve l
f t
Ġm ay
Ġinter n
Ġtrave l
Ġuni vers
Ġsin ce
th ing
Ġunder stand
Ġfe w
Ġm ed
Ġde g
c on
Ġit s
Ġevery one
Ġexperi ence
an y
r a
rou gh
x t
Ġth rough
Ġsu pp
Ġbe ing
one y
Ġcomm un
k ed
Ġwh y
Ġd ri
Ġt our
Ġc all
ou nd
l ine
Ġf am
Ġbe fore
Ġtr ans
er t
re ci
Ġk e
pe ct
w n
Ġsome one
Ġag ain
Ġ1 0
Ġri ght
Ġp res
Ġf in
p le
at ch
Ġ 9
n ect
u ally
Ġpl aces
Ġin st
v ed
Ġha pp
Ġb as
Ġapp reci
Ġu se
l f
o ol
s i
Ġa ir
and y
Ġis s
Ġat t
id ent
Ġwh ile
gg est
or d
n a
t e
Ġm oney
at ing
Ġp os
Ġb l
Ġadv ice
g et
d dit
Ġs m
Ġse c
Ġs ame
Ġcon nect
ot h
Ġlo ve
Ġl et
i al
ar a
Ġs erv
Ġdi ff
Ġsu ggest
Ġsin h
Ġk andy
Ġh im
Ġsch ool
Ġdeg ree
Ġb ank
Ġse em
Ġl ong
an ge
or y
s h
Ġi de
Ġre m
u w
Ġl ot
Ġbet ter
Ġe t
Ġrec ent
Ġs it
Ġqu est
Ġtw o
Ġd own
Ġtr ain
Ġb u
Ġthing s
c ess
ur ing
Ġli fe
w e
i an
Ġdo ing
Ġf ood
Ġs im
Ġthou ght
Ġp ar
Ġcont in
Ġth ose
Ġe ar
is e
Ġin s
Ġc r
Ġr a
am il
o y
ll ow
wh at
Ġst ay
ere d
Ġf ore
re ad
u al
Ġo pt
ic s
Ġplan ning
Ġ end
Ġsu b
Ġb ud
Ġloc al
at es
c ed
Ġunivers ity
Ġl k
Ġo wn
b e
i ous
p er
j ect
Ġta x
Ġb oo
Ġo ld
Ġa w
Ġd es
Ġt amil
Ġre ddit
ow er
Ġa v
l es
it t
al e
Ġon line
Ġ ent
Ġp ass
al le
g r
are nt
Ġus ed
Ġs ur
k et
Ġtri p
Ġwith out
l o
Ġfam ily
at er
Ġsu ch
Ġg u
m e
as on
Ġ 000
it ion
Ġ1 9
Ġget ting
Ġpri v
Ġl ast
Ġe lla
led ge
ou gh
Ġw r
Ġl l
is m
Ġinv est
ie w
Ġd uring
in ess
Ġre al
Ġh op
Ġp ub
Ġn ight
con om
Ġet c
Ġk ind
Ġadv ance
Ġs y
Ġh ome
Ġsh are
Ġpro v
w ard
Ġdiff ere
Ġe lect
Ġe conom
Ġe l
Ġhe y
u es
Ġre p
Ġwee k
Ġco st
l ank
Ġc our
Ġne xt
Ġde p
wh ere
a ir
Ġjo b
Ġs ou
Ġh ot
er n
Ġle ar
Ġc are
Ġd r
Ġeng ine
Ġgen er
if ic
l ish
du ct
Ġm ade
Ġsupp ort
Ġ es
ll ing
Ġtr ying
Ġany thing
ere st
u p
Ġe v
ic ally
f er
at her
Ġpol it
Ġfriend s
Ġim port
a ff
Ġg reat
Ġint erest
c y
s s
Ġcre ate
Ġre ad
Ġrecent ly
Ġt er
Ġg ive
Ġbus iness
Ġ3 0
u g
Ġan other
Ġre st
Ġag ree
Ġch ar
re d
p h
Ġh and
Ġrecommend ations
m s
Ġex am
Ġhapp en
Ġdid n
Ġw ond
e ver
u c
Ġpub lic
Ġfo llow
am p
ur n
Ġcurrent ly
re ct
Ġbe ach
Ġex t
am a
Ġpriv ate
Ġc le
Ġdis c
Ġb ad
Ġfore ign
u ing
ar ch
Ġp ur
it ed
Ġc ome
ip s
Ġh o
Ġcon f
Ġim p
Ġsinh ala
Ġ1 5
Ġd one
Ġad d
Ġsri lank
w ays
Ġf ound
Ġne ver
Ġpres ident
Ġpol ice
si ble
Ġwor king
ist s
Ġop en
Ġlk r
Ġt al
Ġsh ow
ol og
l and
Ġb oth
Ġinf orm
Ġw ar
Ġcons id
Ġm ain
Ġb it
Ġc ult
Ġsu re
Ġpr ot
se lf
Ġf ree
Ġas s
it al
Ġle g
Ġp ower
Ġ1 2
o c
at ive
Ġp arent
h ic
Ġus ing
Ġor d
Ġc or
Ġpri ce
k now
Ġto day
is ter
Ġmar ket
in king
ri es
Ġn um
Ġoff ic
t y
Ġs ol
Ġg ir
Ġche ck
Ġcommun ities
y s
Ġm ight
Ġcl ass
Ġcomp le
at a
Ġmonth s
Ġke ep
Ġsit u
Ġg alle
Ġm ent
Ġa p
Ġs al
Ġre ason
Ġpl ay
ou se
rou p
ri c
Ġexp l
ci ally
Ġc e
Ġc ard
Ġne ar
Ġact ually
Ġexperi en
Ġdiffere nt
Ġf l
Ġpro ble
vel op
Ġg roup
Ġqu al
l ud
Ġserv ice
et s
Ġn ational
Ġa ff
Ġc ou
read y
Ġhe ll
Ġto ld
Ġal ready
ic es
Ġc ri
Ġcomp any
Ġhot el
Ġm at
Ġed uc
Ġac know
Ġg i
al th
Ġparent s
ap t
Ġare a
Ġind ia
h ow
es e
Ġwant ed
Ġo pp
Ġde velop
Ġra j
an a
u k
Ġb o
Ġ20 1
Ġre qu
Ġre t
a h
Ġst ate
Ġsou th
Ġst u
Ġsuggest ions
ul ar
ut h
Ġ x
Ġi d
Ġc ent
Ġacknow ledge
Ġve hic
st em
ro ad
t s
Ġs k
Ġappreci ate
Ġcontin uing
Ġf ar
Ġel se
Ġh ard
h e
ag es
Ġhe ar
ce pt
s a
Ġw ent
Ġd et
Ġpo int
Ġsm all
v es
il ity
Ġdoes n
Ġhow ever
Ġst o
ing s
Ġe as
Ġal ways
Ġsy stem
f orm
Ġte ch
Ġh our
Ġha ving
Ġli ve
Ġseem s
Ġm or
Ġb ig
Ġp ack
i x
Ġw om
i ri
Ġsitu ation
Ġinc lud
Ġh ouse
m in
ic t
Ġth inking
Ġpro duct
Ġstud ents
Ġr s
Ġs w
Ġlank ans
Ġto p
Ġst re
we en
Ġl aw
Ġbet ween
Ġquest ion
Ġl and
ut e
as h
Ġr u
Ġagain st
Ġd ue
Ġwor th
Ġs ci
ant s
m o
Ġw atch
Ġpos sible
Ġb i
ill ion
Ġnew s
Ġloo k
Ġeng lish
Ġc ert
i ya
ab ly
l ing
Ġv i
Ġide a
Ġlear n
Ġwe bs
Ġse en
Ġc ust
Ġc u
Ġch ild
r al
ion al
Ġph one
i ed
Ġhe ard
Ġm us
Ġas ked
ort un
am b
ak es
Ġmo d
Ġh on
b t
Ġ z
Ġle ad
Ġgir l
Ġintern ational
Ġwond ering
Ġs et
Ġtr y
Ġr un
Ġne g
it s
il ar
n er
Ġd ata
Ġv al
Ġ1 1
Ġtri ed
en se
Ġfor m
Ġc ame
ar i
Ġinform ation
et her
Ġf ac
Ġhell o
ot e
Ġmay be
Ġab le
Ġbu ild
Ġcust om
ap ak
Ġd ist
Ġthought s
is ed
Ġle vel
Ġsim ilar
Ġav ail
Ġvis a
Ġiss ue
Ġst r
li ght
w are
Ġso cial
Ġstart ed
Ġpro f
Ġsrilank a
em ber
Ġhe ad
Ġengine ering
Ġso ft
c om
Ġsh ort
Ġfu ll
Ġraj apak
Ġhop e
Ġnum ber
Ġm ir
Ġopt ions
Ġf ace
Ġme an
Ġpri ces
Ġdi rect
ate ly
m b
Ġas k
Ġv ide
Ġt y
ut ion
gr am
Ġ2 5
at t
Ġcall ed
it ing
Ġcount ries
uw a
Ġsa w
Ġsp end
Ġbud get
Ġro ad
ith er
Ġpro cess
Ġs ays
Ġen ough
Ġm et
Ġres p
m an
on s
Ġappreci ated
u res
Ġhe alth
itt le
Ġes pe
Ġre port
Ġcon c
Ġespe cially
m ber
Ġte ll
l im
Ġsh op
Ġp ut
Ġp ort
Ġstud ent
are d
a z
Ġt est
Ġre ce
Ġapp ro
d o
Ġf ut
Ġk id
Ġwh ether
Ġeduc ation
Ġpro ject
m ed
Ġab road
li e
Ġiss ues
Ġl ittle
Ġm om
ter s
Ġsci ence
Ġs ing
Ġop in
ur a
ck et
Ġsay ing
Ġr out
Ġre f
am ent
Ġag o
iv es
iss a
Ġt em
os ed
Ġp ast
ro ss
Ġs ign
apt op
Ġex pect
us ed
Ġg am
Ġl ist
ur al
n g
d h
Ġres ult
l ess
Ġc a
v iew
Ġm ind
Ġstu ff
Ġavail able
Ġall ow
Ġbas ed
Ġl ess
Ġmin ister
iz ed
id ed
w or
Ġde f
Ġar ri
Ġis land
Ġwee ks
Ġl aptop
Ġw a
Ġfut ure
Ġma j
Ġquest ions
t en
Ġn ame
Ġe ither
Ġli ving
Ġw on
Ġm id
Ġpro gram
Ġair port
Ġqual ity
et y
Ġtim es
Ġt ick
Ġre se
Ġte a
Ġ1 00
ct or
Ġo th
Ġreg ard
Ġgener al
Ġs ig
Ġch ange
Ġde m
in es
Ġcle ar
Ġpre t
Ġe ff
e e
Ġoth ers
Ġch in
o ve
Ġ1 8
h ip
pp ed
Ġbe h
Ġwe l
Ġproble m
Ġsec ond
s ri
Ġpart y
Ġmaj or
Ġperson al
ad u
Ġbe lie
Ġaw ay
ru ct
Ġsoft ware
at s
ter n
Ġr an
Ġmed ia
ie ld
Ġwebs ite
en e
Ġ est
Ġb re
Ġma king
Ġrese arch
Ġp ick
Ġh ist
Ġstud y
Ġspe ci
v ious
Ġst op
c ri
w ay
Ġpr om
Ġevery thing
Ġspeci f
Ġf re
oo k
Ġcult ure
Ġt ips
Ġw ater
Ġf act
ire d
Ġme et
Ġexperien ces
Ġhon est
Ġ 00
pp ing
g an
Ġmir issa
Ġ q
Ġle ast
Ġle ft
Ġn uw
iri ya
Ġhour s
i k
Ġbud dh
os p
iz e
Ġeconom ic
Ġu nt
Ġst and
Ġm en
Ġ1 4
Ġmo ve
Ġment ion
Ġam ount
Ġph ys
Ġwith in
Ġ202 5
i b
Ġjo in
Ġbr and
Ġy et
us s
Ġt uk
Ġis n
c u
p s
Ġn orm
olog y
Ġwom en
r ow
Ġm ess
ri ct
Ġe li
Ġ2 00
Ġpre fer
d y
ot s
Ġ1 6
Ġapp ly
Ġprot est
n ess
Ġm ust
Ġpolit ical
Ġ5 0
Ġv iew
mo st
Ġcom ing
Ġwho le
Ġsa fe
Ġbr ing
Ġm il
ail s
Ġpret ty
Ġh osp
Ġcomple te
ri ed
e ad
r ation
Ġa uth
Ġs ide
Ġtoo k
Ġm illion
Ġthou gh
Ġe ach
Ġinterest ed
u ly
Ġman age
a id
Ġgi ven
Ġopp ortun
Ġas king
Ġcou ple
Ġvehic le
Ġnuw ara
ot t
a ut
Ġnot hing
Ġre nt
Ġtour ist
Ġcri cket
Ġsc am
Ġde al
a im
Ġp op
un ch
Ġexp ens
Ġ1 3
s w
Ġord er
Ġon ce
Ġse ll
Ġvisit ing
Ġc ity
Ġc ut
ay a
Ġeli ya
Ġboo k
Ġh u
Ġcomp an
g le
n ce
Ġinc re
pl oy
a ur
aff na
Ġunt il
en g
Ġwr ong
Ġind ust
Ġcommun ity
Ġcour se
Ġc ase
Ġp s
Ġh um
Ġopt ion
c c
c ing
Ġf ield
Ġmo b
Ġtech n
Ġsig iriya
Ġh ar
ward s
Ġn or
as ed
Ġcu ri
ic i
s c
Ġs er
Ġl ow
Ġt re
Ġrel ated
Ġf un
Ġpro p
Ġm al
Ġact iv
Ġcompan ies
Ġintern et
Ġth ree
Ġg oo
Ġsa f
Ġpur ch
Ġte ach
Ġinst ead
Ġinclud ing
Ġal most
Ġte am
Ġqu ite
Ġcont act
Ġe ver
Ġc amp
Ġm iss
ur ity
Ġrest aur
Ġpro per
t ed
ar s
Ġdri ver
ot a
Ġj affna
li ament
Ġfin an
Ġcon st
Ġsal ary
Ġl ink
Ġc ap
en cy
Ġu k
Ġmor ning
y l
Ġed it
un e
eri ous
Ġar t
Ġo b
th e
Ġs end
Ġan sw
Ġsh o
Ġvide o
Ġmy self
Ġbe aut
Ġcl ose
Ġac ross
re n
Ġchar g
Ġo k
Ġyou ng
Ġd ro
Ġl u
Ġtrans port
Ġbe l
Ġta king
in er
Ġear ly
Ġ2 4
Ġpar liament
Ġhappen ed
Ġpr act
Ġw est
Ġind ian
Ġha ven
b r
d en
ill s
g in
Ġa ust
ou ght
Ġl ater
Ġsu per
Ġche ap
s ide
Ġle ave
Ġs erious
it er
Ġdon t
Ġdi al
Ġfollow ing
oo king
Ġinst it
or ies
Ġan n
ak en
n ed
Ġpol ic
Ġcuri ous
ic ed
el s
Ġw if
Ġde li
Ġrajapak sa
Ġt urn
Ġrel ig
Ġph ot
Ġconsid ering
Ġso on
sh ip
Ġn at
Ġj an
Ġb ro
le g
Ġserv ices
n ot
Ġt it
Ġn et
ir d
c o
Ġup d
o id
ru pt
Ġfu nd
on es
on t
Ġdep art
Ġre ach
bo dy
Ġcl aim
an na
it ch
ain s
wh y
Ġsl t
Ġneg ombo
Ġor gan
Ġ2 2
Ġch ang
Ġspe ed
Ġn on
Ġpro b
re st
Ġg re
is ion
Ġem ploy
Ġconc ern
Ġgoo gle
Ġp m
Ġ1 7
Ġcare er
u lla
Ġma h
Ġs our
Ġeconom y
Ġtal k
Ġoff er
g o
Ġret urn
Ġon es
ord ing
iner ary
Ġresp on
Ġspe ak
Ġbelie ve
Ġaust ral
Ġsinh al
Ġrem ember
Ġm other
Ġgr ow
Ġw al
Ġm as
Ġtrave lling
Ġho ld
er g
Ġm ath
Ġp ath
Ġspe cial
Ġkid s
Ġnorm al
Ġf ail
Ġch oo
Ġoff ice
Ġhigh er
Ġev ent
Ġru pe
Ġdri ve
m y
Ġc it
Ġmed ical
Ġdial og
Ġl ang
ar ing
Ġcr is
Ġproduct s
Ġbec ome
Ġhosp ital
o int
v al
Ġman ag
Ġare as
lo ad
Ġn ice
Ġleg al
Ġac cept
Ġlang u
Ġto t
Ġli m
Ġsinhal ese
Ġit inerary
Ġsec urity
d ing
i or
Ġ2 1
Ġf il
Ġ202 4
Ġaff ord
Ġdet ails
Ġhist ory
a king
Ġv ot
as ing
Ġre li
em s
r or
us h
un a
Ġdisc uss
Ġtr ust
Ġd ig
Ġse x
Ġse lect
Ġprof ess
Ġl ar
im e
Ġresult s
Ġcont ro
r s
Ġst ru
d s
i er
Ġpack age
Ġcert ific
Ġp aid
Ġd a
ab ility
Ġm ot
Ġab s
Ġro om
if ul
re t
Ġst ory
Ġj our
Ġcit iz
se l
Ġlo st
Ġa ug
Ġran il
Ġn s
Ġn am
is ing
Ġstre am
Ġnot iced
ain ed
Ġco ast
Ġcom es
Ġfo c
b est
ut es
Ġknow s
Ġpass port
Ġregard ing
Ġtit le
Ġpart ic
Ġbuy ing
Ġinf l
g er
Ġprov ide
Ġindust ry
Ġcould n
Ġinc ome
Ġl ic
b y
Ġt aken
er a
Ġcris is
Ġbeaut iful
Ġsto ck
Ġf light
Ġe le
Ġsub ject
Ġb oy
Ġl s
il i
iv ed
Ġprob ably
Ġal ong
ne w
Ġav oid
i ble
Ġm akes
Ġe at
Ġun f
Ġstart ing
Ġt reat
Ġb ri
Ġacc ording
Ġmo v
ist ry
Ġelect ion
Ġf ur
Ġtr ad
ain ing
Ġus ually
Ġbre ak
Ġstru gg
Ġh al
Ġsu c
p r
Ġfor ward
m or
Ġtr ue
Ġex ch
Ġatt ack
Ġauth or
Ġof ten
Ġse ver
Ġcomp ut
Ġins ight
Ġchin a
Ġdo cu
Ġunivers ities
Ġelect ric
o k
Ġc iv
Ġpl at
Ġchild ren
Ġab ove
Ġcomp l
Ġbas ically
Ġdevelop ment
Ġjo bs
r act
Ġw anna
dit ion
Ġc y
Ġl iter
Ġex c
Ġus d
m ing
u ine
Ġneed s
Ġopin ion
yl on
Ġp et
Ġse lf
Ġen j
ful ly
Ġfur ther
Ġsever al
Ġmed ic
Ġf ix
Ġdec ent
Ġ2 3
Ġtour ists
Ġmus lim
Ġhonest ly
s es
Ġaw are
a i
a pp
Ġm atch
Ġcour t
h i
an n
Ġcan not
Ġc ause
Ġexpens ive
id es
ne y
b ook
o ice
p or
Ġcomm on
Ġrel ations
Ġhum an
Ġse arch
Ġneed ed
r ap
Ġe qu
ver age
Ġgen uine
n o
Ġdes ign
Ġu r
Ġde v
Ġcre dit
Ġtour ism
Ġf ine
Ġl ate
Ġr ate
Ġcom ments
ig in
Ġdec ided
Ġmat ter
Ġb ought
ill ed
Ġp eri
Ġg lo
Ġm ult
Ġide as
Ġhop ing
b al
Ġpar k
Ġchar ge
Ġreli able
Ġre pl
Ġ4 0
Ġimp ro
Ġout side
Ġsing le
Ġp ot
Ġv ia
ow s
Ġsu s
si b
Ġar rest
Ġop er
Ġs ent
Ġd ate
Ġperi od
Ġn pp
Ġor igin
Ġpost s
Ġtrans fer
Ġb al
ac y
ad a
Ġacc ess
Ġgr adu
iss ion
Ġdri ving
Ġsur f
m a
Ġc as
Ġstud ying
Ġmost ly
Ġw ed
or n
Ġst ation
iv id
Ġsee ing
Ġspecif ic
Ġto wards
ent ial
Ġknow ledge
Ġaustral ia
Ġplat form
l ooking
Ġp at
Ġd am
Ġv ac
Ġgirl s
an ces
Ġde l
un g
re am
Ġcom ment
Ġter m
Ġce ylon
Ġa ge
Ġin it
Ġent ire
Ġn p
est er
im es
Ġimport ant
Ġd est
f ort
Ġs en
Ġl a
Ġsh it
Ġtick ets
cri pt
c le
ll ed
Ġlangu age
Ġda ily
c an
Ġe u
Ġind ivid
Ġc al
Ġto get
if y
Ġty pe
Ġexch ange
Ġm ass
Ġu ber
Ġtoget her
i ally
ne ed
Ġn a
Ġpay ing
Ġbe gin
Ġde ce
Ġschool s
Ġs at
Ġs li
Ġstud ies
Ġdes p
m es
Ġp ap
i um
Ġdo ctor
Ġj uly
ud e
Ġtax es
Ġfu el
Ġtravel ing
d le
h ap
wor k
Ġfinan cial
Ġenj oy
Ġg ame
Ġpay ment
Ġoffic ial
r on
Ġs ite
Ġhu ge
h o
Ġopportun ities
ad es
5 0
Ġw ick
an e
it ive
Ġinv ol
ri l
Ġsomet imes
Ġwif e
c ome
re me
Ġb ay
Ġy es
Ġid ent
n am
Ġfor t
Ġcle an
Ġsuc cess
Ġf all
Ġf air
Ġtal king
Ġexpl ore
Ġaug ust
a x
in ation
Ġf ig
Ġvehic les
Ġrece ived
Ġa i
ent ion
Ġapp lic
Ġb ill
Ġinf o
2 00
v id
Ġlear ning
Ġso ci
Ġtr in
qu e
Ġres pect
Ġpre vious
Ġmob ile
ic ult
if ied
Ġcor rupt
Ġcert ain
Ġl t
Ġr ather
Ġ2 6
u ed
Ġi g
Ġst at
Ġvi ol
Ġs n
Ġdesp ite
Ġs ound
ct ors
it es
ri b
Ġcomp et
ure d
Ġshop s
Ġme mb
ut ions
Ġconsid er
m ar
v ir
Ġc ash
Ġap ril
b ack
g b
Ġw in
Ġn t
Ġo ct
Ġme ans
Ġam az
Ġloo ks
Ġbo ard
Ġeff ect
Ġmemb ers
Ġh it
Ġwe ather
Ġknow n
el t
Ġdiff icult
Ġbeh ind
Ġdece mber
e ll
Ġri ce
Ġexam ple
Ġmanage ment
Ġs ort
Ġsu n
Ġstr ong
Ġtem ple
r ist
Ġmid dle
Ġcol le
Ġhapp y
s ing
Ġg one
Ġare n
Ġcl ub
Ġmention ed
Ġcomput er
Ġprot ect
Ġan t
Ġfeel s
Ġright s
Ġhal f
Ġst ep
Ġty p
Ġd ad
ig ama
Ġloc als
Ġtot al
p ar
ow d
Ġj une
Ġmus ic
Ġmom ent
Ġrout e
Ġr ange
Ġhelp ful
Ġproble ms
Ġdem and
g s
Ġr is
2 0
Ġcol lect
Ġcontin ue
Ġciv il
Ġc op
Ġadd ress
y ch
Ġre le
ce l
Ġfe ed
Ġim m
ug am
h a
Ġf ather
sel ves
Ġele ph
or ing
Ġg ave
Ġex act
ck ed
Ġpre m
any one
Ġext ra
Ġre view
Ġy ala
Ġli ght
Ġap art
Ġse pt
end ing
em pt
Ġconnect ion
Ġear n
Ġstay ing
Ġcheck ed
Ġcomplete ly
Ġe y
Ġe th
ur y
Ġ5 00
Ġwork s
Ġf av
Ġf elt
ver t
Ġcult ural
Ġmajor ity
Ġbuddh ist
Ġb ene
at ic
ct ion
Ġok ay
y m
Ġde ep
Ġsu ff
Ġbuild ing
Ġb od
Ġn ation
Ġg on
Ġtamil s
Ġrequ est
Ġchoo se
Ġto wn
Ġg l
ig r
Ġle a
Ġam ong
Ġfriend ly
Ġm is
Ġb at
Ġb ar
Ġcomm er
og n
Ġdepart ment
Ġcertific ate
Ġfoc us
Ġd ou
Ġbeach es
Ġval ue
e x
g ress
Ġev ents
Ġho st
ent ly
Ġgroup s
Ġwa it
Ġs am
Ġwh ite
Ġcost s
Ġbel ow
Ġbene f
c s
Ġf ly
id ence
Ġfin al
Ġins ur
Ġhappen ing
Ġo cc
Ġrupe es
Ġlar ge
Ġf em
Ġst ore
Ġgo es
Ġopin ions
Ġphys ical
Ġfin ally
Ġhotel s
Ġs il
Ġp ain
Ġrec ogn
Ġsw itch
Ġactiv ities
Ġwest ern
u ary
Ġl ine
Ġit ems
Ġrequ ire
Ġdro p
Ġeu ro
Ġf ast
Ġd amb
ol ute
Ġri de
itt ed
Ġl ack
Ġ2 7
um p
Ġri d
Ġaff ect
k a
at ives
Ġsome where
Ġnight s
Ġlic ense
i gh
Ġwas n
Ġpl ans
Ġabs olute
Ġcitiz ens
mor row
b it
Ġdo ll
Ġgo v
Ġps ych
Ġs port
Ġb ir
Ġinter view
Ġbus es
Ġpe ak
Ġqu ick
Ġpurch ase
Ġto morrow
Ġgam es
Ġen vir
Ġdig ital
r d
Ġr ain
Ġch em
aw at
Ġinvest ig
ep end
Ġinvest ment
Ġconf ir
Ġc ab
Ġnot e
Ġco vid
Ġmin utes
Ġboo ks
Ġallow ed
Ġenvir on
Ġ2 8
Ġsp ots
Ġdec ision
Ġcar s
Ġcent ral
e xt
er y
end ed
Ġdeli very
Ġcompl ain
Ġt ia
Ġj ap
Ġar ugam
ish ed
i o
m ore
Ġ er
Ġfr ont
Ġcom fort
Ġco ver
Ġcor rect
do es
Ġgon na
t r
Ġv ill
Ġal one
Ġpri or
Ġbl o
Ġsept ember
r am
ard s
k es
Ġh y
p m
Ġc ra
Ġdown load
Ġter ms
o ver
Ġst aff
Ġ6 0
Ġexperien ced
Ġtick et
Ġrestaur ants
p ut
Ġd in
Ġpl ant
Ġcomp ared
Ġclass es
Ġwel igama
Ġnor th
Ġglo bal
i y
Ġal tern
Ġind epend
Ġpart ies
Ġreg ist
Ġbas ic
Ġdamb ulla
Ġst e
Ġgu ess
med i
g ing
Ġf ul
Ġpop ular
Ġr ul
Ġfe b
Ġgi ving
Ġbir th
Ġs or
Ġp an
Ġse ctor
il t
Ġapp oint
Ġpur s
Ġansw er
in ed
ur d
Ġmar ch
Ġeas y
Ġtechn ology
Ġimpro ve
ester day
Ġe ast
Ġch ance
Ġpre p
Ġmult ip
ind a
Ġupd ate
n cy
Ġd ut
Ġro ck
Ġp ress
Ġdo ctors
ate g
Ġch all
Ġinsight s
Ġliter ally
Ġsli it
p ly
Ġa ch
Ġl ab
Ġsec ret
Ġform er
Ġo d
Ġex ist
em ic
Ġun p
Ġsl ow
Ġcr it
ale e
Ġob vious
Ġ ver
Ġy esterday
Ġde ath
Ġwor se
Ġexp ort
Ġprov in
Ġs ad
Ġact ion
pl es
Ġwom an
in s
Ġyou t
e c
Ġc in
Ġh ol
Ġn d
ul ation
Ġdi pl
Ġpartic ular
ri end
Ġv ict
li ed
Ġfo ot
Ġgreat ly
Ġdist rict
Ġsour ce
Ġsoci ety
i ent
Ġe e
Ġad m
aw e
Ġmath s
Ġdipl om
Ġf i
Ġpe ace
Ġread ing
com alee
Ġpolic y
Ġjan uary
a ult
Ġw ish
Ġse ason
Ġcont ext
ub e
Ġmedic ine
Ġt v
lim ited
c king
Ġha ir
if t
Ġenviron ment
b and
Ġb ur
Ġd ream
Ġdi v
ar k
Ġco ol
Ġmonth ly
Ġcustom s
f or
Ġl ol
ar ies
ay ake
Ġst ories
Ġli ves
Ġres our
Ġsk ills
Ġmil it
b ers
Ġa verage
Ġwant s
Ġfeel ing
Ġsit es
Ġdirect ly
c ent
Ġb and
Ġwill ing
Ġar my
Ġbr other
Ġm ount
Ġf it
Ġment al
Ġtrin comalee
z y
Ġj ay
Ġ202 2
Ġext reme
Ġcontro l
Ġy e
il ities
Ġv s
Ġloc ation
Ġ8 0
Ġwond er
Ġsign ific
Ġprop ert
Ġface book
i pping
t o
Ġi l
an th
im ate
Ġne cess
Ġfe es
av y
Ġbi ke
Ġeuro pe
Ġget s
Ġun limited
Ġmain ly
ici ans
Ġcolle ge
Ġjap an
ther n
Ġinsur ance
Ġm b
Ġm ist
Ġan im
Ġch oice
Ġpo or
Ġkind a
Ġmultip le
Ġan ur
Ġg e
Ġlo an
Ġfe llow
Ġrec ord
Ġsa ve
ag ed
Ġem ail
Ġ201 9
Ġsor ry
ig ration
Ġfe e
Ġf ol
Ġpri me
Ġact ual
Ġpres ent
Ġins ide
Ġopp os
v ent
Ġsp ot
Ġbl ack
Ġcent er
Ġrun ning
Ġwel come
Ġmot or
Ġyout ube
Ġth reat
Ġh ate
Ġu d
Ġexp ress
Ġper form
Ġrep air
Ġcomm it
Ġboo king
Ġsaf ari
ph one
b ed
Ġc ir
Ġtr aff
Ġch rist
Ġpl us
Ġri ch
Ġnat ure
Ġris k
Ġs le
re ddit
Ġst ri
Ġv ote
j ith
Ġn c
ant ly
Ġmess age
l t
n ight
s et
Ġa k
ce ed
Ġr ates
au ght
Ġpart ner
od a
Ġatt empt
Ġrestaur ant
Ġach ie
Ġm r
Ġf an
Ġ2 9
Ġcustom er
Ġgam ing
Ġpap er
v p
Ġw ays
Ġr ac
i als
Ġg round
Ġst ress
Ġsim ply
Ġanur ad
g round
er ic
Ġb an
Ġd om
Ġwork ed
Ġdri vers
Ġengine er
Ġb att
is es
Ġpolit ics
Ġre du
Ġch ann
Ġac ad
Ġint ro
Ġar ch
Ġperson ally
Ġshow s
Ġwatch ing
Ġlea ving
Ġc and
Ġex cept
Ġvisit ed
Ġke y
ific ation
Ġsol ution
Ġunf ortun
Ġsu nd
Ġim medi
Ġmet h
Ġjour ney
Ġpot ential
u se
Ġt ill
Ġbank s
Ġtraff ic
Ġl ak
Ġapp arent
Ġloo ked
Ġmin istry
Ġart ic
Ġrelig ious
d ge
u als
Ġmo ving
Ġgr and
ite ly
Ġpart s
Ġdr ink
Ġdef in
Ġ3 00
Ġpos ition
Ġsp ace
Ġcurre ncy
awat una
Ġmilit ary
Ġany body
au gh
Ġcharg es
Ġarrest ed
Ġfem ale
Ġt ur
Ġm igr
en ing
um b
Ġcont ent
Ġtax i
Ġgu ide
Ġleg it
Ġcou n
Ġprefer ably
hap ura
Ġh id
Ġle ct
Ġoff ers
Ġsupp osed
Ġsur pr
n ar
Ġs ense
Ġb illion
Ġp ict
Ġcom b
res h
Ġwork ers
Ġfind ing
Ġwa iting
Ġorigin al
b all
Ġp u
Ġd h
Ġas ia
Ġrel ax
Ġcar ry
Ġsub reddit
Ġwick re
c ies
aw al
Ġincre ase
Ġwed ding
k k
v a
ing he
Ġr and
im um
Ġso ld
Ġwor st
Ġfeed back
l ines
Ġb ag
Ġf ight
Ġhe ld
ist ic
el an
ore d
Ġsport s
o ber
Ġst ar
um e
Ġpur p
Ġce le
Ġsaf ety
Ġprofess ional
at or
av es
Ġsrilank an
Ġbro k
g est
Ġ3 1
Ġsc en
Ġchin ese
Ġamaz ing
Ġcand id
m as
u nt
at uwa
Ġre d
Ġj e
ab lish
og rap
Ġprov id
Ġconsid ered
Ġlevel s
Ġoct ober
Ġwe b
Ġj ud
Ġbec om
Ġbr it
o ke
u nd
Ġa h
Ġw ild
Ġany where
Ġj vp
Ġun awatuna
y le
re es
Ġst ra
Ġnot ice
Ġ202 3
Ġexpl ain
Ġhol id
Ġmeth od
ad uwa
Ġcon vers
Ġal s
Ġam eric
ive ly
Ġpolit icians
Ġt u
Ġm ine
Ġse a
end er
Ġpay ments
Ġest ablish
Ġmov ie
Ġr ail
Ġter ror
Ġrequ ired
Ġtrad ition
Ġanurad hapura
Ġ ess
Ġc s
Ġf ake
ac king
Ġr am
Ġrem ote
Ġexact ly
Ġb ott
al y
Ġtr ade
Ġlike ly
Ġad ult
Ġapp s
Ġintern ship
Ġafford able
Ġapparent ly
Ġa ut
Ġc am
Ġd ress
ro om
Ġthem selves
Ġper f
Ġent er
Ġproject s
Ġant i
h el
p ri
Ġcon duct
ck s
Ġsc re
Ġper m
Ġpick me
Ġlu ck
Ġselect ed
Ġcorrupt ion
Ġresour ces
Ġsund ay
Ġt ast
Ġno ve
iz ation
g ed
Ġ vers
Ġm ix
ou n
Ġch ill
Ġback ground
Ġsk in
Ġnove mber
Ġd ru
Ġde ad
Ġcan ada
Ġexam s
Ġadd ed
Ġmor atuwa
Ġsw im
Ġvide os
Ġserious ly
Ġsen ior
Ġh or
Ġwor ried
Ġdis app
Ġpass ed
Ġbod y
6 0
s ure
Ġit self
Ġ3 5
Ġrece ive
a e
o f
Ġt akes
Ġa y
Ġw ind
Ġd ish
Ġhe art
Ġany more
Ġv ir
Ġen c
iv al
Ġgu id
Ġstu ck
Ġser ies
Ġcamp us
Ġinfl u
Ġrelations hip
Ġig n
Ġde bt
Ġwor d
us ing
Ġad min
so ci
Ġma x
Ġcr owd
Ġreason s
com ing
Ġmah inda
Ġh om
Ġfor ce
Ġv ar
Ġsa ving
Ġmar ried
Ġboo ked
oc r
Ġgre en
Ġelectric ity
r ant
ol ar
Ġdeg rees
Ġrout er
Ġchang ed
Ġf our
at ors
Ġk ing
con ut
Ġpos sib
Ġhand le
ruct ure
Ġlt te
Ġful ly
Ġunfortun ately
Ġt ar
Ġth ird
Ġgenuine ly
Ġfol ks
Ġp c
Ġj av
Ġgo ld
Ġco conut
Ġeven ing
Ġsle ep
n ic
en a
Ġse lling
Ġsu d
all s
sh ips
Ġdiffere nce
Ġfail ed
e es
an i
en ces
Ġre v
Ġas soci
Ġover se
Ġconf used
Ġappro ach
igh b
Ġbrit ish
d r
Ġs ong
ou d
Ġcon dition
sa pp
Ġspend ing
Ġnet work
Ġhi kk
Ġinc ident
Ġsch ed
Ġord ered
Ġcomple ted
Ġdocu ments
Ġrand om
end s
Ġrep ly
Ġinvol ved
Ġapplic ation
Ġabsolute ly
is on
Ġcall s
Ġfin ance
Ġlaw s
Ġprom ot
Ġspecif ically
Ġopportun ity
Ġl g
Ġwe ar
ur s
Ġte le
Ġke pt
Ġinterest ing
Ġcard s
Ġl ed
Ġne ighb
ter y
ere nce
act ion
Ġfound ation
Ġreview s
Ġm ag
Ġm ale
Ġtr uly
Ġcont rib
Ġwebs ites
Ġval id
Ġl ad
se c
Ġk ill
Ġfr ust
Ġco ll
Ġrep res
Ġlead ers
Ġphys ics
Ġl ower
Ġwhat sapp
Ġ4 5
Ġres erv
Ġbr ows
Ġsc o
Ġ202 1
Ġsim ple
Ġla unch
Ġw i
Ġse par
Ġch at
Ġcomm ission
Ġsol o
Ġlim ited
Ġfig ure
p al
Ġi k
Ġn m
Ġhigh ly
Ġrest rict
Ġreason able
Ġpack ages
Ġprotest s
Ġcap ital
Ġdocu ment
Ġhikk aduwa
it ions
Ġsu it
Ġ202 0
Ġmain t
Ġfac ed
Ġclear ly
Ġwal k
Ġchall eng
c a
Ġh ous
Ġl at
Ġmo ved
li er
Ġspe aking
Ġem b
Ġ9 0
Ġlong er
erg y
Ġpropert y
Ġa ud
Ġth read
Ġtr ack
Ġar r
aw a
Ġ0 1
Ġ0 7
Ġlu x
Ġsex ual
Ġil leg
Ġc li
Ġn f
Ġal leg
Ġcall ing
Ġbu ilt
Ġwr iting
Ġnear by
Ġlaw y
Ġdefin itely
Ġhid den
Ġstra ight
c er
Ġb t
Ġp age
Ġim ag
Ġar g
Ġsto pped
Ġmod el
Ġextreme ly
Ġoverse as
Ġi r
Ġf ish
Ġwould n
Ġrep ut
Ġvar ious
ag ama
Ġteach ers
Ġindivid uals
ri min
Ġany way
Ġnum bers
Ġarri ve
Ġbeh av
Ġstrugg ling
Ġb orn
Ġf resh
as es
id ents
Ġbec ame
dit ions
Ġper cent
Ġeff ort
Ġdin ner
Ġdiplom a
ou ch
Ġr ank
Ġsp ent
Ġoffic ers
Ġview s
Ġcommer cial
Ġh ang
Ġpro gress
Ġsch olar
Ġreg ular
Ġinstit ute
Ġprovin ce
Ġcele br
i ans
n ers
an ayake
Ġm ap
Ġapp lied
Ġoff ered
Ġsc ore
Ġ7 0
lf riend
Ġstre et
Ġrelig ion
Ġeth nic
h ood
Ġre ven
Ġv ol
Ġun ited
Ġmar ri
Ġtrain s
Ġend ed
Ġreport ed
Ġobvious ly
h s
Ġsh ipping
are ly
ap ore
Ġqu e
Ġsud den
8 0
Ġg un
ac ed
Ġcons um
Ġass ist
Ġgir lfriend
Ġrespon se
Ġsubject s
it iya
Ġcon ditions
Ġmod ern
Ġmov ies
mes inghe
hel p
Ġg ym
Ġwe ird
Ġk al
omm od
Ġatt ract
Ġsupport ed
Ġmiss ing
Ġnecess ary
n al
Ġt able
at ure
Ġfl ag
Ġsto res
b ing
y al
Ġh us
Ġgot ab
t ime
Ġb ed
Ġb ent
as a
Ġpr in
Ġlet ter
Ġwr ite
Ġexp ert
Ġacc ommod
Ġunder gr
Ġover all
Ġmin or
Ġeas ily
Ġexpect ed
Ġwickre mesinghe
Ġlg bt
Ġt ang
in i
Ġn b
Ġtr ou
Ġsu m
Ġco de
Ġcour ses
Ġsing apore
v ant
Ġcan t
Ġsus pect
Ġak d
Ġb ase
at ory
Ġo bs
Ġg er
Ġwh ate
Ġpro s
Ġlo ss
Ġ15 0
Ġcra zy
i ke
u ri
Ġn w
Ġch ick
Ġplan ned
Ġph ones
Ġhapp ens
he ad
nam on
Ġfeb ru
Ġtradition al
Ġa e
Ġs ister
Ġn u
Ġgo d
Ġdis s
Ġro le
Ġpost ed
Ġinvest ing
Ġwhate ver
ve re
Ġj un
Ġpro du
Ġtrans l
Ġimp act
Ġpresident ial
Ġmarket ing
Ġmas ter
Ġtar get
n s
Ġd m
Ġst up
Ġevery where
iz ing
Ġbusiness es
Ġdisc rimin
Ġtop ic
Ġarri val
Ġpolic ies
Ġvac c
Ġcir c
Ġfebru ary
t a
Ġn y
rou ght
Ġem erg
Ġfam il
Ġear lier
Ġoffic er
Ġhist or
Ġpract ice
Ġplatform s
Ġc ry
Ġwas te
Ġcl os
ach el
Ġwar rant
Ġproper ly
Ġeleph ant
Ġhus band
Ġs an
Ġn g
Ġo l
Ġk um
Ġcommun ic
Ġair lines
Ġprov ided
Ġid k
Ġarri ved
Ġvot es
Ġc apt
Ġf est
Ġd ed
Ġbe y
pp er
dit ional
Ġcur ry
Ġmas ters
Ġrul es
Ġperf ect
m on
Ġi it
Ġsh aring
Ġsu p
Ġjust ice
Ġrecommend ed
Ġread y
Ġcomfort able
p ic
Ġn ic
Ġr at
Ġr ough
Ġcor por
Ġstate ment
Ġlead er
Ġfac ing
Ġstand ard
Ġauthor ities
t le
Ġb rought
Ġforeign ers
Ġmeet ing
Ġcin namon
Ġfamil ies
Ġm er
Ġd en
is ions
Ġg ar
Ġad dition
Ġim age
Ġstr ateg
Ġrepl ace
h y
Ġb achel
Ġo bt
Ġst ates
Ġsub m
Ġhand s
ruct ion
an ch
Ġapp le
Ġbl ood
itt en
Ġdep ress
Ġmil k
Ġpop ulation
Ġbal ance
Ġaltern ative
Ġbent ota
e f
l us
us es
Ġgr ade
Ġdec l
Ġdec ide
Ġunderstand ing
Ġtre nd
Ġansw ers
Ġphot o
Ġnam es
Ġbey ond
er ve
Ġm urd
Ġn ar
Ġinst all
Ġresp ond
Ġsour ces
ho ld
Ġvict im
e al
Ġb ang
ol s
Ġsh ip
Ġad am
Ġlo g
Ġuni que
pl ace
Ġexpens es
Ġfrust r
Ġchick en
r ast
u ck
Ġi phone
ve y
Ġk o
Ġk ott
Ġwor ds
Ġapp ear
Ġ19 9
Ġplay ing
Ġimm igration
Ġrepres ent
d a
w ala
er o
Ġf ire
Ġad vert
Ġus ual
Ġte xt
Ġpr int
Ġear ning
Ġmat ara
Ġse at
li fe
Ġpoint s
Ġemploy ees
Ġo il
Ġg ives
Ġre pe
ac her
th ough
Ġsu bs
Ġtrain ing
Ġgener ation
Ġmanag er
Ġtreat ment
Ġfix ed
Ġb om
Ġh ur
Ġ1 000
Ġde hi
Ġme mber
Ġal though
Ġim f
Ġsp read
Ġ0 8
Ġrem o
Ġcheap er
Ġcas es
Ġdoll ars
Ġintro du
Ġguid ance
Ġwarrant y
Ġm ad
Ġf le
Ġk new
Ġk illed
Ġdo g
Ġli f
Ġent ry
c are
Ġs we
Ġsa jith
Ġstart up
Ġcu z
Ġsignific ant
Ġilleg al
Ġstup id
Ġc atch
Ġc up
Ġm ach
Ġb road
Ġo m
le t
Ġad ditional
Ġup on
Ġhead ing
Ġca f
Ġphot os
Ġconcern s
Ġindivid ual
c l
Ġh ind
Ġbrand s
Ġgrow th
Ġimmedi ately
Ġi ll
Ġs on
Ġc se
Ġf ive
Ġp ie
Ġaccount s
Ġcustom ers
f s
Ġ3 6
Ġim ple
Ġreg ul
Ġru le
Ġfac ult
Ġcut s
Ġlim it
Ġjour nal
Ġey e
Ġfav or
Ġbt w
Ġtang alle
f act
Ġl unch
Ġy all
Ġpl s
Ġhi ri
Ġcy ber
Ġcl oth
Ġcons ult
Ġsm art
Ġbank ing
Ġown er
Ġold er
Ġappro ved
Ġbat tery
Ġlux ury
Ġgotab aya
Ġs s
Ġconf lic
a ign
Ġt ree
ri f
Ġex ec
Ġen ergy
Ġte acher
Ġide ally
Ġ201 5
Ġdem ocr
go ing
Ġt en
Ġb sc
as ter
as cript
Ġhe avy
Ġsh ir
Ġcon v
Ġte lling
Ġatt end
Ġmat eri
Ġoppos ition
Ġud awal
Ġachie ve
re c
Ġp en
Ġp ush
Ġn one
Ġ0 3
Ġshow ing
Ġest ate
Ġviol ence
Ġconfir m
Ġchrist mas
Ġjav ascript
h ips
i et
p ress
Ġd ark
Ġfe ar
Ġ3 2
ag ing
Ġturn ed
Ġboy s
Ġstat us
Ġchem istry
Ġartic le
n y
Ġtr uth
Ġsystem s
Ġfund s
Ġmuslim s
Ġw ide
ri ble
Ġk ur
Ġpers pect
Ġatt ention
Ġown ers
air s
Ġimport s
Ġinform ed
Ġapply ing
Ġconst it
Ġinfl ation
Ġimple ment
c il
Ġt ouch
Ġw ise
it el
se e
Ġas ian
Ġme ch
Ġlo ans
Ġacc ident
Ġcri min
Ġrespon sib
Ġmarri age
in ary
Ġp al
Ġr ap
Ġse ction
Ġsl pp
Ġra ised
Ġimport ed
Ġinclud e
Ġdeli ver
Ġholid ay
Ġn an
ag ging
Ġshould n
olog ical
Ġcamp aign
Ġh ut
Ġe ating
and o
Ġam b
Ġcl osed
Ġcount er
Ġres ort
Ġstud ied
Ġsou thern
Ġlead ing
Ġconcern ed
Ġrupe e
Ġmanag ed
Ġpartic ip
Ġbecom ing
Ġadmin ist
Ġs qu
Ġn i
Ġlo ved
ag ue
Ġfac ilities
Ġfre ed
Ġattack s
h as
l k
r ing
Ġh amb
ar ana
Ġli ber
and a
ous ly
Ġ19 8
Ġnear ly
Ġtuk t
Ġincre ased
Ġmob itel
Ġmass ive
en ed
Ġl ately
Ġn the
ent ic
Ġli ved
Ġ2 000
ant ota
ig ence
Ġman u
Ġover night
ang er
Ġbo x
ici ent
Ġmal ays
Ġchang es
Ġdiscuss ion
Ġdehi wala
Ġf lo
Ġd ating
Ġmon it
Ġoffic ials
Ġgrow ing
tr ave
Ġparticular ly
Ġlect ure
Ġreven ue
Ġc ross
Ġu t
ak a
Ġz ero
Ġrece i
Ġcab in
Ġmanu fact
Ġs ize
ar m
Ġre ve
Ġr ant
Ġint ell
Ġsee king
Ġfin ish
Ġev idence
Ġneg ative
Ġteach ing
Ġpress ure
7 0
ar ant
Ġg as
Ġyou th
Ġde b
Ġplay ers
Ġprogram s
Ġsat ur
Ġo e
Ġme as
Ġpos itive
Ġass ign
Ġhear ing
Ġroad s
Ġbro ke
anth a
j ust
x ic
Ġlo se
ast ic
Ġcl ar
Ġyoung er
Ġinit i
Ġrele ased
Ġinvestig ation
Ġpurs ue
Ġpurp ose
Ġhiri ket
Ġcloth es
g ot
Ġs ix
Ġf ern
ro l
ir ing
Ġgo al
Ġreg ion
Ġpass ion
Ġauth entic
i ents
Ġs j
on nar
Ġc ities
Ġf a
ur ch
Ġsh y
Ġyour self
Ġ3 3
Ġ4 2
ang ama
Ġmin imum
Ġelect ron
Ġevent ually
Ġrele vant
Ġt as
Ġc oo
Ġg ard
Ġfor ced
Ġst ick
im b
Ġun less
ag ram
Ġadv ise
Ġiss ued
Ġsol utions
Ġpract ical
Ġbenef its
it ter
Ġg ift
Ġst yle
Ġrel ative
Ġem ot
Ġlink ed
Ġeleph ants
Ġindepend ence
i ence
en iya
al i
Ġgood s
Ġhelp ed
Ġact ive
Ġshare d
Ġeas ier
Ġvi be
Ġrent al
h an
n b
Ġc at
Ġp and
Ġp un
ar ian
et h
Ġr av
Ġpro ced
Ġup coming
Ġdep os
Ġsurf ing
Ġacad emic
Ġvers ion
Ġlat est
1 0
d om
g ala
or ters
Ġn av
Ġtr a
and s
Ġsol id
Ġbi o
Ġreport s
Ġfly ing
Ġtu ition
Ġkott u
Ġfreed om
Ġhamb antota
l er
w ire
at ne
Ġan x
ack s
Ġsc ene
Ġloc ations
Ġreal ity
Ġfollow ed
Ġhar ass
Ġcharg ed
Ġinstit utions
Ġwif i
onnar uwa
u le
Ġi ce
Ġan ura
ol ution
Ġk n
Ġme m
Ġcol on
Ġcre ating
Ġpost ing
Ġsur vey
Ġwr itten
Ġshow ed
Ġ201 8
Ġident ity
Ġdou ble
n ces
Ġm ac
Ġl ay
Ġre ject
Ġre new
Ġfor ces
ot hing
Ġwe alth
Ġse m
bo ard
Ġpo ll
Ġcre am
Ġmed ium
Ġseem ed
Ġsal aries
Ġmean ing
adu ate
Ġtransport ation
Ġprofess ion
cript ion
Ġtrou ble
rec ommend
Ġsj b
o ying
Ġf ill
is ation
Ġus a
Ġco ff
pl ay
Ġreddit ors
Ġweek end
Ġphot ograp
Ġexc ited
Ġsecret ary
Ġudawal awe
Ġhiriket iya
m at
w ise
Ġa im
Ġa head
Ġg d
ess ion
Ġoff ering
Ġdis p
Ġkeep ing
Ġhope fully
Ġgov t
Ġcoun cil
Ġrail way
c al
i res
an ced
Ġb ab
Ġb arely
Ġp ak
Ġd ub
Ġin put
Ġn ur
Ġk ar
Ġthere fore
act ions
Ġbr ain
Ġfri day
ific ations
Ġcitiz en
Ġsearch ing
augh ter
Ġlawy er
e ch
m ary
Ġb ul
ri d
ro p
Ġr om
Ġaf ric
Ġres ign
Ġpre vent
Ġro b
Ġinst agram
Ġpict ure
Ġo h
Ġu lt
Ġch urch
Ġpro ceed
Ġfin ished
Ġsur v
ah a
Ġeas ter
Ġset ting
Ġref und
ik a
Ġnat ural
Ġstrugg le
Ġconvers ation
Ġimag ine
m er
re p
Ġb b
it als
Ġg ain
Ġwe ight
Ġli br
ist an
Ġus ers
Ġag ent
Ġ4 00
ond on
Ġ0 2
Ġsec ure
Ġsal es
Ġnews wire
Ġrun s
Ġdist ance
Ġsho es
Ġfil m
Ġclub s
Ġregist ered
Ġbrok en
Ġsaving s
Ġfern ando
o on
Ġs ens
Ġappro x
Ġfre qu
Ġsound s
Ġye ah
a a
g oda
Ġs ale
Ġan aly
Ġby d
Ġcl othing
Ġpol onnaruwa
Ġtrip s
Ġah angama
Ġmalays ia
w a
Ġs ir
Ġe c
Ġv ari
Ġsu ic
our s
Ġch air
Ġcont ract
Ġcre ated
Ġhigh est
Ġ0 6
Ġ0 9
Ġbl ue
Ġbu ff
Ġelect ions
Ġspeed s
Ġswim ming
Ġexec ut
u ct
Ġl ondon
ot i
ac ity
ad eniya
el a
Ġpre f
Ġact ions
Ġgr ate
Ġtw ice
Ġchoo sing
Ġcop y
Ġadult s
Ġs ight
Ġm ic
Ġe p
Ġab use
Ġun it
Ġhi re
Ġqu iet
Ġgr ap
Ġappoint ment
Ġfoot ball
Ġperform ance
Ġchann el
Ġaut om
Ġc ook
Ġp ure
Ġg amp
Ġwh e
et ic
Ġst able
ad ing
Ġsh ot
Ġwhat s
Ġwhen ever
Ġsp ok
Ġ0 5
Ġfam ous
Ġdevelop ed
Ġdut y
Ġanim als
Ġchalleng es
Ġsudden ly
Ġsatur day
a pe
Ġi ct
Ġth ous
in ations
Ġc ru
Ġwith dr
Ġun able
li ke
Ġcent re
Ġreach ed
Ġinit ially
Ġameric an
Ġmech an
3 0
Ġre fer
ad s
Ġtre ated
Ġfi ber
Ġfacult y
Ġh r
Ġn h
Ġme al
Ġsm o
Ġfore st
Ġtyp es
Ġapart ment
Ġcommit te
Ġb unch
im al
op s
Ġat m
Ġfe at
Ġ5 5
Ġfu ck
Ġbirth day
a f
o a
Ġb ow
Ġst age
ul a
Ġhi ke
ens ion
Ġinf rast
Ġplay ed
ari ff
Ġfre elan
Ġbri dge
Ġrequire ments
Ġwi j
Ġintell igence
c ast
Ġsome how
Ġhelp ing
Ġloc ally
Ġval u
Ġprof it
asing he
Ġpet t
Ġdoll ar
Ġcrit ic
Ġpossib ly
Ġcabin et
l am
s l
Ġt aught
in ated
Ġide al
Ġimp ress
Ġbig gest
Ġ25 0
Ġlist en
Ġaccommod ation
f ast
Ġt ariff
Ġp ere
Ġo ce
Ġit em
ad v
Ġmod els
Ġincre asing
Ġstep s
Ġquick ly
Ġcandid ate
j a
o e
Ġd anger
Ġfor get
Ġthat s
Ġdo gs
Ġr ad
Ġv en
Ġen sure
olog ies
Ġhosp itals
Ġnet wor
Ġgradu ate
Ġdest ro
Ġgrate ful
d own
h d
Ġi ve
ar agama
ri er
Ġre ci
Ġr ise
Ġreg ister
Ġclaim s
Ġsn or
Ġcomplain t
Ġindepend ent
for ce
Ġtast e
Ġinfrast ructure
g ar
k m
Ġp il
Ġan g
th is
Ġcan ce
Ġhi king
Ġdi ed
Ġspe cially
Ġsc ared
Ġdec isions
Ġsur ger
Ġappro val
Ġbring ing
Ġocc as
h ol
s ung
Ġm and
Ġn v
Ġg ender
ll er
Ġse ats
Ġen ro
wh ich
Ġper adeniya
Ġsit ting
Ġpass eng
ric ult
Ġpurch ased
Ġwal king
Ġur g
Ġperspect ive
x press
z e
Ġb ars
Ġd aughter
ar am
Ġe gg
se qu
th y
Ġme ant
ab led
Ġmon day
Ġ7 5
Ġatt ach
Ġlot s
tern al
Ġbegin ning
Ġregist ration
Ġemerg ency
Ġbachel or
Ġs amp
Ġs light
re g
Ġto w
Ġo t
Ġg ems
est ic
Ġad op
Ġno v
Ġsp oke
Ġ9 9
Ġbl ame
Ġbuddh ism
Ġplant ation
Ġlak hs
Ġhous es
h am
h ere
Ġs ac
Ġn n
al ed
Ġre form
Ġr ound
Ġse vere
Ġknow ing
Ġag ricult
ail and
oth ers
Ġrem ove
Ġet a
Ġgener ally
Ġsuff ering
Ġbehav ior
Ġcrimin al
Ġsnor ke
1 2
c ol
Ġc ous
Ġp ic
Ġto xic
Ġin qu
ver se
Ġr us
Ġv an
iv ity
ath a
Ġbus y
ra id
pect s
Ġbas is
Ġconnect ions
Ġsur round
Ġtem ples
Ġca used
Ġann oun
Ġroom s
Ġdel ive
Ġsuccess ful
Ġik man
Ġf ib
en cies
Ġl av
Ġn in
ad asa
Ġcon ven
os s
Ġ4 8
wh ile
Ġrel atives
Ġhigh light
Ġfu cking
Ġcons ist
Ġopen ed
Ġass um
ades h
Ġredu ce
Ġdru g
Ġsepar ate
Ġtukt uk
Ġw t
or ter
Ġp le
Ġp pl
Ġup gr
ie xpress
Ġgot ten
Ġback p
ert ain
Ġsuggest ed
Ġexpl oring
Ġput ting
Ġrespon sible
no v
Ġvac ation
Ġfav our
Ġbenef it
Ġsched ule
Ġcoff ee
Ġpett ah
c ers
c ul
r ance
re m
Ġd er
Ġr agging
Ġsh own
Ġcol or
Ġpo ol
Ġaf raid
Ġper man
Ġche cking
Ġlearn ed
Ġfoc used
Ġequ al
Ġdest ination
Ġsuit able
Ġemb ass
Ġt end
Ġb ills
it ude
Ġch o
ist ics
Ġun ion
Ġve get
aw ard
Ġown ed
Ġimp os
oc ol
Ġstand ards
Ġbel ong
Ġbrows er
Ġalleg ed
Ġpere ra
d ict
Ġt on
Ġs ick
Ġth ailand
Ġw it
Ġc aught
Ġl oud
Ġo o
Ġg p
Ġis lam
Ġst rict
Ġk at
el ess
Ġ3 9
Ġbr anch
Ġuse ful
Ġhim self
Ġengine ers
Ġord ers
Ġconst ruction
une gala
Ġbreak fast
Ġsil va
Ġchann els
Ġcam era
Ġmaint ain
Ġdelive red
b m
Ġin j
Ġde bit
Ġmo s
Ġpro of
Ġus age
Ġadv ent
Ġgot a
Ġmar ks
Ġdet ail
Ġlead s
Ġaccept ed
Ġrelations hips
Ġsam sung
cs l
Ġscholar ship
Ġal ot
Ġhelp s
ie f
Ġfood s
Ġest im
Ġsho ot
Ġauthor ity
Ġmix ed
Ġlad y
Ġfavor ite
Ġresponsib ility
Ġt in
Ġt ough
Ġd il
Ġn l
Ġg b
Ġon going
Ġex ternal
Ġwar ning
Ġsho pping
hap s
Ġcompet itive
Ġstri ke
Ġsco ot
Ġlibr ary
1 5
b an
b es
p et
Ġi c
Ġthe rap
Ġb atch
Ġd ude
Ġn ut
ow ers
Ġk m
Ġus er
Ġper haps
Ġdirect ion
Ġlist ed
Ġmigr ate
Ġpand emic
Ġc ooking
Ġb es
ar ily
le ast
Ġr ural
Ġind ic
Ġcons erv
Ġbu ll
Ġcap acity
Ġupd ates
Ġey es
Ġvill age
Ġpurs uing
Ġrestrict ions
Ġsuic ide
Ġoce an
ut ed
il a
Ġv oice
Ġat least
Ġrecommend ation
ra ft
Ġthrough out
sh a
Ġrem ain
Ġfield s
Ġcitizens hip
Ġcrowd ed
lk r
Ġbab y
Ġexecut ive
Ġsamp ath
h ar
it ation
Ġe ats
Ġre lease
ur ved
Ġevery day
Ġafter no
Ġro yal
Ġsupport ing
Ġdisc ount
Ġcomple x
Ġstre ng
Ġgradu ates
Ġeffect ive
Ġrecogn ized
Ġdish es
Ġkur unegala
Ġgamp aha
Ġsurger y
Ġstreng th
m en
Ġt ired
Ġb a
Ġto y
Ġg em
ent y
ci ent
ub lic
Ġgr ant
Ġtw itter
Ġmat ters
Ġjoin ed
Ġmal d
Ġsend ing
Ġtot ally
Ġcas ual
Ġtyp ical
Ġconfir med
Ġjapan ese
Ġbang l
Ġflo or
g ood
Ġi p
Ġth row
op e
Ġal iexpress
ci pl
rou d
Ġapp eal
Ġdec ades
Ġair line
mb ps
Ġprop os
Ġbegin ner
Ġcommer ce
Ġblo ck
Ġcorpor ate
Ġcommitte e
Ġembass y
i at
v is
ent ially
Ġu g
Ġlo sing
ag n
Ġag ency
Ġem p
Ġass ault
Ġkeep s
Ġmatch es
Ġlt d
Ġhut ch
2 5
i ety
m p
m ers
o ft
r it
re ed
Ġf b
Ġr ace
Ġother wise
Ġsp ir
Ġsc ale
Ġfam ili
Ġtem por
ove red
Ġbuddh a
Ġm ill
ic y
Ġcan cel
Ġdis play
Ġdes cri
Ġagree ment
Ġforeign er
Ġmarket s
Ġqual ifications
Ġhealth y
Ġca fe
Ġcontact ed
Ġmiss ed
Ġchang ing
Ġhold ing
Ġdel ay
Ġess ential
Ġay urved
Ġremo ved
Ġcaf es
Ġadminist ration
Ġfib re
Ġwit ness
Ġb on
Ġp in
Ġd ur
Ġn and
ri ght
Ġme als
Ġv ent
Ġsu st
ap s
Ġinc red
Ġher o
Ġtrans actions
Ġconst antly
Ġgre w
Ġprem ium
Ġprep are
Ġacad em
Ġpie ce
Ġafterno on
Ġfamili ar
r ain
v t
Ġh nd
ke y
Ġch ocol
Ġal co
Ġsome what
Ġun c
Ġ3 8
Ġcur ric
Ġchild hood
ib ility
Ġmess ages
Ġcharg ing
Ġemploy ment
Ġdiscrimin ation
Ġfest ival
Ġbom b
Ġconflic t
Ġconstit ution
Ġanx iety
Ġafric a
r om
Ġc art
Ġd umb
it age
al ing
Ġg f
ab les
Ġun like
Ġdis cipl
Ġsupp ly
Ġpub lish
lank a
Ġfinan cially
Ġaware ness
Ġpeace ful
Ġeurope an
Ġscre en
Ġenc our
Ġundergr aduate
Ġmurd er
Ġprofession als
Ġdub ai
Ġthous ands
Ġalco hol
2 4
i pped
o st
p ro
s p
Ġf al
Ġh oney
Ġan cient
Ġst ated
Ġj ump
Ġsh ame
Ġhas n
Ġwant ing
Ġmin ute
Ġsch em
ara z
Ġopen ing
Ġcri mes
Ġdirect or
Ġmind set
Ġlaptop s
Ġregard less
Ġlink s
Ġvot ed
Ġnam ed
Ġprevious ly
Ġblo cked
Ġscen ic
Ġcry pt
Ġfrustr ating
Ġproced ure
n es
Ġt ut
Ġc mb
Ġc ateg
Ġm p
Ġb s
Ġp roud
Ġto ols
ic ul
am ing
Ġpart ners
Ġ6 00
Ġgu est
Ġ19 7
Ġinclud ed
Ġjoin ing
Ġhar m
Ġvot ing
Ġcandid ates
Ġwild life
Ġsong s
Ġannoun ced
s u
Ġf ile
Ġh ill
Ġl ane
Ġd u
al es
pp ers
Ġsh all
Ġadv anced
Ġstart s
Ġinvest ors
Ġ12 0
Ġsol ar
Ġfl u
Ġresp ons
Ġdro pped
Ġdam n
Ġdam age
Ġfan cy
Ġdru gs
Ġdiss anayake
re ne
Ġb ail
Ġf ash
Ġo ya
Ġe ld
Ġwh ale
Ġdid nt
olog ist
Ġset tle
Ġtrad ing
Ġexist ing
Ġdom estic
Ġassist ance
Ġkum ara
Ġvalu able
adv ice
Ġdestro y
i ers
o b
Ġt s
Ġt ik
Ġf ault
Ġh ence
Ġg ate
Ġwh om
Ġbe at
Ġwe aring
ce ll
Ġcon cept
Ġcl in
ra el
Ġcri me
Ġcu is
Ġminister s
Ġfact ory
Ġcommunic ation
x x
in ia
Ġb all
ou nce
Ġh all
Ġu nd
ge goda
Ġ3 7
Ġcomp ens
Ġag reed
Ġpri mary
Ġcomm itted
Ġreg ret
Ġent rance
Ġprotest ers
Ġnam al
Ġpak istan
Ġfash ion
g a
r ay
s as
z z
Ġd ry
Ġn ations
Ġo s
id ing
id ency
ol a
Ġsc r
Ġeas tern
Ġexpect ing
Ġprogram me
Ġclear ance
Ġinflu en
Ġregul ations
Ġlav inia
4 0
Ġt ues
Ġl ines
ot ed
et te
qu est
Ġun sure
Ġac qu
Ġup load
Ġwere n
Ġdis g
ang a
Ġ6 5
Ġair b
Ġinvest ments
Ġsk y
Ġtre es
Ġpap ers
Ġded ic
Ġhind u
w s
Ġ era
in ing
Ġw all
Ġf illed
Ġh ort
om ed
Ġg ather
ut y
ch i
Ġfr ame
Ġv at
Ġtr csl
os es
Ġrec over
ens ive
Ġ202 6
Ġche ers
Ġadd ing
Ġdevelop er
Ġhealth care
Ġref lect
Ġsign ed
Ġpract ices
Ġtrust ed
Ġflight s
Ġocc ur
Ġaffect ed
Ġpict ures
Ġprovid ing
Ġsched ul
Ġnu gegoda
e ed
g n
r ont
in a
ic ial
ic ian
ith a
Ġk elan
Ġnot es
Ġch ances
Ġwas h
Ġwor ry
Ġun cle
Ġco ld
Ġmar k
Ġproduct ion
Ġwatch ed
Ġ200 9
Ġdeal ing
Ġser ve
Ġclaim ed
Ġrecogn ition
Ġperm it
Ġhistor ical
Ġmach ine
Ġmic ro
Ġfal se
e gr
w ill
Ġth r
re nt
ing er
Ġin n
Ġe g
Ġe ee
Ġhe at
Ġk ot
Ġle aves
aw ala
Ġbad ulla
wor thy
Ġinit ial
Ġfall s
Ġmonit or
l ink
Ġc ave
ou th
Ġh es
Ġg az
ly ing
Ġme at
Ġch ose
Ġwho se
Ġno body
Ġins ane
Ġdes per
Ġreal ize
Ġdr aw
Ġimport ing
Ġsitu ations
Ġaff airs
Ġequ ip
Ġmist ake
Ġtur ning
Ġprin ci
Ġbangl adesh
k ara
m al
Ġb ath
Ġf at
Ġd araz
im a
Ġch ief
Ġus es
um a
Ġco ve
Ġdep uty
Ġfl av
Ġeduc ational
Ġdet ect
Ġneg oti
Ġrout es
Ġdev ice
Ġentire ly
Ġsuccess fully
mar ket
Ġdou bt
Ġrid icul
Ġappoint ed
Ġhom es
Ġfle x
Ġgard en
Ġwithdr aw
Ġimpos sible
Ġh s
Ġl y
Ġin nov
Ġn r
Ġn re
Ġn il
Ġsu gar
Ġjo ke
Ġloc ated
Ġher itage
Ġgu arant
Ġpriv acy
Ġtal ent
Ġshort age
Ġfil ed
owd er
Ġcin em
Ġger m
Ġvictim s
l s
in ting
Ġc ake
Ġto oth
Ġl augh
Ġn om
Ġis rael
Ġhe av
Ġany time
Ġde ar
Ġpl ains
ap ura
Ġint egr
Ġ4 9
Ġadv is
Ġins p
Ġref used
Ġcy cle
Ġcompet ition
Ġprem adasa
Ġprior ity
Ġdemocr atic
Ġtues day
c ling
e in
g es
r ated
Ġth o
Ġc ro
Ġl as
Ġl ion
it ure
ic ing
Ġdo or
ab or
Ġdi e
Ġ4 1
Ġmon so
Ġinst ruct
Ġpos itions
Ġserv ed
Ġstay ed
Ġass ume
Ġinclud es
mo on
Ġorgan iz
Ġfail ure
ell s
Ġrac ism
Ġestablish ed
Ġcirc um
Ġadvert ise
Ġtow er
n ament
o ff
Ġa unt
Ġf ed
Ġp a
ri al
Ġst ability
ch ar
Ġadv ant
Ġacc om
Ġcar ried
Ġwr ote
Ġdep end
Ġdr inking
Ġap i
Ġsk ip
Ġbeaut y
Ġfair ly
Ġamaz on
Ġsurpr ised
Ġmethod s
Ġvir t
Ġinflu ence
Ġlaunch ed
Ġscoot er
Ġhort on
Ġheav ily
i est
z a
Ġs and
Ġo vers
is f
Ġg ang
ro id
il es
ust ing
ul um
Ġcomm and
Ġconnect ed
Ġbig ger
Ġrajapak sas
Ġser ver
Ġob ject
Ġclaim ing
Ġpsych ology
Ġdisapp oint
Ġkill ing
Ġarr ange
Ġlif est
Ġfeat ures
Ġrus si
Ġrespons es
i vers
o very
Ġc ere
at ics
Ġin g
st er
Ġbe ar
ad ed
Ġr ush
Ġse p
Ġcol our
Ġco verage
Ġman nar
Ġ5 8
Ġeng age
Ġ8 00
Ġintern ships
Ġtour nament
Ġelect ed
Ġter rible
Ġchar ac
Ġeduc ated
Ġdet er
Ġbi ology
Ġprefer red
Ġvill a
Ġmist akes
Ġmeas ures
Ġsust ain
r ative
Ġt ip
Ġa st
Ġs ar
Ġb id
Ġn ine
ri e
Ġha b
im ately
il ed
Ġres ident
Ġpr ison
Ġgr ab
Ġlet s
Ġaw ard
Ġoffic ially
Ġtop ics
Ġtest s
Ġscam med
Ġtechn ical
Ġpet rol
Ġpsych iat
Ġmb a
Ġbag s
Ġpurp oses
Ġarg u
Ġclos er
Ġobt ain
Ġhur t
Ġattach ed
Ġmald ives
Ġth urs
es ome
Ġn as
it a
Ġfor got
Ġk il
Ġme l
Ġun is
um s
eri or
Ġcl imb
ical oa
Ġdis con
pl an
Ġperson s
Ġrem ind
Ġgu ard
Ġce b
Ġbi kes
Ġmean while
Ġdef ence
Ġarri ving
Ġann oying
Ġdiscuss ions
Ġns bm
Ġprotect ion
Ġmount ain
Ġmap s
Ġdanger ous
Ġagricult ure
Ġcurric ulum
c d
in o
Ġb or
ar an
Ġli e
Ġr ug
il ing
Ġfe ll
Ġ5 6
Ġbl ind
we ll
Ġreal ized
Ġ201 7
Ġhouse hold
Ġsign al
Ġturn s
Ġcontro vers
Ġmot iv
Ġsus pic
Ġpat ient
Ġcal cul
Ġprep ared
Ġsurpr ise
Ġjud ge
Ġterror ism
Ġconv in
Ġcolon ial
rep rene
Ġspok en
Ġic bt
1 6
Ġth ri
Ġb ond
Ġp ad
Ġan al
Ġo w
Ġu c
un k
Ġexp lo
Ġte en
Ġind ians
Ġdis abled
Ġtrans it
Ġuse less
sh ould
Ġmain ten
Ġplay er
Ġland sc
Ġval ues
Ġmove ment
Ġnor thern
Ġteam s
Ġaltern atives
Ġrac ist
Ġrelative ly
Ġpun ish
Ġdepos it
Ġmainten ance
Ġw alle
Ġb c
Ġf ans
it ect
Ġg ro
Ġk ick
Ġcl imate
erv ed
Ġkind ly
Ġext ent
Ġconf ident
Ġpower ful
Ġdist rib
att u
Ġallow s
Ġinstit utes
Ġident ify
Ġarch itect
Ġdepress ion
Ġmateri al
Ġang ry
Ġslight ly
Ġupgr ade
Ġgerm any
f all
Ġth us
Ġm sc
Ġp vt
es th
Ġn th
Ġo g
Ġg ay
Ġbe gan
ol en
Ġj er
Ġde als
Ġad s
Ġcomp ar
Ġour selves
Ġint ention
if ts
Ġacc used
Ġro les
Ġph arm
Ġtrans action
Ġrem ains
Ġend s
Ġent reprene
Ġret ail
Ġactiv ity
Ġaustral ian
Ġrepl ies
Ġer ror
Ġanim al
Ġbatt icaloa
Ġdrink s
Ġcli ents
mon y
Ġchair man
Ġwt f
Ġkelan iya
Ġcove red
Ġmonso on
b age
e y
f l
Ġt b
Ġs ides
Ġw att
Ġc os
Ġc ast
Ġb en
Ġp y
ir st
Ġcon d
Ġch a
ud es
Ġexp and
Ġen able
Ġcomp lic
Ġvis ion
Ġsp ons
Ġeng land
Ġcontin ued
Ġear th
Ġ19 4
ib ly
Ġscam s
Ġlu gg
Ġorgan ization
Ġmah aragama
Ġreturn ed
Ġdev ices
Ġpat ients
Ġdeep ly
Ġcarry ing
Ġtempor ary
h n
Ġw ik
er al
Ġd an
Ġk ore
im ent
Ġv es
Ġcon sequ
Ġam end
Ġcl ick
Ġpay pal
Ġma f
Ġke en
Ġ19 5
Ġdr one
Ġext ended
Ġexperien cing
Ġdevelop ing
Ġmod er
Ġphys ically
Ġann ual
Ġupd ated
Ġtrust worthy
Ġstock s
Ġsus p
Ġste am
Ġmb ps
Ġmax imum
Ġreput ation
Ġger man
Ġintrodu ced
Ġrecei ving
Ġrav ana
Ġreject ed
Ġwhe el
Ġthurs day
1 1
g i
r ate
Ġw il
en ge
Ġto k
Ġd y
Ġn avy
ar atne
Ġon to
Ġk ap
Ġany ways
Ġme mor
Ġfr u
nd red
Ġhas s
Ġrec on
Ġout s
ak ed
Ġfri ed
Ġpres idency
Ġprov ides
Ġ201 6
Ġrequ ires
Ġref erence
Ġstand ing
Ġnorm ally
Ġhu ndred
Ġlangu ages
Ġcal m
Ġgl ass
Ġplant ations
Ġenc ount
Ġminor ity
Ġrough ly
Ġaddition ally
Ġrap id
Ġperman ent
Ġtoy ota
Ġs oo
Ġf are
Ġp i
Ġd ates
ion ally
Ġst or
Ġmin i
Ġaccount ability
Ġem pt
Ġdri ven
Ġrem aining
Ġfl ood
Ġset up
Ġwon t
Ġprom ises
Ġreach ing
Ġmath em
Ġelectric al
Ġimmedi ate
Ġvol unt
col ombo
Ġhoney moon
Ġcuis ine
Ġequip ment
2 3
t on
Ġan c
om s
ll ab
ac ing
Ġst olen
Ġwe ak
Ġha put
id er
Ġli ked
Ġim ages
Ġpri cing
Ġbr others
Ġmin s
Ġ0 4
Ġra ise
Ġel ig
Ġprot ein
Ġass ets
oc king
Ġrent ing
Ġunf air
Ġgar bage
uck les
Ġshir ts
arana ike
Ġhaput ale
l ies
p ass
on ed
Ġg ap
Ġre act
ol es
ol ic
Ġor ient
ch e
out s
Ġab ility
Ġmo de
Ġdi ving
Ġ4 6
Ġsp l
Ġind ex
Ġhigh way
Ġed ex
Ġ9 4
Ġdisc l
Ġca using
Ġconst ant
Ġcrit ical
Ġmotor cy
Ġleaders hip
Ġreserv ed
Ġrug by
Ġuc sc
1 9
a ud
b u
d ed
f o
h ib
r an
Ġa th
on ym
Ġc id
Ġand roid
am es
Ġk du
Ġr um
Ġr ude
Ġex cell
Ġrec ru
wh o
Ġspe ech
Ġpres ence
Ġdes k
Ġpass ing
Ġdr ama
Ġhand ling
ict ion
Ġstre ets
Ġsuper market
Ġcoast al
Ġsat isf
Ġartic les
Ġbott le
Ġconduct ed
Ġcontrib ute
Ġexpert s
uri ya
Ġfa ith
Ġpasseng ers
Ġsnorke ling
Ġbackp ack
m i
p ay
v est
Ġw at
Ġp owder
Ġin e
Ġn q
Ġy a
Ġr w
il ty
Ġch and
Ġpl astic
her a
pt ion
Ġcomp are
Ġ4 3
Ġacc ur
Ġbr own
ond a
Ġfir m
Ġaw esome
Ġsy llab
ph ones
Ġfact ors
Ġmanag ing
Ġlar gest
Ġinvestig ations
Ġdiv ision
Ġbecom es
pri ate
Ġhous ing
Ġmateri als
Ġlinked in
Ġgd p
Ġsmo oth
Ġlifest yle
an age
Ġm n
Ġd ent
ri p
Ġv end
ere nces
Ġsa ved
Ġpri ced
Ġper a
iss ed
Ġ8 8
Ġpar ks
Ġrep ublic
Ġpick ed
Ġgradu ated
Ġchall enge
Ġslow ly
Ġband aranaike
Ġfight ing
Ġassoci ation
Ġeffort s
Ġcompens ation
n el
t ok
w ide
Ġa le
Ġi e
Ġs i
Ġb ound
Ġp ages
Ġl ake
Ġg y
le ts
Ġsh ut
Ġch am
Ġmo on
ab et
Ġdi agn
Ġcont ain
wh el
Ġsupp orters
Ġreal istic
Ġter min
Ġhand ed
Ġqual ification
Ġsmall er
Ġz one
Ġport s
Ġprop osed
Ġbri ef
Ġstar link
Ġprovid er
Ġsubm itted
Ġbroad band
Ġmanufact ure
Ġedex cel
7 7
p es
u nder
Ġt or
Ġm ut
Ġd ual
Ġn ative
Ġr ang
Ġcan n
Ġpl enty
Ġal ert
pe ople
Ġun b
res pect
Ġ5 000
Ġinc idents
Ġgr ades
Ġcre d
Ġreg ional
Ġcomple ting
Ġaff ili
Ġid i
Ġbre aking
Ġur ban
Ġoper ations
Ġeffect s
Ġrequest ed
Ġswe et
Ġelectron ics
Ġkn uckles
Ġcho ices
Ġdiscipl ine
Ġtik tok
Ġempt y
e ared
f riend
p ap
an cy
Ġp ix
Ġl es
ct ions
Ġk r
Ġad hd
bo x
Ġam id
Ġco ach
Ġ4 4
Ġres ol
Ġtrans p
Ġcontin u
Ġgu ilty
Ġpolit ician
Ġleg ally
Ġform al
Ġoppos ite
Ġholid ays
Ġprodu ce
see king
Ġbb c
Ġgrant ed
Ġlugg age
Ġstor age
Ġsyllab us
v i
Ġt ort
Ġt ap
Ġm all
ed ia
ri dge
Ġst ays
Ġst ructure
ur ally
Ġli qu
Ġli ft
Ġtr acking
ag er
Ġadv ices
Ġgovernment s
Ġ8 5
Ġgen oc
Ġsub st
Ġdes erve
Ġeconom ics
Ġconf idence
Ġtourist y
Ġinstit ution
Ġsearch ed
Ġdut ch
Ġsignific antly
Ġsup reme
Ġrat n
Ġchocol ate
Ġwatt ala
p oint
Ġs ab
Ġthe at
Ġc ath
Ġm ps
Ġf is
id as
th ought
Ġas ide
qu es
Ġ3 4
Ġnew ly
Ġ4 7
Ġact ing
Ġph d
ep s
ara ja
Ġext rem
Ġwar m
Ġcent ury
Ġsell er
Ġhu nt
Ġexc lus
ung a
Ġviol ent
Ġdou b
Ġexport s
sec urity
Ġscholar ships
Ġcapt ain
Ġbuff et
Ġurg ent
Ġcous in
Ġspir it
Ġeld er
Ġdedic ated
Ġschedul ed
d i
Ġm s
Ġm ail
Ġf urn
or k
Ġp iz
Ġh rs
Ġh ung
Ġst ations
Ġk itch
Ġsh ift
Ġtr ail
Ġun s
Ġun com
Ġco z
Ġsp ices
Ġpre dict
gg ed
iss ions
Ġke ells
Ġlove ly
Ġbo at
amb al
Ġrajapak se
Ġfund ament
Ġdepart ure
Ġabs urd
Ġinterview s
Ġredu ced
Ġscen ari
Ġtele gram
Ġcelebr ate
Ġtas k
Ġsurv ive
Ġcance lled
Ġadvent ure
Ġmaf ia
c ut
h and
h us
m int
Ġt ro
in al
Ġf y
Ġan onym
al aya
Ġe el
ll s
am m
ir u
Ġr n
Ġr are
Ġal ive
ap itiya
Ġar ag
Ġsee k
Ġins pect
Ġent ered
Ġexpl ained
Ġdevelop ers
Ġfun ny
Ġfig ures
Ġlight s
Ġgl ad
Ġcomplain ts
Ġjay award
Ġlect ures
Ġcomb ined
Ġalleg ations
Ġsubm it
Ġreve aled
Ġmem ory
Ġadop t
Ġschem e
Ġmathem atics
c raft
f irst
i q
p attu
x y
Ġa id
Ġc ore
ll ers
Ġne ither
Ġal i
Ġpro ve
Ġle an
Ġve t
ag on
Ġint ake
Ġar med
Ġres idence
Ġpre v
Ġpre gn
Ġmu se
fe w
Ġgr own
Ġpar king
Ġdep ending
Ġdist ur
Ġdef ense
Ġmid night
Ġprom ised
uss ia
Ġpurch asing
Ġparliament ary
Ġstream ing
Ġremote ly
Ġluck y
Ġbehav i
Ġimplement ed
Ġiniti ative
Ġbes ides
Ġwalle t
thought s
b b
d d
f ood
l ist
o ld
Ġb ird
Ġh at
Ġh nb
ar ter
Ġwe er
ad ura
Ġso le
Ġun re
Ġ5 4
Ġar ts
Ġact s
Ġinc om
pl aces
Ġtrave lled
ang ed
Ġmar ry
Ġdec ade
ord er
Ġweek ends
Ġgener ations
Ġes oft
Ġsci ent
Ġless ons
Ġann ounce
Ġreturn s
Ġcy cling
Ġcollect ion
Ġocc up
Ġadm ission
Ġchrist ian
Ġwind ows
Ġpossib ility
Ġpromot ing
Ġvacc ine
Ġelectron ic
Ġnav ig
nes day
d id
g u
i i
t in
Ġt ig
Ġm um
Ġh onda
Ġto ol
ed s
Ġis ol
Ġst ruct
se y
ch ed
Ġli kes
Ġr ising
Ġr ussia
Ġcon vert
ant ic
us hing
Ġfe et
Ġout do
Ġag gress
Ġag encies
Ġ5 3
Ġcl ue
Ġcl oud
Ġmon ks
Ġbr ut
Ġbus ses
Ġord inary
Ġpoint ed
amb ridge
Ġhon s
Ġtest ing
Ġsig ir
Ġfre el
Ġdesign ed
fort able
Ġrequire ment
Ġban ned
Ġneighb or
Ġreserv es
Ġreplace ment
Ġrepe ated
Ġpen al
Ġnan u
Ġpropos al
Ġpublish ed
Ġing red
Ġkitch en
2 2
b ally
Ġt ight
Ġs r
Ġw ake
Ġb other
Ġp ays
Ġto ward
al f
Ġu ae
Ġde fe
Ġch ain
if ying
Ġover whel
Ġcontin ues
Ġear ned
Ġfore ver
Ġsub ur
Ġinterest s
Ġvi bes
Ġshort s
Ġexpect ations
Ġ18 0
Ġprom ote
Ġamount s
Ġtrin co
Ġful f
Ġstress ed
Ġameric a
Ġshir t
Ġmechan ical
Ġestim ated
Ġincred ibly
Ġdiscon nect
a j
l og
o ck
Ġw ave
Ġc ambridge
Ġf inger
Ġl eng
Ġg ear
Ġse ven
Ġv o
Ġle ague
Ġexp osed
Ġra pe
Ġent hus
Ġsk ill
Ġsocial ist
Ġcontact s
Ġemploy ee
Ġwed nesday
Ġdam aged
Ġdest inations
Ġhost el
Ġdream s
Ġcoll abor
Ġprint ed
Ġinn oc
Ġadvant age
plan ning
Ġgenoc ide
Ġuncom fortable
Ġeel am
Ġenthus i
h r
i ance
Ġs ession
Ġw aves
Ġb ats
Ġf aster
Ġde le
ge on
ack ed
Ġevery body
Ġdis m
Ġ6 6
Ġ7 00
Ġpar cel
Ġsol ve
Ġexpl an
att on
Ġdef ault
Ġindust ries
Ġattack ed
Ġinvol ve
Ġtown s
Ġdut ies
Ġdiv or
Ġwonder ful
Ġrecord ed
Ġrev olution
Ġmer ch
Ġfrequ ently
Ġvolunt e
o v
Ġc m
Ġm ak
es h
Ġst ating
ut ing
Ġtr ash
ci ous
Ġco d
Ġinter act
Ġthink s
Ġ6 8
Ġgr am
Ġtravel ers
Ġtrans form
Ġ19 6
Ġext end
Ġtal ked
Ġavail ability
Ġprof ile
att a
az e
Ġdem on
ici ency
Ġequ ival
Ġsun set
Ġterror ist
Ġrecei pt
Ġsac rif
Ġtb h
1 8
2 6
b uy
l ig
Ġp air
Ġas ks
Ġad just
Ġexp os
Ġadv ised
Ġind ones
Ġpr ay
Ġtri al
Ġ9 00
we lla
Ġpriv ile
Ġinvest ed
Ġbad ly
Ġelse where
Ġselect ion
Ġlic ens
ok o
Ġhor rible
Ġassoci ate
Ġneighb our
Ġreput ed
Ġjournal ists
Ġgrap h
Ġfavour ite
Ġpsychiat rist
2 9
b re
y o
Ġc c
Ġc ree
Ġf ant
Ġf ert
Ġh atton
Ġn ib
Ġu pper
Ġnot ed
Ġch amp
ab il
Ġun its
os ity
Ġqu it
Ġint el
Ġwork sh
Ġdoes nt
Ġjo hn
Ġmar ine
fore st
Ġatt or
Ġatt ending
Ġsy mb
Ġdiffere nces
Ġexam ples
Ġtal ks
ys is
Ġland ing
ash ed
Ġvi et
Ġtell s
Ġfund ed
Ġspeak er
Ġrepl aced
Ġsad ly
room s
Ġcoll ap
Ġlawy ers
Ġque ue
Ġdecl ared
Ġcrypt o
Ġdisg usting
Ġridicul ous
Ġwil pattu
Ġkap ru
Ġhass le
mint on
Ġarag alaya
g uy
Ġt ag
at ically
Ġn adu
is l
Ġr ub
Ġsh ar
Ġcon ver
ul ated
Ġgo als
Ġthere s
Ġle ase
Ġall oc
Ġfe as
Ġen s
Ġvis as
Ġsp a
iv u
Ġvisit ors
Ġfeel ings
Ġboo st
Ġexam ination
Ġset t
Ġallow ing
Ġbuddh ists
Ġoper ation
Ġpat tern
Ġsn acks
Ġchem ical
Ġver ify
Ġrelax ing
Ġded uct
Ġstrateg y
Ġappear s
Ġten n
Ġmem ories
Ġanaly st
Ġgrap hic
Ġreform s
Ġassum ing
Ġinj ured
su ggest
Ġviet nam
i j
m n
t t
u ries
x ual
Ġi ron
Ġs iri
Ġb oc
Ġn j
Ġk ad
Ġr ot
Ġsh out
Ġtr ump
Ġex ha
Ġpl aced
Ġen force
Ġag ents
Ġdi vers
Ġman ner
Ġ5 7
Ġpo ya
Ġsp aces
Ġcons ent
Ġaccount able
Ġreg ime
Ġkind s
up s
Ġcou rier
Ġbeh alf
Ġfund ing
Ġpot entially
Ġoper ating
Ġapplic ations
Ġsuff er
Ġhy b
Ġlab our
Ġadm itted
Ġpropert ies
Ġsold iers
Ġconvers ations
Ġlgbt iq
Ġconven ient
Ġtherap y
Ġgaz ette
Ġcinem a
Ġrussi an
Ġconsequ ences
b oo
i h
o es
er ning
Ġf ab
ing e
Ġn ge
Ġg al
Ġy o
ent ials
ad ays
Ġmy th
Ġr aw
ers on
us ion
Ġad idas
Ġac ne
Ġco ding
Ġdi et
Ġnow adays
Ġar m
Ġsp are
iz es
Ġgr ad
Ġcre ative
vel s
Ġintern ation
Ġtrans ition
Ġend ing
Ġent ering
Ġent ertain
lo ck
Ġshare s
Ġsupport s
Ġfollow s
cept ion
Ġnews pap
Ġmir ror
Ġtem u
Ġboy friend
Ġident ified
Ġstat istics
Ġboard ing
Ġswitch ing
Ġenvironment al
Ġrecord s
Ġground s
Ġbatt le
Ġpu ll
Ġprovid ers
Ġbott om
Ġregular ly
Ġliber al
trave lling
recommend ations
Ġnetwor ks
Ġbon us
quest ion
Ġdetect ed
Ġorganiz ations
Ġmotorcy cle
Ġkapru ka
d ays
o inting
s lt
Ġp owers
Ġl en
Ġn iss
ar as
Ġwh il
our se
Ġcan cer
Ġpl ate
Ġal t
Ġlo ck
Ġup to
Ġint ent
Ġwork place
Ġwhere as
Ġdis e
Ġdis respect
gg ing
Ġcur few
Ġjo int
iz er
od y
Ġsm s
Ġbad minton
land s
Ġdifferent ly
Ġ201 0
Ġret ire
Ġca uses
Ġmess ed
Ġsho cked
Ġcheap est
Ġpath s
Ġlgbt q
Ġsuspect s
Ġemot ional
Ġsurround ing
Ġelig ible
Ġsigir ya
guy s
r ad
Ġp as
Ġl an
Ġd ies
ic king
Ġbe er
th a
Ġas pects
Ġr t
Ġne pal
Ġsh el
Ġv ast
ust ed
Ġun us
Ġun ions
Ġrec overy
Ġco ord
Ġmon et
Ġgr ave
Ġ8 9
Ġinst ance
Ġopen ly
Ġfl ow
Ġconc ert
Ġeff icient
Ġmen u
Ġindust rial
Ġbur den
Ġign or
Ġlad ies
Ġchalleng ing
Ġprin ting
Ġcyber security
Ġlecture rs
Ġcoo ked
Ġharass ment
Ġult ra
Ġmand atory
Ġdestroy ed
Ġaccur ate
Ġscenari o
Ġingred ients
Ġinnoc ent
Ġwhil st
1 3
b ud
h ot
o om
u x
Ġt ank
Ġt ies
Ġt ail
Ġc ig
Ġf its
Ġp ed
en na
Ġl in
Ġn al
Ġg m
Ġre lie
Ġu om
ch es
Ġas h
Ġv oc
Ġab and
Ġ3 50
Ġmon k
ub a
Ġ6 4
Ġ7 7
Ġ8 4
Ġrem em
Ġtax ed
Ġreal ised
Ġhop es
Ġfl ash
Ġshort ages
Ġmeet ings
Ġpan adura
Ġmount ains
Ġbrok er
Ġking dom
see ing
Ġpassion ate
Ġcritic ism
Ġnetwor king
Ġencour age
Ġdesper ate
Ġsustain able
Ġnib m
k er
Ġs ess
re w
Ġb alls
Ġn st
Ġn be
as c
ac le
Ġst ack
am i
ro g
ir y
Ġse ctors
il s
Ġex ists
ab out
ast s
Ġqu ote
Ġqu ota
Ġman ip
Ġ5 9
ip edia
Ġri ding
Ġtrans f
Ġsinh araja
Ġdisc overed
Ġment ally
Ġprof its
att oo
Ġport ug
cu se
Ġcut ting
Ġorgan ized
Ġstrugg les
Ġmembers hip
Ġsuff icient
Ġfit ness
pri ced
Ġgold en
ca pe
Ġcli ent
Ġdur ation
Ġcateg ory
Ġpix el
Ġattor ney
u ge
w ood
Ġt l
Ġt el
Ġa us
Ġw w
Ġb urn
Ġp d
Ġp f
Ġp ushing
en ced
al ity
le y
Ġk ings
Ġex cuse
Ġpl ants
un ic
Ġun ne
Ġcl im
Ġvis ible
Ġtw e
sh an
Ġhot line
Ġes cape
Ġho ppers
Ġord ering
Ġret rie
Ġconc erning
Ġfact s
Ġsell s
Ġrelig ions
Ġwal ked
Ġhospital ity
Ġperm ission
Ġpercent age
Ġpros pects
Ġobt ained
Ġfrustr ated
Ġjournal ist
Ġclar ify
Ġcircum st
Ġdisappoint ed
Ġsuspic ious
Ġpiz za
Ġfreel ance
b our
Ġa a
re h
Ġw ood
Ġm d
or ation
Ġd im
Ġn k
ur ning
Ġj ail
Ġr it
Ġex ceed
Ġup s
Ġcont est
aw atha
Ġact ively
Ġtrave led
Ġinf ect
Ġ7 6
Ġlot us
Ġpass es
Ġes cal
ric s
Ġmod s
Ġhead s
Ġappro priate
Ġdeal ers
Ġtre as
ili ans
Ġtreat ments
Ġsuc ceed
Ġciv ilians
Ġoper ate
Ġrid es
Ġhy p
Ġye llow
Ġrisk y
Ġachie ved
Ġtransl ation
Ġtransl ate
Ġden ied
Ġdepress ed
Ġassign ments
vis iting
Ġscr atch
Ġhundred s
Ġhyb rid
Ġinternation ally
Ġunne cess
o de
Ġt ab
Ġt attoo
Ġm c
Ġf er
Ġh iring
Ġl one
Ġon wards
ut ional
Ġhe ight
Ġor ph
Ġfr aud
Ġex cess
Ġex empt
Ġun know
Ġind o
pl ic
Ġmin imal
Ġfu cked
Ġinv ited
Ġtravel er
Ġtour s
Ġair craft
Ġsm ile
ial og
duct ion
Ġleg isl
Ġcor ner
Ġsk illed
Ġz eal
Ġport ion
Ġmult i
Ġrain y
Ġod d
Ġbott les
Ġscre ens
trave l
Ġvari ety
Ġple as
Ġdetail ed
Ġairb nb
Ġcharac ter
Ġfundament al
Ġfy i
Ġmuse um
Ġoutdo or
d ialog
g pt
p itiya
y y
Ġs ke
Ġm igration
Ġan ger
Ġg ig
Ġre ly
ll o
Ġas p
Ġas ap
Ġsh itt
Ġsome body
un ge
ap ter
Ġim o
Ġco vers
Ġdi as
Ġnow here
Ġspe cies
ens ions
Ġbank rupt
Ġent it
Ġrep lied
Ġfl at
Ġstate ments
ict ed
Ġcomput ing
Ġorigin ally
Ġlea f
Ġprior it
Ġrul ing
Ġdeath s
Ġfoot age
Ġrepair s
Ġcommit ment
Ġblood y
Ġdemocr acy
Ġrom antic
Ġsight seeing
Ġimpress ion
Ġadvertise ment
Ġwik ipedia
Ġdemon st
Ġfert il
Ġzeal and
1 4
b c
g ment
i que
l a
m m
p y
w el
Ġs om
Ġs ib
Ġm l
Ġb m
Ġl it
Ġl ag
Ġd s
ar r
Ġe o
Ġof c
ank a
ut ara
ol it
ig ning
Ġlo yal
wh en
Ġres erve
Ġover priced
Ġinc or
Ġ6 7
Ġ9 3
Ġlet ters
Ġsuggest ion
Ġcare ful
Ġsupport ive
Ġconf erence
Ġ15 00
Ġass ess
Ġqual ified
Ġmet al
Ġbelie ved
Ġstop s
Ġpurch ases
Ġorgan is
Ġwin ning
Ġhit ting
Ġimm igr
Ġhost els
Ġod i
Ġign ored
Ġrandom ly
Ġconsum er
Ġbachel ors
Ġwide ly
Ġmanufact uring
Ġconserv ative
Ġayurved ic
Ġcere mony
Ġanal ysis
f ol
g ender
p on
Ġt id
in ate
Ġc ow
Ġm t
Ġf t
Ġf aces
Ġp orn
Ġd ance
Ġn oo
Ġg ained
Ġg ifts
ot y
Ġis h
Ġk oko
th i
Ġr arely
un ning
so ft
ure au
Ġ5 1
Ġro ot
Ġph il
Ġmar gin
stand ing
Ġ9 5
Ġins ist
Ġcour ts
Ġext ension
Ġhard er
Ġlist ening
Ġsell ers
Ġprop ag
Ġuk rain
Ġfort un
Ġdemand s
Ġcomb ination
Ġwind ow
Ġbrows ers
Ġattract ions
Ġcru cial
Ġenro ll
Ġapi it
Ġkore a
Ġamend ment
Ġequival ent
Ġsess ions
3 3
c m
i ation
i ors
m pt
p o
Ġa u
Ġc ima
st ood
Ġfor cing
ent ed
Ġst one
Ġsh ad
Ġcan ad
Ġwas ting
Ġab ans
ul s
ind er
eri a
Ġsp ice
Ġintern al
Ġpres cri
Ġatt itude
sh it
Ġret urning
Ġbuild ings
Ġrajapak sha
Ġart ists
Ġfail ing
Ġlar ger
Ġcertific ates
Ġimportant ly
Ġfall ing
Ġsil ent
awat te
Ġsurpr ising
Ġconduct ing
Ġthread s
Ġprodu ced
Ġfest iv
Ġmac book
Ġpure ly
ham ed
Ġpic king
Ġislam ic
Ġbor row
Ġlandsc ape
Ġcollap se
Ġdias por
c les
g y
p lease
y ou
Ġth in
Ġc p
Ġb oss
Ġb ureau
Ġp ir
ri g
Ġit aly
am uwa
ur u
Ġpl ot
el ines
ag ala
Ġdi abet
Ġbr ings
Ġ7 4
Ġtax is
Ġdisc over
Ġap olog
Ġ201 2
Ġpack ed
Ġland s
Ġru h
Ġvi able
Ġreport ing
Ġmind ed
Ġaccept able
Ġwick ets
Ġfocus ing
Ġvict ory
Ġassoci ated
Ġobs erv
Ġhistor ic
Ġspread ing
Ġcoo per
Ġnur sing
Ġanaly t
Ġalleged ly
Ġcha os
Ġleng th
Ġfeas ible
Ġrelie f
2 8
c r
d er
k g
p n
v als
in h
Ġthe ory
Ġb le
Ġb icy
Ġl ap
Ġn ag
Ġg s
Ġso vere
Ġpl ain
ul ate
Ġun e
Ġhi kes
Ġpo cket
Ġ4 50
Ġafter wards
Ġ6 9
Ġche ese
Ġem ph
Ġcr ush
Ġcle ared
Ġstr ange
Ġmet er
Ġbelie fs
Ġbre ath
Ġser ving
Ġtransfer red
Ġaccess ible
Ġdemand ing
Ġhy pe
Ġdin ing
Ġaut o
Ġign ore
Ġcondition er
Ġflag s
Ġapprox imately
aram ulla
Ġtin y
Ġguest s
Ġarchitect ure
Ġcond em
Ġcath olic
Ġbehavi our
Ġexpos ure
Ġentertain ment
8 70
b by
d ated
e en
h ave
t ies
v il
w ant
w ord
Ġt ld
Ġw is
Ġb ot
at unga
Ġto ler
Ġin land
is a
Ġg ri
Ġst ood
th on
Ġv ague
Ġno ise
Ġsp in
Ġover t
Ġinc lus
Ġtrave ller
Ġcre w
Ġsomet ime
Ġvisit s
Ġreg ions
ne xt
Ġed ge
Ġ9 8
Ġsy mpt
Ġgener ated
Ġpublic ly
Ġimp osed
Ġexpl aining
Ġstre t
Ġrajapak sh
Ġregard s
Ġtechn ologies
Ġfun ction
Ġlim its
Ġglo bally
Ġver ification
Ġattempt ed
Ġdisapp ear
Ġjav a
Ġsco ld
Ġchat gpt
Ġarr anged
Ġarg ue
Ġreput able
Ġque ues
Ġsum mer
Ġintrodu ce
Ġkar un
Ġresign ation
Ġsens itive
Ġfrequ ent
Ġoccur red
Ġhes it
Ġdeter min
Ġargu ment
Ġtok en
Ġfru it
Ġspl it
Ġtransf ers
Ġtld r
e ward
f alls
n ch
o le
Ġt ear
Ġa qu
Ġi i
Ġw age
er c
Ġc ats
Ġd at
al d
ic it
Ġre in
ot ic
Ġu l
ac c
Ġat e
ab e
Ġun ity
Ġle op
Ġsa v
Ġup set
ag ues
Ġno f
Ġco in
Ġsc an
Ġsc ream
Ġtrave llers
Ġcar g
Ġfore x
Ġdr am
Ġprivate ly
Ġpersonal ity
Ġq a
Ġcuri osity
Ġart ific
Ġorgan ic
Ġemploy ed
Ġcompl aining
Ġmedic ines
Ġdesign er
Ġtyp ically
Ġdeep er
Ġrain forest
Ġthreat ening
Ġthreat ened
Ġmag ist
Ġhang out
Ġethnic ity
Ġkal utara
Ġundergr ad
Ġminor ities
Ġconfirm ation
Ġtas ks
Ġsem ester
Ġatm os
Ġegg s
Ġveget arian
Ġayurved a
Ġrecru it
Ġindones ia
Ġtenn is
boo ks
Ġdiabet es
Ġemph as
6 8
t op
Ġa z
Ġw et
or ough
Ġp id
Ġl au
Ġd ns
Ġn se
Ġn ad
Ġwe ap
Ġj et
Ġse ctions
Ġwas ted
us ive
Ġexp end
Ġpo d
aw ay
Ġdis rupt
Ġspe ct
Ġplan e
Ġsc ope
ang ala
Ġmin ing
Ġbo om
Ġ201 4
Ġru ined
Ġworth y
Ġport al
Ġdef end
Ġisland s
Ġprogram ming
Ġcap able
Ġgre et
Ġspeak ers
Ġpath way
Ġfil ms
Ġvot ers
Ġlic ence
Ġenjoy ed
Ġinvol ving
Ġstat ue
Ġsuff ered
Ġlab el
Ġbur ning
Ġattempt s
Ġcoun sel
Ġjun gle
Ġstrateg ic
Ġstrateg ies
Ġstartup s
Ġsetting s
Ġfreelan cing
Ġug c
Ġbomb ings
Ġinstruct ions
Ġhab arana
Ġpunish ment
Ġcompar ison
Ġexcell ent
Ġgy ms
Ġaffili ated
Ġcircumst ances
Ġdiaspor a
Ġsympt oms
m ates
n et
t el
Ġi cc
in ct
Ġb ub
Ġh ust
Ġd j
st ream
Ġli es
Ġr ating
Ġv ice
Ġch art
ap es
Ġall iance
Ġlo ad
Ġfe ature
Ġqu ant
ish ing
Ġpre c
Ġpr on
Ġmar ked
Ġ6 3
Ġ8 7
Ġcr ab
Ġcr ap
Ġel ite
Ġhand led
Ġclass ic
Ġap ologies
Ġcou ples
Ġless er
Ġwel com
Ġ200 5
Ġ16 0
Ġconst ruct
Ġansw ered
pr int
Ġexc lud
ho b
Ġcop s
Ġapart ments
Ġcover ing
Ġthreat s
Ġconsum ption
Ġnar rative
Ġrepe at
Ġpie ces
Ġven ue
Ġequal ity
Ġmill ions
Ġinnov ation
Ġfurn iture
ambal apitiya
Ġdivor ce
o x
Ġt rop
re dit
in ating
in form
Ġb h
or a
Ġan ge
Ġd ir
Ġe b
Ġe ve
Ġbe ll
ver ty
Ġas us
Ġas pect
im port
Ġv it
um es
Ġmu lla
Ġgot ta
Ġatt ended
Ġbl aming
Ġpar ad
Ġra ising
Ġsrilank ans
Ġwar ned
Ġsure ly
Ġland ed
Ġtest ed
Ġmom ents
Ġ200 8
ploy ed
Ġnat urally
Ġliter ature
Ġfurther more
Ġnt o
Ġcolle agues
Ġeth ical
Ġlarge ly
Ġprep aring
Ġadm it
Ġmotor b
Ġpu lled
Ġdh amm
Ġpromot ion
Ġaud ience
Ġreported ly
Ġsup erior
Ġpush ed
Ġmeaning ful
Ġreci pe
Ġconsist ent
Ġshoot ing
Ġts un
Ġcontrovers ial
Ġcomplic ated
Ġvend ors
Ġpera hera
Ġtheat re
Ġtig ers
f a
f ront
j an
t our
Ġs ake
Ġw ire
Ġl ying
Ġg ala
as ia
Ġy og
Ġfor ms
am una
Ġha bit
op hob
us al
qu it
ap ed
Ġpe eps
Ġam d
Ġout dated
Ġag end
Ġdi verse
Ġpo verty
Ġar ab
Ġph ase
Ġsc uba
Ġdec iding
ra is
Ġlet ting
Ġbu nd
Ġins ult
Ġnight life
Ġcor on
Ġoffic es
Ġexpl os
Ġcent res
Ġstr ay
Ġprocess ing
Ġprom in
Ġmiss ion
Ġpet ition
Ġimpro ved
Ġapplic able
Ġprem ier
Ġpain t
Ġpan el
Ġbatt aramulla
Ġhang ing
Ġ36 5
reg ard
Ġtut or
Ġbeat en
Ġguarant ee
Ġaccom od
bu ild
Ġdiagn osed
Ġpregn ant
Ġexplan ation
Ġunnecess ary
Ġshitt y
Ġruh una
c omm
m ine
p an
Ġt all
Ġs q
Ġw ard
Ġc ad
Ġc able
Ġb are
Ġp ing
Ġl amp
Ġn ch
as y
Ġwh ales
Ġr ath
Ġv pn
Ġch os
el ine
ess ed
Ġad apt
os is
Ġhi red
eri al
eri ya
Ġpri de
Ġmon key
gg er
Ġtri ck
Ġfir ms
Ġperson nel
Ġem ails
Ġinst ru
Ġpos s
Ġsm ell
Ġcr ack
ues e
Ġconf using
Ġsto pping
Ġsci ences
Ġport fol
Ġhum ans
Ġhar sh
Ġprofess or
Ġimpro ving
Ġgradu ation
Ġstrong er
Ġpsych ological
Ġmigr ating
Ġlegit imate
Ġterror ists
Ġsubs cri
Ġassign ment
Ġunc ertain
Ġlean ing
1 7
9 0
e k
k andy
w ing
in ance
Ġc t
Ġb out
Ġd ol
Ġn erv
Ġn go
it arian
om b
Ġst amp
am ed
Ġsh ape
Ġsu v
li p
li x
ak er
Ġqu oted
Ġsp icy
Ġres olution
ath y
Ġper ce
Ġgovern ance
ire ct
Ġed iting
Ġbl og
Ġdes cription
Ġdep ends
Ġgreat est
Ġopp osed
Ġret ired
Ġquestion ed
Ġru in
Ġz oom
Ġfact or
ili ation
Ġalong side
Ġtrad itions
Ġbreak s
Ġcompl ained
Ġrequest s
Ġbat ter
Ġmental ity
Ġmb bs
Ġexpress ed
Ġtu ks
Ġdisapp ointing
Ġjun ior
Ġrespond ed
Ġtariff s
Ġkat un
Ġbull shit
Ġwitness ed
Ġentreprene ur
Ġhat red
ov o
buy ing
Ġsymb ol
Ġportug uese
Ġunknow n
Ġcanad ian
Ġwelcom ed
3 5
p art
u ber
Ġt iss
re nd
an cing
Ġm m
Ġp ta
Ġto ile
Ġl em
Ġl pl
Ġn ons
is ena
Ġy ah
Ġst ake
th inking
Ġv ul
Ġab ey
Ġal ign
Ġun em
ap h
Ġcol um
Ġqu arant
ber y
Ġacc idents
Ġback ed
Ġgovern or
Ġ7 2
Ġ7 8
od s
Ġtrans gender
Ġsal t
Ġnational ism
Ġsign s
Ġless on
Ġresearch ing
Ġpick up
Ġrent ed
Ġcamp ing
Ġcertific ation
Ġenj oying
Ġmedic ation
app ro
Ġwick ram
Ġeffect ively
Ġcollect ed
Ġbod ies
Ġswitch ed
Ġredu cing
Ġarch ae
Ġsea food
Ġcam er
Ġhor ror
Ġdocument ary
Ġtrou b
Ġny e
Ġnar row
Ġowners hip
Ġparticip ate
Ġemot ionally
Ġphotograp hy
Ġot p
Ġcous ins
Ġaward ed
Ġves sel
Ġtort ure
Ġsubur bs
Ġcig are
Ġtsun ami
Ġchos en
f c
g ri
h um
Ġc d
Ġc v
Ġm outh
Ġb read
Ġp oo
Ġto m
Ġd ump
it ivu
al u
Ġe a
ut s
ke ys
Ġsh orter
Ġex it
Ġex erc
Ġcon gress
Ġal right
Ġpro ven
Ġpe pper
Ġ3 60
ak ers
Ġqu arter
Ġri ver
Ġdis aster
Ġro of
Ġplan et
Ġma ith
Ġaccount ing
Ġpres cription
Ġ9 7
Ġav iation
Ġrep ay
Ġweek ly
Ġdr unk
ph ere
Ġmain stream
Ġfree ly
Ġleg s
Ġraj ag
he y
Ġcert ified
wor ks
Ġprom pt
Ġmention ing
Ġprotest ors
eng ue
Ġann ivers
Ġele v
Ġauthor ized
Ġcredit s
Ġclean ing
Ġcir cle
Ġkey board
Ġgrand ma
Ġmag n
Ġmaint ained
Ġexpert ise
Ġconsult ant
Ġfill ing
Ġspok es
Ġpasseng er
Ġsac red
Ġdescri bed
Ġkr ish
Ġmonet ary
Ġpid ur
Ġannivers ary
h z
i os
j aya
m et
r ors
r ise
u ce
Ġs ons
Ġb is
Ġh ub
Ġl az
Ġg or
Ġg aining
Ġe ight
ot al
Ġwe lf
Ġj k
Ġj aze
Ġr ing
Ġsh ipped
Ġsu cks
Ġpl c
Ġlo gin
Ġ3 000
ag s
Ġour s
Ġres idents
Ġro ll
Ġ8 3
bs l
ra j
Ġair tel
Ġaw a
Ġdr ain
Ġfre nch
Ġpop ul
Ġgoo g
Ġob lig
Ġdro pping
Ġfig ured
Ġsoci et
Ġris ks
Ġrecogn ised
Ġcorrect ly
Ġresour ce
Ġjay as
Ġbooking s
Ġmigr ated
oun ge
Ġvir us
Ġsleep ing
Ġarr ack
Ġol s
Ġcommunic ate
Ġtrend s
Ġadam s
Ġlay over
Ġphotograp h
Ġsir isena
Ġincreasing ly
Ġenro lled
Ġconven ience
har ama
Ġdelay ed
Ġhs bc
Ġdoub ts
Ġaggress ive
Ġaband oned
Ġpd f
Ġpropag anda
b a
h ana
p a
p ol
t les
v y
Ġ ou
Ġt f
Ġt act
Ġi con
Ġi rd
Ġf d
Ġd ying
Ġn ood
Ġn sri
ar n
ar ters
ri ers
ri pt
Ġe ase
st it
Ġk it
Ġk and
Ġk iri
Ġr y
Ġne e
Ġne ut
Ġfr ag
Ġab usive
Ġwor ship
Ġad e
Ġun if
Ġout come
Ġacc ent
Ġar ms
Ġunder stood
iv a
Ġinc on
Ġsc ript
Ġper amuna
Ġher self
get ting
Ġcr ow
Ġhard ware
sa fe
Ġfac ility
Ġsing er
Ġref use
Ġca ut
Ġsecond ary
Ġprotest ing
Ġscam mers
Ġmanag ers
Ġself ish
Ġfall en
Ġrespect ful
mar ily
Ġpain ting
Ġpain ful
Ġtur tle
Ġcoun se
Ġess entials
pri v
Ġattract ive
Ġsister s
Ġvacc ination
Ġclos est
Ġsqu ee
Ġdeb ate
Ġfreelan cers
Ġinqu iry
Ġhighlight s
Ġmos quit
Ġflu ent
char ge
Ġconvin ce
Ġanc est
Ġfis her
Ġanonym ous
Ġretire ment
Ġlone ly
Ġanalyt ics
Ġartific ial
Ġatmos phere
Ġtrop ical
Ġdhamm ika
Ġnons ense
Ġrajag iriya
Ġunif orm
g alle
i us
m ir
m ah
r ama
t i
Ġt ons
Ġi os
er ous
Ġc z
Ġf asc
Ġp ill
Ġp ump
Ġh its
ing ly
Ġl ord
Ġl ounge
Ġin ver
Ġn un
Ġn de
Ġg a
ot es
am s
Ġj u
Ġse es
Ġch il
Ġpl z
Ġpro sec
ort ion
ab h
os h
Ġrec k
ag oda
Ġag es
Ġag ed
ck ets
Ġind eed
Ġdec line
Ġpost p
Ġpost gr
Ġtravel s
Ġ9 6
Ġconnect ing
what s
Ġass ass
Ġeduc ate
Ġfar mers
Ġhard ly
Ġbi omed
Ġest imate
Ġprom ise
Ġwater falls
Ġbrand ed
Ġsafe ly
Ġmanage able
Ġann oy
Ġ22 5
Ġemploy er
Ġaccording ly
Ġpat ri
Ġmis le
Ġfem in
Ġprovin cial
ograp hy
Ġscre w
Ġconsum ers
Ġassist ant
Ġsan ct
Ġkum ar
Ġut ter
Ġpoll ution
Ġpref erence
Ġder ana
Ġflex ible
Ġvirt ual
Ġkil omet
Ġdiscl aim
Ġratn apura
Ġworksh op
Ġlen ovo
Ġdise ase
Ġorph anage
arr ass
Ġmagist rate
Ġpromin ent
Ġpidur angala
Ġwelf are
Ġcaut ious
f ather
i ving
l ord
m ath
n eriya
p ing
p erson
r as
y ani
z en
re en
er ies
Ġm i
Ġm end
Ġb f
Ġp our
Ġd ines
Ġn it
Ġg ce
Ġg rid
Ġfor th
Ġst orm
Ġfr ance
Ġv a
Ġsu z
el ts
ap al
Ġpe k
Ġwho ever
Ġapp lies
Ġout put
Ġtri es
erv es
Ġed ition
Ġ9 2
Ġbas ket
Ġsm oke
Ġsuggest ing
Ġgu ides
Ġdep reci
Ġgreat er
Ġter rit
Ġdisc ord
Ġcult ures
Ġ12 5
Ġreason ably
uk i
Ġconc lus
Ġwel coming
Ġprom ising
Ġhar sha
Ġser vers
Ġorgan isation
Ġeconomy next
Ġstream s
Ġpassport s
Ġfort ress
Ġprem ises
Ġdownload ing
Ġprovin ces
Ġrelax ed
Ġpromot ed
Ġcorpor ation
Ġinstall ed
Ġearning s
Ġfinish ing
Ġproced ures
Ġnav al
Ġmechan ism
Ġmos que
Ġacadem ics
Ġsusp ended
Ġdent al
Ġinvolve ment
Ġfab ric
Ġentit led
Ġpod cast
Ġkatun ayake
Ġdisclaim er
Ġdines h
3 6
c ity
c ase
c ery
e w
g en
h rs
p ot
r ary
Ġi pl
Ġm ud
Ġb ambalapitiya
Ġf on
Ġp issed
en n
it able
Ġo x
Ġo ly
st ud
Ġbe g
Ġis p
Ġis nt
ol ved
Ġor g
ch ool
ur ren
Ġj a
Ġr aining
Ġde lic
Ġtr ap
Ġab ol
Ġal ph
ain t
bo d
os op
Ġapp eared
Ġcomp aring
Ġcomp rom
Ġint im
Ġpri marily
au g
ass ad
Ġres ist
Ġmon keys
Ġstud io
Ġinter ior
Ġmin neriya
Ġdec re
Ġ8 6
Ġworld wide
Ġsuggest s
Ġpar an
Ġopt im
Ġsy n
Ġleg end
Ġmarket place
he alth
Ġlearn ers
Ġdist ract
Ġrout ine
Ġpast e
Ġ18 8
Ġsecond s
sri lanka
Ġ13 0
Ġlow est
Ġhold ers
Ġaccept ing
Ġdiscuss ing
Ġsent iment
Ġdel ays
Ġstrong ly
Ġaddress ed
Ġsam ar
Ġexpress way
Ġneighb ors
Ġrestrict ed
Ġemb arrass
cer ies
Ġamb ul
Ġsem i
Ġrefer red
Ġrad io
Ġreci pes
Ġpil gri
Ġkot te
Ġgro ceries
Ġencount ered
Ġsatisf ied
Ġbrut al
Ġfulf ill
Ġsett led
Ġstret ch
Ġportfol io
Ġnerv ous
Ġcamer as
Ġincon ven
Ġpek oe
b n
g l
h al
l ings
o ons
s al
u ll
w an
Ġs ets
Ġs amb
Ġth ar
Ġw ing
ou red
Ġf led
Ġp ants
Ġd un
Ġd ict
Ġn we
al am
Ġo a
Ġo c
Ġe ager
Ġre h
st atic
Ġbe ef
Ġu i
Ġst ere
Ġk a
Ġsh if
Ġme e
ist ent
are ncy
Ġlo ving
Ġout lets
Ġco ins
Ġwork er
Ġsp an
Ġmon u
Ġpr a
Ġinc ons
ath an
Ġ6 2
Ġcre ation
Ġ7 3
Ġdri ves
Ġhapp iness
Ġconnect ivity
Ġpass word
Ġsou ght
Ġcult iv
Ġsol ved
Ġexpl oration
Ġfl owers
Ġmor a
Ġz ones
Ġ11 0
Ġhead ed
Ġwa ited
ik ud
Ġ200 4
Ġactiv ists
Ġbreak down
Ġaccess ories
Ġnt r
Ġsort ed
Ġsil ence
Ġlab or
Ġnecess arily
Ġstress ful
Ġess entially
Ġpc r
Ġdocument ation
Ġadvert ising
Ġill ness
Ġcampaign s
Ġamb assad
Ġparticip ation
Ġgard ens
Ġnur ses
Ġult imate
Ġec static
Ġvent ure
Ġclin ical
Ġprinci pal
Ġtransp arency
Ġsole ly
Ġunus ual
Ġignor ant
Ġphil osop
Ġmulla itivu
Ġgala xy
Ġyah apal
Ġinver ter
Ġbiomed ical
a pped
b ar
r ition
s ome
w ater
z ed
Ġs ed
in tern
Ġc iting
Ġm ile
Ġb um
Ġb eng
Ġp ets
Ġl aid
Ġd ust
ed y
Ġn is
Ġst ig
Ġj ul
est ed
Ġr oti
Ġne ck
il it
Ġsu ck
Ġwas hing
Ġab t
Ġab used
Ġpro c
ab ilities
qu ate
Ġrec all
Ġout r
Ġim plic
Ġover come
ub ow
Ġeng aged
Ġeng aging
Ġwell awatte
Ġtrain ed
Ġhot sp
Ġcare ers
Ġdr ag
ug s
Ġnum erous
Ġbi ological
Ġstand s
Ġedit or
Ġfil es
Ġtreat ing
Ġequ ally
Ġsun rise
Ġver ified
Ġvict or
Ġbrok ers
Ġign oring
Ġkal pitiya
Ġbed room
Ġcry ing
Ġmach ines
Ġliber ation
Ġtra uma
Ġaim ing
Ġconserv ation
Ġpin n
Ġconcept s
Ġclin ic
Ġgather ing
Ġcommand er
Ġlift ed
Ġisol ated
Ġdisconnect ed
Ġpf ca
Ġfestiv als
Ġcarg ills
Ġbub ble
Ġlaz y
Ġsuz uki
4 5
5 5
i as
j o
m l
p arent
u ks
Ġa ka
Ġs id
Ġs are
Ġth ick
Ġth orough
Ġthe r
er able
Ġc ul
Ġm ort
Ġb ol
Ġf ou
Ġp ace
Ġp ink
Ġan ime
Ġl ah
Ġd ick
Ġd raft
Ġd engue
Ġn con
om a
ar is
Ġe k
Ġst ir
Ġj ack
Ġr ab
Ġsh ed
op ular
Ġpl ays
Ġpe ar
ag ers
Ġcomp on
Ġ5 2
ach chi
Ġadv oc
Ġri p
aw atta
Ġrel ic
Ġcar go
Ġinv ite
Ġem br
Ġsupp le
Ġbl ocking
Ġsub sequ
Ġaw ful
Ġaw ards
Ġdes erves
Ġcheck out
Ġment ions
uk a
Ġeas iest
Ġland lord
Ġwatch es
Ġstr ing
Ġeff iciency
Ġmah a
Ġspecial ist
Ġdiscuss ed
Ġbri ght
Ġforward ing
Ġexch ang
Ġfix ing
Ġdest ruction
Ġsen anayake
Ġna e
Ġcertain ly
Ġdownload s
Ġimprove ment
Ġlab s
Ġpresent ed
Ġdom ain
Ġestablish ments
Ġguid elines
Ġvol ume
Ġtarget ed
Ġlog ic
Ġdepos its
Ġwithdr awal
Ġrefer ring
af ter
Ġrad ical
Ġoccas ions
Ġpartners hip
Ġframe work
mal ana
Ġinsp ired
Ġpy thon
Ġannounce ment
Ġnavig ate
Ġdies el
Ġclim bing
Ġukrain e
Ġquarant ine
Ġmend is
Ġstere oty
c iliation
l ers
m atch
r ac
w est
Ġs d
Ġs es
Ġs ene
Ġw ages
Ġc er
Ġm ism
Ġb er
Ġh d
Ġh am
Ġl ens
Ġd ul
Ġd ive
Ġd ans
Ġn er
Ġo v
ow ered
ot ing
Ġis ps
id s
Ġas se
Ġr ains
Ġde ll
ud i
Ġun con
Ġle ak
Ġlo cked
ak k
Ġint ended
Ġcl ock
Ġnew b
Ġdis ag
Ġinter f
Ġinter medi
Ġro ots
Ġjo kes
Ġper pet
Ġrel uct
Ġ7 9
ound s
Ġbefore hand
Ġsub t
Ġsy mp
Ġimp orters
Ġnational ist
Ġcent ers
Ġquestion ing
Ġcust ody
Ġconc ent
Ġref uge
Ġfre aking
Ġq r
Ġclose ly
Ġdro ve
Ġpract ically
Ġavoid ing
ok a
Ġdesign s
cript ions
Ġcollect ing
ex p
Ġdistrict s
Ġbur ger
Ġtur tles
Ġcomb ank
Ġje well
Ġdress es
Ġconduct or
Ġvir gin
Ġvalid ity
Ġsepar ately
Ġfish ing
Ġjun ction
Ġlog istics
Ġlecture r
Ġmeas ure
Ġbul k
Ġcru el
Ġdiscount s
Ġincred ible
Ġgate way
Ġthr ott
Ġforgot ten
Ġpharm acy
Ġdy nam
Ġenforce ment
Ġniss an
Ġorganis ations
Ġvul ner
Ġjaze era
Ġcrow ds
Ġchil aw
parent s
f ting
i ar
i ques
m il
p ick
v able
w at
Ġa x
in y
er ving
Ġc us
Ġm it
Ġg all
Ġe pic
Ġre ward
Ġu b
Ġst ars
Ġk g
Ġk er
Ġk am
Ġor ange
Ġr ally
pp y
Ġne x
Ġbut ter
Ġme re
Ġpro hib
el ing
Ġjust ify
ind u
ak kara
Ġint end
ase kara
ach e
Ġcont rast
Ġind ies
Ġph y
Ġgr ass
av un
Ġ7 1
Ġtw ist
Ġke els
Ġ9 1
Ġbl ow
Ġcr ash
Ġreal ise
Ġdep th
Ġimport ance
Ġfollow ers
Ġadd s
Ġbo ot
Ġ201 3
Ġsw ift
Ġresult ed
Ġq o
Ġmal ay
Ġwal ks
Ġperiod s
Ġsli p
Ġcab s
Ġste al
Ġguess ing
Ġjud gment
Ġcontrib uted
Ġcelebr ations
Ġsubs cription
Ġfacult ies
Ġperspect ives
Ġtukt uks
Ġassign ed
mat ologist
Ġresign ed
Ġfreelan cer
Ġconsist ently
Ġgp u
Ġtherap ist
Ġhero es
Ġacadem y
Ġrecon ciliation
Ġmanufacture r
Ġresol ve
log ic
Ġdivers ity
enna i
Ġexpend iture
Ġmotorb ike
Ġintim id
b us
f lix
m are
u h
v an
w as
Ġt i
Ġs b
re ts
Ġc cc
Ġb ored
Ġf iction
or al
Ġp ending
Ġh ills
ing u
Ġg ent
st al
ll ion
Ġst y
Ġst unning
ver ted
Ġk ul
ur f
ur g
Ġdo d
Ġdo ors
Ġas sh
Ġr as
Ġsh ocking
op les
Ġfr anch
Ġv avun
Ġtr ails
Ġwhat so
Ġpe an
Ġyour s
Ġfe ver
Ġim e
Ġloo se
ning s
Ġhad n
Ġcomm ute
ub s
og y
Ġsc ar
Ġsc ro
Ġcons ens
Ġcar n
Ġbl ast
Ġgu it
Ġel im
Ġsou l
Ġlear nt
Ġter rif
Ġmat ale
mo a
Ġhead qu
Ġdirect ed
Ġallow ance
Ġactiv ist
Ġob st
Ġcharg er
Ġhold s
Ġfil ter
hi gh
Ġrespect ive
Ġcompet it
Ġcollect ive
Ġsil ver
Ġfast est
Ġaffect ing
Ġcra ving
Ġpan ic
Ġje wel
Ġvers ions
Ġskin care
Ġapproach ed
Ġaud io
Ġprogress ive
Ġloss es
Ġperfect ly
Ġmer it
Ġappear ance
Ġremo val
Ġclar ification
Ġrenew al
Ġautom atically
Ġsmo king
Ġoccas ional
ivers ity
Ġrush ed
Ġdistrib ution
Ġves ak
Ġliqu or
Ġadopt ion
Ġdistur bing
Ġincom pet
Ġoverwhel ming
Ġgram mar
Ġnge o
Ġrt x
Ġsib lings
Ġbicy cle
Ġwis dom
Ġagend a
Ġpostgr aduate
Ġwhatso ever
c g
g age
l iness
l ook
m other
n i
n an
s inh
t alam
w ind
z er
Ġt one
Ġa in
Ġs ap
Ġw and
Ġc ine
Ġm others
Ġb n
Ġb oring
Ġl ma
Ġd al
Ġn sh
is er
Ġg ross
ll up
Ġbe ating
ac ies
Ġst ad
ur ance
Ġdo s
Ġr m
Ġr ow
Ġsh ips
Ġfr ank
Ġcom bo
Ġch ennai
pe x
Ġall ergy
Ġpe oples
res pon
Ġexp er
Ġen h
Ġen light
Ġsa uce
Ġman if
Ġoff ence
ach es
Ġspe cs
Ġtri cks
ose xual
Ġ7 50
Ġpres idents
Ġinst a
Ġbl ess
Ġide ology
Ġlast ing
Ġnight mare
Ġgener ate
Ġes c
oc urren
Ġmat t
Ġfar m
Ġdet ained
Ġdet ention
Ġsw ear
Ġru ins
Ġsoft logic
Ġdeal t
Ġincre ases
Ġactiv ated
Ġcap ita
Ġnet flix
Ġcontro lled
Ġdel hi
Ġsen iors
Ġviol ation
Ġsort s
Ġaddress ing
Ġaffect s
Ġod ys
Ġmist aken
Ġstri kes
umb led
Ġwickre mat
Ġrail ways
Ġrev ol
Ġrepres ents
Ġsco res
Ġinstall ment
Ġfle e
Ġaccident ally
Ġliber ty
Ġanx ious
Ġbul lying
Ġep is
Ġperman ently
Ġbelong s
Ġdescri be
Ġthr own
Ġine ff
Ġale vels
Ġextrem ist
Ġelder ly
Ġhung ry
Ġneighbor hood
Ġpenal ty
Ġnewspap er
Ġlock down
Ġexceed ing
Ġloyal ty
Ġparad ise
Ġbis cu
Ġnood les
Ġpinn awala
Ġwickremat unge
2 7
b l
c ar
e lla
f ield
j ana
k ers
Ġt ier
Ġs ang
Ġs ne
ed uc
ar ath
Ġg ath
le ar
Ġre b
Ġre action
st on
ac les
Ġhe ct
Ġk ong
gh an
Ġdo c
pp a
Ġv ary
us d
ist ically
ud u
em y
Ġall erg
ven ir
ak aran
Ġcomp reh
Ġco ck
Ġman ual
Ġneed ing
Ġcont ains
Ġres c
Ġsl im
Ġop ens
Ġmed itation
Ġsupp lies
Ġserv es
Ġown s
Ġpriv at
Ġprov isions
Ġsou venir
Ġho le
Ġacknow led
Ġdevelop ments
Ġfar ming
Ġform at
Ġdist ant
Ġconc lud
az a
Ġrout ers
Ġtem per
Ġpret ending
Ġwater fall
Ġart ist
Ġmot ion
Ġbri d
Ġexc iting
Ġcommon ly
Ġdev ast
Ġsent ence
Ġdifficult y
Ġcivil ian
Ġcra ft
Ġpan els
Ġsecret ari
Ġadm ir
awe era
Ġcele b
Ġdisapp eared
Ġvir al
Ġfrust ration
Ġbrows ing
Ġcommission er
Ġrank s
Ġattend ance
Ġconstit utional
Ġcrimin als
Ġtra um
Ġpref erences
Ġnut s
Ġthrow ing
Ġassault ed
Ġcrypt ocurren
Ġlas antha
Ġkick ed
Ġliqu id
Ġchamp ions
Ġens uring
Ġtwe et
Ġfertil izer
Ġdol ph
Ġtoile t
Ġenh ance
2 1
f ord
g d
k ward
k era
m g
r ison
t aking
y our
Ġ ous
Ġt un
Ġi elts
Ġs ate
on y
Ġc bsl
Ġm si
Ġb order
Ġp ac
Ġh ong
Ġh ide
Ġd aw
Ġin aug
Ġo y
Ġre ar
Ġy rs
et er
ay an
Ġst ead
ct ional
Ġk ne
Ġk no
Ġor th
oo ked
ir a
ir us
Ġj am
Ġex hib
Ġat ro
Ġab ortion
un ity
Ġun l
Ġcol leg
ind ing
Ġexp ired
Ġsa pp
so le
ag amuwa
ans ion
Ġar bit
Ġcur ries
Ġph r
og ether
Ġsc ary
Ġcre at
Ġshe et
Ġfo ol
Ġcons p
Ġcons cious
Ġdown s
Ġfore cast
Ġaw kward
Ġinvest or
lank an
Ġwond ered
Ġdisc our
Ġho ly
Ġfl our
Ġ11 2
Ġshort ly
wor ld
Ġbeh ave
Ġmal abe
Ġfinan ces
Ġdro ps
Ġdeli ber
Ġmother board
ili pp
Ġprotect ed
Ġnation als
Ġrecogn ize
Ġpsych ologist
tr ans
Ġvill ages
Ġhy per
Ġhy gi
Ġunp ro
Ġpoor ly
Ġfol k
Ġdom in
Ġlak s
Ġgrand parents
Ġje ep
Ġestablish ment
Ġperm its
Ġmaint aining
Ġgun s
Ġgun award
Ġaccommod ations
Ġsum mary
Ġtarget ing
Ġdecl ined
Ġresort s
Ġsqu ad
Ġrav i
Ġven ues
Ġpil ot
Ġgp a
Ġguarant eed
Ġentreprene urs
Ġrapid ly
Ġexclus ive
Ġinspect or
Ġfant astic
Ġdeduct ed
Ġshel ter
bour ne
Ġprescri bed
inform ation
pol ice
Ġsene vir
Ġgent le
Ġvavun iya
Ġguit ar
Ġlma o
Ġstad ium
Ġodys sey
Ġsecretari at
Ġcolleg es
3 8
4 4
d on
f p
j ee
p ed
r is
u eless
Ġt ack
re r
Ġw oke
an cies
Ġp unch
Ġh ook
es y
Ġin nings
Ġn ac
Ġn ich
Ġn me
Ġn ether
Ġg h
Ġg ad
Ġe h
st ay
Ġdo able
Ġsh ower
and al
Ġch ath
Ġch asing
ul es
Ġlo ves
Ġac res
Ġam bit
Ġve g
Ġ4 000
Ġcont em
Ġvis h
Ġsp o
Ġsp ar
Ġsp ray
Ġpre d
Ġpre par
gg ers
Ġjo y
av id
Ġmin im
Ġfu p
Ġintern s
Ġbas ics
Ġappreci ation
Ġrem and
Ġear s
Ġold est
Ġexam inations
Ġleg acy
Ġ11 9
ari ans
Ġdist ress
Ġdirect ions
Ġ25 00
Ġput talam
Ġkid ney
ici ary
Ġtre k
Ġfun ctional
Ġsho ck
Ġgre g
Ġcertific ations
Ġcomment ed
ho st
mar k
Ġcop ies
Ġrid er
Ġcomfort ably
Ġpopular ity
Ġcrit eria
Ġemail ed
Ġarch es
Ġgrand father
Ġtast y
Ġilleg ally
Ġrank ing
Ġsuspect ed
Ġdiscrimin atory
Ġrespond ing
hold ers
Ġko h
Ġmonit oring
Ġreve al
Ġemot ions
Ġprofit able
Ġimpress ive
Ġsurround ed
Ġassum ed
Ġveget ables
Ġunlike ly
Ġinfluen cers
Ġcharac ters
Ġresident ial
cd on
Ġgro cery
Ġog f
Ġ194 8
Ġwat ers
Ġidi ots
Ġsubst ant
Ġhunt ing
Ġstruct ures
Ġoverwhel med
Ġfinger print
tt es
Ġexcess ive
Ġske pt
Ġdemonst r
Ġdat ab
Ġexclud ing
Ġtiss ama
Ġambassad or
Ġoutr age
Ġmanif est
Ġceleb ration
Ġnether lands
6 6
a ired
c ount
g ama
h ome
s y
t ion
w o
w al
z ing
Ġt t
Ġt ent
Ġt ied
Ġi st
Ġi am
Ġc ct
an other
Ġf if
Ġp it
Ġh ack
Ġd ess
Ġg ut
Ġwh is
Ġfor um
et ime
Ġha ha
Ġr up
Ġr cs
Ġse al
Ġfr y
Ġv ous
Ġnot icing
Ġch ip
ul ating
Ġad apter
Ġun safe
Ġus b
Ġlo ading
Ġrec ording
Ġdon ate
Ġint ense
Ġpo du
Ġres ume
aw ela
Ġback up
Ġph ilipp
av an
av ed
Ġcre ates
Ġher ath
vern ment
Ġche ating
Ġfew er
Ġsupp ose
uw an
we alth
Ġcr inge
Ġho bby
he llo
Ġmor al
Ġvi br
Ġval ued
Ġref using
Ġsign ature
Ġmind s
Ġarri ves
Ġq e
Ġ14 0
Ġview ed
Ġhar ini
Ġactiv ate
Ġteach ings
Ġcamp s
Ġpolic em
co st
Ġemploy ers
Ġspeak s
Ġreli ability
Ġsex ually
Ġcontro lling
Ġcy cl
Ġdam ro
Ġcompet itions
Ġconsider ation
Ġearn ers
Ġbat ting
Ġjap ura
Ġregist r
Ġrul ed
Ġexist ence
Ġdiv ide
Ġjay eward
Ġnc ol
Ġdead line
Ġcelebr ated
Ġcelebr ating
Ġobs erved
Ġvacc inated
Ġko llup
Ġrepresent atives
Ġbroad cast
Ġdeliver ing
Ġut il
Ġaim ed
Ġdisp os
Ġafric an
Ġult imately
Ġautom atic
Ġagricult ural
Ġder matologist
Ġug ly
Ġcart oon
Ġmicro soft
Ġnegoti ate
Ġly rics
Ġhab its
Ġmel bourne
Ġmotiv ated
Ġconvin ced
Ġexplo it
Ġglass es
Ġorient ation
Ġdesk top
Ġmut ual
Ġrang es
Ġcontinu ous
Ġtro ops
Ġprev ention
Ġrepeated ly
Ġdism issed
Ġgraph ics
Ġcree py
Ġshad y
Ġcigare ttes
Ġneut ral
Ġconclus ion
Ġdelic ious
Ġimplic ations
Ġsenevir atne
b ath
d ney
g aya
h ab
k w
l ly
m ail
u ff
Ġa pt
Ġa jith
Ġi re
Ġs is
Ġth ie
Ġc ents
Ġm ur
Ġb ast
Ġp or
Ġp ics
Ġn es
Ġg moa
Ġbe ij
Ġst abil
id ers
Ġhe ck
Ġk usal
Ġmy st
ch chi
Ġli gh
one er
Ġsh ots
Ġtr c
Ġtr ag
Ġch ron
Ġpl ates
ist ani
el iya
Ġun av
Ġle asing
all a
Ġen for
Ġen abled
Ġpo ckets
Ġcl ueless
Ġaf ghan
if e
Ġar un
Ġar ug
Ġar rog
Ġvis ual
Ġres et
aw s
ath i
ep ura
av irus
ress ion
Ġdec or
ade ep
Ġpost al
ne ys
Ġmed al
pect ed
Ġbas il
Ġiss uing
ater al
Ġcare d
Ġagree ments
Ġpower cut
Ġ12 8
Ġsol ving
Ġce ll
Ġsouth e
Ġcent uries
he ed
Ġnorm s
Ġ200 6
Ġtechn ically
Ġprop ose
Ġpath etic
Ġfail ures
Ġcommon wealth
Ġoper ators
Ġsurf ace
Ġcas ually
Ġimm ense
Ġbar rier
iy o
Ġrac ial
Ġintro vert
Ġdh an
Ġscen ery
Ġmag ic
Ġtrack s
Ġtarget s
Ġsup erv
Ġsqu are
Ġwealth y
Ġphotograp her
Ġrom an
Ġton ight
Ġkat aragama
Ġbranch es
Ġadvis or
Ġcast e
Ġbound aries
Ġcontinu ously
Ġbird s
Ġshar p
suggest ions
Ġweap ons
Ġyog a
Ġaccomod ation
Ġperce ived
Ġbatter ies
Ġphilosop hy
Ġpear l
Ġasse mb
Ġcine c
Ġous l
Ġcct v
Ġbeij ing
1 00
d ri
m k
n n
p ower
p ods
w ela
Ġth ai
Ġw ides
er ation
Ġm art
Ġm awatha
Ġl acking
Ġl itter
Ġd ash
Ġin sec
Ġn est
Ġn all
Ġre verse
st ation
Ġy t
Ġst all
Ġst umbled
am y
am an
ad ana
Ġare nt
Ġas hamed
Ġj s
Ġv ital
Ġwor s
Ġac id
Ġac cel
Ġam p
ry ing
Ġtim eline
Ġco al
Ġhelp less
Ġri pped
Ġri ots
Ġpre val
Ġpr abh
Ġover c
Ġro ast
Ġfind s
Ġcre m
Ġbuy ers
other ap
Ġmake up
Ġ8 2
Ġbu cks
Ġwar s
Ġprice y
Ġcheck s
Ġbo ats
Ġproduct ive
Ġmod i
Ġresearch ers
ik k
Ġcricket ers
Ġcontact ing
Ġdepart ments
Ġinfl ated
Ġrepl acing
Ġoper ated
Ġinvol ves
Ġviol ations
Ġdifficult ies
Ġcop e
Ġappoint ments
Ġband w
Ġanim ation
Ġspot ify
Ġunfortun ate
Ġgrand mother
Ġameric ans
Ġperm itted
Ġhom ophob
Ġpromot ions
Ġtele phone
Ġtable t
Ġpros per
Ġny ou
Ġconsult ation
Ġss d
Ġbox es
trave ling
Ġbow ler
Ġadop ted
vis a
Ġchocol ates
Ġmotiv ation
Ġcalcul ated
Ġmoder ate
Ġtransp arent
Ġspirit ual
Ġenthusi asts
Ġbats man
Ġdele ted
Ġcod es
Ġrub ber
Ġshout ing
Ġtreas ury
Ġbm w
Ġincor por
870 3
tour ist
comm unic
priv ate
Ġmisle ading
Ġfon se
ubow an
Ġsate ll
Ġtissama harama
Ġdess ert
Ġphilipp ines
Ġkollup itiya
Ġafghan istan
5 6
c se
d ings
e ws
k y
k in
n at
o ly
p read
t able
z el
Ġa esth
in ity
Ġc is
Ġc ott
Ġf ought
Ġp itch
Ġp ork
en epura
Ġh v
Ġl ou
Ġd um
Ġd ign
Ġd udes
Ġin her
Ġin ject
Ġn z
Ġn li
om en
is c
is y
Ġg t
Ġg ed
Ġg ee
ri ya
ic a
Ġre build
ot ics
Ġu oc
Ġst om
Ġst ance
Ġha vent
id th
ol f
ir ts
Ġse l
Ġse am
Ġso cially
Ġtr uck
Ġch ips
Ġab e
Ġal uth
Ġun ex
ap a
Ġlo d
res ident
Ġexp ose
Ġexp ansion
os a
ven ess
Ġrec overed
Ġsa fer
Ġdi le
ave l
nder ing
Ġcomm em
Ġsp r
Ġinc ent
ala i
Ġ6 1
Ġkandy an
Ġopt ional
Ġsur ve
Ġsur ge
Ġel a
Ġchar ity
Ġboth ered
Ġwar n
Ġass ured
Ġce o
amb ay
Ġhead phones
Ġprocess ed
Ġdef icit
Ġran jith
Ġmeet ups
Ġmil es
Ġtechn iques
sc reen
Ġfun eral
Ġcap s
Ġsho e
Ġorgan ised
Ġhold ings
Ġdig ging
Ġsubject ed
Ġstrugg led
Ġliter acy
Ġcal end
Ġcal ories
Ġig p
Ġprotect ing
Ġgl or
Ġamong st
Ġmis under
Ġbenef icial
Ġste aling
Ġhor rif
Ġaud i
Ġrank ed
Ġdecl are
Ġinstall ments
Ġlif etime
Ġresponsib ilities
Ġrap ed
Ġbox ing
eth ical
Ġaim s
Ġsevere ly
Ġhighlight ed
Ġbull ied
Ġtut ors
Ġworry ing
Ġbath room
Ġcontrovers y
Ġmemor able
Ġsupermarket s
rip ala
Ġdefe at
Ġdele te
Ġexha usted
Ġalt ogether
Ġscreens hot
Ġkarun aratne
Ġwire less
Ġcolum bo
Ġreck less
Ġsare e
Ġfou nder
Ġdul ith
Ġdisag ree
Ġheadqu arters
Ġenlight en
Ġgath ered
Ġvish wa
Ġwides pread
Ġfonse ka
7 8
h ara
i ff
i ary
v ision
w ith
Ġt il
Ġw alls
Ġw agon
Ġm ou
Ġm ood
Ġb il
Ġb ite
Ġb ung
Ġf ired
at ar
Ġp ard
Ġh ates
Ġh acked
ing a
Ġn rs
om y
ar oo
ar ks
Ġg host
Ġre e
st ers
ow ed
Ġit al
Ġk u
Ġk os
Ġk ang
ke ep
ir an
Ġex or
Ġcon vent
Ġnot ification
Ġch ase
Ġal ar
ess ional
Ġad j
Ġun st
Ġam aras
Ġexp ense
Ġcomp li
Ġco zy
Ġcount less
Ġthem e
Ġacc us
Ġsp am
Ġact ed
Ġdis regard
Ġcould nt
Ġinter p
Ġ6 000
Ġshe er
Ġfirst ly
Ġwell ness
Ġtw enty
Ġreg ulation
Ġem bed
Ġmed i
Ġatt o
Ġbl ank
Ġbl ah
Ġpass ive
Ġreal istically
Ġdisc overy
Ġqual ify
Ġsk ipping
Ġpack et
Ġneg lect
Ġmet ers
man i
Ġsign als
Ġlist ing
Ġbelie f
Ġmess y
Ġscam ming
Ġsaf aris
co in
Ġhold er
Ġele ments
Ġknowledge able
Ġmass ac
Ġbegin ners
Ġwin s
Ġmis erable
Ġblo om
Ġdress ed
Ġenter pr
Ġhom osexual
Ġcontrib ution
Ġcontrib uting
Ġir an
Ġmarri ages
Ġobt aining
Ġtext books
Ġregul atory
Ġ198 3
Ġrenew ed
Ġpak istani
Ġsight s
Ġestim ates
Ġflav ors
Ġly ce
Ġlaugh ing
Ġdepend ent
Ġarrange ments
Ġspons ored
Ġwheel er
Ġouts our
Ġtor rent
Ġparcel s
Ġvolunte er
Ġintel lect
Ġconver ting
Ġretrie ved
Ġtid al
Ġfortun ate
Ġdetermin ed
Ġgreet ings
Ġhust le
Ġdir ty
Ġcoron avirus
Ġlamp rais
Ġsanct uary
Ġmonu ment
Ġintermedi ate
Ġjewell ery
Ġime i
Ġconsp ir
Ġskept ical
Ġsouthe ast
0 8
5 4
9 8
c ard
c ulation
h ill
h app
m ade
o ya
p ost
t ail
u it
w ould
Ġt orn
Ġt ables
Ġs ket
re l
in ce
Ġc ens
Ġm ouse
Ġf et
Ġf ro
Ġp owered
Ġh iru
ing ing
Ġto dd
Ġl al
it udes
Ġy ield
Ġon t
ac ent
ro cket
ch em
nt y
Ġse as
Ġv v
Ġv id
Ġtr aged
Ġcon sole
Ġpl aza
Ġout let
Ġte as
Ġte eth
Ġcont rad
Ġacc redit
Ġri val
Ġwork load
Ġwork force
aw are
gg ling
Ġpay oneer
Ġbuy er
Ġcons ume
Ġinst ances
te ch
uw ara
Ġgu esth
Ġeconom ically
Ġext ract
Ġfl ower
Ġgi ant
Ġpack ets
ote ch
Ġdist inct
Ġput s
Ġresult ing
ott ed
Ġmot ors
Ġur ge
Ġarrest s
Ġgradu ating
Ġrespect ed
Ġcompet e
Ġcolle ague
Ġbar g
Ġbar riers
Ġinvestig ate
Ġdiv ided
Ġge ck
Ġdh l
Ġfight s
Ġjud iciary
Ġtast es
Ġbackground s
Ġreserv ation
Ġaccommod ate
Ġdepress ing
Ġnar c
Ġadvert ised
Ġhur ts
Ġtra pped
Ġchurch es
Ġapprox imate
Ġthous and
Ġwij es
Ġdil shan
Ġwarning s
Ġsky rocket
Ġinnov ative
Ġtalent ed
Ġintegr ity
Ġengage ment
Ġdan cing
Ġkore an
Ġfru its
Ġrum ors
Ġcred ible
Ġfis cal
Ġscient ific
Ġprivile ge
Ġlicens es
Ġnewspap ers
Ġintent ions
Ġpas ikud
Ġtab oo
Ġbot an
Ġunem ployed
Ġmaith ripala
Ġtact ics
Ġoly mp
exp eri
Ġvulner able
stal g
Ġpodu jana
Ġstom ach
b or
b ered
f h
f it
f essional
g ge
o ad
p ublic
r ising
t b
w aram
y an
y rs
Ġt ale
Ġa ven
in vest
Ġw imal
Ġthe ro
Ġp on
Ġh t
Ġan th
Ġan ts
Ġto ll
Ġin appro
om i
ar ata
is ure
Ġg room
as hing
st op
Ġy r
Ġy ork
se arch
Ġhe aling
ol ve
ad i
est y
Ġr ated
pp u
Ġsh an
Ġsh ang
Ġbut ton
Ġv ic
Ġsu its
Ġch ains
Ġpro ph
ere ats
are l
bo ards
ap ing
Ġcol ours
Ġlo ads
ast y
Ġrec ur
Ġve ter
Ġqu iz
Ġqu ery
Ġpri est
Ġpo ison
Ġnew er
Ġevery time
ach ing
Ġri g
Ġsl fp
Ġinf ront
Ġ8 1
Ġcar ing
Ġsupp orter
Ġpos h
Ġbl at
Ġpar ked
Ġold s
Ġgu ilt
Ġ19 60
Ġwr it
Ġwr iter
Ġsy dney
Ġrep ost
Ġimp rison
Ġleg ends
ah ini
Ġfar ms
amb a
Ġfac ilit
Ġroad side
Ġgam age
Ġgam ini
Ġran jan
Ġmeet up
Ġq s
Ġspecial ize
Ġdig it
Ġbri be
Ġexc uses
Ġur ged
Ġdev i
Ġbegin s
Ġer rors
Ġvill as
Ġprior ities
Ġunp aid
Ġdiplom as
Ġband ar
ograp h
Ġneighb ours
Ġkill ings
Ġdm t
Ġcirc les
Ġgar ment
Ġ199 0
Ġintrodu cing
Ġsmart phone
Ġpal est
Ġclar ity
Ġiniti ated
Ġbow ling
Ġcolor ized
Ġdil mah
Ġemp ire
Ġinfluen ced
Ġcircum c
Ġrussi ans
Ġlandsc apes
che ck
Ġvend or
Ġidi ot
Ġles b
gu ard
Ġsacrif ice
Ġgrad ually
Ġassess ment
Ġhesit ant
Ġscream ing
Ġgor ge
Ġjayas uriya
Ġhotsp ot
Ġlah iru
Ġdick wella
Ġsubt it
Ġfranch ise
Ġjewel ry
Ġhect ic
Ġdatab ase
Ġvibr ant
Ġprabh akaran
Ġbung al
4 8
c ities
i ries
t rying
Ġs ant
re te
Ġthe ories
Ġm un
Ġm ild
Ġb ak
Ġb ia
Ġf ails
Ġp ul
Ġh atch
Ġd b
Ġd d
ed ing
Ġn ie
Ġn ish
Ġn he
as k
Ġe cu
st art
Ġon s
ac ious
Ġst are
Ġst ages
Ġst ats
ad vant
ch y
ir is
ur am
Ġas iri
Ġli l
Ġr ational
Ġr amb
Ġsh ifts
Ġme me
op in
Ġex cel
Ġcon ce
and ala
end ers
Ġpl ed
Ġgo ds
ig nty
ab is
Ġle isure
li f
Ġno stalg
Ġdon ation
ous es
ave li
Ġafter math
Ġunder min
Ġover ly
Ġdis advant
Ġcur tin
Ġback end
ath ers
Ġbet ray
Ġfind ings
Ġher bal
Ġrel ation
ors hip
Ġmay or
Ġmed s
Ġatt acking
Ġrem ark
Ġbu ck
Ġsur geon
Ġlast ly
Ġwr ist
Ġkind ness
Ġcare fully
olog ists
Ġcomple tion
Ġap r
Ġexpl ains
Ġfl air
Ġnational ity
Ġret reat
Ġpack s
Ġpack aging
Ġbi ased
Ġform ed
Ġdist ances
Ġ25 6
Ġprocess es
Ġview point
Ġrent als
Ġaccept ance
Ġhal t
Ġdel ft
Ġfig uring
Ġbill ions
Ġdemand ed
Ġexist ed
Ġpeace fully
Ġband s
Ġband ara
anth i
Ġban ana
Ġhid ing
Ġscen es
Ġjud icial
Ġhor iz
Ġay ubowan
Ġrestrict ion
Ġir re
Ġvacc ines
Ġalternative ly
Ġkott awa
Ġpal m
Ġstick er
Ġharass ing
Ġep f
Ġoccas ionally
Ġstrict ly
pro of
Ġinfluen cer
Ġdesper ately
Ġdraw n
Ġargu ments
Ġremind er
Ġjer sey
Ġspons or
Ġ195 6
Ġencount er
Ġpi geon
Ġtermin al
Ġamid st
Ġcollabor ation
Ġlicens ed
bre aking
Ġgm ail
Ġsovere ign
Ġsovere ignty
Ġdram as
Ġeb ay
Ġade quate
Ġbasket ball
Ġntr ans
Ġyahapal ana
Ġvictor ia
Ġreluct ant
Ġsymp ath
sinh ala
Ġrm v
Ġcompreh ensive
Ġpac ific
Ġgunaward ena
Ġnich e
Ġtrag ic
Ġarug ambay
Ġoverc row
Ġital ian
3 4
f ire
g ath
k b
m ma
t es
t ips
y ard
Ġt ong
Ġt ens
Ġt ensions
Ġa uss
Ġs ized
Ġth al
Ġth ier
re nce
Ġw ow
Ġw ine
Ġc b
Ġm es
Ġm our
Ġm unic
Ġb d
Ġf m
Ġf ing
Ġh ated
Ġh omet
Ġl mk
Ġin r
Ġn ss
al ous
Ġg an
Ġre duction
ll or
Ġu x
Ġst alls
Ġwe ed
Ġwe igh
ce ylon
Ġk ade
ad h
ch ing
Ġj ur
Ġj ames
Ġr ag
Ġne l
Ġsh amp
Ġsh aped
Ġse g
Ġv ig
Ġch er
Ġch est
Ġpl a
Ġal um
Ġmo du
ig en
ab we
Ġun ethical
Ġle aked
Ġlo s
Ġam ar
Ġfe ars
Ġexp lic
Ġapp arel
Ġtim ing
Ġtim ings
ak oon
Ġim ax
ag i
ag ger
Ġte ens
Ġman go
Ġpo ols
Ġcl a
Ġoff ense
Ġmore over
Ġthank fully
Ġshould er
Ġres iding
Ġmon op
Ġinter action
Ġsc rap
pl us
Ġtri gge
ang le
ang ers
Ġmar king
Ġcre ators
Ġrel oc
Ġtw ent
od i
any body
Ġtrans m
Ġair pods
ord ers
Ġrem ained
Ġtrain ee
Ġbu g
Ġbu ried
Ġent ity
Ġ19 80
Ġ19 70
Ġeconom ical
Ġcare s
Ġpolit ically
Ġrest ruct
Ġimp ose
Ġsw ap
Ġmod ules
Ġform ats
Ġdirect ors
Ġprocess or
Ġport able
Ġarri vals
Ġsecond ly
Ġmess aging
Ġsaf est
Ġansw ering
Ġbel t
Ġ22 0
go vernment
Ġfil ing
Ġstru ck
ili y
new s
Ġoper ator
Ġbal anced
Ġwed dings
Ġnp ro
Ġcal or
Ġmass age
ron ics
Ġsn ack
mar ks
Ġsun il
Ġaddress es
Ġhair cut
Ġsignific ance
Ġthreat en
Ġud a
Ġperform ing
Ġattempt ing
Ġlak sh
Ġsupposed ly
Ġsold ier
Ġbag gage
Ġperf ume
Ġtele communic
Ġlux uri
Ġarg uing
Ġrat io
Ġrat malana
Ġrepresent ed
Ġsubs id
Ġpal ace
rol og
imb abwe
Ġmac ro
Ġnur se
Ġmand ate
Ġurg ently
Ġsnorke lling
Ġinqu ired
Ġinqu iries
Ġstrength ening
xx xx
Ġnil aveli
Ġadvis able
Ġobject s
ino chchi
Ġbond s
Ġjer ome
Ġsusp ension
Ġmemor ial
Ġath let
Ġrang ing
Ġcann abis
Ġresol ved
Ġsab ar
list ed
Ġmerch ants
Ġgraph ite
Ġconver ted
Ġalloc ated
bud get
Ġlin ux
Ġinfect ion
Ġincor rect
Ġcooper ation
Ġinclus ive
Ġleop ard
Ġleop ards
Ġbund le
Ġentrepreneur ship
Ġexerc ise
Ġsociet al
Ġkiri bath
Ġannoy ed
Ġterrit ory
Ġresist ance
Ġpilgri m
Ġreh abil
Ġmile age
Ġscro lling
Ġcarn age
Ġexper iment
Ġepis ode
Ġresc ue
Ġatro cities
Ġgreg ory
cdon ald
Ġchron ic
Ġaccel er
Ġsatell ite
Ġabe ys
Ġunex pected
Ġcalend ar
Ġconspir acy
Ġtraged y
Ġlesb ian
Ġgorge ous
Ġmunic ip
Ġhomet own
Ġmodu le
Ġexplic it
Ġtrigge red
5 8
e z
r ome
r um
t rip
w r
w ar
z ens
Ġa q
Ġa aa
Ġi y
re ced
in ters
Ġc em
Ġm ural
Ġb iri
en ic
Ġh p
Ġh ood
Ġan e
Ġl ite
Ġd ow
Ġin ch
Ġn for
ar achchi
Ġe con
Ġe co
Ġre ception
ly wood
st orm
ll ation
Ġu va
ay aka
Ġst al
Ġha unt
id al
Ġk fc
ad an
ir t
ir ation
Ġdo zens
Ġse rend
Ġso d
Ġme ets
Ġv y
Ġch al
ul f
un u
Ġle ech
Ġpe iris
Ġlo ver
Ġexp ed
li hood
ak s
ak um
Ġcomp uls
ect s
Ġcl ay
port s
port ion
Ġcount ing
Ġunder rated
Ġmon t
aw aya
Ġpol itely
ang oda
Ġmar it
Ġgr ind
fore ign
Ġfo ld
Ġem igration
Ġunivers al
thing s
ra pped
Ġbl amed
Ġsec uring
Ġrem itt
Ġdes igning
Ġweek days
Ġcour age
Ġev il
Ġext ensive
Ġass et
Ġaff air
Ġsouth west
Ġx box
Ġsto le
Ġsw ed
Ġmod ified
Ġz imbabwe
com es
Ġhope ful
Ġmet a
Ġmet ro
Ġconc rete
Ġtem p
Ġgam er
Ġbelie ving
Ġbre ach
Ġspecif ied
ik es
Ġhum id
Ġ24 0
ont o
Ġmas k
Ġselect ing
Ġunf or
Ġunf old
Ġhal al
Ġcomput ers
Ġliter al
Ġcourt esy
Ġbal i
Ġpat ience
ude en
Ġwin ter
Ġboard s
Ġrequest ing
Ġinsur g
tr ain
Ġunp reced
Ġdiv is
Ġperform ed
Ġpaper work
Ġexcept ional
Ġcomb at
Ġdh ar
Ġje alous
Ġapproach ing
Ġ07 7
Ġreven ge
Ġbed s
Ġgod d
Ġhistor ically
Ġcapt ured
Ġmurd ere
Ġrepresent ation
Ġrepresent ative
Ġhur ry
Ġhind us
Ġconflic ting
Ġconflic ts
Ġ198 9
Ġharass ed
Ġoccas ion
Ġenro lling
Ġbackp acking
Ġnut rition
Ġappeal ing
Ġpropos als
Ġschem es
Ġcateg ories
Ġharm ful
Ġacqu ired
Ġflav our
char ged
Ġaccom pan
Ġdisappoint ment
Ġnas heed
Ġcalcul ate
Ġsmooth ly
Ġbats men
Ġmerch ant
Ġindo or
Ġpriorit ize
Ġcoin c
Ġrating s
Ġchart ered
Ġtroub les
Ġjk cg
health y
Ġincons istent
Ġprohib ited
Ġterrif ied
Ġdolph in
Ġncol ombo
Ġapt itude
Ġthie ves
Ġinsec ure
Ġbandw idth
Ġdign ity
Ġkang aroo
Ġsubtit les
Ġunpreced ented
3 7
6 5
9 6
g ers
i ge
l ined
m av
n ame
Ġt m
Ġa er
Ġa es
re et
in fo
Ġw fh
Ġc el
Ġc um
Ġc ute
Ġc rop
Ġm umb
Ġb ore
at i
Ġh ara
Ġh ilar
Ġl or
Ġl ists
Ġd ms
Ġin just
Ġn le
Ġn view
Ġo we
Ġg op
Ġg and
Ġe go
Ġre de
st one
st ru
Ġst h
Ġst ro
Ġst em
ro le
ol i
ol o
th at
ch ol
ur anga
Ġhave lock
Ġme mes
ill a
Ġch apter
Ġmo ves
Ġpro be
Ġgo ver
Ġgo ons
el ie
Ġun res
Ġpe e
Ġpe ers
Ġrec re
Ġve zel
Ġsa udi
Ġno se
Ġpri ze
Ġpo inters
Ġcl own
Ġacc ord
Ġwork out
Ġsl apped
Ġwhere ver
Ġpol ite
Ġover time
Ġgot ag
Ġbr ush
Ġinter ven
Ġro cket
Ġtri b
Ġvisit or
Ġdec ides
Ġ202 7
Ġpost er
Ġ8 50
Ġhigh ways
Ġsince re
Ġinst ant
Ġinst ability
uw ala
lo st
Ġel abor
Ġev alu
uc cess
Ġconf usion
Ġclass mates
Ġsal on
Ġmus cle
Ġmod est
Ġhon or
Ġform ula
Ġhead ache
Ġ200 7
Ġfinan cing
Ġremember ing
Ġmath ews
Ġciv ic
Ġtransfer ring
Ġcomment ing
Ġbill ing
mar ried
Ġextra ord
Ġhost s
Ġfem ales
Ġchem mani
Ġadm issions
Ġdiplom atic
Ġcontrol s
Ġexpress ion
Ġstress ing
Ġir rig
Ġtable ts
Ġprodu cers
Ġtransl ated
Ġdiscrimin ated
Ġclos ing
Ġmurd ered
Ġoil s
Ġjournal ism
Ġachieve ments
Ġparticip ating
Ġiniti atives
Ġbelong ing
Ġinj uries
Ġemp ower
Ġtempor arily
Ġinstruct ed
off icial
Ġcere mon
Ġteen ager
Ġben ch
ran il
anage ment
Ġpredict ed
Ġscient ists
Ġvo ices
Ġcollabor ate
Ġpray ers
Ġanalyst s
Ġkad awatha
Ġdisrespect ful
Ġremem bered
Ġpleas ant
Ġlag oon
Ġovert ake
Ġcounsel or
Ġlem me
Ġspokes person
Ġawa iting
Ġicon ic
Ġparan oid
Ġproc ure
Ġcompon ents
Ġsubsequ ently
Ġexchang es
pick me
Ġub ereats
Ġphy si
Ġfrank ly
Ġcryptocurren cy
Ġhygi ene
Ġire land
Ġunav ail
Ġarrog ant
Ġdile mma
happ y
Ġshamp oo
Ġcalor ie
Ġluxuri ous
Ġmarit ime
7 6
b ury
c ore
c od
d ate
h ouse
j p
m c
n ered
r ust
s aw
t f
w atch
Ġs izes
Ġth under
Ġw o
Ġw s
Ġm ong
Ġm ates
Ġf c
Ġf ond
Ġf ian
Ġp el
Ġd ar
Ġn x
Ġn en
Ġn os
ar u
Ġe ll
Ġe id
ve hic
Ġre op
Ġre nov
st airs
Ġfor ums
ac on
Ġst agn
se ys
Ġhe m
Ġk ol
Ġk iss
ur t
Ġj ana
Ġr aces
Ġse ed
Ġme h
op olit
Ġch airs
Ġab uses
Ġmo hamed
em ed
Ġun a
Ġall ies
Ġpe o
Ġjust ified
li est
li ers
ast ically
Ġrec y
Ġrec com
Ġen act
um my
pt ed
Ġno vel
Ġpo v
Ġoff line
Ġoff ended
act ive
Ġri vers
Ġcomm od
Ġcomm issions
Ġres on
Ġres ili
Ġsee ks
Ġinter im
Ġjo se
ath on
Ġmar issa
Ġgr ama
Ġmin es
Ġsupp ress
Ġke galle
ara j
Ġrem arks
Ġbu cket
Ġear bud
Ġend less
Ġcost ly
Ġes ala
rect ion
arch y
ital in
Ġsitu ated
Ġquestion able
Ġlook out
Ġstr anger
Ġhu awe
Ġhum ble
Ġtit les
Ġorgan izing
Ġcontro ller
Ġcas he
Ġvac ancies
Ġnp lease
Ġclean er
Ġexplore d
Ġconsider able
Ġnt b
Ġtyp ing
Ġhost ing
bit el
Ġaltern ate
Ġod el
Ġunp opular
Ġexport ing
Ġge o
Ġcommit ments
Ġsle e
Ġstri pe
Ġconsum ing
Ġnw ith
Ġcirc ular
Ġcapt ure
Ġ199 3
Ġswe at
Ġbroad er
Ġachieve ment
Ġintell ig
Ġdeb ut
Ġcat ering
Ġpun ished
Ġdisp ute
Ġproceed ings
Ġforest s
Ġimpress ed
Ġmos ques
Ġmill enn
Ġunc les
Ġ197 1
Ġbail out
Ġacqu ire
Ġinsane ly
Ġprinci ples
Ġnom ad
Ġpad dy
Ġexpand ing
Ġunb elie
Ġexclus ively
Ġjayaward ena
Ġtail ored
Ġlegisl ation
Ġpleas ure
Ġgig s
Ġbankrupt cy
Ġmargin al
Ġsurprising ly
Ġobserv ation
Ġrajapaksh e
Ġlau ndering
Ġgoog ling
Ġsamb ol
Ġshif ted
Ġstig ma
Ġmism anagement
wat te
count ry
Ġcommem or
Ġamaras uriya
Ġbotan ical
Ġshang ri
Ġauss ie
Ġtwent ies
Ġrestruct uring
iliy andala
Ġmunicip al
Ġbiri yani
Ġmumb ai
Ġhilar ious
Ġfian c
5 00
b ank
b ro
e le
h ire
i ant
j ay
m d
p ila
r r
w w
Ġt inder
Ġa o
Ġi phones
Ġth rew
re y
Ġw are
Ġw ider
Ġc g
an an
Ġb aff
Ġf oss
or ic
Ġp aw
Ġp iliyandala
Ġh ay
Ġh oo
Ġh ating
Ġh ilt
Ġl ump
Ġd ated
Ġn ind
Ġn so
Ġn ik
Ġn this
Ġn awala
Ġg est
Ġg el
Ġg olf
ri a
ic ip
Ġre vers
ow ning
Ġbe e
Ġbe gging
am in
am ma
ver ages
Ġk b
th ouse
oo o
ch ild
ir ates
ur ities
Ġj es
Ġr h
Ġr ust
Ġr uwan
Ġr italin
im ents
Ġne u
Ġne at
Ġne pot
Ġsh am
op h
Ġnot or
Ġch ats
Ġpro x
Ġthere after
are st
Ġun aware
Ġun healthy
Ġac re
Ġexp at
li able
Ġrec s
um ber
Ġdi y
Ġpri y
Ġcl ash
Ġcont aining
Ġar c
ass es
Ġres id
Ġind irect
Ġover l
Ġover view
orm al
Ġdis gr
Ġfri dge
Ġro lling
Ġplan ing
Ġsc ot
Ġtri angle
ath il
Ġmar adana
Ġper ception
Ġfriend ship
Ġplace ment
Ġinf ant
Ġrel ate
Ġwell awaya
Ġcar rier
Ġem irates
Ġunderstand able
Ġdri ed
Ġatt itudes
Ġsm e
Ġsec ured
Ġdown v
Ġbu zz
Ġdes c
Ġll b
Ġelect oral
Ġgener ic
Ġgener ous
Ġev isa
Ġconf ront
Ġimp orter
Ġleg ion
Ġx ia
mo bitel
Ġhon our
att ered
Ġref erences
Ġgam ers
wor king
Ġclear ing
Ġbelie ves
Ġhar vest
ars on
Ġpract icing
Ġann ually
Ġsoon er
Ġabs ent
Ġboy c
Ġeat en
Ġpet role
Ġmatch ing
Ġglo be
Ġsil ly
Ġlack s
Ġer u
Ġblo cks
iy am
Ġste el
Ġste pping
Ġver bal
Ġfit ting
Ġcir cu
Ġpu lling
Ġsubreddit s
Ġjud ges
Ġchill ing
Ġlat ter
Ġaud it
Ġrank ings
Ġque en
Ġflag ship
Ġsan ath
Ġlog ical
Ġlimit ations
Ġpen ins
Ġmech at
Ġadminist rative
Ġcross ing
Ġkn ife
Ġcance llation
reg ist
here nt
Ġdur able
quest ions
Ġrecover ing
Ġcinem as
Ġdeter mine
Ġremind ed
Ġow ning
Ġjer seys
Ġcred ibility
Ġdistur b
Ġweer aw
Ġprivile ged
Ġrit uals
Ġtattoo s
Ġapolog ize
want ed
Ġscold ed
Ġquant ity
Ġuncertain ty
Ġbout ique
Ġspan ish
Ġcompetit ors
Ġbiscu its
Ġarbit rary
Ġunpro fessional
Ġambit ious
Ġsubstant ial
Ġunst able
Ġoutsour cing
Ġtodd ler
Ġpasikud a
Ġsabar agamuwa
Ġhuawe i
Ġhilt on
Ġnepot ism
Ġpetrole um
9 4
9 5
a o
c os
c ourse
e art
f ree
h h
h ots
s li
u el
w ear
Ġt am
Ġt sh
Ġt ension
Ġa pe
Ġa the
Ġi o
Ġs se
in ter
Ġthe ater
Ġc i
Ġc yl
Ġc aves
Ġm rs
Ġb po
at able
Ġp ond
Ġp atch
Ġp ada
Ġh ari
ed da
Ġn ail
Ġn awal
Ġn udes
is or
Ġre lying
Ġu mb
ut en
Ġhe ated
th u
ad o
ch ain
ur b
ur ation
Ġdo cs
im ity
pp ort
Ġsh r
Ġse ated
Ġde ed
Ġde pt
Ġch ess
Ġab using
Ġpl ug
Ġal to
Ġpro stit
ab ling
Ġad a
Ġun rest
Ġun married
Ġun wanted
Ġpe arson
Ġlo vers
Ġhas h
Ġout standing
Ġen emy
pt on
Ġdon ations
Ġdi re
Ġint rig
Ġpo ly
Ġeven ings
if i
ult ane
Ġthank you
Ġsp ouse
Ġsl c
Ġsl ave
Ġpre st
aw ick
Ġover stay
Ġbr uh
Ġinter rupt
Ġspe lling
Ġro am
Ġback wards
Ġsc are
Ġtri llion
Ġbus h
Ġreg rets
ra al
Ġcommun ist
Ġ10 80
Ġfin als
get table
Ġsm arter
Ġschool ing
Ġseem ingly
Ġpar al
be ing
Ġtax ation
gr aph
lo cal
Ġgu ided
Ġhop eless
Ġrep aired
up date
Ġbusiness man
Ġrest ore
Ġhand ful
Ġreason ing
Ġce y
Ġcard inal
Ġsw iss
Ġru ining
Ġsimilar ly
Ġport ray
Ġsing ing
Ġnuwara eliya
ploy ment
Ġhum ili
Ġcap abilities
Ġgre edy
Ġbri bery
Ġhuman itarian
Ġmass es
Ġcash ier
Ġmis information
Ġsam agi
Ġnd b
Ġbur gh
Ġbur nt
Ġge opolit
Ġoppos ing
Ġrac ing
Ġdom inated
Ġram bo
Ġbott led
Ġluck ily
Ġchill i
Ġdish eart
Ġlad der
Ġinstall ation
Ġremo ving
Ġfle et
Ġ198 1
dom in
Ġdisp atch
Ġinput s
Ġproceed s
Ġlibr aries
Ġvari ant
Ġcommitte es
Ġscr ut
Ġridicul ously
Ġflex ibility
Ġadvant ages
Ġhousehold s
Ġsuspic ion
fl ow
Ġdy n
Ġorient ed
Ġine v
Ġnavig ating
Ġstruct ured
Ġdism iss
Ġworksh ops
Ġpattern s
Ġignor ance
Ġtel ed
Ġescal ate
Ġtreas ure
Ġmc q
Ġscreens hots
Ġinsist ed
Ġobserv ations
870 2
Ġaqu a
Ġrecruit ment
Ġposs ession
Ġstake holders
Ġpainting s
Ġancest ors
Ġdepreci ation
Ġsupple ment
Ġlens es
Ġdynam ic
Ġmere ly
Ġconsens ual
Ġchampions hip
Ġtack le
Ġcontem pl
Ġcott on
Ġhomosexual ity
Ġrecur ring
Ġvig il
Ġrehabil itation
Ġserend ip
Ġcompuls ory
Ġunfor gettable
Ġhara ppa
Ġelabor ate
Ġextraord inary
Ġirrig ation
vehic le
Ġjose ph
Ġnotor ious
a ving
b i
b ly
c ur
e v
e lect
h aya
i ased
i veness
j i
j ud
l an
l igence
m illion
s d
s m
w ed
Ġa is
Ġi q
Ġth u
Ġth ir
Ġw re
Ġw ip
Ġw ound
Ġc ric
an ing
Ġm oo
Ġm uth
Ġb one
Ġf s
Ġp p
Ġp iss
Ġh orm
Ġto ss
Ġl uc
Ġd na
Ġd avid
Ġn ed
Ġn ay
Ġn uc
Ġn az
Ġn vid
Ġn ope
Ġn aked
Ġg ale
Ġre n
st ic
st ate
Ġwh oles
ow een
Ġbe ware
et ics
Ġon board
Ġst er
ut ch
ad am
Ġr ay
Ġr agama
il le
Ġde eds
Ġv ip
Ġcon gr
Ġsu ite
Ġpl acing
ant ing
ment al
Ġwor sh
un iversity
Ġby pass
Ġle e
Ġle ather
Ġwill i
all ed
Ġve gg
Ġve gan
Ġup front
Ġno e
ace ut
Ġtheir s
Ġar j
Ġthank ful
ish ali
Ġpr adesh
Ġmu ll
Ġinter city
Ġinc ur
Ġback l
Ġmar sh
Ġloc ate
Ġper ks
Ġgr ants
Ġgr ads
Ġfriend ships
Ġinf erior
Ġmin t
Ġgen etic
int ec
Ġinst antly
Ġatt est
te en
Ġbl ur
Ġbu rial
Ġtax ing
Ġdes ire
Ġreddit or
Ġsur pass
Ġhome land
Ġdep ri
Ġes p
Ġrest art
Ġchar les
Ġhand ing
Ġadd icted
Ġbit coin
Ġ12 00
Ġraj arata
Ġx x
Ġbi as
Ġbi otech
Ġneg ligence
Ġmet rop
man pila
Ġmid igama
Ġprogram mes
Ġsig ning
Ġpret end
sri lankan
Ġran asinghe
cri cket
Ġq atar
aut ions
Ġhar bour
Ġmal es
Ġmal ig
Ġmal inga
Ġjan atha
Ġbro s
Ġdepart ing
Ġ17 0
Ġspecial ized
Ġexc urs
Ġequ ipped
Ġpot at
Ġoper ational
Ġenjoy able
Ġident ification
Ġsn ake
Ġcompet ent
Ġconsider ations
Ġsun ny
Ġmoment um
Ġfeed ing
Ġcab raal
Ġstaff ord
Ġfi xt
Ġperform ances
Ġnc omm
Ġtraffic king
Ġdefin ition
Ġpu pp
ograp hic
Ġsepar at
Ġnm on
mon th
Ġ199 4
Ġrepresent ing
Ġrepe ating
Ġbom bing
Ġson y
Ġcounter part
Ġadminist r
Ġut ility
Ġprevent ing
Ġsurv ival
Ġcontract s
Ġgamp ola
Ġfeat ured
Ġot t
Ġadvent ures
Ġstrength en
Ġblock chain
Ġemp athy
Ġencour aging
Ġjump ing
Ġpartners hips
ob ile
Ġacqu is
Ġprinci ple
Ġisrael i
Ġspons ors
Ġflood ing
che ap
Ġsatisf action
Ġtor onto
Ġunb iased
Ġcoach es
Ġtort ured
Ġprev ail
bb ies
Ġunre al
Ġoccup ied
Ġchristian ity
Ġsubur b
Ġhyp ocr
Ġfer ry
olit an
Ġimmigr ants
Ġtoler ate
Ġhesit ate
Ġprec autions
Ġpron oun
Ġconstruct ed
Ġrath n
Ġcrack down
Ġpopul ations
Ġju ice
Ġscrew ed
Ġdecre ase
Ġlegend ary
Ġinconven ience
Ġstereoty pes
respon sible
Ġtemper ature
Ġsapp hire
Ġenfor ced
Ġassemb ly
Ġadj acent
Ġembed ded
Ġabeys inghe
Ġunavail able
Ġintellig ent
Ġxia omi
sli it
3 2
8 9
b on
b ile
g am
g ota
j u
j ab
j affna
m ac
n pp
o or
o lla
r ish
t est
t amil
t ered
w ana
Ġt es
Ġt ide
Ġt iles
Ġa ce
Ġs ans
Ġth ro
Ġth ugs
Ġw an
Ġm f
Ġm ate
Ġm ih
Ġb un
Ġb iz
Ġb reat
Ġp iv
Ġh un
Ġh int
Ġh orn
Ġto ast
Ġd v
Ġd dr
Ġn us
Ġn pe
Ġn ap
Ġn no
al id
is dict
ri ous
ri lanka
Ġe thern
ic ts
Ġre now
ot or
et a
et o
Ġst icking
ut ors
Ġha z
Ġhe al
Ġk w
Ġk y
Ġk av
Ġk itt
ad d
gh z
Ġdo ck
Ġne arest
Ġde ployed
Ġme ga
Ġat l
Ġwas nt
Ġmo ors
Ġpro ved
ere nt
Ġwhat not
un ci
qu al
Ġad ani
Ġby ob
ap ala
Ġam ma
Ġexp orters
Ġapp li
Ġapp reh
all ing
Ġout look
Ġout comes
Ġte x
Ġdi p
Ġdi vid
ia h
au nt
Ġoff s
Ġoff ensive
Ġaf p
Ġar s
Ġind ec
Ġsl intec
Ġpr as
Ġover load
Ġtri gger
ang ing
Ġgr at
Ġgr ace
day a
Ġfirst hand
Ġbeing s
Ġtour ing
Ġbas es
ord able
Ġserv ants
Ġide ologies
Ġdown fall
Ġtrain ers
Ġsim ultane
Ġel on
Ġdr ained
Ġdr astically
Ġdr owning
Ġev ident
Ġev olved
aff ordable
Ġpublic ation
Ġdisc ourse
Ġho c
Ġho pping
Ġconf ig
Ġwar ns
Ġcult urally
Ġ201 1
uth or
Ġx d
Ġsw orn
Ġland sl
Ġ11 4
ote k
lim ent
Ġfut sal
Ġca a
Ġstuff s
Ġdef ending
Ġdem ol
ee e
Ġproblem atic
adu ates
Ġest ates
Ġfre ight
Ġmove ments
Ġ200 1
Ġ16 5
Ġauth ors
Ġscam mer
aim ed
Ġ13 00
yl an
Ġgrow s
Ġpath ways
Ġspecial izing
Ġabs ence
Ġtreat s
Ġbri g
Ġbri de
Ġmedic ations
Ġhuman ity
Ġequ ity
Ġdesign ers
Ġsent enced
Ġbal awe
Ġna ive
Ġident ifying
Ġclean liness
Ġapplic ants
Ġcorrupt ed
Ġsn ap
back s
Ġnt otal
Ġant icip
Ġvill agers
iy al
Ġste pped
Ġcrit ics
Ġwish ing
Ġeurope ans
Ġachie ving
Ġpu rif
Ġrelax ation
Ġconvers ion
Ġestablish ing
Ġmag ical
Ġmag az
Ġcapital ist
Ġarg ued
Ġsum mar
Ġobs essed
Ġmurd ers
Ġko vil
Ġswe ets
Ġcatch ing
Ġconv icted
Ġimplement ing
Ġparticip ants
Ġphotograp hs
Ġdub bed
Ġrob bed
Ġsurv ived
aa aa
Ġquiet ly
Ġautom ation
Ġwij ey
Ġregister ing
Ġveget able
Ġvent ures
Ġencour aged
Ġjump ed
Ġtut oring
Ġnre ply
Ġbid ding
Ġkil inochchi
Ġpharm acies
Ġsoo o
Ġflood ed
Ġratn ayake
Ġextrem ism
Ġali en
Ġenthusi ast
Ġinteract ive
bre ak
Ġexha usting
Ġfortun ately
Ġau ction
Ġcondem n
Ġdj i
Ġwickram asinghe
Ġarchae ological
Ġspokes man
Ġmosquit o
Ġutter ly
Ġalph a
Ġembarrass ing
Ġdict ators
Ġsty les
urf ing
Ġsouvenir s
Ġorth od
Ġprepar ation
Ġmanifest o
Ġfif th
Ġhomophob ic
Ġpard on
Ġexor bit
Ġcompli ance
Ġaccus ations
Ġmassac re
Ġsket chy
Ġinappro priate
Ġhoriz on
Ġfing ers
Ġunbelie vable
Ġdisgr ace
Ġcircu it
Ġmechat ronics
Ġcyl inder
aceut ical
Ġmetrop olitan
Ġethern et
Ġbalawe gaya
4 2
8 8
c ould
c ry
d is
e conom
f un
f ound
f rom
g ir
g amuwa
h en
h ough
i ently
k ok
k ka
l ated
l ong
m it
m end
p os
p resident
r ants
s olo
t ax
Ġa ired
Ġi raj
Ġth ru
in n
Ġw d
Ġw id
on line
er b
Ġc akes
Ġc ds
Ġc pex
Ġm h
or ant
or ous
Ġp ist
Ġl ions
Ġd rew
Ġn ir
Ġn aw
Ġn by
it inerary
al al
al ore
Ġo ily
Ġo ss
Ġo cd
ar ugam
Ġg im
Ġg ree
Ġg ains
as l
Ġe i
Ġe ct
Ġe ur
st ar
Ġbe ats
Ġbe aring
Ġis is
ac cept
Ġst ab
Ġst ap
Ġk ia
Ġk iy
ad er
oo gle
ur udu
Ġas best
Ġr ome
Ġr amp
Ġsh i
Ġsh ore
Ġso ph
Ġv ape
Ġtr aps
and ra
ate ur
Ġcom ic
Ġch ass
Ġch ili
Ġab o
Ġal g
ul ent
Ġgo a
Ġgo ss
ab ad
ab ah
ist a
Ġle verage
Ġus able
Ġlo go
Ġam ex
Ġyour selves
ast ics
Ġtim et
Ġte c
Ġqu ot
Ġloo p
Ġpo inting
Ġcl ou
Ġcount ers
Ġacc um
Ġwork ar
Ġsp ring
Ġsl og
Ġover th
Ġover rated
Ġover thinking
Ġro oft
de c
Ġsc al
Ġper ch
own ed
Ġhigh s
Ġche f
Ġinv alid
Ġsupp liers
Ġ10 1
Ġpres ents
Ġfin es
Ġfin ed
te c
Ġbu gs
Ġbu ggers
Ġra id
Ġend emic
be ll
Ġhome made
Ġeconom ies
Ġrep et
Ġev s
Ġev olution
ss s
red ict
Ġho pper
Ġconf erences
Ġshow room
Ġbit ter
oc re
ative ly
Ġparent ing
Ġclass room
Ġce ase
Ġfl aw
Ġopp ose
uk k
Ġsk ipped
Ġhard ships
Ġdist ingu
Ġsocial ism
Ġref res
Ġgam manpila
Ġdef ined
Ġbrand ing
Ġ200 2
Ġmil est
Ġdeal er
Ġteach es
Ġprob ation
Ġmother land
Ġevent hough
Ġtrust s
Ġexc av
Ġbal ancing
Ġdam aging
Ġ26 0
Ġstat ues
Ġcop ied
Ġnation wide
Ġconfir ming
Ġ28 0
Ġhy d
Ġexcept ion
Ġlak h
Ġpu zz
Ġram adan
Ġcam bod
Ġperf umes
Ġskin ny
Ġdead ly
Ġcampus es
Ġreply ing
Ġtele vision
Ġtele graph
Ġcontrib utions
Ġchat ting
Ġcapital ism
Ġ07 77
Ġsexual ity
Ġir rit
Ġvol t
Ġgotab haya
Ġundergr aduates
Ġrespond ents
Ġbang alore
Ġ199 6
Ġlif ting
Ġni ro
Ġcross ed
Ġdepos ited
Ġcouncil s
Ġrob bery
Ġsurv iving
Ġbow l
Ġadop ting
Ġinj ury
Ġindic ate
Ġindic ated
Ġcateg or
Ġcuis ines
Ġhall oween
Ġdedic ation
Ġuncle ar
Ġnegoti ations
Ġlaugh ed
Ġisrael is
Ġdistrib uted
Ġben z
Ġmoder ators
Ġouts iders
Ġelig ibility
Ġdent ist
Ġmanufacture rs
Ġcred entials
Ġscient ist
Ġneighbour hood
Ġfant asy
Ġalloc ation
Ġniss anka
Ġdise ases
Ġexempt ion
Ġlit re
Ġrajapaksh as
Ġscold ing
Ġweap on
Ġjet wing
Ġange lo
Ġarchae ology
Ġdump ing
Ġsquee ze
mir issa
mir ror
Ġkilomet res
Ġpodcast s
Ġalph abet
Ġthorough ly
Ġsang akkara
educ ation
Ġallerg ies
Ġconclud ed
Ġadmir al
Ġdeliber ately
Ġremand ed
Ġpreval ent
nat ural
Ġseam less
Ġinterp ret
Ġmedi ocre
Ġjur isdict
Ġmonop oly
Ġpilgrim age
Ġgand hi
Ġunres erved
Ġreccom end
regist ered
Ġrambo da
Ġnuc lear
Ġnvid ia
Ġarj una
Ġrenow ned
Ġdictators hip
accept able
Ġchass is
7 5
b id
c as
c ular
d es
f i
g one
g ive
i qu
n ut
n esty
o res
o ked
u a
y stem
Ġt n
Ġt ie
Ġa ri
Ġa zz
Ġi v
Ġi al
Ġs ie
Ġs ath
in ator
Ġw n
Ġw u
on ing
er als
Ġc ss
an aya
Ġm aw
Ġm alls
Ġb ise
Ġb ah
Ġf uss
Ġf athers
Ġp ause
Ġp ile
Ġp ax
en er
Ġh h
Ġl ush
Ġin ability
Ġn are
Ġn ne
Ġn com
Ġn not
Ġn ma
ar re
Ġg if
Ġg amb
Ġg inger
Ġe ka
ic op
Ġre imb
Ġbe gg
Ġbe lo
Ġu du
Ġst itch
am ic
Ġhe w
Ġk ir
Ġk itten
ur ric
Ġdo se
Ġas c
Ġr ack
Ġse ating
Ġse aled
Ġso b
Ġv om
Ġv ans
Ġv ene
Ġtr ous
Ġsu ng
end ra
Ġwas antha
Ġal ike
Ġpro cl
ab ul
el i
pe ed
Ġun acceptable
ap an
Ġpe gged
Ġlo aded
Ġout ing
Ġout age
Ġen abling
Ġup hold
Ġcomp at
Ġqu otes
Ġqu eries
ase kera
Ġhel icop
if ies
ber g
ber t
Ġacc using
Ġri ot
Ġshould ers
Ġres ide
Ġind ef
Ġunder t
Ġsl ots
Ġpre domin
Ġpart ially
Ġdis order
Ġinter actions
Ġro hana
og ama
Ġsc ored
Ġper ches
av a
av i
Ġfir ing
Ġma id
Ġsch ol
Ġrel ating
Ġinv as
Ġem o
Ġgen e
int end
ft y
con s
con tin
Ġke ys
Ġbl end
sh e
Ġet f
we ather
Ġpar ade
Ġbud s
Ġlk a
Ġ19 0
Ġread er
Ġread ily
Ġrest ored
Ġwond ers
Ġext ending
Ġimp erial
Ġass urance
oc op
Ġret ain
uth an
Ġlive ly
min i
min s
Ġproduct ivity
Ġz ip
Ġappro ve
Ġref ere
Ġref urb
Ġmind ful
Ġfact ories
Ġtechn ological
Ġhar in
br and
br ance
Ġphot ocop
Ġupd ating
Ġslt b
Ġmas ks
pr ot
Ġliter ary
Ġoper ates
Ġbal d
Ġident ities
Ġclean ed
Ġsuccess ive
Ġig cse
Ġsam ple
Ġinsur rection
ram an
Ġdownload ed
iy ana
Ġste ep
Ġimprove ments
Ġsecret ly
Ġunp redict
Ġver dict
Ġcool er
Ġnecess ity
Ġge or
Ġcommit ting
Ġchrist ians
Ġsund ays
Ġdh arm
Ġnotice able
Ġmax im
Ġhom est
Ġfour th
Ġreserv ations
Ġsepar ated
Ġaud acity
Ġimag ined
Ġreven ues
Ġattract ed
Ġpros pect
Ġny our
Ġemerg ing
Ġcommunic ations
Ġgar age
Ġnar r
Ġfire works
cl ubs
Ġhind i
Ġconsult ing
Ġnan otek
Ġ198 7
Ġdeb ts
Ġauthentic ity
Ġkar ma
Ġbul let
Ġbow lers
Ġvalu ation
Ġcritic ize
Ġnv q
aram aya
Ġinqu ire
Ġsurround ings
Ġindic ating
Ġcasual ties
Ġairb us
Ġreflect ion
Ġwash ed
Ġdraw ing
Ġintegr ated
Ġlas er
Ġobject ive
Ġsar ath
Ġguard ian
Ġpharm aceutical
fo ot
Ġexcell ence
Ġbackpack ers
Ġdiagn osis
Ġcontain er
Ġisol ation
Ġdefe ated
Ġvolunte ering
Ġtransform ation
Ġchamp ion
Ġremem bers
Ġinsist ing
Ġbureau cr
Ġcrush ed
Ġdetermin ation
Ġcoron a
Ġposs ess
Ġabey se
hum an
Ġsociet ies
Ġfisher men
Ġfasc inating
Ġpostp one
Ġva ishali
Ġabol ish
Ġdrag ged
Ġrab ies
Ġnewb ie
Ġperpet r
Ġthrott led
Ġgall ery
Ġkam al
urg ent
Ġassh oles
Ġelim inate
Ġstead y
Ġunl aw
Ġamp ara
Ġaesth etic
Ġlyce um
Ġpalest ine
Ġcircumc ision
Ġtransm ission
Ġexplicit ly
Ġdow nt
Ġuna uthor
ele ph
Ġprox imity
Ġcric info
Ġacquis ition
Ġbreat hing
3 9
7 2
c or
f its
f ull
f inding
g as
g ie
h op
h ani
k en
l in
l at
l aptop
n ology
o vers
s is
u u
Ġt ed
Ġt issa
Ġt une
Ġt ends
Ġa se
Ġa int
re rs
Ġw es
on ic
Ġthe ft
Ġc ows
an im
Ġm ater
Ġm cdonald
Ġb acking
Ġb inance
Ġf x
Ġf ont
Ġp v
Ġp ip
Ġp ills
en ary
Ġh ed
Ġh ir
Ġto ys
Ġd and
Ġd itch
Ġn im
Ġn our
Ġn te
Ġn per
Ġn ah
Ġo me
om ic
ar at
ar ation
ri ger
ic ious
Ġre nd
Ġre ass
Ġre wards
Ġy y
Ġbe ard
Ġbe li
am ous
ver r
Ġwe ars
Ġha w
ro ph
Ġj ee
Ġr d
Ġr ings
im ag
Ġne ph
Ġse et
Ġse ylan
Ġv im
Ġv log
Ġex agger
Ġcon gest
Ġcon vey
Ġnot ably
Ġnot ified
Ġsu ited
Ġch ol
Ġch au
Ġch illed
ment ed
ul ations
Ġgo home
em a
Ġun lock
Ġpe as
Ġus ern
Ġlo re
Ġam a
Ġam en
Ġam ateur
Ġam nesty
os c
Ġapp e
Ġhi p
ear able
ree zy
Ġno de
Ġno vels
Ġco e
Ġyear ly
Ġte es
Ġdi k
Ġint ens
Ġloo ph
Ġloo sing
Ġman ually
Ġcl ust
Ġcount s
Ġoff ences
Ġcont rary
Ġacc a
Ġri c
Ġunder going
Ġunder world
Ġmon as
Ġsl ot
Ġstud ios
Ġpre cious
Ġpart ying
Ġbr ow
Ġro se
Ġro be
Ġro lled
Ġsc andal
pl ant
Ġmar x
Ġper t
Ġshe ll
Ġshe ets
Ġ7 000
Ġ8 000
Ġfo x
Ġche ated
Ġinv oice
Ġinv esth
Ġgen ius
int age
con f
Ġcommun al
Ġtrans cript
ert ed
Ġhapp ily
Ġatt ire
Ġatt ested
Ġbl a
Ġbl own
Ġsm th
sh ire
Ġsit s
Ġpar alle
alle y
Ġsur fer
Ġwr ap
Ġhop ed
ward ena
up un
Ġread s
ug oda
Ġchar itha
Ġcome back
Ġconf ron
Ġconf ession
Ġplay list
Ġce yl
Ġbo il
Ġlive lihood
mo ving
Ġnews first
Ġmus h
Ġz ah
Ġstr aw
att le
Ġ100 00
Ġresearch ed
Ġrent s
Ġcut off
ici ently
yl us
Ġsend s
co ver
Ġslt da
Ġorgan ize
Ġnormal ized
Ġjour neys
Ġbri ll
Ġtrad ers
Ġbreak up
Ġ23 0
ai res
Ġdev ops
Ġarrest ing
Ġbal as
Ġcas ino
Ġdam ages
Ġdaily mirror
nam ents
par k
Ġcollect ively
Ġmis use
Ġhost ed
Ġsam ples
Ġrain fall
Ġindepend ently
Ġexport ed
Ġwish es
for ward
Ġexpress ing
Ġmigr ant
Ġred mi
Ġpossib ilities
Ġinteresting ly
Ġlaunch ing
Ġdocument ed
Ġir responsible
Ġundergr ads
Ġobs er
Ġobs erve
Ġmer c
Ġden y
Ġship ment
Ġko omb
Ġtext s
Ġfle w
Ġconsult ed
Ġsqu at
Ġreve als
Ġiniti ate
Ġstick ers
recommend ed
Ġrob otics
Ġproceed ed
Ġsuic idal
Ġbuff ets
Ġdestro ying
Ġwt c
Ġdil ith
Ġdu ll
Ġframe works
Ġschedul es
Ġflav or
Ġwithdraw als
Ġadvis ory
Ġcro cod
Ġfed eral
Ġthri ve
Ġteen age
Ġbc z
Ġcomplic ations
Ġcontain ers
Ġunb earable
Ġextrem ists
Ġms g
Ġpregn ancy
Ġtig er
Ġlin en
Ġvoc abul
Ġwood en
Ġinfect ed
Ġhyp oth
Ġbm ich
Ġimmigr ant
Ġcp c
Ġcp u
Ġtear s
acc ount
Ġange l
Ġdir t
import ing
Ġvit z
regard ing
Ġsq l
Ġinstru ctor
Ġalign ed
Ġoblig ations
Ġmosquit oes
Ġuniform s
Ġassass ination
Ġbeg un
Ġcomprom ise
Ġembr ace
Ġpean ut
Ġpean uts
Ġphr ase
Ġcreat ivity
jee wa
Ġjayeward enepura
dri ving
Ġcoal ition
otherap y
Ġprosper ity
Ġlod ged
Ġalar ming
Ġintellect ual
Ġnarc iss
Ġproph et
Ġnish antha
Ġremark able
Ġtong ue
Ġcla uses
Ġremitt ances
Ġinjust ice
Ġprocure ment
Ġoverl ooked
Ġpenins ula
Ġbackl ash
Ġappli ances
Ġexorbit ant
Ġasbest os
Ġbelo ved
Ġindef in
Ġunpredict able
Ġinvesth ub
Ġvocabul ary
3 1
4 1
4 6
8 5
8 6
9 9
b ur
d og
e ks
f y
f in
f ish
i ate
k i
n ity
n cies
n uwara
p i
r ot
t wo
u an
v in
w is
w amy
y r
y ear
z ab
Ġt ert
Ġt na
Ġi h
Ġi chem
Ġs g
Ġs as
Ġs ands
Ġs omed
re al
in st
Ġw era
on ies
Ġc ater
Ġc me
Ġc ough
an now
Ġb os
Ġb og
Ġf ds
Ġf di
at ures
Ġp g
Ġp est
Ġp ara
Ġp ts
Ġp ier
Ġp ensions
Ġh ors
Ġh ms
Ġh acks
Ġan ch
Ġd l
Ġn op
Ġn bo
Ġn ous
Ġn can
Ġo i
om ing
is it
as un
st ore
ow ering
Ġu y
ac o
ro s
Ġk an
Ġk oth
Ġk ara
th ere
ad ic
ch er
ch ik
ur ated
ur ous
Ġdo omed
Ġli p
Ġr ave
Ġr lly
im osis
Ġsh es
Ġde leg
Ġde val
Ġso s
Ġv intage
and er
Ġcom pe
Ġch ik
Ġch ola
Ġch unk
Ġal b
Ġmo h
Ġmo cking
Ġwor ries
ci ence
Ġun anim
rou s
Ġcol oured
Ġlo dge
Ġam man
res p
Ġhas ar
ind ian
Ġexp orter
Ġsa as
Ġup rising
um ps
ag a
ag o
ag ar
ag am
Ġcomp ass
ect ive
Ġno isy
Ġdi am
Ġtime ly
Ġ5 12
Ġoff sh
Ġcont ents
ber ry
ip h
ip itiya
Ġar pic
Ġsp it
Ġsp otted
Ġpre mar
aw ath
Ġbr ains
Ġph en
Ġsc ars
Ġtri m
Ġtri als
Ġtri ple
Ġeng ines
Ġpay ed
Ġmin eral
Ġcurre ncies
Ġwell being
Ġpost ers
Ġcons ists
Ġche er
Ġche at
Ġpres erve
Ġ9 000
Ġbl u
Ġbl iss
Ġbl asts
Ġsm iles
sh ana
Ġra ises
be ware
Ġeconom ist
Ġrep ro
Ġjob less
Ġdr ones
Ġhand un
Ġext rac
Ġcle ans
Ġho ard
Ġshow case
Ġce iling
Ġgi ants
Ġbo ld
Ġx i
Ġid p
road s
Ġpoint less
Ġsw ing
Ġsw it
Ġtop s
Ġtry na
Ġdist ancing
Ġstr angers
Ġtest im
ura i
Ġref ers
Ġref riger
Ġran atunga
Ġmob ility
Ġhar mony
Ġhar bor
Ġparliament arian
Ġtit an
co de
Ġnon stop
Ġgre y
Ġmah ela
Ġnam ing
Ġcompl ains
Ġcy cles
Ġexc ise
Ġdecent ly
Ġwick et
Ġclub bing
Ġprotect ive
Ġeth ics
Ġfocus es
Ġpain ted
Ġeuro s
Ġenviron ments
Ġblo ated
Ġpurs ued
Ġprep aid
Ġver bally
Ġdiplom acy
Ġfi verr
Ġtv s
Ġmr p
Ġintro duction
Ġarch e
Ġdh amma
istic ated
Ġred irect
Ġdress ing
Ġskin ned
Ġheart breaking
Ġhom agama
Ġcli p
Ġstraight forward
Ġbt u
Ġque er
Ġimpact ed
Ġemerg ed
Ġcorpor al
Ġtrend ing
Ġtouch ed
Ġflo ating
Ġut ilities
Ġreve aling
Ġrant ing
Ġlay ing
Ġrom ance
Ġbb a
Ġsir asa
Ġpref erent
Ġwij eward
Ġsnorke l
Ġhighlight ing
Ġgem ini
Ġmald iv
Ġcart oons
Ġ197 7
Ġ197 8
Ġflu ently
Ġeld ers
Ġoccur rence
Ġfat al
Ġintegr ation
Ġvirt ually
Ġovers ized
Ġast ron
Ġintention ally
Ġretail ers
pass port
Ġcann on
Ġcann ula
Ġtheat ers
Ġweer asinghe
Ġoccup ation
Ġneighbour ing
Ġsett ling
aras wamy
Ġunus able
Ġconcert s
Ġtank s
Ġped est
Ġremem brance
Ġretrie ving
Ġrit ual
Ġescal ated
Ġsucceed ed
Ġcow ork
Ġpir acy
Ġbicy cles
Ġfunction ing
Ġhust les
Ġsubscri be
Ġgoog led
Ġcounse lling
Ġrefuge es
Ġker ala
Ġincompet ent
Ġreb els
Ġdevast ating
Ġtraum at
Ġfry er
Ġregistr ar
Ġligh thouse
Ġpowercut s
Ġnli ked
Ġolymp ics
Ġbungal ow
Ġlaksh man
Ġleech es
akum ar
Ġswed en
Ġmurdere r
stru ggling
Ġgotag ogama
Ġearbud s
Ġindirect ly
ifi able
Ġdisheart ening
Ġluc rative
Ġwholes ale
Ġcongr at
Ġfixt ures
Ġcounterpart s
Ġkitt ens
unci ation
Ġabo ard
abah u
Ġrefres hing
Ġbise xual
urric ular
Ġvene z
contin ent
Ġgohome gota
Ġmonas tery
Ġbrow se
Ġtert iary
Ġextrac urricular
Ġpreferent ial
0 5
4 00
5 3
a ven
b ac
b el
c ab
d rop
e a
f ace
h u
h ist
i pe
l or
o ch
p se
q o
r and
r ists
u ana
v ation
z s
Ġt ir
Ġt ue
Ġa ed
Ġs ara
Ġs igh
Ġs iy
Ġth t
Ġth ief
Ġw y
Ġw ore
Ġw rest
Ġw ished
Ġw ounds
Ġm g
Ġm ens
Ġb cs
Ġb orders
or gan
Ġp ans
Ġp att
Ġp cs
Ġan ne
Ġd ine
Ġd eri
es l
Ġin ade
Ġin ches
Ġn ce
Ġn asa
Ġn lkr
Ġn lanka
it ary
Ġo at
Ġo le
Ġo man
om as
om ark
Ġe w
Ġe ch
Ġe uthan
Ġre be
Ġwh it
Ġy ard
Ġfor ci
Ġis a
Ġu cl
ay ana
Ġon a
Ġst ones
ut ers
am n
am bo
ver ts
Ġwe li
Ġk en
Ġli ver
Ġli able
Ġli pton
Ġr age
Ġsh ak
Ġsh ield
Ġse o
ter ing
Ġde port
Ġso ap
Ġme xic
Ġv ouch
Ġv fs
Ġcon cess
Ġsu e
Ġch ased
Ġab duct
Ġab und
Ġmo le
Ġmo ck
Ġmo ham
ul ative
ig o
ig s
ig ious
Ġcol ors
Ġcol ts
Ġac s
Ġexp ats
os ystem
Ġday time
Ġrec om
Ġout ages
Ġve ts
ak uru
Ġim bal
pt ions
Ġdon ald
Ġdi yal
Ġint ol
Ġcl icking
Ġcount y
Ġhel akuru
Ġthem ed
act iv
Ġsp acious
Ġres um
Ġres idency
Ġind ie
Ġunder ground
aw ns
Ġpart ly
Ġdis like
Ġuni verse
Ġbr ack
Ġspe c
Ġro aming
Ġsc oring
pl aced
Ġmar ij
Ġbet ting
Ġgr as
av ahini
Ġinf amous
Ġed m
Ġke hel
Ġinst ruction
Ġsec urities
uw awa
Ġtrain er
we ight
Ġsim p
Ġpar am
Ġear liest
Ġins ider
Ġcr ashed
Ġend ors
ced es
Ġdes erved
Ġav o
Ġ19 50
Ġel ites
Ġadd iction
Ġshow c
Ġinform ing
Ġbo ast
Ġret ali
Ġdet erior
Ġz ion
Ġz oo
Ġsocial ize
Ġkid ding
Ġsing ers
Ġref resh
Ġexpect s
dh a
Ġwa ist
Ġmess ing
Ġmess aged
Ġeli zab
ott u
Ġ13 4
Ġ13 5
Ġtechn o
Ġmal li
Ġconst rain
Ġcap ability
Ġparliament arians
Ġpract iced
Ġdeli vers
Ġreach es
Ġspeed test
Ġgre ed
Ġpm d
Ġhospital ized
Ġlim iting
Ġdev s
Ġsent ences
Ġspecific ations
Ġvac ancy
Ġcal culation
rib ly
Ġamaz ed
Ġhalf way
Ġcop ing
Ġearn s
Ġsam an
Ġrid ers
Ġcorrect ed
Ġcra ppy
Ġlab els
Ġhol es
Ġrecord ings
Ġpresent ation
Ġbatt les
Ġje w
Ġje ans
Ġscre ening
Ġtast ed
Ġvers a
Ġdead lines
Ġheart s
ocr atic
Ġcoconut s
Ġrev ival
Ġtele com
Ġemb ark
Ġsum mon
head s
Ġcirc ulating
Ġng os
Ġsubm ission
Ġ199 9
Ġprint s
Ġsubs criptions
Ġdehi wela
Ġill ust
Ġeye ing
Ġimplement ation
Ġdeliver ies
Ġmalays ian
Ġdeb ating
Ġsatur ated
Ġpoll s
recommend ation
Ġbab ies
Ġnewswire lk
Ġwhe y
Ġtow ers
Ġple a
Ġscoot ers
Ġclin ics
Ġupload ed
Ġinsp iration
Ġovers ight
Ġsar ong
Ġblind ly
Ġjudge ment
Ġthri ller
Ġexplo iting
Ġteen agers
Ġamend ments
Ġwheel ers
Ġale vel
Ġbrief ing
Ġmarry ing
Ġaggress ion
Ġadjust ed
Ġpray er
Ġprivile ges
Ġcree p
Ġiron ically
Ġlan es
Ġped ro
Ġgm t
Ġvoc ational
Ġmanip ulation
Ġburn ed
Ġofc ourse
soft ware
Ġborrow ed
Ġcondem ned
Ġspect ac
Ġvit amin
Ġexplos ions
Ġcz ech
Ġpatri ot
Ġcomprom ised
intern et
Ġbeng al
Ġwashing ton
Ġcul inary
Ġsupple ments
Ġmit ig
Ġassh ole
Ġincompet ence
zer land
Ġsne ak
Ġinaug ural
Ġkno ck
Ġfingerprint s
Ġdispos able
adeep a
Ġaccredit ed
Ġht ml
Ġvic inity
opin ion
Ġovercrow ded
Ġcem et
mav o
Ġlor ry
Ġsth uth
awick rama
Ġparal ym
Ġdyn asty
Ġcontempl ating
Ġpradesh iya
Ġseparat ist
Ġhaz ard
Ġsimultane ously
Ġstap le
Ġsoph isticated
Ġgoss ip
Ġjurisdict ion
Ġazz am
raman iyam
Ġamen ities
Ġbalas ub
Ġkoomb iyo
Ġwera hera
Ġpts d
Ġhasar anga
Ġarpic o
Ġswit zerland
Ġdiyal uma
Ġmarij uana
Ġelizab eth
9 2
b reezy
c b
c in
d ies
f are
f cc
i ad
j e
m ad
m us
m ond
n ig
p age
r ace
t te
v ide
w art
w ich
y ala
z one
Ġa ia
Ġth res
in co
Ġw ad
Ġc ass
Ġc ited
an as
an athan
Ġm w
Ġb ust
Ġf ate
Ġf ame
Ġf igh
Ġf lip
or q
Ġp ion
Ġp ly
Ġp im
Ġp ension
en i
Ġh an
Ġh en
Ġh ith
Ġh il
Ġh inge
Ġh eter
Ġto d
Ġto pped
Ġl un
Ġl ingu
Ġd are
ed ic
Ġin ner
Ġin herent
Ġn id
Ġn ol
Ġn air
it ance
al iya
Ġo re
Ġo ath
is ons
Ġg n
Ġg it
Ġg ur
Ġg ates
Ġg rie
Ġg nan
Ġe ae
st an
et ies
ay o
Ġst aring
Ġk in
Ġk ann
th ose
oo s
ir ations
Ġas w
Ġj p
Ġj on
one l
Ġr ash
Ġsh ake
Ġsh ani
Ġse min
Ġde w
Ġde light
Ġde emed
Ġbut t
Ġso il
Ġso cks
Ġfr an
Ġv c
Ġv ine
Ġv ag
Ġex ac
Ġnot ch
Ġsu ms
Ġab st
ust om
ant ry
ab a
ab y
un ya
el awala
Ġun registered
Ġle ban
Ġpe er
Ġlo b
Ġlo bby
Ġlo oting
Ġam ended
ind ia
Ġday light
Ġrec omm
Ġout right
Ġen orm
Ġsa e
Ġsa ves
Ġup v
Ġno d
Ġone plus
Ġco c
Ġqu o
Ġcont am
Ġri y
Ġres ale
Ġres ched
Ġsl mc
Ġbr ace
Ġbr az
Ġinter rog
Ġinter course
gg y
Ġcur s
Ġspe ll
Ġph p
Ġsc ales
pl ed
Ġmar athon
Ġher bs
Ġwell awatta
du wa
Ġcar p
Ġem s
od es
Ġdeg r
ra pe
Ġ10 2
ple as
Ġbas l
Ġatt rib
Ġpos on
Ġlong est
Ġet iqu
Ġfore ns
Ġgu ards
Ġ19 00
Ġpub s
Ġsou p
Ġcare t
ug an
Ġchar ith
ama ha
Ġpur a
Ġho bbies
olog ically
Ġbit s
Ġsol icit
Ġclass ified
Ġopp ress
Ġraj a
Ġbo ots
Ġret ake
Ġdet ain
Ġsw arn
Ġworth while
mo bile
Ġmus k
Ġval orant
Ġmir acle
Ġprocess ion
Ġhealth ier
Ġappro vals
Ġref uses
Ġca pped
Ġ18 7
Ġresearch er
Ġprom o
Ġwater proof
Ġ14 4
Ġ200 3
Ġcricket er
Ġlow key
Ġob li
the ast
leg al
Ġorgan ise
Ġpath ir
Ġvot er
Ġprofess ors
Ġauthor itarian
Ġpet ty
app le
Ġdesign ated
Ġorigin s
Ġpat ron
Ġsli ppers
Ġrespect fully
Ġrespect ively
Ġbod hi
Ġgl ory
Ġgl omark
Ġpsych ologists
Ġfront end
Ġticket ing
iy an
awe lla
Ġdiv isions
umb ura
Ġlegit im
Ġlect uring
Ġdh al
mas ters
Ġje ws
Ġjud ged
Ġram es
Ġram ayana
Ġtast ing
Ġinflu ences
Ġrev ive
Ġkill er
Ġlaunch es
Ġnf rom
Ġethnic ities
Ġconsum ed
Ġattract ing
Ġobs ession
Ġobs erving
Ġdiss ent
Ġjun k
Ġmaster card
Ġdiscrimin ate
Ġcapt ion
Ġnic er
Ġmer cedes
Ġbang kok
Ġship ments
Ġswe ep
Ġregul ate
Ġten ure
Ġconv ention
Ġdark ness
Ġwise ly
Ġparticip ated
Ġ198 8
Ġmonit ors
Ġmanufact ured
Ġreject ion
Ġrenew able
Ġprofession ally
Ġdisp utes
Ġec osystem
Ġvari ations
Ġquiet er
Ġwhe els
Ġreci e
Ġmeant ime
Ġbackp acks
Ġbelong ings
Ġdetail ing
Ġbes ide
Ġindic ator
har ma
Ġip ad
Ġdescri bes
Ġdur ability
Ġnand akumar
Ġ197 2
Ġund ers
Ġupload ing
Ġdisg u
Ġreflect s
Ġfalse ly
Ġnegoti ating
Ġwithdraw ing
Ġnom ads
off s
Ġaunt y
Ġaccom pl
Ġpsychiat rists
iling ual
Ġexplo ited
Ġbc as
Ġpy ram
Ġcha otic
Ġrum ours
Ġchand r
Ġalert s
Ġsubst it
Ġsubst ance
Ġunre lated
Ġdivor ced
Ġvolunte ers
Ġalloc ate
Ġsiri mavo
Ġcoord inator
Ġfits air
Ġexempt ions
Ġfestiv ities
Ġbreath taking
Ġinclus ion
Ġspect rum
Ġinsult s
build ing
Ġinstru ments
Ġstamp s
Ġvessel s
Ġelev ated
Ġkrish breezy
Ġkilomet ers
Ġambul uwawa
Ġpilgri ms
Ġcultiv ation
Ġther mal
Ġcruel ty
Ġmistaken ly
Ġtun nel
Ġdomin ant
Ġchath uranga
Ġspar ked
Ġpolicem en
Ġpor uwa
Ġmart ial
Ġhorrif ic
Ġcontrad ict
Ġguesth ouses
Ġgeck o
Ġwrit ers
Ġimprison ment
Ġbandar awela
start ing
Ġnostalg ia
Ġirre le
Ġmour ning
Ġnel um
Ġseg reg
Ġtemp ered
Ġaccompan ied
that nig
Ġintrig ued
Ġprest igious
Ġscrut iny
Ġinev itable
elect ric
Ġthro at
ader ana
Ġrooft op
Ġcompat ible
Ġpredomin antly
Ġrefurb ished
Ġnarr atives
Ġbrill iant
Ġcrocod ile
Ġsomed ay
resp ond
Ġoffsh ore
Ġintol er
Ġavo ided
Ġcemet ery
Ġbalasub ramaniyam
Ġthres hold
Ġkrishbreezy thatnig
Ġkrishbreezythatnig ga
5 7
7 4
c am
c uss
d ear
g al
g ical
i udeen
k n
l ay
l ad
l ab
m ap
m outh
o ir
o ks
p owder
p opular
s ince
t u
t uk
u gg
v s
Ġt d
Ġt an
Ġt us
Ġa j
Ġi b
Ġi ii
Ġs ach
Ġth a
re qu
on a
on i
Ġthe sis
Ġc k
Ġc ure
an mar
Ġb ass
Ġb bs
Ġb ones
Ġf res
Ġf usion
at ra
en ess
Ġh andy
Ġan anda
Ġl ing
Ġl ung
Ġd c
Ġd ah
ed ly
Ġin se
Ġin hab
Ġn ig
Ġn fe
Ġn min
Ġn ike
Ġn imal
it ate
it ated
Ġo ic
Ġo st
ar us
ri ka
Ġe en
Ġe ater
le ys
Ġre ign
Ġre els
Ġbe ers
Ġbe ast
Ġbe ars
Ġit enary
Ġha p
Ġhe fty
ol id
Ġk i
Ġk et
gh a
ch ange
Ġj r
Ġr aves
Ġr hy
Ġsh ri
Ġsh attered
Ġse ater
Ġse ize
Ġde af
Ġv as
Ġv ue
Ġtr action
Ġnot ion
Ġat ms
Ġch rome
ain e
Ġthere by
qu ake
qu ality
Ġad o
Ġad here
Ġad aderana
Ġun wind
Ġun official
bo ys
ap ola
Ġcol a
Ġlo k
Ġac bt
Ġout break
Ġve l
Ġsa vi
Ġup stairs
ag g
ag iri
ans a
Ġone i
Ġqu ad
ase wana
Ġpo et
Ġneed less
Ġhel met
Ġar th
Ġcomm uting
Ġwork outs
Ġwork places
Ġind u
Ġunder way
Ġunder mine
Ġsl ower
Ġover he
Ġbr ave
Ġinc lined
Ġro y
Ġro oted
Ġjo king
iz ations
Ġ6 50
Ġper sec
erv ice
Ġinf os
Ġmin ist
Ġfo st
Ġtw in
Ġunderstand s
Ġbas h
Ġair asia
Ġsm ok
Ġsm iling
Ġsec ular
Ġsec rets
we era
Ġsim pl
Ġthought ful
Ġins uff
amil iar
Ġend oft
Ġtax pay
Ġav iyana
Ġent ities
Ġsur gical
Ġlast s
ern ess
Ġdr um
Ġrest ructure
Ġ15 000
Ġfound ers
Ġmain land
Ġbit es
Ġcor respond
Ġap ology
Ġplay station
Ġce ment
Ġqual ities
Ġcri pp
Ġrequ iring
Ġsk i
Ġvi jaya
Ġhon ors
Ġ11 3
Ġshort listed
Ġproject or
Ġexpect ation
Ġca ution
Ġallow ances
Ġdef am
Ġregard ed
Ġeff iciently
Ġpick le
Ġleft ist
Ġnuw an
Ġsafe guard
Ġnor theast
sc am
yl um
Ġart work
Ġyoung est
Ġyoung sters
iner y
Ġorgan ising
Ġ22 2
Ġspeed ing
Ġmah ind
Ġfil ters
ush k
Ġabs or
Ġunf amiliar
Ġmedic inal
Ġhuman ities
Ġnp ost
Ġmass ively
nam es
Ġapplic ant
Ġviol ating
Ġwin ner
Ġsun screen
Ġrele ases
Ġfeed s
Ġlight ing
Ġeth n
Ġbar ber
Ġstore d
Ġaffect ion
urd ans
Ġpress ed
Ġod is
Ġadm ire
Ġseason ed
Ġbur st
Ġjay asinghe
Ġge ograph
Ġstri king
Ġground ed
Ġess ence
Ġram esh
Ġadmin s
Ġlat in
Ġ07 6
Ġcli q
Ġnf c
Ġgun powder
Ġemerg encies
Ġdecl aration
Ġ199 5
Ġbom bs
Ġconsult ants
Ġtouch ing
Ġnan ay
Ġamb ition
Ġ198 2
Ġstick s
Ġrefund s
Ġfrequ ency
Ġcru ise
Ġupgr ading
Ġadvent urous
Ġspir its
Ġdisplay ed
Ġunc overed
su pport
Ġsettle ment
Ġwash room
Ġkot elawala
Ġbath iudeen
Ġnil adh
Ġorganiz ers
Ġprison ers
Ġfell as
Ġearth quake
Ġencount ers
Ġnq o
Ġtermin ation
Ġbrief ly
Ġsab ha
Ġuns uccess
Ġunre liable
Ġbrut ally
Ġbrut ality
Ġfulf illed
Ġquit ting
Ġens ures
Ġiron y
Ġexha ust
hot el
Ġvoc al
Ġmanip ulate
Ġasp iring
Ġnoo oo
Ġukrain ian
Ġdram atic
Ġemphas is
Ġblog s
Ġunem ployment
Ġfrag rance
osh itha
Ġkumar atunga
Ġ188 3
Ġshif ting
Ġbum ble
Ġbol lywood
Ġcompon ent
Ġsubsequ ent
Ġcer ave
Ġnewb orn
Ġblast ing
Ġdal ada
Ġesc aped
Ġmatt ala
lear ning
Ġallerg ic
Ġacknowled ged
Ġdaw n
trans port
Ġcycl one
Ġmyst ery
Ġarun annow
ikk al
Ġbil ateral
Ġtorrent s
Ġwijes uriya
Ġskyrocket ing
invest ing
Ġblat antly
Ġmural i
Ġmont ana
Ġhumid ity
Ġdivis ional
Ġresili ence
Ġfoss il
Ġscot land
Ġboyc ott
Ġnawal oka
Ġexcurs ions
Ġott awa
aunt ing
Ġorthod ont
Ġmilest one
Ġvolt age
eleph ant
Ġneph ew
Ġvim uk
Ġusern ame
Ġparalle l
Ġunanim ously
Ġdiam ond
Ġphen omen
Ġcannon ball
bac co
Ġrebe llion
Ġpion e
Ġexac erb
Ġetiqu ette
Ġsolicit or
Ġpyram id
Ġirrele vant
Ġendoft ext
Ġniladh ari
6 7
7 3
8 3
9 3
a ire
a ik
b d
c ond
c amp
d ig
e ing
e em
f und
j j
j un
m ate
m hz
n ational
n ormal
o va
p aid
p ita
q e
r t
s on
t ent
u ous
v as
v ol
v ention
w c
y n
z i
z zy
Ġt p
Ġt ution
Ġa ve
Ġi a
Ġi j
Ġs now
Ġs ss
Ġs ama
Ġth x
Ġth il
Ġw ann
on al
Ġc f
Ġc if
Ġm ing
Ġm ich
Ġm ph
Ġm fs
Ġb ac
Ġb ump
Ġf ier
or se
Ġp ou
Ġp owd
Ġh alls
Ġan ten
Ġto mat
Ġl ent
Ġl akes
Ġd ys
Ġd fcc
es c
es co
ed d
ed e
ed ies
Ġn ro
Ġn ab
Ġn ia
Ġn if
Ġn iv
Ġn up
Ġn sa
Ġn do
is o
Ġg at
Ġg ith
Ġg ta
ri de
as am
Ġe re
Ġe es
Ġe om
Ġre ct
Ġy oshitha
ow ing
Ġfor bid
ot ion
Ġu bers
et ical
Ġit n
ut an
ut or
id a
ct s
Ġk ath
ad harma
Ġor al
Ġj in
Ġj az
Ġli ed
Ġr ish
Ġr ants
Ġne o
Ġsh ark
Ġse qu
Ġse ized
Ġv andal
Ġtr ace
ill ai
Ġnot able
Ġpl u
Ġmo ist
ment ation
ul i
Ġif s
Ġpro portion
Ġad oles
Ġun esco
Ġle vy
Ġwould nt
Ġcol omb
Ġlo oming
Ġexp ires
Ġexp iry
Ġrec ession
Ġhi er
Ġim pl
Ġim per
Ġcomp ound
ect ed
Ġno on
Ġco om
Ġqu i
Ġqu arters
Ġint imate
eri e
Ġman amp
au x
Ġadv ises
Ġsp ill
Ġafter ward
Ġsl a
Ġsl aves
aw l
Ġact ors
Ġmu bar
ick et
Ġro lls
Ġph imosis
iz ers
Ġsc and
ru it
Ġgr av
Ġgr aves
av or
Ġcre ator
Ġrecommend ing
Ġmin erals
Ġta i
Ġta j
Ġfu rious
Ġcar ries
Ġinv ented
Ġed ited
Ġgen re
int ale
int erest
Ġsupp lier
Ġ10 3
Ġ10 9
te k
te ll
Ġsm ells
Ġcr acks
Ġcr acked
Ġra z
Ġend ure
Ġsub par
Ġbud dy
ject ory
Ġaw s
Ġdes cent
Ġav g
Ġav urudu
Ġwr ites
Ġreal izing
Ġnight clubs
Ġeconom ists
Ġdr agging
Ġgener ational
Ġgener ating
ific ent
Ġes im
Ġpolit ic
Ġread ers
ph ot
Ġadd ict
Ġfound ations
Ġtal ents
Ġmarket ed
Ġfl ora
Ġmat ure
Ġret ro
cept ions
Ġsystem atic
Ġland mark
Ġform ing
Ġbuild s
Ġmir r
az ing
Ġsing h
Ġref rain
less ly
tern ally
Ġbre ast
Ġmen us
Ġ16 8
Ġmil o
Ġpop s
Ġ13 7
sw im
eng ine
Ġ17 5
Ġspecial ization
Ġspecial izes
Ġaccept s
Ġele ment
Ġforward ed
Ġauthor ization
ann ar
por ary
Ġur ging
Ġdev il
Ġorigin ated
Ġstation ed
Ġcomment ary
Ġcal if
ades hi
Ġ26 5
Ġviol ated
Ġsn akes
Ġwin ners
20 25
Ġimm unity
Ġmis ogy
Ġsil k
Ġ27 0
Ġinvestig ating
Ġer r
Ġer adic
Ġplant ed
Ġnd is
Ġseason s
to day
Ġintro verted
Ġlak mal
Ġvers us
Ġwind s
Ġinflu ential
Ġgreen ery
Ġthird s
Ġcondition ed
Ġlaws uit
Ġmaint ains
Ġ07 0
Ġcli ps
Ġir l
Ġir respect
Ġprogress ion
Ġnw ill
Ġdiss olve
Ġprodu cing
Ġimpact s
Ġden im
Ġgar ments
uck y
Ġ199 7
Ġtext ed
Ġmach an
Ġom g
Ġudawal awa
Ġpractical s
Ġtra jectory
Ġdisp ro
Ġdisp ose
Ġnur t
Ġbrain storm
Ġbb q
Ġbuff er
Ġbuff ering
Ġautom obile
Ġsurger ies
Ġurg es
Ġnn pp
Ġrus hing
Ġvan ished
Ġgb p
Ġindic ators
Ġsust ained
aps ed
Ġcurric ular
ob ia
Ġdisg usted
Ġwash rooms
Ġnegoti able
Ġcro ps
Ġinstruct ors
Ġpa an
Ġsand wich
Ġgang aramaya
Ġlie uten
Ġexplo itation
Ġwalle ts
Ġnth ank
Ġcos m
Ġexpand ed
Ġmoder ation
Ġfare s
Ġweak ness
Ġdiscl ose
Ġbackpack er
Ġchand rika
Ġtermin ated
Ġcoach ing
Ġcath ol
Ġdoub led
Ġpiz z
Ġpredict ions
Ġjayaward ene
Ġbehavi ors
Ġincom es
Ġrevolution ary
Ġmak ers
Ġsacrif ices
Ġsacrif icing
Ġindones ian
Ġchemical s
Ġmyth s
Ġflow ing
Ġtwe ets
Ġdim uth
Ġindo ors
Ġentit le
Ġsib ling
Ġborrow ing
Ġdisappear ances
Ġpron unciation
Ġamd t
Ġct b
Ġtroub ling
Ġpoo rer
Ġmagn ificent
Ġjk h
Ġry zen
Ġcounse llor
Ġancest ry
Ġprosec uted
Ġfemin ism
Ġber uwala
Ġner d
Ġrefuge e
Ġdynam ics
Ġintimid ate
Ġflee ing
Ġineff icient
Ġdevast ated
Ġkne e
Ġphr ases
Ġcreat ures
Ġgentle man
Ġoutrage ous
Ġjayeward ene
Ġroman ia
Ġnall ur
Ġwors ening
Ġmisunder standing
Ġconvent ional
Ġenterpr ises
Ġcens us
Ġfro zen
Ġbarg ain
Ġaven ue
Ġanth em
search ing
Ġsant a
Ġbetray al
Ġntrans action
gath read
Ġalum ni
Ġtelecommunic ations
Ġbore lla
Ġell iya
Ġcashe w
Ġbaff led
Ġjes us
Ġarc ade
athil ake
Ġburgh er
Ġvigil ant
Ġattest ation
Ġunreal istic
Ġmih intale
econom ic
Ġtimet able
Ġrepet itive
Ġcambod ia
Ġgamb ling
Ġgeor ge
Ġperpetr ators
Ġdik wella
Ġceyl inco
Ġtitan ium
Ġmaldiv ian
Ġwhit ening
Ġspectac ular
Ġtod dy
Ġvine gar
Ġbraz il
Ġlegitim acy
Ġfost ering
Ġnanay akkara
Ġgith ub
Ġmanamp eri
Ġmubar ak
Ġirrespect ive
5 2
8 2
b lo
c ou
c ult
d in
g ian
g oogle
h id
i ac
j or
k ins
l le
l ore
m ons
m pic
t ar
u cks
z o
z es
Ġ vert
Ġt c
Ġt res
Ġt ata
Ġa we
Ġs ink
Ġw rapped
er ce
er ity
Ġc en
Ġc es
Ġc ub
Ġc nn
Ġm ama
Ġb ilingual
Ġf f
Ġf p
Ġf akes
Ġf fs
or king
at issa
Ġp te
Ġp alle
Ġp acking
Ġp uls
en cing
Ġh q
ing y
Ġto bacco
Ġl end
Ġl ud
Ġd ab
Ġd urdans
ed a
Ġn my
al anda
Ġo de
Ġo sh
Ġo be
ar ity
ar act
Ġg q
Ġg um
Ġg au
Ġg sp
Ġg ulf
ri ci
Ġe z
le ep
Ġre k
Ġre per
st ep
Ġwh ites
Ġy ak
Ġbe ans
Ġbe verage
ot v
Ġis b
Ġu h
Ġit c
Ġit ak
Ġon ion
Ġha v
Ġhe lla
ol ing
Ġk ud
th ink
th eless
Ġmy anmar
ch ef
Ġas ians
Ġas ylum
Ġas leep
Ġr all
Ġsh ade
Ġsh aming
Ġsh aping
Ġse eds
Ġde ck
Ġde me
Ġde br
Ġso y
Ġso es
Ġso da
Ġfr on
Ġtr ish
Ġex e
and an
Ġnot ing
Ġat p
Ġch ai
Ġpl ag
Ġmo bs
ul ed
Ġpro ving
Ġwor n
Ġwor ding
us iness
ist ine
un i
Ġget ty
Ġun ch
Ġun educ
Ġle ap
ap art
Ġpe el
Ġlo q
Ġlo ses
Ġac upun
Ġrec l
Ġtim er
Ġout ward
Ġhi i
Ġhi jab
ak ram
ree ze
Ġcomp act
Ġno k
Ġag ro
Ġco vent
Ġco ca
Ġdi ab
Ġ20 30
Ġman ners
Ġpo se
Ġpo lling
Ġhel m
Ġaf aik
Ġthank ing
Ġri f
Ġvis ually
Ġind ul
Ġind igen
Ġpre jud
Ġpr adeep
Ġpr istine
Ġpart ial
ick ed
Ġdis k
Ġdis li
Ġbr ake
Ġbr ag
Ġinter m
Ġinter vention
Ġcur se
Ġcur tail
Ġfri mi
fe eling
Ġro i
Ġplan es
Ġph i
ala im
ang i
Ġgr ain
av our
av ali
Ġrecommend s
Ġma z
Ġrel oad
Ġdec rimin
Ġ7 20
Ġcons olid
Ġche c
Ġche fs
Ġcar ving
Ġcar rom
Ġcar bon
Ġinv ent
Ġed u
od d
Ġmed als
Ġfin est
Ġdiff er
ange red
uw ela
Ġlot tery
Ġsit a
Ġdown gr
Ġdown right
Ġdown hill
Ġpar is
Ġcr onies
Ġend angered
be ach
Ġdes ert
Ġent r
arent ly
Ġhome work
Ġel le
Ġweek day
Ġdr astic
Ġes ports
Ġchar m
Ġhand les
Ġhand outs
uc king
Ġbeach side
Ġpur se
Ġboth ers
Ġwar ri
Ġbit ch
Ġass ure
Ġord inance
Ġcor rid
Ġsal ad
lud ed
Ġbo is
Ġx xx
he im
Ġlaw m
Ġmus ical
Ġmus icians
Ġ11 5
Ġstr ings
Ġprof iciency
Ġty re
Ġbudget s
do ing
Ġwa x
Ġmaj ors
Ġmaj estic
Ġmid st
Ġ18 00
Ġfre ak
osp ace
Ġ14 5
Ġ16 00
eng er
Ġmob il
Ġtechn ique
Ġnor way
Ġser ge
Ġtre mend
Ġfun ctions
Ġmal icious
the y
Ġbel ts
br inging
Ġaust en
Ġaust erity
Ġsuper intend
rest aur
Ġpath um
Ġchoo ses
Ġnam ib
by d
ok en
Ġsearch es
no stic
ung unya
Ġnp ar
Ġna a
Ġhuge ly
Ġfort une
Ġclean up
Ġsoci als
Ġviol ate
Ġsound ed
Ġcompet ing
Ġnt orq
Ġsun light
Ġcivil ized
Ġrele asing
Ġeth no
Ġbar ista
Ġsport ing
Ġconfir ms
Ġcorrect ion
ram as
iy e
Ġexist ent
Ġyout uber
Ġnd f
Ġfi ance
Ġnecess ities
Ġrepair ing
Ġstri p
set t
Ġtur key
Ġmigr ants
Ġcomb inations
Ġdh aka
Ġstar ving
Ġstar ters
und ara
Ġwild erness
Ġess ay
Ġconduct ors
Ġay ya
Ġtar n
Ġrev ision
Ġapproach es
Ġvalid ation
Ġreserv oir
Ġsuit case
Ġchalleng ed
Ġjun iors
Ġprodu cer
Ġsan jeewa
Ġden ying
Ġdecl aring
Ġinstall ing
Ġappear ing
Ġ199 8
Ġrepe al
Ġregul ated
Ġconsult ancy
Ġexec ution
Ġkur un
Ġparticip ant
Ġ198 4
Ġut most
Ġsix th
Ġoffering s
Ġrob ust
Ġec lip
Ġexecut ed
Ġwij e
Ġrad i
Ġcance led
Ġcance lling
Ġnv me
Ġround s
rem ember
Ġimpos ing
Ġestim ation
Ġstrength ened
Ġbangl adeshi
Ġassault ing
Ġacadem ically
Ġbail a
Ġmicro pl
Ġcro oks
Ġlas ith
Ġlas ik
Ġaunt ies
Ġfed ex
Ġast on
Ġconfident ly
Ġcompar able
Ġrecon dition
Ġanonym ity
Ġsubmit ting
Ġdistur bed
Ġoutdo ors
Ġcloud fl
Ġleng thy
Ġdeduct ions
Ġfab rics
Ġyo hani
Ġcoord ination
Ġmanip ulated
Ġkings bury
Ġfraud ulent
yy y
Ġmargin s
Ġprescri be
Ġcooper ate
Ġcondem ning
Ġrein for
Ġrecruit ers
Ġemphas ized
Ġlau nd
Ġboom er
Ġpron ounce
Ġconstruct ive
Ġsuperior ity
Ġhabit at
ophob ia
Ġarab ia
Ġtrick y
Ġmagn ite
Ġpopul ist
Ġphotograph ers
iva ikkal
Ġpostp oned
Ġassass inated
Ġfemin ist
Ġoly mpic
Ġoptim istic
Ġdistract ed
Ġembarrass ed
Ġfulfill ing
Ġpra ise
Ġstig mat
jo bs
Ġdans ala
Ġconcent ration
Ġconsens us
Ġwand er
Ġwand ering
Ġcock tail
Ġbrid ges
Ġtraum atic
Ġexhib ition
Ġfolk lore
Ġtrek king
Ġfunctional ity
Ġrup avahini
Ġpolicem an
Ġmur ugan
Ġmyst erious
Ġdhan ushk
Ġincorpor ate
Ġinher ited
Ġincent ives
Ġaudi ences
Ġenterpr ise
Ġlal ith
Ġguesth ouse
experi ence
Ġblat ant
Ġbak ery
Ġpla que
Ġathlet es
Ġstal in
Ġchal ets
Ġinsurg ency
Ġcoinc idence
Ġaer ospace
Ġgop ro
chol ai
Ġinterven e
Ġsincere ly
Ġceremon ies
Ġware house
Ġpriy antha
Ġresid ences
Ġweeraw ila
Ġumb re
Ġgeopolit ical
Ġserendip ity
Ġworsh ipping
Ġmull ivaikkal
Ġmalig awa
month s
eto oth
Ġmagaz ine
Ġunlaw ful
Ġunauthor ized
lat ox
Ġblu etooth
Ġrefriger ator
Ġvenez u
rand om
Ġforci bly
Ġmole cular
Ġimbal ance
Ġkehel iya
Ġsummon ed
Ġleban on
Ġenorm ous
Ġpathir ana
cuss ions
Ġrhy th
Ġminist ries
Ġvimuk thi
Ġphenomen on
Ġlieuten ant
Ġreper cussions
Ġdebr is
Ġuneduc ated
Ġacupun ct
akram abahu
Ġindigen ous
Ġdecrimin al
Ġsuperintend ent
Ġeclip se
Ġdhanushk odi
6 3
b ow
b ia
b orough
c ases
e ur
e el
f ake
f ruit
h in
h ad
i it
k ud
k rit
m ind
o h
p ie
p ool
q d
r av
r ates
s n
s en
t v
u ate
v u
w ashed
y as
Ġt int
Ġt ipping
Ġa il
Ġa ry
Ġi ra
Ġth omas
Ġw c
Ġc n
Ġc attle
an jaya
Ġb g
Ġb in
Ġb end
Ġb art
Ġb ans
Ġb day
Ġb inge
Ġf ence
or ial
at in
Ġp ud
Ġp ah
Ġp ots
Ġto e
Ġto ff
Ġl se
Ġl ur
Ġl ame
Ġl ending
Ġd ot
Ġd ud
Ġd si
ed back
Ġn ter
Ġn what
Ġn how
Ġn co
Ġn ret
it ures
al age
al tern
Ġo z
Ġo oo
Ġo ats
ar ms
is ers
Ġg c
Ġg es
Ġg pt
Ġg aps
Ġg aj
ri ll
as m
as se
Ġe ly
ve li
Ġre actions
Ġre charge
ion ed
st ock
Ġbe verages
Ġfor give
ot ine
Ġu ll
et e
Ġst f
Ġst im
Ġst ip
Ġha e
Ġha ul
Ġha iled
se ll
ro ot
Ġk h
Ġk ite
Ġk ites
Ġk han
th ank
th ese
th iya
ad hapura
Ġlank as
ch air
ch andra
ur se
ur able
Ġli me
Ġli vest
nt s
Ġne oli
Ġsh a
Ġsh ah
Ġsh its
Ġse vent
Ġse gment
Ġv f
Ġv oy
Ġv alley
and u
nd um
Ġab c
Ġab normal
ers ons
Ġpl um
Ġal le
Ġal ter
Ġmo or
Ġmo ones
Ġpro xy
Ġgo s
el le
Ġun le
Ġun will
Ġun happy
Ġun sett
Ġle v
Ġcol ored
Ġlo bb
Ġlo gging
Ġam een
Ġ3 80
Ġen velop
Ġsa ar
um ble
Ġcomp liment
Ġno ises
Ġag ing
Ġco co
Ġte e
Ġint rest
Ġpo h
Ġpo k
Ġpo gr
Ġcl o
Ġcl an
Ġnew est
Ġcount ed
Ġ4 20
Ġ4 80
ong r
Ġaf latox
Ġadv ising
ide press
Ġcont ained
ber al
Ġar av
Ġar row
ass ana
Ġcomm ence
Ġunder gone
ail ed
Ġsl r
Ġsl ic
Ġsl ides
aw ays
Ġpr one
Ġpol ar
Ġpol ish
Ġpol ished
Ġover p
Ġover charge
Ġover charged
Ġact or
ick ers
omm erce
Ġdis par
ile ged
Ġcur t
Ġfri es
Ġinc umb
fe edback
Ġro h
Ġback st
Ġback ward
ub ai
ala pp
Ġmar s
ep ala
Ġper th
Ġpay check
av ada
Ġguys ss
Ġinf lic
bs c
Ġcons ulate
Ġinv is
Ġinv iting
Ġworld s
od ed
Ġtour naments
Ġ10 4
Ġ10 5
Ġright fully
ple te
te a
Ġpos it
Ġbl and
get s
Ġrem edies
Ġbu gger
we ek
Ġcontin ent
Ġins ists
Ġra h
Ġopt ed
Ġboo ster
Ġlast ed
Ġdr agon
Ġev olve
Ġbeach front
Ġ15 5
Ġnever theless
Ġshow ers
Ġsal ons
Ġce e
Ġcard iff
Ġnational ists
Ġmat urity
Ġopp ression
Ġcent ered
Ġcent red
Ġfar mer
Ġhard est
Ġhard ship
he ld
he ard
he era
Ġdet our
Ġwom ens
Ġsw ord
Ġsw ipe
Ġnews let
Ġlearn er
Ġhon ours
Ġform ally
Ġfac ial
Ġprof ound
Ġrajapak ses
Ġlist ened
Ġwa king
Ġprogram mer
Ġdem od
Ġdem ons
ove x
Ġnuw ar
Ġjoin s
cu ed
Ġ13 8
Ġcourse work
Ġhar is
Ġbel arus
Ġnet ball
Ġdepart ed
Ġ17 00
Ġcris py
Ġfil th
Ġfil tered
Ġafford ability
ush i
Ġsex ist
Ġselect ive
ds pe
Ġmot ive
Ġcoast line
Ġauthor ised
app arently
Ġrepl ica
Ġsurf ers
orn ia
Ġnp ri
Ġdece ased
Ġsound ing
Ġsort a
Ġant idepress
Ġdad s
20 22
Ġdeep avali
ex pl
Ġsam ud
Ġlack ed
Ġinvestig ated
Ġnote book
Ġlab ou
Ġslow ed
Ġseason al
Ġbur gers
Ġdream ing
Ġdream ed
Ġband ula
Ġge force
Ġspot light
Ġblack mail
Ġak ka
Ġsurpr ises
Ġcomb ine
Ġje eps
Ġjud ging
Ġguid ing
Ġrev ised
sec ond
Ġcoll ar
Ġemb ar
Ġimag ination
Ġcelebr ity
Ġvol can
Ġvol umes
Ġnic otine
Ġdecl ining
Ġhur ting
Ġom en
Ġphotos ho
Ġill usion
Ġconv o
Ġnan o
Ġdeb ates
Ġ33 3
Ġtas ked
Ġcolon y
Ġbul ly
Ġprevent ed
Ġrob ber
Ġsens ible
Ġvari eties
Ġpref ects
Ġcopy right
Ġwhe at
Ġpil ots
Ġot ps
Ġ99 9
Ġnin vest
Ġupgr aded
Ġbelong ed
Ġgp us
Ġstrict er
Ġnl amp
Ġtherap ists
Ġindic ates
Ġdiscount ed
Ġemp ath
Ġdescri bing
Ġacadem ia
Ġdiscipl ined
Ġproud ly
Ġsettle ments
Ġinn ovex
Ġinsp ire
Ġinsp iring
Ġconvin cing
Ġconfident ial
Ġwik i
Ġunfair ly
Ġorient ations
Ġdiscl os
Ġdiscl osed
Ġsatisf y
Ġmn c
Ġcham ika
Ġmut ton
Ġkr ak
Ġwarm th
Ġfundament als
Ġscenari os
Ġanonym ously
Ġjayaward enepura
Ġmuse ums
Ġincom ing
Ġannounce ments
Ġstruct ural
Ġpenal ties
Ġdefe ating
Ġfulf il
Ġdism ant
Ġmak er
Ġtransform ed
Ġ196 4
Ġsacrif iced
Ġlicens ing
Ġash ok
Ġlegisl ative
Ġasp i
Ġasp irations
Ġfertil iser
Ġnoo b
Ġshad ow
Ġapolog ise
Ġnag adeepa
Ġune asy
Ġtoler ance
Ġdat as
Ġsav vy
Ġprec ise
Ġbh utan
Ġmotorb ikes
Ġagend as
Ġarab ic
Ġexplos ion
Ġrath malana
Ġct id
Ġcigare tte
harama h
stit utional
Ġfasc inated
Ġprosec ution
Ġmisle ad
Ġox ford
Ġsyn c
Ġsyn ops
Ġsamar asinghe
Ġpra ising
Ġincons ist
some one
Ġneck l
Ġhotsp ots
Ġtwist ed
Ġintimid ation
Ġobst acles
Ġbiscu it
Ġprivat ization
Ġdowns outh
Ġdiscour age
Ġsuperv isor
Ġlou dspe
Ġinject ions
Ġsurve ys
Ġskyrocket ed
Ġwimal adharma
Ġveter an
Ġpriest s
Ġrig orous
Ġfacilit ate
Ġnie ce
Ġundermin ed
Ġdisadvant age
Ġcher ry
Ġtelecommunic ation
rolog ist
Ġmacro economic
Ġkiribath goda
Ġgover ment
Ġrecy cling
Ġmillenn ium
Ġgest ure
Ġclash es
Ġdesc end
Ġteled ramas
cur rent
Ġvegg ies
Ġsurpass ed
Ġprevail ing
Ġsans krit
Ġbiz arre
Ġwijey adasa
Ġscal p
nut rition
Ġsath osa
Ġwu han
Ġvom iting
Ġhelicop ter
Ġrefere ndum
Ġcongest ion
Ġpert aining
Ġconfron ted
Ġchik ungunya
Ġtestim ony
Ġarche ological
Ġpedest ri
Ġinade quate
Ġendors ed
Ġconstrain ts
Ġlob ster
Ġriy asewana
Ġbrace let
Ġcaret aker
Ġinsuff icient
Ġunsuccess ful
Ġorthodont ist
Ġmph il
Ġanten na
Ġcoom araswamy
Ġtai wan
swim ming
Ġcalif ornia
Ġcathol ics
Ġpuls ar
Ġrall ies
Ġcovent ry
Ġinterm itt
alaim annar
Ġwarri ors
Ġcloudfl are
Ġvenezu ela
Ġneoli beral
Ġmoones inghe
0 6
6 00
a ust
b et
b ish
b ound
c ation
d g
d ubai
f r
g ro
g un
h om
i en
i ated
k ar
k wh
l u
l as
l ow
l ot
m r
m aking
p ical
q a
r m
r one
r ained
s ur
t il
t em
u i
u v
u ation
w d
w atta
Ġt ile
Ġt ender
Ġa ver
Ġa ies
Ġs ided
Ġth ur
re search
in ch
in um
in ction
Ġw ud
Ġw ade
Ġw ah
on est
er ate
er agala
Ġc ate
Ġc ord
an anda
Ġm ast
Ġm age
Ġm ics
Ġm its
Ġm ma
Ġb ms
Ġb ots
Ġb itten
Ġb han
Ġb aked
Ġb reeze
Ġf king
Ġf int
Ġf aded
at us
at ivity
at isf
Ġp se
Ġp av
Ġp up
Ġp uc
Ġp ann
en ne
Ġh b
Ġh amp
Ġan s
Ġan thon
Ġl n
Ġl act
Ġl inking
Ġd air
Ġd augh
Ġin h
Ġin box
Ġn ip
Ġn ick
Ġn ama
Ġn urs
it r
ar uwa
is p
Ġg ens
Ġg uts
ri ch
ri age
Ġe f
Ġe ke
Ġe rect
Ġre uters
st ed
Ġy ap
ot ive
Ġu m
et ers
et oric
ay ing
Ġon d
Ġst ain
am ine
se x
Ġhe ge
Ġhe aven
ce y
Ġk ith
Ġk its
Ġk ills
Ġk anch
ad ier
Ġor ch
Ġas well
Ġli king
Ġli ability
Ġr ats
im ated
Ġne y
Ġne ee
Ġsh ine
Ġse per
il er
il ation
Ġde x
Ġde activ
Ġme lt
Ġfr ames
Ġv iv
Ġv oa
Ġv apes
Ġcon sec
Ġcon verse
Ġsu cc
Ġsu gath
Ġch ap
Ġch ained
Ġch abad
Ġcan teen
Ġpl ight
Ġpl astics
Ġal arm
ort ed
ain able
Ġsome place
ig iriya
Ġlike wise
ist ical
un ned
el ly
el ong
ci p
are nce
Ġad h
Ġun sp
bo y
ap ath
Ġpe otv
ard ed
Ġus aid
Ġcol onel
Ġlo gged
Ġam m
Ġam bal
Ġfe aring
Ġ3 40
Ġwho pping
Ġapp et
Ġrec ons
Ġout line
Ġout fits
Ġen han
Ġhi res
ak d
ag rap
Ġcomp os
Ġno ff
Ġco ating
Ġint r
Ġint act
Ġpo le
Ġpo pping
Ġcl er
Ġcl ause
ave en
Ġoff end
wh ite
Ġacc ents
ip a
ip riya
act s
Ġcomm ando
Ġsp ark
ite ment
Ġres cued
Ġsl it
Ġsl ap
Ġsl ang
Ġpre y
Ġpre ced
Ġpre ca
aw ahini
Ġpr ab
Ġcountry side
Ġmu ham
Ġbr ah
Ġbr unch
Ġbr agging
Ġspe culation
Ġro pe
Ġro ses
Ġro sy
Ġjo e
Ġjo h
og ue
Ġtri pping
Ġmar ina
ru ff
Ġher b
erv ation
lect ion
Ġshe han
Ġpers u
Ġdec ency
Ġ202 8
Ġfo ols
Ġfo ster
Ġcar bs
Ġaccount ants
Ġinv itation
Ġem er
Ġem igr
Ġem issions
od ing
ra h
ound ing
Ġpres um
ple x
Ġinst ig
Ġinst inct
Ġappreci ating
Ġsm og
Ġserv icing
sh i
sh ort
sh ell
Ġpar agrap
Ġear phones
Ġcr ude
Ġcr ashing
Ġsub mar
Ġsub continent
Ġbud dies
be at
Ġav id
Ġent ries
Ġpass age
lo at
ason able
Ġreal ising
Ġsy nd
Ġprov ision
Ġhey y
Ġrep orters
duct ive
Ġes e
Ġchar ming
Ġimp unity
Ġfound ing
Ġwar rants
Ġcor n
Ġcor olla
Ġnum b
Ġsal oon
Ġfl ick
Ġqual if
Ġmat ri
Ġbo iled
Ġx e
Ġid s
Ġhard core
ash a
Ġworth less
mo il
Ġvi k
Ġz te
ari o
apak sa
Ġstr ain
Ġhead lines
Ġmir is
Ġ25 5
Ġport ions
Ġtest ament
Ġmom s
Ġref usal
Ġpast a
Ġdef ended
Ġisland wide
Ġwa iter
Ġbeh aving
adu lla
Ġspecif y
Ġq os
Ġmen ike
Ġ14 6
Ġprefer able
Ġ16 6
Ġ16 7
Ġprotest er
Ġview ers
Ġtourist ic
Ġcricket ing
Ġtechn icians
Ġser bia
Ġmal col
Ġ17 9
Ġjour n
Ġinfl ow
Ġhal ted
Ġfix es
Ġmatch ed
hi res
Ġdev ote
Ġcredit ed
Ġmult in
Ġsent iments
Ġaccess ibility
Ġpat iently
ane ous
Ġfair ness
Ġhit ler
Ġris en
Ġris es
Ġcivil ization
Ġimm une
Ġreview ed
Ġlight ning
Ġmis con
Ġrecogn ise
Ġline up
Ġinterview er
Ġquick er
Ġcra fting
iy aya
Ġpan or
Ġpress ing
Ġod ds
Ġcrit ically
Ġsad ness
ec d
Ġjay aweera
Ġye lling
Ġthreat ens
Ġstri pped
Ġ29 0
Ġsimply tek
Ġdom inance
Ġtur moil
Ġbrit ain
und ai
Ġah med
Ġstra its
Ġram anayake
Ġaut ism
pri ce
oun ced
Ġwind screen
Ġforce fully
Ġassoci ates
Ġkill ers
Ġcoll apsed
Ġwi pe
Ġwi res
Ġnm otor
Ġ01 12
Ġprogress ing
80 8
Ġgun asekara
Ġassist ed
Ġattract ion
Ġprin ce
Ġdiss olved
Ġtransl ations
Ġtransl ating
Ġtransl ates
Ġtransl ator
Ġmaster chef
Ġsan ity
Ġsan ction
Ġng l
Ġol ive
Ġfest ive
Ġtrend y
Ġbom bed
Ġintrodu ces
Ġlif elong
Ġfavor ites
Ġconflic ted
Ġdark er
Ġresponsib ly
Ġcross roads
Ġcoo ks
Ġtra it
Ġrenew ing
Ġcream s
rep res
Ġvari able
Ġbuff al
uct ions
Ġep a
Ġcook er
Ġcru iser
Ġmechan ics
Ġoce ans
Ġrad ius
Ġreci pro
Ġurg ency
Ġslight est
Ġconsist ing
pet co
Ġspir al
right s
Ġpublish ing
pro ble
Ġflu ency
Ġcompens ate
Ġhindu ism
Ġgather ings
Ġreflect ing
Ġpictures que
Ġprinci p
Ġbath rooms
Ġflav ours
Ġnom inated
Ġintegr ate
Ġfed eration
char ging
Ġarrange ment
Ġsustain ability
Ġgrab bing
Ġbor ne
Ġcalcul ations
Ġthri ving
Ġow es
Ġcompar atively
Ġconsequ ence
Ġ195 2
Ġouts ider
Ġflood s
Ġorient al
Ġrecru ited
Ġspeech es
Ġine quality
Ġchand imal
Ġale x
Ġcham ara
Ġcham inda
Ġcann ib
Ġpix els
Ġsab ot
Ġfurn ish
Ġfurn ished
Ġpredict or
Ġglad ly
Ġadjust ments
Ġsymb ols
Ġtag s
Ġfeas ibility
Ġiron ic
Ġrot aract
Ġcoord inated
ley ball
Ġretrie ve
Ġjail ed
Ġscratch es
Ġorph an
Ġcharacter istics
Ġske let
Ġpriorit ise
Ġcow orking
Ġble eding
Ġgri ef
Ġul tr
Ġscan ned
Ġaz ure
Ġboom ing
Ġchart s
fa ith
Ġexplos ives
Ġaccomod ations
Ġtoile ts
Ġnarrow ed
Ġrepay ment
Ġkrish anthi
priv ileged
Ġfisher ies
Ġpump ing
Ġpour ing
Ġstorm ed
stud ying
Ġdecre ased
Ġ188 1
Ġambul ance
sal ary
Ġdict ator
Ġmonu ments
Ġpra ised
intern ational
Ġexchang ing
Ġinterf erence
Ġsymp athy
bus iness
Ġobst acle
Ġbless ing
Ġbless ings
Ġcraft s
Ġunl ucky
Ġsapp hires
Ġdiscour aged
Ġdeliber ate
Ġcontem porary
Ġspo iled
Ġprepar ations
Ġregistr ations
Ġstabil ize
Ġdessert s
Ġincent ive
keep ing
Ġbloom field
Ġbarg aining
Ġgroom ing
Ġpoison ing
Ġhaunt ed
Ġstro ke
Ġtrib un
Ġcommod ities
Ġrh etoric
Ġtsh irts
Ġhash t
state ment
Ġhypocr isy
Ġhun ger
Ġtoast masters
Ġindec ency
Ġpras anna
Ġgrat itude
Ġhoc key
Ġlandsl ide
Ġpurif ier
Ġgree k
Ġramp ant
Ġclou dy
Ġreimb urse
Ġtrous ers
Ġdand ruff
Ġclust er
Ġmarx ist
Ġobser ver
Ġindefin itely
chik ade
Ġcompass ion
Ġcowork ers
Ġcongrat ulations
Ġextracurricular s
Ġwrest ling
Ġanne x
Ġeuthan asia
Ġisa ipriya
Ġrecom end
Ġjew ish
Ġpatriot ism
Ġhazard ous
Ġdelight ed
Ġsegreg ation
Ġarth ur
Ġcripp ling
Ġgeograph ical
Ġtomat o
Ġniv ard
Ġjaz z
Ġcurtail ment
Ġmaz da
Ġserge ant
Ġnamib ia
Ġwije weera
Ġrecondition ed
Ġumbre lla
Ġarav inda
Ġincumb ent
Ġinvis ible
Ġnlamp rais
Ġaies ec
Ġanthon y
Ġdaugh ters
Ġkanch ana
Ġpreca ution
Ġmalcol m
0 3
0 7
8 4
8 00
b ad
b les
c ill
d ress
f elt
k un
k irts
m u
m ic
m ill
m ble
m oney
m ale
m eric
o ll
o ot
p ics
q l
q s
r n
r out
s outh
t w
t im
t ical
u aries
v at
v ia
w in
w ash
w ari
w tf
y e
y ak
y les
Ġ xt
Ġ oud
Ġt ant
Ġt ense
Ġa an
Ġi ced
Ġi oc
Ġi ps
Ġi esl
Ġs f
Ġs re
Ġs erial
in na
in fl
Ġw th
Ġw ary
Ġw itch
er atne
er thi
Ġc ed
Ġc et
an u
Ġm im
Ġm ide
Ġm ala
Ġb p
Ġb am
Ġf li
Ġf og
or ith
or th
at ile
Ġp us
Ġp ine
Ġp itt
Ġp sa
Ġh et
Ġh bb
Ġan il
Ġl amb
Ġd g
Ġd oo
Ġd ens
Ġd ots
Ġd aunting
Ġin mates
Ġn ara
Ġn read
Ġn ph
Ġn about
Ġn when
Ġn respon
it is
al ds
Ġo do
Ġo ok
Ġand are
om an
ar wood
Ġg ag
Ġg ong
ri o
as th
Ġe leg
Ġre ap
Ġre vel
Ġre app
st ated
st eps
st reet
Ġwh ol
Ġy k
Ġy uk
Ġy ummy
Ġy uan
Ġy amaha
Ġbe es
Ġbe et
Ġfor wards
ot at
ot iv
ent ina
Ġu w
Ġu op
Ġu mp
Ġu daya
et hel
ay ed
ay as
Ġst ark
Ġst agg
am al
am is
am el
ver ing
Ġha k
id act
id ering
ce b
Ġk l
Ġk ms
Ġk ah
ad heera
ch chikade
ke le
Ġdo zen
Ġj ar
Ġli b
pp o
Ġse v
Ġde e
Ġde ple
Ġde fer
Ġso e
Ġso cc
op ic
Ġv est
Ġv ending
Ġv aj
Ġtr ucks
ill ance
Ġcon dom
Ġnot ify
Ġnot ifications
Ġch an
Ġch ris
Ġcan s
Ġpl ural
Ġal ly
Ġal be
Ġgo in
Ġgo at
Ġget away
are r
qu ick
Ġad verse
Ġun m
Ġun ic
Ġun ite
Ġun used
Ġle ver
Ġle ased
Ġall ied
Ġpe gas
Ġlo gan
Ġhas ina
Ġapp les
li ya
ast rous
Ġout ta
Ġhi v
Ġup li
Ġup wards
Ġup country
Ġup bringing
ak h
ak i
ak rish
her itage
ag asc
Ġcomp ly
Ġcomp osed
Ġno ver
Ġag arwood
Ġdi ets
Ġpri x
Ġpo em
Ġpo ker
Ġwhich ever
ach ed
ach ment
Ġthem es
Ġaf loat
Ġcont race
Ġacc use
Ġar ise
Ġvis ibility
Ġvis ibly
Ġcomm ut
Ġres igning
Ġunder go
Ġunder lying
Ġunder privileged
Ġmon aster
Ġsl am
Ġsl op
Ġsl ide
Ġpre requ
vers ion
Ġpr awns
Ġover re
gg ala
Ġcur ly
Ġro han
Ġro bert
Ġback s
Ġback yard
Ġback drop
Ġmar ino
ep a
Ġgr avy
Ġpay e
Ġpay er
Ġpay able
Ġbuy s
ress ive
Ġma it
ens itive
Ġinf uri
Ġpers ist
Ġrel ent
ade vi
Ġwell igama
Ġfu cks
Ġ0 60
Ġinv aded
Ġinv alu
con c
Ġcommun ism
Ġpres chool
Ġbas in
Ġbl essed
Ġsec luded
Ġbu ri
we bs
Ġins criptions
Ġcr own
Ġend orse
Ġsub tle
ious ly
Ġsur name
Ġgu ll
Ġprov es
Ġcost ume
Ġsou ls
Ġcare less
Ġdr aining
Ġgener ator
Ġgener ators
Ġev ade
Ġimport ation
Ġter ribly
Ġagree ing
Ġchar ities
Ġhand over
amp itiya
Ġcle ver
Ġdisc redit
Ġimp art
Ġimp lying
Ġsrilank ac
Ġprot oty
Ġass es
Ġ12 2
Ġ12 3
Ġclass ical
Ġclass ics
Ġment or
Ġce ila
Ġfl aws
Ġnational ities
Ġcou p
Ġeduc ating
Ġbo iling
Ġhard working
form er
Ġmor ons
Ġland marks
Ġbi omet
Ġbi od
Ġvi har
Ġvi jay
Ġvi haramah
Ġlearn s
Ġrun ner
Ġ11 1
ari um
light s
Ġmir rors
att ed
Ġsing les
Ġtem pl
Ġca asl
wor st
Ġdef ine
Ġairport s
Ġpersonal ized
Ġest eem
Ġpick s
cri min
osp ital
Ġunt ouch
Ġ14 7
Ġ14 00
Ġmess enger
Ġview ing
Ġmob iles
Ġob es
Ġsho res
Ġpract ition
Ġinstit utional
Ġtit led
Ġnon ethel
ulla h
Ġwal awe
Ġmas ala
Ġcris es
Ġlegal ity
Ġtrust ing
Ġdig its
Ġmot ives
Ġlic ences
Ġsubject ive
Ġtreat y
Ġbreak er
Ġattack ers
Ġ23 5
ann i
Ġcredit ors
Ġmult im
Ġceylon ese
Ġnp art
Ġsen aratne
Ġna f
nam ed
Ġrespect able
Ġconsider ably
Ġsun s
Ġtyp ed
par liament
Ġimm ers
Ġgl itch
Ġhost ile
Ġocc urs
Ġinterview ed
Ġer as
Ġhy undai
Ġstaff ed
Ġplant ing
Ġrul er
Ġpan icking
Ġrock s
Ġsad d
Ġnd es
Ġnd ist
Ġbur gl
Ġmilit ar
Ġjay aratne
Ġmist y
Ġpresent ations
Ġachie vers
Ġrac ists
Ġban ning
Ġdom est
Ġbatt ling
Ġtur meric
Ġcomb ines
Ġwickre m
mas ter
Ġtradition ally
aly zed
Ġaut on
Ġword press
Ġgreen er
Ġpc os
Ġrev isit
dr agon
Ġcondition ing
Ġneighb oring
Ġmag ically
ca f
Ġarr anging
Ġimag ery
Ġbehav ed
Ġfresh water
Ġvol leyball
Ġweird ly
Ġkal u
Ġbed rooms
Ġemerg ence
Ġkum anan
Ġcapt ions
Ġmer ry
Ġden iyaya
Ġfrustr ations
Ġko chchikade
Ġko ggala
Ġmad ness
Ġmad agasc
care er
Ġswe pt
Ġcup s
Ġphotos hop
cl ub
Ġsmart phones
Ġten ant
Ġtouch es
Ġamb iance
Ġmonit ored
Ġnegative ly
Ġmeas uring
Ġkn it
Ġsurvey or
Ġlay er
Ġoh iya
Ġweight s
Ġpref ect
Ġautom otive
Ġmechan ic
Ġwij epala
Ġcritic izing
hol id
Ġattach ment
Ġvan illa
Ġconsist ency
Ġassum ption
Ġassum ptions
Ġton nes
Ġnl ast
Ġbatch es
Ġnut shell
Ġthrow away
Ġug anda
Ġemp owering
Ġdelay ing
Ġwitness ing
Ġdumb ass
Ġdiscipl inary
Ġdu plic
Ġdu oling
Ġrespons ive
Ġregret ting
Ġacqu aint
Ġguarant ees
Ġcro re
Ġadvertise ments
Ġaunt s
Ġgang s
Ġbid s
Ġargu ably
Ġmel ody
Ġthri lling
Ġpunish ments
Ġdistrib uting
Ġnth an
Ġnth ere
Ġmaf ias
Ġwheel chair
gi ving
Ġtok ens
Ġtok yo
Ġrecon st
Ġrecon nect
Ġouts kirts
Ġspl ur
Ġmotorcy cles
Ġwat alapp
Ġnq c
Ġaffili ation
point s
Ġwarm ly
Ġtro ph
Ġjayaward en
Ġprev ents
Ġoccup y
Ġnanu oya
Ġbother ing
Ġexplan ations
Ġgram s
Ġexpos ing
forest ation
Ġtenn akoon
Ġshout ed
Ġgrad ual
rad or
Ġvoc als
Ġaband on
Ġclim bed
Ġdim in
Ġescal ating
Ġdealers hip
Ġunnecess arily
Ġdemonst rated
Ġdemonst rate
Ġorganis ers
Ġanalyt ical
Ġspin ner
Ġrein force
Ġrainforest s
Ġexpend itures
Ġspect acles
Ġquant ities
Ġcrab s
Ġadapt ed
Ġcrack ers
Ġstamp ed
Ġcolum n
Ġdump ed
Ġfrag ile
Ġlord s
Ġpostp aid
gen uine
Ġabol ished
Ġinconven i
Ġther avada
Ġuncon stitutional
Ġleak s
akk u
Ġthrott ling
Ġreward ing
Ġkul una
Ġdod gy
Ġcraving s
Ġreb el
Ġcryptocurren cies
Ġliquid ity
Ġborder line
Ġstead ily
Ġhook up
Ġgad gets
Ġambit ions
Ġminim is
Ġdemonstr ations
Ġhack er
Ġseal ion
Ġimmense ly
Ġdash board
Ġpreval ence
Ġroast ed
Ġhomophob ia
Ġincorpor ated
Ġaesth etics
Ġsurve illance
Ġmisunder stood
Ġhorrif ying
Ġkos goda
Ġaccredit ation
experi enced
Ġbungal ows
Ġpul se
Ġpled ged
Ġnostalg ic
Ġbetray ed
Ġviewpoint s
Ġacceler ated
Ġdivis ive
Ġgodd ess
Ġgover ning
Ġrecre ate
Ġrecre ational
watch ing
Ġhem idact
araj ah
Ġslee ve
Ġsham eless
Ġeru pted
Ġhumili ated
Ġwip ed
Ġwilli am
Ġwilli ams
Ġmint pay
Ġbiotech nology
Ġpiv ot
Ġtex ting
Ġdivid end
Ġbrig adier
Ġcondemn ation
star link
Ġalg orith
Ġworkar ound
Ġslog ans
Ġoverth row
Ġflaw ed
Ġdistingu ished
Ġsung l
Ġschol ars
Ġlooph ole
Ġmerc ant
Ġhypoth etical
Ġnarciss istic
Ġanch or
Ġcompe lled
Ġalb um
Ġwijeward ena
Ġken ya
Ġmexic o
Ġmitig ate
Ġfigh ters
Ġlingu istic
Ġcarp ent
pleas ant
Ġrames waram
Ġoverhe ating
Ġinfos chol
Ġadoles c
Ġdispro portion
Ġentitle ment
Ġtrish aw
Ġacupunct ure
pie ce
Ġunwill ing
Ġlabou rers
Ġvolcan ic
Ġloudspe akers
Ġfint ech
Ġpse ud
Ġlact ose
Ġdair y
Ġparagrap h
Ġmultin ational
cill or
Ġstagg ering
Ġsocc er
Ġalbe it
Ġpegas us
Ġlogan athan
akrish nan
Ġmonaster ies
Ġprerequ is
Ġinvalu able
Ġceila o
Ġnonethel ess
Ġmadagasc ar
0 1
4 9
6 2
b ir
b ul
b led
b ima
c reat
d m
d isc
f il
g ue
g ah
h or
h eng
h ops
i u
i ppu
j mi
k f
k ill
k ade
l ast
m ust
n ia
o ed
p it
p ala
p sa
r us
s igiriya
t act
u ar
u va
w i
y pt
Ġt k
Ġt at
Ġt ubs
Ġa at
Ġa od
Ġa oe
Ġa uctions
Ġi on
Ġi als
Ġth am
Ġth iy
Ġth umb
re ated
re quest
in os
Ġw ol
Ġw so
Ġw ag
Ġw oes
Ġthe ore
Ġc one
Ġc unning
Ġc wc
an ama
an awa
an ayaka
Ġm am
Ġm ol
Ġm ant
Ġm ig
Ġm ice
Ġm ata
Ġm erg
Ġb ou
Ġb har
Ġb ounce
Ġb amba
ou bt
Ġf ade
Ġf red
Ġf lix
at ri
at ical
at urated
Ġp ct
Ġp pp
Ġp end
Ġp oth
Ġp amb
Ġp ains
Ġp tf
Ġp ottu
en o
en as
Ġh ooked
Ġan gle
Ġl p
Ġl on
Ġl ick
Ġd ood
Ġin k
Ġin hum
Ġin experienced
Ġn ve
Ġn res
Ġn si
Ġn ord
Ġn ty
Ġn man
Ġn sw
Ġn ai
Ġn hi
Ġn ude
Ġn more
Ġn oun
Ġn erve
Ġn account
it m
it ative
al awa
Ġo es
ar ia
is n
is ive
Ġg g
Ġg ast
Ġg lim
Ġg rip
as i
ve t
ic ron
Ġy as
Ġy apa
Ġu e
Ġit iner
Ġon ions
Ġyou u
ac cess
Ġst i
ut ive
ut ory
ith arana
ct r
Ġk d
Ġk od
Ġk ash
th en
th al
gh ter
Ġmy heritage
ir aj
ur adhapura
Ġj ama
Ġr al
Ġr ata
Ġr ott
Ġr ows
Ġr gb
Ġr ags
Ġsh er
Ġsh ash
Ġse w
Ġde pl
Ġde ploy
Ġso or
Ġso ak
Ġso gie
Ġme em
Ġme gathread
op en
Ġfr action
Ġv ested
Ġcon qu
and ed
and ura
Ġsu g
our ces
Ġat s
Ġch i
Ġch oc
Ġab duction
Ġpl unge
ment ioned
ul ates
ul iya
Ġpro lly
Ġpro active
Ġgo sl
ig er
un ova
ci er
ci ously
are public
Ġad ap
em e
Ġun help
Ġby e
Ġle ve
Ġhow s
Ġall ah
Ġpe eling
Ġac ju
Ġfe ared
Ġ3 20
os d
os ene
Ġapp ointing
ore mentioned
ast e
ast roph
Ġout fit
Ġen ch
Ġen rol
Ġhi en
Ġup work
so cial
Ġim ran
ag ath
Ġcomp rising
Ġno c
Ġdon ated
Ġcl arence
Ġnew com
Ġneed le
Ġaf orementioned
Ġri ck
Ġsp here
Ġunder age
Ġunder val
Ġunder paid
Ġmon arch
aw aka
aw asam
Ġpr isons
Ġpol o
Ġover looking
Ġpart nered
Ġact ress
Ġdis orders
Ġdis astrous
Ġinter faith
Ġcur b
Ġcur ve
Ġspe cul
Ġro d
Ġro shan
pl ays
ks ha
ath ne
ath tha
Ġmar ians
Ġper at
ens ed
Ġinf ants
Ġshe in
Ġpers istent
Ġrel atable
Ġ202 9
Ġhigh land
Ġhigh lands
Ġcons cience
Ġcar riers
Ġcar amel
Ġinv o
Ġem bod
Ġgen res
Ġintern ally
Ġunderstand ably
Ġmed ian
xt ure
Ġdri ll
Ġpres erved
na pped
Ġbl az
Ġsm ashed
Ġconnect s
sh ot
we b
Ġpar as
Ġpar akramabahu
Ġins ensitive
Ġcr unch
Ġend e
Ġav i
gr otat
Ġsur names
ason ic
ism s
Ġreal ities
Ġsy ru
Ġsy ria
Ġread iness
Ġ30 9
Ġhand b
Ġexam ine
Ġexam iner
amp ed
Ġext ender
Ġconf ess
Ġconf orm
Ġimp ending
Ġopen ings
Ġinform ative
Ġfree ze
Ġass ert
Ġ12 000
Ġcor al
Ġment orship
Ġcard io
Ġfl ir
Ġcri ed
Ġbo i
ah uwa
Ġmor ally
Ġmor ality
Ġvi jith
Ġvi hara
Ġmod ify
Ġz o
Ġz s
Ġset h
Ġneg lig
Ġneg ativity
Ġ11 8
ari yan
Ġprof iles
Ġhead aches
com p
mb a
Ġspend s
Ġput in
Ġproject ion
Ġsing hal
Ġref ill
Ġtem ps
Ġlist ings
Ġname ly
Ġrese mb
Ġoth m
Ġsig riya
Ġdem otiv
Ġbre ed
Ġprom os
Ġhonest y
Ġphys ician
ib i
Ġprotest ed
ott a
Ġ13 6
Ġincre ments
eng lish
Ġtechn ician
Ġhar ry
Ġhar ness
Ġfun n
Ġmal ta
Ġmiss ions
Ġmorning s
Ġbel ly
Ġnat ives
Ġdepart s
Ġslt c
Ġchang er
Ġmah anama
Ġmas cul
Ġnormal ize
oint ed
Ġmanag erial
Ġfil med
Ġfil thy
Ġreli ance
Ġtrust able
Ġselect ions
Ġprofess ions
Ġda e
Ġbeautiful ly
Ġbri bes
Ġtrad em
Ġpet ers
Ġself ie
ann y
ann awa
Ġequ ation
Ġur l
Ġrepl ic
Ġ40 60
Ġstation ery
Ġdam m
Ġvac ate
Ġvac ations
Ġnp d
Ġnp resident
Ġnp ersons
ester ol
Ġdest ruct
Ġla jmi
Ġexplore r
Ġsoci o
Ġrespect ing
Ġsort ing
rist mas
Ġdad dy
20 24
Ġcollect ions
Ġimm ature
ha ul
Ġlight ly
Ġlight weight
Ġgl ance
Ġbat ik
Ġbat alanda
Ġhost age
Ġbenef ited
Ġinterview ing
Ġpeak s
Ġinvestig ators
Ġbooks hops
Ġer pm
Ġrul ers
Ġpan icked
Ġpan asonic
Ġchance llor
Ġmultip lay
Ġpress uring
Ġpress ured
Ġlab e
Ġver ge
Ġnd own
Ġbur row
Ġlol c
Ġjay antha
Ġjay awickrama
Ġjay atissa
Ġye a
anth ota
anth ika
Ġge ography
Ġblack out
Ġblack listed
Ġhate ful
Ġrich er
Ġstri ve
Ġnc l
Ġ29 9
Ġcoun cillor
Ġpu ppy
Ġbag gy
Ġprofessional ism
Ġah h
Ġstra it
pri ation
Ġtast eless
Ġhor se
Ġhor rend
Ġ35 00
Ġheart felt
Ġenc ro
Ġadmin ister
ocr acy
Ġpromot es
Ġrestrict ing
Ġsuit cases
Ġlat ency
Ġ01 1
Ġnf o
Ġarg entina
Ġfish y
Ġfresh ly
Ġkal uw
Ġflag ged
Ġae grotat
Ġnu ll
Ġmaster piece
Ġclos et
Ġcommunic ating
Ġsup rem
Ġ199 1
Ġ199 2
Ġfire arms
Ġmad ras
Ġstupid ity
aster ide
Ġattend ant
Ġpush p
Ġpal k
Ġrap ist
Ġfern and
rol ogy
Ġfa una
Ġcat astroph
Ġtra its
Ġkn ives
Ġcream y
Ġbul lets
Ġproceed ing
Ġrefund ed
Ġsens or
Ġsens ation
Ġsens ational
Ġec ommerce
Ġcontract or
Ġnh ome
Ġfeat uring
Ġcritic ised
Ġforget ting
Ġ99 0
Ġple ased
Ġtend ency
Ġkat ug
Ġ39 9
Ġtough er
Ġconserv at
Ġremain der
Ġip kf
rit is
Ġbon uses
Ġnand ri
Ġalcohol ic
Ġpakistan is
Ġkot thu
Ġadvis ors
Ġdoor step
Ġvirt ue
Ġvirt unova
Ġobject ion
Ġobject ives
Ġgrab bed
Ġdiscon tin
Ġlie u
well s
Ġpad mini
Ġnth at
Ġcomplic it
Ġ194 4
Ġ195 9
Ġsusp end
Ġpi pe
che cked
bu ilt
Ġfaith s
Ġchand ana
Ġfirm ly
Ġsi xt
Ġbound ary
Ġcham ber
Ġcham ath
Ġaffili ations
Ġtro ll
Ġaggress ively
aj udeen
Ġvo iced
Ġmak umbura
Ġ196 5
Ġreceipt s
Ġcc na
Ġcree ps
Ġliberal ism
Ġcoord inate
Ġcoord inating
Ġtail or
Ġlin col
Ġflash y
Ġencourage ment
Ġcontest ant
Ġlegisl ators
Ġpriorit izing
Ġapolog ized
Ġble w
Ġspin ning
Ġnad ar
Ġdisrupt ing
Ġlabel ed
Ġprec ision
inform ed
Ġbell an
tour ism
Ġhabit ats
Ġward ro
Ġsubscri bed
Ġperce ive
Ġpoo rest
Ġelev ation
met ics
Ġtact ic
Ġcounse ling
Ġreck on
stud io
jo in
Ġcul pr
Ġembr aced
Ġham as
Ġswift ly
Ġras p
Ġmatt ress
Ġepis odes
Ġineff ective
Ġneighborhood s
arath na
Ġcraft ed
Ġtweet ed
Ġdolph ins
Ġorth op
Ġfool ish
Ġconscious ness
Ġminim ize
Ġwhis p
Ġrup a
Ġutil ize
Ġdispos al
Ġsuperv ision
Ġlitter ing
Ġcrem ation
Ġcrem ations
Ġinject ion
Ġgt x
avel in
Ġku ala
Ġinterp re
Ġlyce am
Ġseas ide
Ġgeck os
Ġramb ukk
opin ions
Ġconce al
Ġpled ge
Ġovercrow ding
kb ps
Ġsubsid ies
Ġathlet ics
Ġgodd amn
Ġgop uram
Ġaccord ance
Ġbrush ed
Ġreson ates
Ġcashe ws
Ġcommemor ate
Ġhay leys
Ġdisturb ance
Ġpatch es
Ġshr ine
Ġcey petco
Ġdismiss ive
Ġteled rama
Ġhorm ones
Ġtoss ed
Ġincur red
Ġdepri ved
Ġpotat o
Ġpotat oes
Ġpupp et
qual ified
Ġpist ol
Ġbegg ar
Ġprocl aimed
Ġinvas ion
Ġmaxim ize
Ġhomest ays
Ġbureaucr acy
Ġabeyse kera
imag ine
Ġlivelihood s
Ġmush rooms
iph one
Ġmoham med
Ġresum ed
Ġgras p
Ġshowc asing
Ġsthuth iy
vide o
Ġply mouth
Ġdegr ading
Ġswarn awahini
Ġdisgu ised
Ġtus kers
Ġeater ies
Ġsavi our
Ġpickle ball
Ġnpost s
Ġbac ter
Ġmirr isa
engine ering
Ġvert ical
Ġrek awa
Ġdiab etic
Ġnpar liament
Ġlaund ry
Ġtoff ee
Ġlivest ock
Ġharis chandra
Ġinconsist encies
Ġbhan uka
Ġorch est
Ġambal angoda
Ġappet ite
Ġrecons ider
Ġtribun al
Ġcommut er
Ġbiod iversity
Ġsuns ets
Ġdomest ically
Ġjayawarden apura
Ġhemidact ylus
Ġinhum ane
Ġitiner aries
Ġrott i
Ġmeem ure
Ġunhelp ful
Ġmultiplay er
Ġhorrend ous
3 00
3 50
6 9
a ed
a ic
b at
b ig
b orn
d ent
d ue
d ra
d araz
e o
e as
e very
f ir
f ect
f inal
g od
h es
h ous
h utch
i ot
j s
j our
k r
k aduwa
l al
m id
n adu
n istic
o ading
p c
p ad
p olit
r un
r avel
s amp
s erious
s urfing
t or
v am
v acc
w ig
w aran
y p
Ġ ought
Ġt g
Ġt um
Ġt iring
Ġt alaimannar
Ġa ro
Ġa ad
Ġs ip
Ġs ambal
re cent
re ls
in is
in ates
Ġw m
Ġw iring
on na
on aruwa
Ġc im
Ġc ess
Ġc andy
Ġc ma
Ġc ured
Ġm ul
Ġm iri
Ġm alai
Ġb our
Ġb amb
Ġb aking
Ġb acon
Ġf oo
Ġf ist
Ġp n
Ġp t
Ġp w
Ġp ig
Ġp ave
Ġp ale
Ġp uth
Ġp ouch
Ġp airs
Ġp ounds
Ġh bo
Ġh os
Ġh ose
Ġh ats
Ġh acking
Ġan udi
Ġto mb
Ġl b
Ġl te
Ġl ined
Ġd orm
Ġd uck
Ġd iction
Ġd angers
ed ed
ed ling
Ġn ud
Ġn ug
Ġn mo
Ġn med
Ġn most
Ġn new
Ġn pr
Ġn see
Ġn asty
Ġn education
it ations
al ia
al ese
al iexpress
Ġo se
Ġo op
ar al
Ġg als
Ġg hz
ri et
as king
as ies
as iri
Ġe q
Ġe par
ic on
ic er
Ġre na
Ġre iter
Ġre ef
Ġre think
st r
st ones
st ores
Ġy w
Ġy ay
Ġy ep
Ġfor d
ot as
Ġis uru
Ġu gh
Ġu buy
et tes
Ġon g
ank ar
Ġst a
Ġst an
Ġst ut
Ġst air
am om
am ily
Ġwe aken
Ġhe e
Ġhe ath
Ġhe els
ro ots
ro aches
ol anka
Ġk ern
Ġk az
Ġk uri
Ġk icking
Ġk asy
Ġwith hold
Ġmy s
ch ristmas
ur it
Ġany how
Ġj as
Ġj acks
Ġj avelin
Ġr f
Ġr ation
Ġr ak
Ġr ans
Ġr uth
Ġr ca
Ġne m
Ġne elan
Ġsh en
Ġsh red
Ġsh aking
Ġsh af
Ġse iz
Ġse rene
Ġse wing
Ġde ities
Ġlanka bell
Ġso re
Ġso ya
Ġme g
op y
Ġfr owned
Ġv w
Ġv ith
Ġv oid
Ġv aries
Ġv edda
Ġtr an
Ġtr ance
Ġsu man
Ġsu pr
our ce
nd ra
Ġcom edy
Ġch ile
Ġch lor
ge e
ge o
Ġcan al
Ġwas gamuwa
ust omed
Ġpl ugs
ant a
Ġal a
Ġal f
Ġal wis
Ġmo e
Ġmo ir
Ġmo cked
ul ator
Ġpro port
Ġgo on
us a
ig ans
ci als
ci vil
are n
pe c
art ing
Ġun ve
Ġun ear
Ġun just
Ġun natural
Ġun heard
Ġun pleasant
Ġun checked
Ġby ds
Ġle o
ap am
Ġlo oted
ff ed
Ġ3 70
Ġexp olanka
os o
ack ers
Ġen e
Ġen qu
Ġen em
Ġhi ii
Ġsa g
Ġsa us
Ġup ul
Ġup ward
um an
um bs
ans hip
Ġcomp iled
Ġag oda
Ġco b
Ġco at
Ġco ke
Ġco pper
Ġdi ag
Ġint ending
ame x
Ġman e
Ġpo ke
Ġpo pped
Ġpo di
Ġoff ending
wh eel
Ġacc ustomed
Ġar amex
ass ed
ink ai
Ġsin s
Ġcomm enced
Ġsp y
Ġsp as
Ġsp ain
Ġres ent
iv an
Ġsl oth
ish i
Ġpre lim
aw n
Ġpol os
Ġover hy
Ġgot o
Ġdis ney
Ġbr aces
Ġinc ase
Ġinc ub
Ġro ller
Ġplan ners
de velop
ub edda
ub ishi
Ġph ases
pl ane
ang ara
Ġbus iest
omet hing
Ġgr an
Ġpay ers
Ġcre ed
Ġcre ature
Ġma a
ens ively
Ġway amba
iss ance
Ġpost pon
Ġ8 68
Ġfu els
Ġcons oles
Ġ0 80
Ġcar ved
Ġaccount ed
Ġgen es
any where
ra z
Ġinst al
Ġbas eless
ident ified
Ġbl ends
Ġbl ames
Ġsm es
Ġsm iled
sh are
Ġrem edy
Ġbetter ment
Ġdown side
Ġdown stairs
we ets
ian o
Ġfood ie
Ġpar l
Ġins erted
Ġra ided
oy sa
Ġfore most
Ġend ured
per form
Ġdes ired
Ġdes hab
Ġtamil nadu
Ġav ons
Ġpass ikud
Ġsur re
Ġsur rend
Ġcost a
Ġcost ing
Ġdr ums
Ġdr avid
Ġgener osity
Ġrest oring
Ġrest oration
Ġhand wr
Ġimp aired
Ġ12 1
Ġparent al
Ġcor i
Ġcor ners
Ġsal ine
ric ing
Ġce a
Ġce lls
Ġcard amom
Ġfl ats
Ġfl uct
Ġfl aming
Ġcri b
Ġbo eing
ah ara
Ġx en
Ġsk ull
sa jith
Ġsystem ic
Ġmor als
Ġsw all
Ġru pp
Ġbi ble
Ġneg atives
Ġval ent
Ġval lip
Ġform ation
Ġform ulated
Ġhead set
Ġmir acles
Ġ25 000
Ġprocess ors
do or
dh ar
Ġca e
Ġca pe
Ġisland ers
Ġ18 5
cri be
Ġfre aked
Ġ00 1
Ġ00 00
Ġq d
Ġq od
Ġ14 1
Ġ16 4
Ġ16 9
Ġhosp itable
Ġ13 9
Ġcompan ion
Ġnor we
Ġtre ks
Ġmal nutrition
Ġsuper natural
Ġdial ing
Ġturn out
Ġjan e
Ġjan et
Ġjan aka
not es
Ġslt mobitel
Ġprob able
go vt
ush ka
Ġns f
Ġns ource
Ġbri ghter
Ġplat oon
Ġcy st
Ġexc er
Ġpet er
Ġ23 9
app a
Ġbal con
Ġstation ary
Ġdel us
Ġnp ol
Ġnp ower
Ġla os
Ġcal cey
Ġna an
ho e
ho le
Ġfair y
Ġrespect s
Ġsound core
Ġcash less
back p
Ġoct ane
Ġboard ed
Ġsun sh
Ġant igen
Ġmusic ian
gs lt
ugam i
ha ving
Ġsuff oc
Ġbod ily
Ġgl b
Ġmis er
Ġmis used
Ġmis gu
Ġbar k
Ġhost ess
Ġfly dubai
Ġfinal ize
Ġswitch es
Ġgov pay
Ġinvestig ative
Ġnorth west
Ġpan c
Ġfoot print
Ġcool ing
Ġmount ed
Ġye lled
Ġstri fe
Ġnc ount
Ġexcept ionally
Ġgrand pa
Ġtu f
Ġsenior ity
Ġhor osc
Ġheart ed
Ġhom ies
Ġcoll ision
Ġimag in
Ġmodel ing
Ġir ish
Ġkal ubow
Ġkal kud
Ġnb l
Ġnb ank
Ġobs c
Ġdiss atisf
Ġimpact ful
Ġny ear
Ġclos ure
Ġng en
Ġcapt uring
Ġden om
Ġden ies
Ġgar lic
Ġstrateg ically
Ġhands ome
Ġapple care
Ġdecl arant
hold er
Ġlog os
Ġunique ly
Ġtext ile
Ġremo ves
Ġmad am
Ġlif es
Ġom icron
cl ass
Ġcloth s
Ġss p
Ġten ants
Ġpal i
Ġcross es
Ġclar ified
Ġcat c
Ġsolid arity
Ġlay out
Ġlay offs
Ġreject ing
Ġcoff e
Ġrom esh
Ġrob ot
Ġsens it
Ġcontract ed
Ġmic row
Ġep id
Ġchannel ing
Ġautom ated
Ġrefer ral
Ġcritic ise
Ġlav ish
Ġembass ies
Ġton ne
Ġkat ubedda
Ġgrant ing
Ġcancel s
Ġwitness es
pro duct
Ġshame ful
Ġ197 5
Ġfault y
Ġgate ways
Ġund iyal
Ġund oubt
Ġinfluen cing
Ġupload s
Ġdesper ation
Ġequip ments
Ġfat ig
Ġnegoti ation
Ġly ric
Ġnre ce
Ġorganiz er
Ġpa ul
Ġlifest yles
Ġast rolog
Ġast rology
Ġsar as
Ġnine wells
Ġkil os
Ġcolonial ism
Ġthri ce
Ġanal ys
Ġpharm ac
Ġ194 9
Ġdan ish
Ġclick ed
Ġcalm ly
Ġreact ed
Ġrum or
Ġrum our
Ġexcell ency
Ġaccur ately
Ġaccur acy
Ġbrown s
Ġtermin ate
Ġidi otic
Ġsubst ances
Ġexclus ion
Ġdoub ting
Ġmail ed
Ġhung ary
Ġpredict ion
Ġinspect ion
Ġlean ed
Ġunre asonable
Ġenthusi astic
Ġexplan atory
Ġinteract ing
Ġjohn ston
Ġtag ged
ih ad
Ġyo gh
Ġmyth ical
Ġliberal isation
Ġlen in
Ġalt ered
Ġintent ional
Ġshel f
bud dh
hot els
Ġcig ars
Ġmanip ulative
Ġportug al
Ġcontest ing
Ġcontest ed
Ġinfect ions
Ġfer mented
Ġ93 9
Ġassess ments
Ġimmigr ated
Ġenroll ment
Ġpir ith
Ġpir ate
Ġbreath e
Ġovert aking
Ġrajapaksh es
acc ording
Ġsav ior
Ġgreet ed
Ġquant um
Ġexclud ed
import ant
Ġadmit ting
Ġinsult ing
Ġexplos ive
Ġtall er
Ġsubscri bers
Ġsuv s
Ġ78 7
Ġexerc ising
Ġmaith ri
Ġprompt ing
Ġmagn itude
Ġoblig ed
Ġkand ana
Ġpill ow
Ġpump ed
Ġfemin ine
Ġsanct uaries
Ġterrit orial
Ġsyn th
Ġsentiment al
Ġinconven ient
Ġsamb a
Ġdun no
Ġka ali
Ġcultiv ated
Ġyahapal anaya
Ġmort gage
Ġstir ring
Ġadvoc ate
Ġconcent rated
Ġconcent rate
Ġax io
Ġker osene
Ġgrass roots
was hing
Ġsty lish
Ġscar ce
Ġscar city
Ġobst ruct
Ġrevol ves
Ġacknowled ging
Ġkne es
Ġkno cked
Ġhygi enic
Ġkoh uwala
Ġdemonstr ators
wal k
Ġbast ard
Ġdecor ations
Ġstall ed
Ġwors ened
otherap ist
Ġaluth gam
Ġenlighten ment
Ġexor c
Ġcompli ant
Ġneglect ed
Ġont ario
Ġpon n
Ġshan aka
Ġpalest in
Ġhatch ery
Ġretreat s
Ġlos er
Ġunfold ing
Ġrede em
Ġempower ment
Ġceremon ial
Ġreop ening
Ġstagn ation
Ġkiss ing
Ġresili ent
Ġlump ur
Ġrevers ed
Ġexpat ri
Ġsme lled
Ġtsh irt
Ġathe ist
Ġathe ists
Ġprostit ution
Ġportray ed
Ġhumili ating
wed ding
Ġster il
Ġvegg ie
Ġmarsh al
Ġpupp ies
Ġadministr ator
Ġtes la
Ġdock yard
Ġappreh ended
Ġtex as
Ġconfig uration
Ġlandsl ides
Ġdemol ished
Ġsnap dragon
hen pita
Ġgim me
Ġworkar ounds
Ġpuzz led
Ġinterpret ation
Ġmaw bima
Ġgif ted
Ġudu wal
Ġhew age
Ġundert aken
cons idering
Ġphotocop y
Ġhomest ay
Ġabeyse kara
Ġdownt ime
Ġexagger ated
Ġchol esterol
Ġappe ase
Ġsquat ting
Ġdull as
year s
Ġhors es
Ġdeleg ation
awath ugoda
Ġastron omy
Ġderi ved
Ġech o
Ġsimp lif
Ġretali ation
Ġparalym pics
Ġwad duwa
Ġjon athan
Ġcurs ed
Ġpatron age
electric ity
Ġinse cts
Ġpoet ry
Ġramesh waram
dig ital
Ġforbid den
Ġplu gged
Ġhier archy
Ġimpl ies
Ġpalle kele
Ġkud os
Ġunch anged
Ġcorrid or
Ġkurun th
Ġvf x
Ġunsett ling
Ġsaar c
Ġbackst ory
Ġsynops ys
Ġneckl ace
rone edling
Ġpuc sl
Ġstain less
Ġsubmar ine
Ġsynd rome
Ġhasht ag
infl ation
Ġook la
Ġyuk thiya
conc ern
Ġgull ible
Ġimpart ial
Ġvihar aya
Ġuntouch ed
Ġwickrem asinghe
holid ay
Ġtroph y
Ġsungl asses
Ġmercant ile
Ġpseud o
Ġpamb an
Ġglim pse
Ġperat ugami
Ġvijith a
Ġdestruct ive
Ġkaluw itharana
Ġconservat ism
Ġlincol n
Ġepar cel
Ġkasy apa
Ġjacks on
Ġprelim inary
Ġoverhy ped
Ġpostpon ing
Ġdeshab andu
Ġkalubow ila
Ġundoubt edly
Ġaluthgam age
3 30
6 000
7 1
7 9
9 7
b ought
b ooking
c at
c led
c ra
c ards
c aster
d b
f resh
g reat
g roup
g ift
g fs
g ames
h iya
h ours
i ologist
j apan
k o
l ate
l ower
m ay
m od
m atic
n is
n bs
o i
o pp
o ia
p re
p at
r w
r ite
r aw
r als
r ings
r ani
s un
s up
s chool
t ro
t ick
t imes
v ard
v log
y agama
Ġt ad
Ġt ub
Ġt ents
Ġt una
Ġa while
Ġa pex
Ġi ir
Ġi ia
Ġs pp
Ġs iz
Ġs ane
Ġs anga
Ġs aint
Ġth ush
Ġth wart
Ġw er
Ġw ang
Ġw we
Ġw ives
Ġw ired
Ġw ards
Ġw enna
on n
on ze
Ġthe ra
er cial
Ġc x
Ġc au
an ne
Ġm bs
Ġm adu
Ġm unch
Ġb aker
Ġb akers
Ġf om
Ġf itted
Ġf ading
at on
Ġp als
Ġp aced
Ġp aved
Ġh g
Ġh in
Ġh ul
Ġh ans
Ġh od
Ġh cl
Ġh dd
Ġl d
Ġl j
Ġl am
Ġl id
Ġl itt
Ġl ester
Ġd p
Ġd z
Ġd as
Ġd ani
Ġin cel
Ġin order
Ġin ception
Ġn iz
Ġn ale
Ġn br
it i
it ory
it ism
Ġo em
Ġo os
ar ound
ar na
ar med
is ance
Ġg in
Ġg ou
Ġg ab
Ġg ps
as an
as ara
as co
as uriya
Ġe et
Ġe ad
Ġe os
Ġe te
Ġe cc
ic ation
ic ting
le x
Ġre brand
st e
st ill
st ick
st rust
Ġwh ist
Ġy en
Ġy ell
Ġu f
Ġu o
Ġu th
Ġu ts
et am
et ically
et ted
et ti
ay ak
Ġit ch
Ġyou cab
Ġst ub
Ġst ylus
Ġst unned
Ġha iling
Ġha jj
id u
Ġhe ating
Ġhe mas
ith ra
Ġk wh
Ġk night
Ġk aj
ad el
Ġthis ara
Ġor acle
oo se
ch a
out ing
Ġdo in
Ġdo ses
Ġas oka
Ġr ou
Ġr oth
Ġr cb
im it
Ġsh ep
Ġsh ades
Ġde er
Ġde an
Ġde mo
op ard
op ia
Ġv in
Ġv il
Ġv ids
Ġv ille
Ġv anni
Ġtr am
and i
Ġsu l
Ġsu lt
nd ant
Ġch it
Ġch ic
Ġch ad
Ġch ame
end ran
Ġcan e
Ġal as
Ġal mond
Ġmo ld
ul am
ul ap
Ġpro long
ig ala
ig oda
ity a
un popular
el vam
ci le
are s
pe e
ount ain
ud a
ud h
ud ing
art en
Ġun int
Ġun well
Ġun match
Ġall ian
Ġus country
Ġac er
Ġac ute
Ġam e
Ġjust ification
Ġwho s
ind ra
Ġexp o
ast ota
Ġrec alls
Ġtim elines
Ġout ings
Ġout going
Ġout cry
Ġen er
Ġhi ppo
Ġsa il
Ġsa iling
Ġup i
Ġup side
ak an
ak anda
um bed
her d
pt o
Ġno h
Ġco vert
Ġco ex
Ġco gn
Ġdon ating
Ġdi ver
Ġdi pped
Ġloo s
Ġman th
Ġman ages
Ġpri m
Ġ5 50
Ġ5 20
Ġcl ues
port ed
Ġ4 30
Ġhel a
if acts
Ġar round
ink s
Ġvis hn
Ġshould nt
Ġsp ree
Ġsp ite
Ġsp iders
Ġunder whel
Ġsl urs
Ġsl aughter
Ġsl af
Ġsl ope
ish es
ish ankar
Ġpre ach
aw ila
Ġpr ag
Ġpr aveen
Ġover look
Ġdis charge
Ġdis abilities
Ġdis charged
Ġdis placed
Ġbr a
Ġbr oth
Ġbr its
Ġbr onze
Ġinter cept
gg ering
Ġcur ated
Ġinc l
Ġro ar
Ġph ishing
Ġsc ans
Ġtri ggering
ath ed
Ġmar vel
av am
Ġher itance
Ġma pping
Ġma urit
ens es
Ġ8 80
Ġfo am
Ġche que
Ġcar avan
Ġreg iment
ne ver
Ġinv ade
Ġed en
Ġed ward
Ġsomething s
ra pping
Ġdri ft
Ġtrans plant
ert ation
Ġ10 7
Ġfin land
Ġhapp end
Ġbas hing
Ġair plane
Ġatt alage
te e
te lling
Ġpos ed
Ġsm h
Ġlet hal
Ġbank notes
Ġlong ing
Ġrem inis
uw at
we lling
Ġpar alyzed
Ġear rings
Ġra ids
Ġopt ing
Ġend urance
be aut
be lls
Ġdes ir
Ġdes criptions
Ġent c
lo cked
ater nal
ater nity
Ġgu ise
Ġ19 3
Ġll c
Ġll m
Ġkind erg
Ġhome less
Ġelect or
Ġrep o
Ġrep s
Ġrep atri
lank ans
Ġdr acon
duct ions
up illai
Ġev ac
Ġext ro
Ġext ensively
Ġconf ined
Ġimp lied
Ġfound ed
Ġtal es
Ġinform al
Ġinform ations
Ġprot on
Ġ12 6
Ġcor ps
Ġcheck up
Ġgalle face
Ġce il
Ġfl or
Ġfl ies
Ġfl oral
Ġopp on
Ġbo h
Ġbo oth
Ġbo ils
Ġx l
sa f
Ġdet ri
Ġsmall est
Ġpack aged
ict ions
Ġquestion na
Ġmus cles
amb uwa
Ġhon king
Ġz e
Ġdist illed
Ġstr ap
Ġstr ang
Ġfull est
Ġmet res
Ġfut ures
Ġkid neys
Ġproject ed
Ġtem pt
Ġpast ed
Ġgam ble
dh i
Ġdef ects
Ġmid day
Ġrese llers
Ġdem at
Ġpret ended
ee vu
Ġ18 1
Ġpick y
Ġstop over
Ġspecif ics
Ġq ed
ott uwa
Ġ13 2
eng en
Ġps n
Ġhum iliation
Ġnor och
ici ally
Ġlow ering
Ġtre acle
Ġmal ik
Ġart ifacts
Ġsuper f
co res
co vid
Ġ22 4
Ġprob ing
Ġmah ath
Ġaustral ians
Ġnormal cy
Ġdialog ue
Ġhospital ised
Ġnice ly
Ġfil ip
Ġfil ming
asing ha
ier d
ret ion
Ġns b
Ġns at
Ġns ub
Ġstock bro
mor atuwa
Ġequ als
no res
Ġglo ves
Ġ40 6
Ġpot ion
Ġsus l
Ġbal ances
Ġbal tim
Ġvac ant
Ġnp a
Ġnp ack
Ġcal am
Ġsli ps
Ġenjoy s
nam al
Ġig nores
Ġstat utory
rib ution
Ġcompet ence
Ġnt op
Ġeffect iveness
Ġrele v
Ġreview ing
Ġfav ors
Ġgl ow
Ġmis appro
Ġmis cond
Ġbat hing
Ġfinal ized
Ġ27 5
Ġcab les
Ġste alth
Ġbirth s
Ġrock land
Ġsecret aries
Ġslow ing
Ġver d
Ġhol lywood
Ġadm its
Ġdiv ine
Ġcool ers
Ġmilit ant
Ġye w
Ġmb as
aged ara
Ġspot ting
Ġud ana
Ġexpress ions
Ġnc ustom
Ġak in
Ġstress es
Ġredu ndant
Ġexcept ions
Ġstar vation
Ġwild est
Ġmine craft
Ġram en
pri ately
Ġmix ing
Ġchill ie
60 8
Ġheart bro
Ġenc ry
Ġvar ied
rant y
Ġcondition ers
Ġcontrib utors
Ġvalid ate
Ġcoll ateral
Ġ45 00
Ġnm em
Ġdocument aries
Ġtrack ed
Ġimag ining
Ġfresh ers
Ġprogress ed
Ġcelebr ities
Ġque ens
Ġque uing
Ġweird est
Ġsum mit
Ġnw ar
Ġnw as
Ġdiss ertation
Ġprodu ces
ns bm
Ġstup a
Ġcirc ulation
Ġhistor ians
Ġclos es
Ġsan ctions
pic ious
Ġnic est
Ġden ial
hy dr
Ġlog ically
Ġlog istic
Ġko ong
Ġfire arm
Ġrepe ll
Ġbom ber
Ġfavor able
fact ory
Ġluxury x
Ġexec ute
Ġexec utions
Ġpen cil
Ġtruth s
Ġrap ists
Ġnan ura
Ġni h
Ġliber als
Ġ198 6
Ġnthe y
Ġflo ors
Ġgas light
Ġdeb ated
Ġmeas ured
Ġpositive ly
Ġhiriket ya
Ġsix es
Ġ33 0
Ġgard ening
Ġemot ion
Ġmac os
Ġreject s
Ġcoff in
mat ara
Ġbul ath
Ġresign s
Ġrob bing
Ġsens ors
Ġvari ants
Ġmic roneedling
Ġhr c
Ġsmo other
Ġbow ls
adv ise
adv isor
Ġround ed
Ġtoxic ity
Ġannoun ces
Ġannoun cing
Ġple aded
Ġveget arians
Ġloud ly
Ġloud est
Ġdil uted
Ġnl iter
Ġbull ies
Ġcomplex ity
Ġip o
Ġappeal ed
vis it
Ġdisplay ing
Ġvent ing
ost er
Ġflu ff
Ġeld est
Ġacqu itted
Ġacqu iring
Ġairb nbs
Ġsky line
Ġkelan i
Ġpermit ting
Ġthr one
Ġeg os
Ġeg ypt
Ġgaz a
Ġwithdraw n
Ġnom inal
Ġintegr ating
Ġdepend ency
Ġovers aturated
Ġast h
Ġdiscon tent
Ġremind s
Ġow ing
Ġkick er
Ġcos metics
Ġcond ol
Ġvision ary
Ġ194 5
Ġ194 7
Ġweak er
olic ited
Ġrude ly
Ġrecru iting
pay ment
Ġshut ting
Ġmoon stone
Ġtheat res
Ġhung arian
Ġabsurd ly
adura i
Ġingred ient
Ġenthusi asm
Ġ66 7
Ġ196 7
Ġpray ing
Ġsymb olic
Ġrub bish
Ġsiri gaya
Ġkad uwela
Ġnge ez
Ġdiet ary
Ġtransition ing
Ġnepal i
Ġshel ters
Ġvast ly
Ġtail ors
Ġped oph
Ġnal inda
Ġash ram
Ġbroker age
Ġcriticism s
Ġww ii
Ġpf c
Ġmd p
Ġheight s
Ġexempt ed
Ġcow ard
Ġish ara
Ġdiscover ing
Ġdiscover ies
Ġcooper ative
word s
Ġtoler ated
Ġgri lled
Ġscream s
Ġartific ially
Ġlau gfs
Ġdisrupt ion
Ġconstruct ions
Ġyog urt
Ġcad et
Ġbare foot
Ġharsh ana
Ġdol by
Ġtom mor
Ġriver ston
Ġprompt ed
Ġdrain age
Ġnood le
Ġry t
Ġfrag rant
Ġsquee zing
Ġju icer
person al
Ġmi xture
Ġdepreci ate
Ġmechanism s
stud ents
Ġja ishankar
Ġparan oia
Ġphilosop h
intern ship
Ġbum per
Ġsare es
Ġmort ality
Ġek anayake
Ġjack fruit
Ġrab bit
Ġadvoc ating
Ġadvoc acy
Ġembr acing
Ġcer amic
akk uliya
Ġclock wise
Ġinterf ere
Ġjewell ers
Ġvirgin ity
Ġblow ing
Ġintimid ating
Ġfranch ises
Ġscar borough
Ġscro ll
Ġterrif ying
Ġcock roaches
Ġconclud e
Ġarbit r
trans fer
Ġpunch ed
Ġpred ator
Ġpred atory
Ġdistress ed
Ġhack athon
Ġdash cam
Ġamp lif
Ġprosper ous
Ġaccus ation
Ġcens orship
Ġextract ion
Ġaven ues
ppu veli
Ġimprison ed
Ġbandar anayake
Ġcircumc ised
Ġrational e
Ġundermin es
Ġdisadvant ages
Ġthal awathugoda
Ġlos ers
Ġexped ite
Ġfold er
Ġjealous y
Ġtrib ute
Ġphysi otherapy
Ġthunder storm
Ġfc id
Ġrenov ation
Ġrenov ate
Ġfoss ils
child ren
Ġneu ro
athil aka
Ġdownv ote
Ġdownv oted
Ġharvest ed
Ġweeraw ansa
Ġoverstay ing
Ġburgh ers
Ġgeopolit ics
Ġwound ed
Ġpiss es
Ġstafford shire
cheap est
Ġrathn ayake
oor iya
Ġpiv otal
Ġanticip ated
Ġnreply ing
gir l
gir ls
Ġclou ds
Ġslog an
Ġhighs chool
Ġhyd ro
Ġsie ge
Ġnare ndra
Ġgif ting
Ġbegg ars
Ġmater nity
Ġpv r
Ġrend ered
Ġseet ha
Ġappe als
fin ally
Ġhors ford
Ġuy ana
Ġkoth thu
Ġkara oke
hist oric
Ġsiy ambalapitiya
Ġole vels
Ġweli k
Ġshak thi
Ġbrack et
Ġdeterior ating
Ġkann angara
Ġsemin ars
Ġresched uled
Ġattrib uted
Ġforens ics
Ġunders cores
Ġsubstit ute
Ġlok u
Ġpersec ution
Ġtaxpay ers
Ġdefam ation
Ġmahind ananda
Ġabsor b
Ġlakes ide
Ġsequ ence
Ġcosm etic
blo cks
Ġlud wig
Ġgum road
Ġplag iar
Ġnok ia
Ġprejud ice
Ġdisli ked
Ġinvent ory
remember ing
Ġrhyth m
Ġira q
Ġpud ding
Ġdud ley
Ġvoy age
Ġalle vi
Ġpoh ottuwa
Ġpogr om
Ġaflatox ins
Ġposit ives
week ly
Ġnewslet ter
Ġantidepress ants
Ġsamud ra
Ġdatas et
aust ral
Ġmits ubishi
Ġpann ipitiya
Ġerect ed
Ġhege mony
Ġkith ul
Ġviv o
Ġsucc umbed
Ġpreced ent
Ġemer ge
Ġjourn als
Ġdevote es
Ġmiscon ceptions
Ġpanor amic
Ġrecipro cal
Ġorphan ages
Ġrecomend ations
rout e
Ġgong ala
Ġunic ode
Ġndist rict
Ġauton omy
Ġduoling o
Ġacquaint ances
Ġwatalapp an
Ġtheore tical
Ġpottu vil
Ġnewcom ers
Ġunderval ued
Ġkatug astota
Ġrasp berry
Ġrambukk ana
samp ath
Ġstair case
Ġshred ded
Ġsuman th
Ġenem ies
Ġcori ander
Ġnorwe gian
Ġexcer pt
Ġbalcon y
Ġdelus ional
Ġfatig ue
Ġyogh urt
Ġiir c
Ġdani el
Ġcoex ist
Ġkinderg arten
Ġdracon ian
Ġbaltim ore
Ġmiscond uct
Ġheartbro ken
0 2
0 9
5 1
6 4
a us
a verage
b h
b in
b ri
b ullah
c n
c redit
d as
d ie
d led
d ata
f ine
f air
f ortun
f ailed
g ate
g bt
g reg
g aming
h all
h oney
h ena
i ha
j is
j ob
k al
l aw
l aud
m t
m os
m igration
n p
n ant
n eth
o z
p u
p oke
r g
r ail
r ating
r ane
s era
t ri
t ions
t ails
u er
u pp
u ces
v ion
v ity
v ron
w ent
w ila
w omen
y er
z bullah
Ġ erg
Ġt et
Ġt ere
Ġt ak
Ġt ire
Ġt ube
Ġt ca
Ġa it
Ġa ie
Ġa ura
Ġi her
Ġi cu
Ġs ine
Ġs so
Ġs anth
Ġth i
Ġth y
Ġth iri
re z
re liable
in as
in ence
Ġw avy
Ġw place
Ġw ierd
on ia
on omic
Ġthe eks
er m
Ġc ac
Ġc ud
Ġc ue
Ġc ush
Ġc uba
Ġc fa
Ġc inkai
an am
an ia
Ġm ans
Ġm ary
Ġm ish
Ġm ills
Ġm cdon
Ġb im
Ġb ip
Ġb cc
Ġb jp
Ġb tec
ou l
Ġf en
Ġf aint
or able
at um
Ġp ate
Ġp ity
Ġp ens
Ġp int
Ġp iy
Ġp ads
Ġp gd
Ġp antry
Ġh c
Ġh n
Ġh ers
Ġh ath
Ġh urd
Ġh gd
Ġan esth
Ġto es
Ġl is
Ġl ender
Ġl ena
Ġl ining
Ġd n
Ġd w
Ġd ac
Ġd ra
Ġd csl
Ġd asun
Ġn ri
Ġn ause
Ġn bs
Ġn ra
Ġn na
Ġn lo
Ġn ets
Ġn ps
Ġn ails
Ġn aut
Ġn sc
Ġn recommended
it z
it ting
al in
al one
Ġo ch
Ġo ven
Ġo led
Ġo od
om g
om on
om erate
ar ama
is is
is land
is factory
Ġg are
Ġg ents
Ġg une
Ġg ently
Ġe inst
Ġof the
ic ism
ic its
le te
Ġre pt
Ġre do
Ġy al
Ġy aris
Ġbe a
Ġbe ac
ot uwa
Ġu ppuveli
Ġon ward
Ġyou re
Ġst ung
Ġst ell
Ġst aged
Ġst airs
ut i
ut t
ut ter
ver ified
Ġha h
se a
se at
se en
se lling
se xual
Ġhe ir
Ġhe res
Ġhe ja
Ġhe aps
ol ina
Ġk im
Ġk ari
Ġk ola
th ed
th ren
ad as
Ġor bit
Ġmy dialog
oo p
oo oo
Ġare na
ur an
ur uw
ur pr
Ġdo om
Ġas f
Ġas ha
Ġj en
Ġj ab
Ġj aw
Ġj ars
Ġj ams
Ġj osh
Ġj agger
est e
est ro
Ġr ations
Ġr ites
im s
im en
Ġne v
Ġsh iv
Ġsh apes
Ġsh iva
Ġse b
Ġse i
il ateral
Ġde ak
Ġde ployment
Ġde forestation
Ġso f
Ġso ys
Ġso aring
Ġme ats
Ġv r
Ġv ap
Ġv lo
Ġv ivid
Ġv ga
Ġv owed
Ġex em
Ġex ternally
Ġcon gl
Ġnot her
Ġsu resh
Ġsu shi
Ġcom fy
Ġch ung
Ġch anting
Ġcan vas
ust ainable
ant ed
Ġmo ons
Ġmo sc
ul if
Ġif tar
us cript
00 00
un s
Ġad sl
Ġad verts
ud al
Ġun hr
Ġun support
Ġun qualified
Ġun identified
Ġby stand
Ġle y
Ġle aking
ap uram
Ġpe u
Ġpe ppers
Ġac o
Ġam put
Ġjust pay
os ing
Ġrec ount
Ġen o
Ġen erg
Ġen ables
Ġhi j
Ġhi kka
Ġhi zbullah
Ġsa k
Ġsa uces
Ġup ali
ear ly
ak ar
um i
her o
ag re
Ġcomp r
Ġcomp art
Ġgood ness
Ġno a
Ġno b
age ment
Ġco ated
Ġdi ana
Ġtime fr
ame en
Ġ20 3
Ġ20 4
Ġ20 5
Ġ20 7
Ġ20 8
Ġ20 50
Ġman gro
Ġman uscript
Ġpri us
Ġpri zes
Ġcl ums
Ġcl utch
Ġevery ones
ach i
Ġhelp line
Ġcont empt
Ġar re
ass a
ult s
act ing
act ivity
Ġri pping
Ġcomm end
Ġsp i
Ġsp ont
Ġsp ike
Ġres ub
Ġind is
Ġunder water
Ġmon eragala
Ġsl iding
Ġpre de
Ġpr ank
Ġpol and
Ġover flow
Ġover charging
Ġmu g
Ġmu ay
Ġdis plays
Ġinter vent
Ġro s
Ġro de
Ġplan ets
Ġback tr
de al
Ġthing y
Ġph obia
Ġsc ott
ath m
ath unga
Ġbet el
Ġper plex
Ġgr inding
Ġpay outs
av al
Ġplace ments
Ġma pped
lect ed
Ġinf act
Ġinf inity
Ġmin us
ade en
Ġwell assa
Ġfo oth
Ġcons ort
Ġtw itch
Ġche vron
Ġcar riage
Ġperson a
Ġinv ites
Ġed e
reat ment
Ġgen etics
int ro
Ġmay onna
Ġsupp ression
Ġfam ine
ert y
Ġke erthi
Ġ10 6
Ġfin asteride
atch ath
Ġ9 80
Ġ9 11
Ġappreci ative
si us
Ġpos ing
Ġsm ugg
Ġserv ant
Ġbank er
sh as
Ġide als
uw e
uw atta
uw akku
Ġdown ward
Ġbu gging
ian a
Ġpar s
Ġpar liment
Ġpar ippu
Ġins ul
Ġins ert
Ġins cription
Ġcr awl
Ġra ize
Ġfore see
Ġfore front
Ġend uring
Ġtax able
Ġaw ake
Ġdes ires
Ġent ren
Ġsur anga
Ġsur plus
lo an
Ġgu ild
Ġ19 2
Ġ19 20
Ġpub g
Ġprov oke
Ġrep orter
Ġrep ression
Ġdr ank
Ġes d
Ġev ol
cy cling
Ġ30 60
Ġchar lie
Ġhand ic
ms c
Ġpublic ity
Ġpublic ations
Ġext ends
Ġext ortion
Ġdisc ard
Ġdisc retion
Ġconf use
Ġimp ly
Ġ15 9
Ġadd on
Ġadd icts
Ġadd studio
Ġinform s
Ġinform atics
Ġconsid ers
Ġprot oc
Ġprot ocol
Ġass im
Ġ12 12
oc a
oc ation
Ġord ained
Ġcor ne
Ġcor rel
Ġcheck list
Ġclass ification
Ġclass rooms
Ġsal v
Ġplay ful
Ġplay ground
ric al
Ġce os
Ġfl own
Ġfl ames
Ġfl irt
Ġaff lu
Ġcou pled
Ġeduc ators
Ġdevelop s
Ġraj ap
Ġraj asinghe
uk wella
Ġbo b
Ġret weets
Ġx y
Ġid ol
Ġacknowledge ment
Ġsk irts
Ġsystem atically
Ġhour ly
Ġrs p
Ġsw amp
Ġsw aps
Ġbi k
Ġbi ker
Ġbi yagama
Ġvi y
Ġcu nts
amb antota
Ġmod ding
Ġhon ored
Ġz i
Ġz en
Ġz oysa
Ġsimilar ities
Ġprof icient
Ġhead line
Ġsoft ball
Ġdirect ive
Ġ25 3
att aya
Ġroad map
man ne
Ġopin ed
Ġsign atures
Ġlist ens
Ġca ulif
Ġdef icits
Ġmid way
Ġrese lling
Ġdem ise
Ġdem ographic
Ġbeh old
Ġwel a
Ġmajor ing
Ġpersonal ities
Ġsoftware s
ats u
Ġbre thren
Ġresearch es
Ġwater y
Ġfact check
Ġ00 8
Ġq g
Ġq h
Ġunt ill
Ġstand out
Ġ14 8
Ġamount ing
ps ych
Ġeli a
Ġ200 00
Ġprotest or
Ġmillion aire
Ġscam my
Ġbook marks
Ġbook stores
Ġincre ment
Ġwrong ly
Ġhar vard
ici encies
Ġser mons
Ġlow ered
Ġprop riet
Ġmal i
Ġteam work
Ġcap ac
Ġcharg ers
Ġtransport ed
Ġaust in
Ġpolic ing
ont on
Ġmah ab
Ġmah aw
Ġmah attaya
Ġsour ced
go v
Ġmas se
Ġspecial ists
Ġevent ual
Ġcit rus
Ġcris p
Ġlegal ize
Ġ21 0
Ġreli ed
Ġsex y
Ġselect or
Ġstory telling
Ġns u
Ġns ing
Ġcoast s
Ġinfl ows
Ġbri ck
Ġhal o
Ġexch anged
Ġsever ity
Ġinsight ful
Ġplat inum
Ġexc itement
Ġpet itions
app lying
Ġmatch a
Ġdev oted
igin al
Ġpot ter
Ġpot tery
sib ility
Ġpat rol
Ġvac u
Ġdel ta
Ġdest it
Ġla ure
Ġsat kun
Ġsli ate
Ġgame play
Ġtrin ity
Ġ26 9
Ġsn atch
Ġnt j
Ġnt em
Ġnt amil
Ġstrong est
Ġstrong man
Ġprotect or
Ġant ibi
Ġextra jud
Ġeth ically
Ġfav ours
Ġgl uten
Ġmis led
Ġmis be
Ġmis ery
Ġmis placed
Ġbar code
Ġcommer cially
Ġwait ers
Ġstore y
Ġsil ently
Ġpain fully
Ġrecogn izing
Ġwestern ers
Ġfast ing
Ġbir yani
Ġer p
Ġer os
Ġcorrect ing
Ġcorrect ions
put er
Ġdin ners
iy apitiya
iy agoda
Ġpurs uit
Ġcrit ique
Ġver ifying
Ġyout ub
Ġfoot wear
Ġfi u
Ġcontext s
Ġband it
Ġwilling ly
Ġwilling ness
Ġjay asekera
anth an
Ġanim ations
Ġpresent ing
Ġblack list
Ġud ara
Ġak ila
Ġanurad apura
eric an
Ġban anas
Ġdom ino
Ġbatt ered
Ġposition ing
umb ling
Ġbillion aires
Ġfeedback s
Ġstar ter
unt e
Ġje ff
Ġweb page
Ġram akrishnan
Ġperm issions
Ġ35 4
Ġwind ing
Ġpc b
urs ed
ca fe
Ġcli ff
Ġimag inary
Ġpercent ages
Ġhang s
Ġhang outs
Ġgirlfriend s
Ġprin ter
Ġnb usiness
Ġsum atra
uri an
Ġnw w
Ġnw ere
head ed
Ġnu h
Ġnu nder
Ġhusband s
Ġsan j
Ġsan gh
Ġsan gha
Ġng roup
Ġkum ari
Ġcommunic ated
Ġsup un
Ġcorpor ations
Ġcorpor ates
Ġreplace ments
lus ive
Ġinstall ations
Ġrespond s
Ġtext book
Ġsubs pe
Ġbom bers
Ġmach inery
Ġimple ments
Ġconv iction
Ġpush es
ny e
Ġconstit utes
Ġamb ience
Ġadminist ered
Ġni hal
Ġ198 5
Ġfinish es
Ġyouth s
Ġauthentic ation
Ġpun ct
Ġlay ers
Ġdisp ers
Ġdisp ens
Ġrob es
Ġexecut ing
Ġlondon tec
Ġunit ary
Ġcook book
Ġrefer rals
Ġfuck ers
Ġwij ese
Ġcritic ized
Ġideal z
Ġdanger ously
Ġdestro ys
Ġang ular
Ġmand ated
Ġnv otes
Ġattach ments
Ġbeginning s
reg ular
Ġreform ed
Ġround about
Ġconven iently
Ġple ad
Ġcho res
Ġsick ness
Ġislam ophobia
Ġshoot ings
pet ty
Ġbes poke
Ġeyes ight
Ġroyal ty
Ġpropos es
Ġpin ned
Ġhero in
Ġunc omm
Ġconstitution ally
Ġtik iri
Ġscr amb
Ġcold er
Ġmicro phone
rent y
rent ing
rent ly
Ġgaz etted
Ġdoubt ful
Ġhomes ick
Ġnr t
Ġlaugh s
Ġnom ine
Ġintegr al
Ġcro ok
Ġmonso ons
Ġpa ed
Ġobject ions
Ġast ounding
Ġaward ing
Ġhurt ful
Ġmel ts
plan ned
Ġmotiv ate
Ġsuspic ions
Ġthri lled
Ġow ed
Ġkick s
Ġdistrib utors
Ġarchitect s
Ġ194 2
Ġdan anjaya
Ġconsequ ently
Ġclick s
Ġmoder ator
Ġfare well
Ġvolunt ary
Ġvolunt arily
Ġreact ing
Ġwat awala
Ġdent ists
Ġshut down
Ġdiagn ose
Ġresol utions
Ġcaptain cy
di ff
Ġuns ustainable
ambal am
Ġinspect ors
Ġweer atunga
Ġincom plete
Ġnavig ated
gu ards
Ġfreel oad
Ġdefe ats
Ġdele ting
Ġ68 5
Ġ196 8
Ġshar ks
Ġens ured
Ġboost ing
Ġdeduct ing
Ġjoint s
Ġlan tern
Ġnal so
Ġkingdom s
Ġtel ug
Ġburn out
Ġpd fs
Ġcircumst ance
Ġjail or
Ġexcess ively
Ġlegisl ature
Ġleaf lets
Ġfertil izers
Ġcanad ians
Ġpir ated
Ġble aching
Ġlap store
vil le
Ġgri m
Ġspin ners
Ġstret ches
Ġsplit ting
Ġaqu atic
Ġcarg ill
Ġdram atically
Ġmagist rates
Ġnad d
Ġdisrupt ed
Ġdefend ers
Ġexclud e
Ġparad ox
Ġinstru mental
Ġsubscri bing
appro ved
Ġtroub led
Ġcongress ional
Ġquarter ly
raj apaksa
Ġoblig ated
Ġou sted
Ġscript s
Ġannoy s
Ġterrit ories
stud y
Ġorg ans
Ġabol ition
Ġresist ant
Ġparan ormal
Ġdistract ing
Ġambul ances
Ġthar aka
Ġeager ly
Ġcultiv ate
Ġbreakdown s
Ġillness es
Ġambassad ors
Ġdust y
Ġproc rast
Ġdrag ons
Ġcul min
Ġbol ster
Ġses ame
Ġmism atch
Ġreluct antly
exp ensive
Ġthrott le
Ġrally ing
Ġnex p
Ġkul iyapitiya
Ġdod ging
Ġelim inating
Ġnsh e
Ġdos age
Ġflee cing
arath ne
Ġcock tails
Ġacknowled gment
Ġtemper atures
Ġinaug urated
Ġatro cious
Ġdowns ides
Ġhyper inflation
Ġdomin ion
Ġnme aning
stay ing
Ġdistress ing
Ġkoh li
Ġtent ative
Ġwhis per
Ġcycl ists
Ġutil ized
Ġexploit ative
Ġligh ter
Ġassemb led
Ġnest imated
Ġinher itance
Ġgee k
Ġrebuild ing
Ġglor ious
Ġglor ified
keep er
Ġintellect uals
Ġcontrad iction
invest ment
Ġpon zi
Ġanth are
Ġinappro priately
Ġrig id
Ġrepost ed
guard ian
Ġsant osh
Ġons ite
Ġstare s
Ġweigh ing
Ġpla us
Ġamar aweera
Ġreloc ate
Ġreloc ating
Ġacceler ating
Ġexped ition
Ġremitt ance
Ġswed ish
Ġdhar mar
Ġmurdere rs
Ġstro ll
Ġclown s
Ġevalu ation
Ġevalu ate
Ġbench mark
Ġreop ened
Ġstagn ant
Ġcommod ity
Ġpaw n
Ġfitting s
Ġhash im
Ġbush els
Ġcey loan
Ġwre ck
Ġgale ment
Ġadministr ations
Ġwan indu
Ġky c
Ġoverload ed
Ġmagaz ines
Ġgree ce
Ġstab bing
Ġkiy ala
Ġquot as
Ġaccum ulated
Ġdistingu ish
Ġexcav ations
Ġpuzz le
Ġirrit ating
Ġstitch es
Ġkir ulap
Ġtrous er
Ġinvas ive
Ġgene va
Ġpharmaceutical s
foot ball
Ġmater nal
Ġchau vin
Ġhip g
Ġintens ity
Ġlooph oles
conf used
Ġzah aran
Ġpremar athne
Ġtraumat ized
Ġdeport ed
Ġconcess ion
Ġabduct ed
Ġabund ance
Ġbrack ets
Ġedm onton
Ġparam eters
Ġzion ist
Ġparalym pic
Ġinherent ly
Ġgrie v
Ġvag inal
Ġcoc aine
Ġcontam ination
Ġcontam inated
Ġforens ic
Ġobli vion
Ġsweep ing
Ġrecie ved
Ġcontradict ory
Ġintoler ant
Ġfres her
Ġdah l
Ġvel upillai
Ġindu ction
Ġsimpl er
Ġski pper
transport ation
Ġpowd ers
Ġgrav ity
Ġsingh agiri
Ġmisogy nistic
Ġbrainstorm ing
hid den
Ġfp ga
Ġobe y
Ġgau ge
Ġdeme aning
Ġfron x
Ġhelm ets
Ġconsolid ated
Ġcarving s
Ġentr ances
heim er
Ġlawm aker
restaur ant
Ġmicropl astic
Ġely a
Ġplum met
Ġenvelop e
Ġintrest ed
Ġdemod ara
Ġphotosho ot
Ġkrak at
Ġdismant led
Ġpedestri an
Ġintermitt ent
sur vey
Ġpav ithra
Ġnurs ery
Ġyap ahuwa
Ġmelt down
Ġconsec utive
Ġunsp oken
Ġmuham mad
Ġinstig ated
repres ent
proble ms
Ġskelet ons
Ġmala iya
Ġpine apple
Ġdens ity
Ġnara henpita
Ġnrespon se
Ġrevel ation
Ġwhol esome
Ġslam med
Ġinfuri ating
Ġviharamah adevi
Ġobes ity
Ġnaf ter
Ġwag ons
Ġpoth oles
Ġhandb ag
Ġdemotiv ated
Ġdamm ika
Ġlabe lled
Ġndown load
Ġnfo llow
Ġsuprem acy
Ġfernand ez
Ġdiscontin ued
Ġwardro be
Ġorthop edic
Ġbacter ia
Ġorchest rated
Ġdiction ary
Ġkern er
Ġkaz akh
Ġsurre nder
Ġdravid ian
Ġvallip uram
Ġkalkud ah
Ġobsc ure
Ġsaras avi
cra zy
Ġshep herd
Ġchame era
Ġunmatch ed
Ġvishn u
Ġunderwhel ming
Ġdetri mental
Ġdemat agoda
Ġnoroch cholai
Ġkoong olla
Ġnliter al
Ġcondol ences
Ġtommor ow
Ġplagiar ism
Ġsumanth iran
Ġthiri manne
Ġtheeks hana
Ġcinkai ariyan
Ġmcdon alds
Ġhurd les
Ġheja az
Ġjagger y
Ġdeak in
Ġcongl omerate
Ġmosc ow
Ġtimefr ame
Ġprede cess
Ġintervent ions
Ġmayonna ise
Ġprotoc ols
Ġafflu ent
Ġcaulif lower
Ġextrajud icial
Ġfreeload ers
3 40
4 7
7 00
8 1
a el
a pping
b ut
b ie
b row
b urg
c ate
c ool
c lim
c bsl
c ustom
d t
d ad
d os
d ag
d rew
d engue
e id
e ment
e ins
f uel
h ers
h ra
i ver
i ens
j ayan
k ish
l on
l en
l ust
l ak
l ists
l ka
m ith
m ick
m iss
m aid
m otor
n m
n r
n on
n ical
n uts
p ak
p ath
p ura
p cs
r ave
r aining
r unning
s pe
s ight
s ling
s ending
s olar
s omething
t g
t ic
t ook
u is
u ity
v c
v it
v ial
w ick
w att
w ali
Ġt ac
Ġt ate
Ġt ange
Ġt read
Ġt ins
Ġi x
Ġs ut
Ġs ith
Ġs iv
Ġs ars
Ġs ds
Ġs ada
Ġth ug
Ġth ama
Ġth igh
Ġth irst
Ġth ajudeen
Ġth umbs
re ens
re view
in am
in ese
Ġw k
Ġw v
Ġw ir
Ġw ings
Ġw its
Ġw ether
Ġw oe
Ġw olf
on ly
er se
er ations
er ting
Ġc j
Ġc aff
Ġc uc
an ol
an ath
an ura
Ġm ets
Ġm ds
Ġm esh
Ġb ould
Ġb op
Ġb ake
Ġb ern
Ġb urd
Ġb ambal
Ġb inding
ou st
ou stic
Ġf j
Ġf id
Ġf ck
Ġf ath
Ġf aking
Ġf kn
or i
at iya
Ġp b
Ġp iri
Ġp itted
Ġp estic
en ium
en heimer
Ġh f
Ġh ater
Ġh ym
Ġh anth
Ġh di
Ġh tt
ing es
ing ton
Ġan k
Ġan at
Ġan ker
Ġan ecd
Ġto pp
Ġl ac
Ġl ance
Ġl ms
Ġl aced
Ġl enders
Ġl assana
Ġd ing
Ġd gh
Ġd read
Ġd ough
Ġd ug
Ġd bn
Ġd itr
Ġd welling
Ġd urian
es es
es ia
Ġin ne
Ġin gr
Ġin ward
Ġin access
Ġin expensive
Ġn ke
Ġn ry
Ġn ass
Ġn ya
Ġn ade
Ġn itt
Ġn gr
Ġn att
Ġn ho
Ġn mar
Ġn aph
Ġn angi
it le
it ly
it led
it ably
al ama
al apam
Ġo q
Ġo ed
Ġo ve
Ġo li
Ġo sc
Ġo ho
Ġand rew
ar o
ar in
ar ay
ar ked
is an
is en
is ara
Ġg ow
Ġg aw
Ġg ah
Ġg rop
Ġg hr
Ġg uru
Ġg enders
ri m
as o
as er
as ena
Ġe on
Ġe ed
Ġe em
Ġe ternally
ic le
Ġre ich
Ġre aff
Ġre han
Ġre wr
Ġre built
ll ors
Ġy i
Ġy am
Ġy ai
Ġy ards
Ġy arn
Ġbe an
Ġbe le
ot o
ent re
Ġis mail
Ġu v
Ġu ol
Ġu mm
et ha
Ġyou ll
ac ul
Ġst am
Ġst akes
Ġst ems
Ġst ump
am ins
am adulla
am erican
Ġha ke
id av
Ġhe he
ol k
Ġk es
Ġk ay
Ġk op
Ġk asun
th rough
ad ipa
Ġwith drew
Ġmy r
ir m
ir on
ir med
Ġany other
Ġdo e
Ġas o
Ġj ell
Ġj elly
Ġli y
Ġr ama
Ġr he
Ġr att
Ġr anga
im p
im ation
im age
im uth
Ġne c
Ġsh ith
Ġsh ack
Ġsh akes
Ġsh eds
Ġse mb
Ġse ik
Ġse ych
Ġse wan
il ver
il igo
ome x
ter ior
Ġde ity
Ġbut cher
Ġso ber
Ġme mo
Ġfr ug
Ġv ist
Ġcon ced
Ġcom ics
Ġat omic
Ġch amb
Ġcan ned
Ġab l
Ġab ilities
ust oms
Ġpl ac
Ġpl ague
ant ically
Ġmo j
Ġmo fa
ul as
ul le
ul th
Ġpro gr
ere n
ere ra
Ġthey re
ain ted
us u
ig a
Ġlike lihood
ab i
ab it
ab ay
ab ol
ab and
ab aya
un p
un limited
qu et
em o
em ocratic
Ġun aff
Ġun hy
Ġun cover
Ġun verified
bo e
Ġus p
Ġcol oss
Ġlo ot
Ġlo cks
Ġac oustic
Ġam an
Ġam ana
ff eur
Ġfe udal
Ġexp ire
Ġexp iring
os itory
ven ia
Ġapp re
Ġapp laud
ry s
Ġrec c
Ġtim ers
Ġtim eless
Ġout station
Ġen vision
Ġen route
Ġve y
Ġhi ked
Ġsa ga
Ġup fa
ear ing
ak aratne
Ġim ma
pt ic
ag en
ag ara
ans w
ans en
ure r
Ġno one
Ġno ice
Ġag itated
Ġag nostic
ck er
Ġco ils
Ġdon dra
Ġdi ac
Ġdi arr
Ġqu its
Ġint ric
Ġint ends
eri o
Ġman power
Ġpri cier
Ġ5 10
Ġcl z
Ġcl out
Ġcl ich
Ġoff beat
Ġadv ances
Ġadv ancing
Ġacc l
Ġacc es
ip er
ip ola
Ġar ist
Ġar ises
Ġar oma
ink le
Ġri o
Ġri vals
Ġvis uals
Ġcomm ands
Ġres ided
Ġind i
Ġind icted
Ġafter s
Ġunder taking
Ġunder develop
iv ar
ail way
Ġsl s
Ġsl ice
Ġsl ack
Ġsl iced
Ġpre pping
Ġpre aching
aw ana
Ġpr p
Ġover coming
Ġover haul
hing ya
ign ific
Ġdis able
Ġbr ink
Ġinter iors
Ġfri ght
Ġinc ap
fe it
Ġspe ar
Ġro c
Ġro g
Ġro vers
Ġro ss
Ġro ok
Ġro aches
Ġro hingya
Ġplan ters
Ġjo gging
de en
og en
og atory
Ġsc or
Ġsc ul
Ġsc um
Ġsc rapped
Ġsc rape
ang ana
Ġmar ra
Ġmar cos
Ġ6 20
Ġ6 60
Ġ6 30
Ġloc king
Ġper ies
Ġhis pan
Ġgr app
Ġpay here
av o
Ġfriend liness
ress ed
Ġvisit srilanka
Ġguys sss
Ġinf in
Ġshe lls
Ġpers ian
own s
Ġdec isive
Ġbest buy
iss awella
Ġinto xic
Ġpost hum
Ġpost cards
du al
Ġcar b
Ġcar olina
Ġaccount ant
Ġreg ain
Ġinv ading
Ġed s
Ġed its
Ġem d
Ġem e
Ġmed ias
Ġmed itate
con nect
Ġtrans ph
Ġtrans iting
Ġright ful
Ġpres ently
Ġpres erving
Ġpres ervation
Ġfin n
Ġ9 20
Ġ9 60
Ġ9 25
Ġbas mat
Ġbl oc
get ic
Ġsec s
Ġlet t
Ġlong standing
sh ani
Ġet fs
Ġbu ckets
Ġfood ies
Ġsim ulation
Ġpar rot
Ġopt ical
Ġopt imal
Ġsub po
be e
Ġdes erving
Ġav ali
itt a
Ġent our
Ġent ers
Ġent ail
Ġsur charge
Ġtrip advisor
lo c
lo bal
Ġ19 30
Ġ19 40
Ġnight time
Ġadvance ment
Ġadvance ments
Ġsy ring
Ġel it
Ġcost umes
Ġcour sera
Ġdep icted
Ġdep uis
Ġhot lines
Ġdr own
Ġdr owned
Ġes a
up athi
Ġbusiness men
Ġ30 2
Ġ30 50
ug annawa
Ġchar ter
Ġchar ism
Ġchar iot
Ġexam ined
Ġext ensions
Ġext inct
Ġext rav
Ġcle arer
Ġdisc s
Ġdisc rep
Ġbad ge
Ġho b
Ġimp ract
Ġimp erson
Ġ15 3
Ġsrilank at
Ġopen er
Ġopen ai
Ġshow rooms
Ġ12 7
Ġcheck points
ys ics
Ġcard iologist
Ġdifferent iate
Ġfl im
Ġfl ows
Ġcou pon
Ġopp o
Ġopp enheimer
Ġbo asts
ah e
ah g
ah am
uth ara
Ġx p
Ġsk irt
he a
Ġdet aining
Ġmor on
Ġsw ind
Ġsw apping
Ġbi os
Ġvi jayan
Ġmod ifications
bt u
Ġz a
Ġz ool
Ġ11 00
Ġbuild ers
Ġdist ort
Ġdist inction
Ġstr on
Ġsocial ise
Ġmir acul
Ġdirect ing
Ġvide og
uwa it
Ġbudget ing
Ġmet ric
Ġrece ives
Ġfut ile
Ġkid napped
Ġsing lish
Ġref ined
Ġpast or
Ġwa ving
Ġprogram mers
Ġrese ll
Ġrese ller
Ġ100 000
Ġ18 3
Ġwel isara
Ġran wala
cri me
Ġfact ion
Ġfact ions
Ġq q
Ġq ty
Ġleft over
Ġunt old
Ġmen ace
Ġ14 9
Ġphys icians
uss ion
Ġmess es
Ġ16 3
Ġ16 50
Ġ50 2
Ġmillion aires
Ġcut lets
Ġcompan ions
Ġhum or
sc ope
Ġtre kk
Ġmal u
Ġmal aria
Ġcamp a
Ġfinan ced
Ġconst able
Ġsend er
Ġsho vel
ren ces
Ġbel ittle
br ush
den ed
Ġsuper b
Ġann field
Ġpolic ym
Ġbro ch
oid able
rupt ion
Ġ17 3
Ġ17 7
Ġdig est
Ġcontro llers
Ġranil s
Ġns m
Ġns en
Ġns inh
ising ly
Ġinfl amm
by ob
Ġtrad er
Ġ23 2
app er
hi king
Ġequ ities
Ġmult ilateral
ma x
ma jor
Ġwed age
Ġdel ist
Ġdel ux
Ġinit ials
Ġentire ty
Ġnp y
Ġindivid ually
Ġcal ib
Ġcal yp
Ġmass ages
Ġsat ire
Ġsat isfactory
Ġenjoy ment
Ġident ical
Ġsuccess es
Ġai y
Ġai bs
Ġsn iff
Ġcash back
Ġnt ry
Ġnt mi
Ġprotect s
Ġris king
Ġimm un
Ġimm erse
Ġprem i
Ġ500 00
Ġfav oring
Ġsuff ice
Ġsuff iciency
Ġgl ued
Ġbar r
ex c
Ġhost ility
Ġwhite washed
Ġinsur ances
Ġsil icon
Ġrid ge
Ġrid den
Ġrain bow
Ġchem otherapy
Ġfront line
Ġcomfort s
tr ump
Ġblo ating
put able
Ġste ering
Ġsor row
ec ided
Ġhol istic
Ġnd a
Ġnd ate
Ġnd ig
Ġnd ear
Ġvict us
Ġfoot steps
Ġadm ired
Ġdiplom ats
Ġfi asco
Ġhair st
Ġbur ma
Ġdiv ides
Ġmount ing
Ġge ographic
Ġud emy
Ġexpress es
reddit ors
Ġnc re
Ġban ner
Ġdom ains
Ġdom inate
Ġredu ces
Ġarch aic
Ġcand le
Ġlak shan
Ġposition ed
Ġtur bo
Ġcomb ining
Ġpu lls
Ġdh oni
Ġ31 2
Ġ31 3
Ġ31 5
Ġje opard
Ġstra pped
Ġconvers ational
Ġtu cked
oun cing
Ġay u
Ġwind y
Ġenc l
Ġassoci ations
dr av
Ġpromot ional
Ġcontrib utes
Ġvalid ly
pal u
Ġnm at
Ġnm ess
Ġnm cdonald
Ġcapital ists
Ġaud hd
Ġtrack er
awa iting
Ġ01 17
Ġ07 1
Ġnf s
Ġalleg ing
Ġir r
Ġir regular
Ġcelebr ates
Ġvol atile
Ġmarri ott
Ġgun man
Ġgun aratne
Ġgun athilake
Ġkal inga
Ġgotab ay
Ġbed ford
Ġprin cess
Ġnw sd
Ġnu ances
Ġnu isance
Ġmaster mind
Ġsan jaya
Ġng oogle
Ġol ig
Ġrat an
Ġmer ge
Ġadam ant
Ġrepresent ations
Ġprint out
Ġseat b
Ġrepe aled
Ġmad h
Ġswe ating
Ġcatch y
Ġcatch es
Ġbroad caster
Ġeye brow
Ġconsult ations
Ġsmart est
Ġdemocr acies
Ġattend ants
Ġkur inch
Ġpal aly
Ġamb an
Ġamb ika
Ġhamb anthota
Ġut c
Ġreve llo
Ġclar ifications
Ġpurpose ly
Ġfa ire
Ġ42 5
Ġpun jab
Ġkn w
Ġcolon ies
Ġlay overs
Ġbrain washing
Ġsens ory
Ġanaly zing
Ġec g
Ġpref ace
Ġep fs
Ġcook ies
Ġhr w
Ġforest ry
Ġbow led
Ġreci p
Ġpil es
Ġsamp ayo
Ġtow el
Ġnn ational
Ġrus sell
Ġfavour able
Ġfavour ites
Ġder ogatory
Ġcolor ful
Ġveget ation
Ġimpos ition
Ġton y
Ġsick ening
Ġnl a
Ġbatch mates
Ġnut ri
har an
Ġtoy otas
Ġthrow s
Ġmill er
aling am
sp ot
Ġharm less
Ġshall ow
Ġflu id
Ġball oon
Ġund erest
Ġund emocratic
Ġund ecided
Ġcompens ated
Ġairb ags
Ġwall pap
Ġreflect ed
Ġschedul ing
Ġkot male
Ġdetect ive
Ġridicul ed
Ġflex ing
Ġhs zs
Ġnr acing
Ġnr ailway
Ġdear ly
Ġ49 0
Ġdepend ence
Ġvirt usa
Ġcolour ful
Ġast roph
Ġsar avan
Ġlets drav
Ġpsychiat ric
Ġmel ted
Ġbor ales
Ġblind s
Ġcalcul ating
Ġcalcul ator
Ġbond holders
Ġpad mav
Ġpunish ing
Ġdistrib ute
Ġdistrib utor
Ġarchitect ural
Ġthus iyan
fl ows
Ġcast ing
Ġsteam ed
Ġhass an
Ġmini ature
Ġmathem atical
Ġrecru iter
Ġbound s
Ġcham al
Ġmut ually
box ing
vi jaya
Ġmall a
Ġlift s
Ġratn adipa
Ġsab ry
Ġhunt ers
di ving
Ġuns olicited
Ġuns urpr
Ġtro lling
Ġinspect ed
Ġpregn ancies
gu ide
Ġisol ate
Ġgear box
Ġvo icing
Ġcollabor ating
Ġ196 6
Ġfant asies
Ġcollap sing
Ġrub bing
Ġshar ply
Ġsiri pala
Ġkad ugannawa
Ġrot ary
Ġdivers ify
Ġraw ana
Ġalt itude
Ġpas se
Ġlan cer
Ġnal in
Ġnbe en
Ġpf izer
Ġrit igala
Ġexceed ed
Ġhyp ed
Ġmc gah
Ġlone liness
Ġfraud s
Ġunknow ingly
Ġleaf let
Ġsom thing
Ġlag gy
Ġds g
Ġassess ed
Ġimmigr ate
Ġtid y
Ġmt icket
Ġfortun es
Ġprescri bing
Ġcp j
Ġble ak
Ġovert urn
Ġinclus ivity
Ġdisappear ing
Ġdisappear ance
Ġaqu inas
Ġrein statement
Ġrein stated
Ġscan ner
Ġemphas ize
Ġemphas izing
Ġwet land
Ġdj s
Ġbund les
Ġcad res
Ġlamp s
Ġinstru ment
Ġposs essed
Ġportfol ios
part ment
Ġlem on
Ġvul gar
Ġabey wardena
Ġsalt water
Ġ97 8
Ġprompt ly
Ġelev ator
Ġjaze em
Ġroll out
Ġawa its
Ġkand i
Ġfisher man
abh avan
Ġpostgr ad
Ġ96 9
Ġpour rez
Ġforth coming
Ġbasket s
Ġmud sling
Ġfon ts
Ġdecre asing
Ġoptim ism
Ġdistract ion
Ġsamar aweera
Ġsamar awickrama
Ġembarrass ment
Ġdun h
Ġcultiv ating
Ġlabor atory
Ġsed an
Ġsed ans
Ġbum ps
Ġjul ie
Ġsid dhar
Ġncon tact
Ġstereoty pical
Ġdans al
Ġuncon s
Ġinterf ace
Ġperpet rated
Ġvulner ability
Ġreward ed
Ġjudgment al
Ġti ff
Ġshocking ly
Ġblast ed
Ġelim inated
Ġcompetit or
Ġrow ing
Ġesc aping
Ġineff iciencies
Ġlockdown s
Ġbrid es
Ġbrid ging
Ġinaug uration
Ġkne el
Ġexhib its
Ġgentle men
Ġpunch i
Ġspo ilt
sy stem
Ġbroadcast ing
Ġbast ians
Ġunav oidable
Ġarrog ance
Ġreset tle
ikk aduwa
Ġcis gender
Ġpitch es
Ġdum best
Ġgee ks
Ġaluth gama
Ġaluth kade
Ġlod ging
Ġcommem oration
Ġspr ays
Ġsurve ying
Ġmou l
Ġku an
keep ers
Ġconvent ions
Ġfet ish
Ġvid yal
Ġnarc otics
Ġwijes inghe
Ġolymp iad
fit ness
Ġveter inary
Ġrepost s
Ġfacilit ated
Ġmun asinghe
Ġramb ukwella
Ġundermin ing
Ġdisadvant aged
Ġcher ish
Ġmonop ol
Ġreloc ation
xxxx xxxx
Ġunexpected ly
wr iter
war ming
Ġhaunt ing
foreign er
foreign ers
Ġinsurg ents
Ġdhar mas
Ġtroubles ome
Ġcum ulative
Ġinjust ices
Ġgotag o
Ġinterven ed
Ġmong abay
Ġdar shana
Ġreop en
Ġrecy cle
Ġenact ed
Ġreson ate
Ġmillenn ials
Ġmarginal ized
Ġgest ures
Ġrust ic
Ġneu rologist
Ġconfront ation
Ġinterrupt ed
Ġinterrupt ion
Ġbush es
Ġscrut in
Ġinev itably
Ġmcq s
Ġmoo re
Ġnaz is
Ġblur ry
Ġblur red
Ġexcurs ion
Ġnmon th
Ġsponsors hips
Ġprevail ed
Ġpronoun s
Ġpronoun ced
Ġbun s
Ġatl as
Ġpurif ication
Ġsummar ize
Ġdisgrace ful
tax i
Ġgim mick
Ġkiy anna
Ġquot ation
Ġniro shana
Ġbah rain
Ġemo jis
Ġimperial ism
Ġphotocop ies
Ġprospect ive
Ġhaw ai
Ġchau ffeur
Ġshell fish
Ġtranscript s
Ġobser vers
Ġindefin ite
Ġbog us
Ġlip stick
Ġcleans er
Ġfatal ities
Ġderi v
Ġshield s
Ġconcess ions
Ġboast ing
Ġbengal uru
cin namon
Ġheter osexual
Ġnol imit
Ġoath s
Ġrecomm and
Ġupv ote
Ġinterrog ation
Ġobli vious
Ġaccompl ish
Ġinhab it
Ġnig eria
Ġado be
Ġindu ced
Ġtaxpay er
Ġdefam atory
Ġsama han
Ġfier ce
Ġkath aragama
Ġjin ping
Ġscand als
interest ed
Ġyak ka
Ġrif le
Ġrif les
Ġindul ge
Ġtremend ous
Ġtremend ously
Ġaston ishing
Ġstigmat ised
Ġnret urn
Ġunle ashed
Ġlev ies
Ġlobb ying
Ġpok una
Ġrah man
Ġninvest ig
Ġdescend ants
Ġthur stan
Ġadh erence
Ġcompos ition
Ġprab ath
Ġjoh ns
Ġqualif ier
Ġvik ram
Ġbuffal o
Ġprincip als
Ġsabot age
Ġeleg ant
Ġhak gala
Ġlib ya
Ġvest s
Ġcondom s
Ġcontrace pt
Ġmait rey
Ġrelent less
Ġburi als
Ġendorse ment
Ġtempl ate
Ġpractition er
Ġmultim edia
Ġalgorith m
Ġcarpent er
Ġgast ritis
Ġchoc o
Ġadap ting
Ġleve lled
Ġench anting
Ġneglig ible
Ġmascul ine
Ġbour geo
Ġpouch es
Ġrena issance
Ġsta unch
Ġmys ql
Ġjas mine
Ġshaf i
Ġtran qu
Ġunear thed
Ġdiag nostic
Ġresent ment
Ġfluct u
Ġnsf w
Ġsunsh ine
Ġmiser ably
Ġncount ry
Ġsensit ivity
Ġmicrow ave
Ġsynth etic
Ġpalestin ian
Ġuduwal awe
Ġsimplif ied
Ġlitt ered
Ġstub born
Ġener getic
Ġmaurit ius
beaut iful
Ġdesir able
Ġboh oma
Ġsuperf icial
Ġmisappro priation
Ġnwar ranty
Ġasth ma
Ġphilosoph ical
Ġhgd p
Ġdra fting
Ġeinst ein
Ġunhr c
Ġarre ars
Ġbacktr acking
Ġperplex ity
Ġfooth old
Ġconsort ium
Ġinsul in
Ġforesee able
Ġentren ched
Ġbik ini
Ġyoutub ers
Ġsangh am
Ġuncomm on
Ġnomine es
Ġplaus ible
Ġkazakh stan
Ġcuc umber
Ġmets palu
Ġburd ens
Ġditr au
Ġnaph tha
Ġhake em
idav it
Ġsewan agala
Ġunaff ected
Ġcoloss al
ignific ant
Ġmarra ige
Ġbasmat i
Ġextrav ag
Ġimpract ical
Ġpolicym akers
Ġdelux e
Ġcalyp so
Ġbedford shire
Ġeyebrow s
Ġmcgah n
abhavan andan
Ġmudsling ing
0 4
2 50
4 3
5 9
8 7
b one
b ula
c ap
c all
c ologist
d am
e g
e h
f an
f em
f lo
f light
f illed
f uck
g ce
g ym
h x
h is
h em
h ang
h onda
h onest
h ospital
h ikkaduwa
i w
i pp
j ar
j ot
j am
k du
k ms
k oko
l ation
l ene
l iter
l ining
l gbt
m el
m bo
m ass
m anship
n c
n as
n os
n ie
n na
o du
o bt
p ig
p urch
q q
r ag
r ds
s am
s ch
s urf
s kin
s ports
t ra
t ired
u ld
u ved
v o
v ana
v ised
w ere
w all
w ond
w ife
w oman
x b
x e
y ia
z on
Ġt ilt
Ġt iru
Ġt ulf
Ġt ummy
Ġt aco
Ġa iya
Ġa ides
Ġa erial
Ġa verages
Ġi u
Ġi an
Ġi ot
Ġi cing
Ġi cl
Ġi eee
Ġs z
Ġs ce
Ġs one
Ġs ind
Ġs ade
Ġs andy
Ġs ik
Ġs sc
Ġs ont
Ġs rs
Ġs acking
Ġs arana
Ġs iph
Ġth b
Ġth ay
Ġth ala
re a
in j
in et
in il
in ci
in ium
in ha
in comalee
in tha
Ġw z
Ġw en
Ġw ll
Ġw oo
Ġw art
Ġw ool
Ġw ale
Ġw ada
Ġw aved
on orm
Ġc ot
Ġc sa
an igans
Ġm op
Ġm ason
Ġm ute
Ġm lt
Ġm da
Ġm ls
Ġm cd
Ġm amm
Ġm ambo
Ġb se
Ġb go
Ġb illed
Ġb ows
Ġb pm
Ġb ins
Ġb ae
Ġb inary
Ġb imal
Ġf k
Ġf w
Ġf ue
Ġf les
Ġf ah
Ġf ict
Ġf az
Ġf ax
or ala
or ian
or iginal
at ories
Ġp ent
Ġp ound
Ġp ont
Ġp ane
Ġp ins
Ġp uma
Ġp igs
Ġp iano
en al
Ġh m
Ġh ess
Ġh og
Ġan i
Ġto lls
Ġl h
Ġl ith
Ġl ust
Ġl atch
Ġl ng
Ġl agging
Ġl rr
Ġd up
Ġd ense
Ġd cc
Ġd aring
Ġd fs
Ġd wind
es uma
Ġin ad
Ġin security
Ġin roads
Ġn ing
Ġn ly
Ġn ent
Ġn ith
Ġn ft
Ġn get
Ġn where
Ġn know
Ġn ts
Ġn osed
Ġn app
Ġn bal
Ġn iy
Ġn va
Ġn has
Ġn like
Ġn which
Ġn order
Ġn high
Ġn athi
it or
it ical
al anka
Ġo er
Ġo an
Ġo ll
Ġo ad
Ġo so
Ġo ak
Ġo xy
om o
om ous
om fort
ar aya
ar the
is ors
Ġg v
Ġg bs
Ġg fs
ri osis
Ġe er
Ġe an
Ġe ag
Ġe ternal
ve z
ic one
ic ated
le k
le arn
Ġre dit
Ġre vert
Ġre ndering
st uck
Ġwh t
Ġwh ipped
Ġy aw
Ġy oy
Ġy up
Ġy anna
Ġy ada
Ġy atra
Ġbe gged
Ġfor te
ot ry
ent ious
Ġis so
Ġu z
Ġu fo
et he
ay ment
Ġit m
Ġit ching
Ġon y
ank y
ank ind
ac d
Ġst iff
Ġst ingy
ut ure
am ation
Ġwe ir
Ġwe ep
Ġha il
Ġha ired
se ver
Ġhe li
Ġhe ater
Ġk s
Ġk v
Ġk ank
Ġk ab
Ġk el
Ġk ala
Ġk aya
Ġk cc
Ġk atchath
Ġk uwait
th an
th as
th ree
ad y
ad age
ad ari
ad idas
Ġwith stand
Ġor naments
Ġor deal
gh old
oo b
ch up
ch una
ch elvam
ur p
ur ate
ur day
ur unegala
Ġany place
Ġdo p
Ġdo cked
Ġdo ping
Ġj us
Ġj ord
Ġj ets
Ġj eth
Ġj bl
Ġj ihad
Ġli k
Ġr c
Ġr r
Ġr ays
Ġr ade
Ġr aging
Ġne h
Ġne lect
Ġsh in
Ġsh aw
Ġsh ru
Ġsh av
Ġsh aken
Ġsh ining
Ġsh outs
Ġsh amed
Ġsh iny
Ġse ve
il ot
il ated
il va
il aka
Ġde re
Ġbut ch
Ġme agre
op ies
op ec
op ulation
op tions
Ġfr act
Ġv ed
Ġv and
Ġv ant
Ġv ain
Ġv ade
Ġv ata
Ġv atic
Ġtr av
ill ing
Ġex pe
Ġex od
Ġex otic
and ered
and ah
ate ful
Ġsu ri
Ġsu du
nd a
nd re
nd own
Ġcom ed
Ġch u
Ġch ester
Ġcan oe
Ġwas im
Ġab u
Ġab ys
Ġab rupt
Ġpl ots
Ġpl ung
Ġpl uck
ant ara
Ġal r
Ġal ah
Ġal ib
Ġmo k
Ġpro bs
Ġpro pped
ort s
Ġgo de
Ġgo sh
ain ting
ig d
ig m
ist ol
un able
un ition
un awatuna
el in
el ve
qu iz
qu ee
Ġad ela
ud aya
ud itha
em obile
Ġun ice
Ġun gr
Ġun load
Ġun wa
Ġun reg
Ġun wel
Ġun affordable
Ġun civil
Ġun armed
Ġun planned
Ġun answ
Ġle k
Ġle co
ap ist
ap ada
Ġall ion
Ġpe g
Ġpe ep
Ġpe uge
Ġpe ek
ard o
Ġcol petty
Ġlo gs
Ġlo af
Ġam ani
Ġjust ifiable
res ha
ff ic
Ġfe ast
Ġ3 200
ind i
ind epend
Ġexp on
Ġexp iration
os ha
ore rs
all u
ast ed
Ġen v
Ġen ce
Ġen com
Ġen vy
Ġen rich
Ġve e
Ġhi e
Ġsa itm
Ġup market
Ġup hill
Ġup held
Ġup np
so ld
ak able
um ph
her ing
Ġim pe
Ġcomp ile
Ġcomp lim
Ġno ah
Ġag ri
Ġag gr
Ġag rees
Ġdi zzy
Ġdi wali
Ġint ensive
eri zed
Ġ20 9
Ġ20 80
Ġman gala
Ġman nered
Ġpri ma
Ġpri vet
Ġ5 60
Ġ5 70
Ġpo e
Ġpo on
Ġpo ds
Ġcl ergy
ach ch
ach ute
ong s
Ġaf g
ide as
wh ale
ber ty
ip ut
Ġbec u
Ġar om
Ġar du
Ġar una
Ġsin opec
Ġcomm its
Ġwork station
Ġsp ine
Ġsp iced
Ġsp illed
Ġsp oon
Ġsp oons
Ġsp ikes
Ġres h
Ġres ur
Ġres urf
Ġind ict
Ġind ika
Ġmon ter
Ġmon ash
ail ing
Ġpre te
Ġpre med
Ġpre ndre
aw an
Ġpol es
Ġover head
Ġover due
Ġover run
Ġguy z
Ġdis ability
Ġuni ver
Ġbr c
Ġbr ass
Ġbr akes
Ġbr istol
Ġinter ning
Ġinter dict
Ġcur d
Ġfri zzy
Ġinc ense
Ġro omm
Ġplan ner
Ġback bone
de ad
Ġph ds
Ġph ev
og ram
Ġsc out
Ġsc rib
Ġsc attered
pl s
pl ugs
Ġtri vial
Ġtri umph
ath na
ath ons
ang s
Ġmar ble
Ġmar oon
Ġbet a
Ġ6 25
Ġ6 29
omet riosis
Ġper ahara
Ġgr in
Ġgr ay
Ġgr ated
Ġgr ains
Ġop d
Ġop h
Ġop n
Ġop s
Ġma is
Ġma ul
ens ils
Ġinf ested
Ġgovern ed
Ġsch engen
Ġrel ies
Ġrel ive
Ġrel ics
Ġrel ates
Ġrel oading
ade a
Ġtake over
Ġtake away
Ġwell s
Ġpost card
Ġta pe
Ġta pping
du ced
Ġfo a
Ġfo res
Ġcons ign
Ġche esy
Ġcar pet
Ġperson ne
Ġed a
Ġed d
Ġed in
Ġem per
Ġem ission
Ġem dr
Ġgen itals
ra ang
ra ise
ert o
Ġ9 29
Ġhapp ier
Ġbas n
Ġbas eline
Ġappreci ates
Ġair con
Ġbl ending
Ġsm thing
Ġlet har
Ġserv iced
Ġdiff ers
Ġbank ers
sh o
sh op
sh ops
Ġdown p
we ller
Ġsim s
Ġsim ulator
Ġpar ades
Ġear plugs
Ġins ignificant
Ġcr ows
Ġra a
Ġra ider
amil a
Ġend point
Ġend ometriosis
Ġsub ask
Ġsub aru
Ġdes ist
Ġdes ks
Ġreddit s
Ġpass ively
Ġgu er
Ġinvest s
Ġhome page
Ġelect ing
Ġrep ository
Ġcost ed
Ġengine ered
Ġev o
cy cle
Ġread ings
ug a
ug ala
ug ask
Ġrest rain
Ġhand cu
Ġhand book
Ġext ort
Ġext ras
Ġdisc reet
Ġdisc omfort
Ġpur view
Ġconf isc
Ġimp at
Ġ15 7
Ġtal pe
Ġtal alla
Ġwar renty
Ġass igning
Ġleg o
Ġpower less
oc aly
oc ado
Ġsol ves
Ġcheck in
Ġcheck er
Ġmight y
Ġclass y
Ġment oring
Ġap ocaly
Ġsal ty
Ġsal ted
Ġsal mon
Ġsal icy
Ġexpl oded
Ġexpl oding
Ġce ased
Ġce pex
Ġnear ing
velop ment
Ġqual ifies
Ġaff ording
Ġaff idavit
Ġhotel iers
Ġgi b
Ġraj itha
uk orala
Ġret in
Ġret ards
uth i
uth ale
uth entic
Ġx k
Ġx ps
Ġx mas
he art
Ġhear ings
Ġdet a
Ġdet ached
Ġproduct ions
Ġsw inging
Ġtop up
Ġtop jobs
Ġstre ak
Ġru ndown
Ġbi ases
Ġbi kers
Ġcert s
Ġcert ify
Ġvi ber
Ġvi ability
Ġcust ard
Ġcust od
Ġchild ish
Ġmod es
Ġmod af
Ġhon k
Ġz uri
Ġz omb
Ġval ve
Ġ11 6
Ġform ulate
Ġcustom ized
Ġdist rust
Ġstr anded
com ings
Ġshort est
Ġshort cut
Ġshort comings
Ġmir a
Ġroad blocks
Ġmet aph
Ġport als
Ġport ability
Ġproject ions
med ical
Ġstuff ing
Ġdef aced
Ġwa e
ee ee
Ġ18 18
Ġmajor itarian
Ġbre w
Ġpick ups
Ġfre ind
ook er
Ġfact ual
Ġq w
Ġq uran
Ġnuw era
Ġbuddh as
Ġstand alone
Ġmen g
Ġ14 40
Ġprefer r
Ġ16 000
Ġmust ard
aim ing
Ġpop ulated
Ġ13 3
Ġ13 36
Ġcut tle
Ġhu gh
Ġhum our
Ġhar ming
Ġser um
Ġactiv ating
Ġmiss es
Ġmiss ile
Ġob ed
Ġsho cks
Ġtransport ing
Ġbel itt
Ġpract ise
Ġaust ria
Ġsuper st
Ġserious ness
oid s
Ġprob ability
Ġgre ase
Ġmah at
Ġmah apola
Ġmath ew
Ġspecial ty
Ġspecial ised
Ġlegal isation
Ġ21 2
asing ham
ror ism
ush a
Ġsex ism
Ġselect ively
Ġns end
Ġns pe
Ġns uccess
Ġns peed
Ġns ervice
Ġstock p
Ġtrad es
Ġbreak ers
pr on
Ġforward ers
mor al
Ġplat ter
Ġcompl acent
Ġusd t
Ġdecent ral
Ġ23 1
Ġmatch making
Ġequ ator
Ġdesign ation
Ġdev illed
Ġdev otion
Ġmult icult
Ġbal eno
Ġaccess ing
Ġsurf ed
Ġcas c
Ġcas inos
Ġwed i
Ġpat as
Ġdam s
Ġdam ith
Ġnp re
Ġnp ad
Ġdest abil
Ġsen a
Ġsen adheera
Ġla fir
Ġla venia
Ġshit ting
Ġbegin ing
Ġsat urd
Ġsli pped
Ġdesp air
Ġdesp ised
Ġdoctor ate
ane lla
Ġ26 7
Ġstat ic
Ġviol ently
Ġsn aps
Ġnt wo
Ġsun fl
Ġant iso
Ġtyp ography
20 20
Ġcop ying
Ġimm i
Ġprem io
Ġprem iers
Ġprem alal
empt ion
Ġeth i
Ġworks p
Ġgon a
Ġmis cell
Ġmis fortun
ex press
Ġsam ap
Ġwhite wash
Ġrecogn izes
Ġwestern ized
Ġline age
Ġ28 5
Ġer ase
tr ack
tr ade
tr csl
Ġvill ain
iy as
Ġste er
Ġguess es
Ġguess ed
Ġdut uge
Ġrock y
Ġlab rador
ins on
Ġnd on
awe ed
Ġmilit arily
cent ral
Ġjay awick
Ġil men
anth urai
Ġge omet
Ġge ological
Ġfellow s
Ġemail ing
Ġblack outs
Ġud al
Ġud aw
Ġperform ers
Ġrich est
Ġrich ard
Ġstri ps
Ġnc ur
Ġnc ance
Ġarch ives
Ġarch chuna
Ġkey boards
Ġdefin ite
Ġtur b
Ġtur kish
Ġpu berty
Ġdh abi
awal awe
Ġsports people
Ġ31 0
Ġ31 1
Ġred ist
Ġred emption
Ġmethod ology
Ġtu an
Ġtu itions
Ġess ays
Ġram anathan
Ġcam eral
Ġanti que
Ġdead pool
Ġhor ana
Ġhor ribly
ae us
Ġay e
Ġdish on
Ġheart break
Ġheart warming
Ġinflu x
Ġign ition
Ġhom o
Ġsleep y
Ġsleep er
Ġrev amp
Ġrev ived
Ġtele cast
Ġmag gi
Ġcontrib utor
Ġlad s
Ġcoll ided
Ġnm m
Ġwalk er
Ġlat ino
Ġemb il
Ġ07 5
Ġlux uries
Ġnf i
Ġnf ri
Ġnf il
Ġfish ers
Ġnumbers lka
Ġgun athilaka
Ġconsum ables
Ġkal aw
Ġexpert ly
Ġnb a
Ġnb ut
Ġnb att
Ġsum mons
Ġbase us
Ġbase ball
uri al
Ġnw el
Ġnu gg
Ġdiss ap
Ġstup as
Ġdiscrimin ating
Ġvacc inations
Ġcirc ulated
Ġcry stal
Ġsan it
Ġsan itary
Ġng u
Ġng od
Ġcapt iv
Ġrat watte
Ġmer cil
Ġden na
Ġlog istical
Ġko llo
Ġrepe ats
Ġsubs et
Ġmad iha
Ġlif emobile
Ġom i
Ġhind er
Ġhind ered
Ġill um
Ġill iter
Ġyall a
Ġdemocr atically
Ġconv oy
Ġpen ny
Ġ32 7
Ġkur umb
Ġconstit u
Ġamb ig
Ġresort ing
Ġsqu ir
Ġsqu ads
Ġnthe ir
Ġcross ings
Ġut ensils
Ġdeb ited
Ġclar ifying
Ġpurpose fully
Ġfa ang
Ġ33 4
Ġ33 9
Ġpand ya
Ġrav an
Ġharass ments
Ġcolon ised
Ġcolon ization
Ġmac au
Ġmeaning less
Ġfill er
mat ically
Ġkar ala
Ġkar anna
Ġbrain washed
Ġprevent ative
Ġult im
Ġsurv iv
Ġsens es
Ġanaly ze
Ġec li
Ġsuic ides
Ġcontract ors
Ġsight ed
Ġep it
Ġnh uman
Ġnh ambantota
Ġsmo ked
Ġwij er
Ġwij et
Ġpett i
Ġcritic ising
Ġimpress ions
Ġrad ar
Ġpil a
Ġpil ing
Ġpil image
Ġmand arin
Ġnv s
aram an
Ġattach ing
Ġnov ice
Ġnn umber
Ġpic nic
Ġvan cou
Ġfib ers
Ġnin c
Ġconsist ed
Ġder ail
Ġdil ig
Ġic et
Ġindic ation
Ġconserv atives
Ġstrength s
Ġba it
Ġgem stones
Ġemp ires
Ġemp owered
Ġassault s
Ġpin ch
Ġpin point
Ġnand are
Ġnand alal
Ġ38 5
Ġ38 8
sp ace
icul ous
Ġ197 6
Ġ197 9
Ġdu o
Ġbail ed
Ġball ot
Ġball park
Ġhall uc
Ġ37 5
Ġ37 7
Ġdry ing
Ġscr ub
Ġreflect ive
Ġoccur rences
Ġmark up
Ġmicro less
Ġhes itation
Ġgaz e
Ġdraw s
Ġcove ted
Ġflav oured
Ġnegoti ated
Ġgerm ans
Ġ49 9
Ġadvis er
Ġcro res
Ġcro oked
off icially
Ġpa ired
Ġsand als
Ġcommand os
Ġsar cas
Ġkil ogram
Ġmel od
Ġguard ing
Ġguard ed
Ġmotiv ational
Ġmotiv ating
Ġanal ogy
Ġgay an
Ġcompar isons
Ġentreprene urial
Ġretail er
Ġcos play
Ġcast le
Ġlugg ages
Ġdan cers
Ġ195 4
gi enic
Ġmemor ials
Ġsoo oo
Ġmode lling
Ġspl end
Ġmotorcy cl
bu ll
Ġath ul
Ġath ukorala
pay ing
Ġya pping
Ġrw p
Ġchand ras
Ġfirm ware
Ġsmooth ie
Ġshut tle
Ġcham ari
Ġtermin als
Ġtor ched
Ġdoub ling
Ġmail to
Ġpredict able
Ġfy p
Ġseek ers
Ġbehavi ours
Ġoccup ying
Ġgear ing
Ġmerch and
Ġvolunte ered
Ġcm c
Ġtransform ing
Ġ196 2
Ġ196 9
Ġequival ents
lig ious
Ġadjust able
Ġfert ility
Ġattor neys
Ġboost s
Ġsiri math
Ġsiri lal
Ġrot ating
Ġmyth ology
Ġdisrespect ed
Ġrt i
Ġburden ed
Ġnal anda
Ġaband oning
Ġnst ate
Ġtransf ered
Ġww w
Ġtwe aks
Ġsuspicious ly
Ġmd m
Ġexceed s
Ġ76 1
Ġescal ation
Ġfer r
Ġgig abit
Ġshitt ier
Ġbankrupt ed
Ġsom aratne
Ġsom alia
Ġlag s
Ġorganis er
Ġporn ography
Ġnoo o
Ġroot ing
po ll
you ng
cr isis
Ġune ven
Ġdisappear s
Ġkarun anayake
Ġtear ing
Ġii hs
Ġupset ting
Ġscan ning
Ġrecruit ments
Ġnse a
net ti
inform atics
Ġange les
Ġvit amins
Ġvit iligo
Ġnto day
Ġdhamm apada
Ġtutor ials
Ġaccomod ate
Ġadapt ation
Ġngo vernment
Ġsymbol ism
Ġtiss ue
Ġalign ment
Ġcolum ns
Ġquarant ined
Ġexerc ises
Ġpepper mint
Ġroof ing
Ġmaith ree
Ġelev ate
Ġeight een
Ġawa it
Ġoblig ation
Ġjayas undara
Ġkand alama
Ġmosquit os
Ġfasc ist
Ġprosec ute
Ġpatri arch
Ġkilomet er
Ġstorm s
Ġdepreci ating
urren cy
Ġcomprom ising
Ġdistract ions
Ġsamar akoon
Ġfulfill ment
Ġreh ab
Ġpassword s
Ġjul ia
Ġrecall ed
Ġeditor ial
Ġvictor ian
jo ining
Ġsid el
Ġncon s
Ġek ata
Ġstereoty pe
Ġner ds
Ġinterf ering
Ġintermedi ary
Ġperpet ual
Ġsubt otal
iar achchi
Ġkul asekara
Ġcarn ival
Ġcompetit iveness
Ġoverwhelming ly
Ġsap ugask
Ġmatt akkuliya
Ġrevol utions
arath ana
Ġhect ares
Ġcompreh end
Ġforecast ed
Ġspo il
Ġspo iler
Ġkoh om
Ġsubstant ially
Ġdemonstr ates
Ġdatab ases
Ġpit falls
Ġbroadcast ed
uff le
Ġbast ards
Ġenfor cing
Ġcell ular
dri ver
Ġmart in
Ġinsec urities
Ġwors en
Ġbandw agon
Ġinher it
Ġged ara
Ġged match
Ġincent iv
Ġglor ifying
Ġmisunder stand
Ġalar med
Ġdisregard ing
Ġsheer an
Ġblank et
Ġmassac red
Ġbloom ing
Ġfet ched
Ġdistinct ly
Ġtaboo s
Ġrepost ing
Ġconce aled
Ġleisure ly
Ġcb k
Ġgan ja
Ġweigh s
Ġalum inium
Ġscrap ed
Ġsubsid iary
Ġchronic les
Ġacceler ate
Ġsod ium
Ġbreach ed
Ġdhar ma
Ġaccompan ying
Ġcel erio
Ġphysi que
Ġphysi otherapist
Ġkb ps
Ġneat ly
Ġresid ue
Ġeru ption
Ġdisturb ances
Ġape ksha
Ġpond s
Ġnawal apitiya
Ġprest ige
Ġinterrupt ions
[...]
