<unk>	0
<s>	0
</s>	0
▁t	-0
▁a	-1
▁i	-2
▁s	-3
▁th	-4
re	-5
in	-6
▁w	-7
on	-8
er	-9
▁c	-10
▁the	-11
an	-12
▁m	-13
ou	-14
▁b	-15
▁f	-16
or	-17
at	-18
▁p	-19
▁h	-20
ing	-21
▁an	-22
en	-23
▁to	-24
▁l	-25
▁d	-26
es	-27
▁in	-28
ed	-29
▁n	-30
it	-31
al	-32
▁o	-33
om	-34
▁and	-35
ar	-36
▁g	-37
is	-38
ri	-39
▁e	-40
as	-41
ve	-42
▁re	-43
le	-44
▁of	-45
ic	-46
ion	-47
▁wh	-48
ly	-49
▁y	-50
ow	-51
ll	-52
st	-53
▁for	-54
▁be	-55
▁is	-56
ot	-57
▁u	-58
et	-59
ent	-60
▁it	-61
ay	-62
▁on	-63
▁you	-64
ank	-65
ac	-66
▁st	-67
ld	-68
ut	-69
▁we	-70
ver	-71
▁ha	-72
am	-73
▁he	-74
oo	-75
id	-76
se	-77
▁that	-78
▁k	-79
ro	-80
ith	-81
ce	-82
▁any	-83
ct	-84
▁sri	-85
▁this	-86
▁my	-87
▁or	-88
▁do	-89
out	-90
▁are	-91
ad	-92
▁with	-93
▁lank	-94
ke	-95
gh	-96
ol	-97
ch	-98
ation	-99
th	-100
ir	-101
ur	-102
one	-103
▁li	-104
▁j	-105
▁ne	-106
nt	-107
ould	-108
est	-109
▁as	-110
pp	-111
▁sh	-112
▁have	-113
ome	-114
▁1	-115
▁r	-116
im	-117
▁2	-118
▁se	-119
▁but	-120
▁so	-121
▁tr	-122
ter	-123
▁lanka	-124
▁me	-125
▁de	-126
▁fr	-127
▁v	-128
il	-129
op	-130
▁can	-131
▁ex	-132
ill	-133
▁con	-134
ate	-135
▁su	-136
▁not	-137
and	-138
▁from	-139
our	-140
▁what	-141
nd	-142
end	-143
▁com	-144
▁pl	-145
▁ab	-146
ust	-147
▁ch	-148
▁at	-149
ge	-150
king	-151
▁if	-152
ant	-153
ally	-154
ers	-155
▁al	-156
▁mo	-157
▁was	-158
ght	-159
ere	-160
▁some	-161
now	-162
ort	-163
ul	-164
▁they	-165
▁go	-166
▁pro	-167
▁like	-168
ment	-169
▁wor	-170
▁there	-171
▁bu	-172
ain	-173
ig	-174
ab	-175
▁get	-176
▁know	-177
▁how	-178
ci	-179
ist	-180
ood	-181
00	-182
el	-183
ies	-184
▁ad	-185
▁about	-186
ity	-187
are	-188
ess	-189
bo	-190
un	-191
pe	-192
▁would	-193
qu	-194
ount	-195
▁un	-196
em	-197
art	-198
▁col	-199
▁le	-200
▁am	-201
rou	-202
▁just	-203
▁us	-204
ard	-205
▁your	-206
▁lo	-207
▁all	-208
▁ac	-209
▁by	-210
▁pe	-211
very	-212
ice	-213
▁fe	-214
▁3	-215
ap	-216
ombo	-217
ff	-218
▁app	-219
▁has	-220
▁exp	-221
ine	-222
ind	-223
▁who	-224
▁will	-225
ions	-226
▁day	-227
ven	-228
ore	-229
os	-230
ack	-231
▁rec	-232
▁colombo	-233
us	-234
li	-235
ud	-236
▁ve	-237
▁peop	-238
ry	-239
▁people	-240
ake	-241
▁hi	-242
res	-243
▁tim	-244
ive	-245
▁out	-246
▁good	-247
▁want	-248
▁en	-249
ast	-250
▁anyone	-251
all	-252
▁loo	-253
pt	-254
▁sa	-255
ree	-256
▁up	-257
ear	-258
her	-259
▁im	-260
so	-261
▁comp	-262
▁don	-263
▁our	-264
ect	-265
▁one	-266
▁gu	-267
ag	-268
ans	-269
ck	-270
um	-271
▁plac	-272
ost	-273
ak	-274
ure	-275
▁time	-276
age	-277
▁qu	-278
▁no	-279
▁need	-280
▁te	-281
eri	-282
ase	-283
▁ag	-284
▁year	-285
▁di	-286
able	-287
▁new	-288
▁hel	-289
▁pri	-290
▁oth	-291
▁also	-292
▁help	-293
▁adv	-294
▁5	-295
ance	-296
ave	-297
ence	-298
▁int	-299
▁been	-300
▁4	-301
ight	-302
▁every	-303
ame	-304
▁cl	-305
▁man	-306
▁20	-307
port	-308
ia	-309
ich	-310
▁even	-311
▁their	-312
▁now	-313
▁thank	-314
ated	-315
▁here	-316
ning	-317
ach	-318
ys	-319
▁which	-320
ous	-321
ving	-322
ations	-323
▁when	-324
▁count	-325
ue	-326
▁off	-327
▁where	-328
▁thin	-329
▁does	-330
▁acc	-331
au	-332
▁vis	-333
▁them	-334
▁af	-335
round	-336
ong	-337
ip	-338
▁cont	-339
ber	-340
ide	-341
if	-342
▁should	-343
▁other	-344
▁sin	-345
▁more	-346
▁bec	-347
▁sl	-348
nder	-349
ass	-350
▁ar	-351
▁work	-352
ult	-353
▁sp	-354
▁looking	-355
ite	-356
▁stud	-357
▁mon	-358
▁under	-359
ie	-360
act	-361
▁ri	-362
▁after	-363
vers	-364
▁comm	-365
▁lankan	-366
▁had	-367
▁these	-368
ail	-369
ary	-370
▁did	-371
▁really	-372
hing	-373
ble	-374
ities	-375
▁pre	-376
▁around	-377
▁res	-378
ause	-379
dit	-380
omm	-381
de	-382
▁experi	-383
iv	-384
▁uni	-385
ering	-386
▁mu	-387
▁plan	-388
▁trave	-389
ks	-390
▁over	-391
aw	-392
▁got	-393
ces	-394
▁see	-395
gg	-396
▁only	-397
▁pol	-398
ish	-399
▁pr	-400
▁cur	-401
▁fri	-402
▁could	-403
▁act	-404
▁co	-405
ya	-406
ting	-407
ick	-408
ommend	-409
ays	-410
▁part	-411
orm	-412
▁jo	-413
▁tri	-414
▁much	-415
▁recommend	-416
▁br	-417
▁country	-418
▁thing	-419
▁ph	-420
▁inter	-421
lease	-422
▁spe	-423
▁best	-424
▁think	-425
ile	-426
ign	-427
ying	-428
fe	-429
▁because	-430
ical	-431
▁sc	-432
ond	-433
▁ind	-434
▁back	-435
▁please	-436
▁bus	-437
▁were	-438
ala	-439
og	-440
▁bet	-441
▁find	-442
▁dis	-443
▁start	-444
omet	-445
▁mar	-446
▁guys	-447
iz	-448
▁ro	-449
ang	-450
▁6	-451
▁month	-452
ub	-453
▁visit	-454
▁place	-455
▁eng	-456
▁pay	-457
▁friend	-458
▁somet	-459
▁loc	-460
ath	-461
▁cre	-462
▁most	-463
▁inc	-464
▁too	-465
▁thanks	-466
ose	-467
▁why	-468
day	-469
▁gr	-470
ee	-471
▁fir	-472
▁per	-473
▁op	-474
pl	-475
▁curre	-476
▁her	-477
▁going	-478
▁feel	-479
erv	-480
▁thou	-481
▁sch	-482
ool	-483
▁first	-484
▁days	-485
ru	-486
▁travel	-487
ily	-488
lla	-489
▁inf	-490
▁way	-491
ress	-492
▁she	-493
ens	-494
av	-495
lect	-496
▁years	-497
ax	-498
▁take	-499
▁account	-500
▁pers	-501
▁202	-502
▁rel	-503
▁7	-504
iss	-505
▁red	-506
own	-507
▁dec	-508
▁wee	-509
stand	-510
bs	-511
▁min	-512
▁buy	-513
▁well	-514
▁make	-515
▁post	-516
▁che	-517
▁something	-518
▁deg	-519
▁his	-520
▁car	-521
▁8	-522
▁current	-523
▁univers	-524
led	-525
▁understand	-526
▁very	-527
▁still	-528
▁fu	-529
ire	-530
▁ed	-531
▁into	-532
▁everyone	-533
▁high	-534
▁than	-535
reci	-536
als	-537
▁advice	-538
▁then	-539
other	-540
fore	-541
▁experience	-542
▁cons	-543
▁0	-544
▁intern	-545
ents	-546
▁reg	-547
ace	-548
▁places	-549
ft	-550
▁gover	-551
▁world	-552
▁appreci	-553
od	-554
▁since	-555
ked	-556
▁person	-557
▁few	-558
▁dri	-559
ful	-560
▁tw	-561
ational	-562
ments	-563
▁fo	-564
▁govern	-565
▁someone	-566
ade	-567
▁say	-568
▁many	-569
thing	-570
line	-571
▁may	-572
reat	-573
000	-574
▁ma	-575
▁kand	-576
▁em	-577
▁gen	-578
ild	-579
nect	-580
cial	-581
▁inv	-582
ggest	-583
▁suggest	-584
xt	-585
vel	-586
oney	-587
pport	-588
▁air	-589
▁kandy	-590
lic	-591
▁commun	-592
ors	-593
▁use	-594
▁happ	-595
▁tour	-596
atch	-597
▁degree	-598
ound	-599
rough	-600
▁before	-601
int	-602
▁10	-603
▁love	-604
ually	-605
▁through	-606
▁government	-607
▁connect	-608
▁trans	-609
▁med	-610
▁9	-611
▁fin	-612
ra	-613
▁fam	-614
▁quest	-615
▁bas	-616
▁pos	-617
▁money	-618
ert	-619
▁let	-620
uw	-621
ple	-622
▁said	-623
▁seem	-624
▁iss	-625
▁call	-626
lf	-627
▁being	-628
▁po	-629
▁bank	-630
pect	-631
▁serv	-632
si	-633
▁ide	-634
▁planning	-635
▁inst	-636
ara	-637
▁sm	-638
▁train	-639
▁better	-640
▁school	-641
wn	-642
▁thought	-643
▁recent	-644
▁its	-645
▁et	-646
get	-647
na	-648
▁same	-649
▁right	-650
▁doing	-651
oth	-652
▁while	-653
▁lot	-654
ating	-655
con	-656
▁diff	-657
▁long	-658
▁things	-659
ord	-660
du	-661
▁sinh	-662
▁food	-663
ved	-664
ange	-665
▁bl	-666
▁sit	-667
▁reddit	-668
▁opt	-669
▁stay	-670
▁university	-671
▁compan	-672
▁rem	-673
▁again	-674
▁life	-675
▁lk	-676
▁down	-677
▁contin	-678
▁sec	-679
ident	-680
ps	-681
▁him	-682
hip	-683
▁att	-684
▁pres	-685
▁tax	-686
▁online	-687
▁two	-688
cess	-689
▁sim	-690
▁boo	-691
ory	-692
▁ear	-693
▁ins	-694
ial	-695
▁local	-696
ics	-697
▁av	-698
▁par	-699
alle	-700
▁ella	-701
per	-702
read	-703
▁getting	-704
te	-705
▁sub	-706
uring	-707
▁hey	-708
▁advance	-709
llow	-710
itt	-711
▁those	-712
▁pass	-713
▁aw	-714
arent	-715
ledge	-716
▁old	-717
▁cr	-718
▁bo	-719
be	-720
▁end	-721
ket	-722
▁bud	-723
ates	-724
▁night	-725
ered	-726
▁fore	-727
▁used	-728
▁priv	-729
gr	-730
▁ll	-731
▁etc	-732
▁kind	-733
ian	-734
ject	-735
▁trip	-736
ise	-737
ced	-738
we	-739
▁recommendations	-740
▁cost	-741
▁des	-742
lank	-743
▁own	-744
▁sur	-745
▁week	-746
ne	-747
▁share	-748
ason	-749
▁hop	-750
▁engine	-751
▁job	-752
▁without	-753
iness	-754
les	-755
▁last	-756
▁family	-757
ious	-758
iew	-759
▁ent	-760
▁lear	-761
▁home	-762
red	-763
▁trying	-764
ual	-765
ater	-766
▁el	-767
ough	-768
▁real	-769
▁hot	-770
▁friends	-771
▁next	-772
▁wond	-773
ower	-774
▁create	-775
lling	-776
▁anything	-777
▁recently	-778
▁differe	-779
▁invest	-780
fer	-781
▁care	-782
▁srilank	-783
▁agree	-784
▁beach	-785
uing	-786
▁tam	-787
▁wr	-788
▁currently	-789
ific	-790
▁great	-791
▁give	-792
▁support	-793
▁during	-794
erest	-795
▁elect	-796
ern	-797
ition	-798
me	-799
▁stu	-800
▁pub	-801
▁ra	-802
▁tamil	-803
▁30	-804
ward	-805
▁business	-806
▁interest	-807
▁sal	-808
▁000	-809
▁private	-810
▁dep	-811
ug	-812
ues	-813
▁es	-814
ically	-815
▁rep	-816
▁happen	-817
air	-818
▁such	-819
wh	-820
▁cour	-821
▁another	-822
▁pur	-823
▁prov	-824
▁import	-825
▁read	-826
▁sy	-827
▁dr	-828
ph	-829
uc	-830
lo	-831
▁bad	-832
▁char	-833
▁lkr	-834
ama	-835
▁working	-836
▁rest	-837
▁gener	-838
▁bit	-839
ather	-840
▁tal	-841
duct	-842
▁sinhala	-843
▁econ	-844
▁found	-845
▁possi	-846
cy	-847
ss	-848
know	-849
▁hand	-850
▁exam	-851
ms	-852
▁communities	-853
arch	-854
▁15	-855
▁gir	-856
▁19	-857
▁ev	-858
▁kee	-859
lish	-860
▁inform	-861
▁done	-862
▁galle	-863
▁consid	-864
▁hell	-865
▁didn	-866
▁econom	-867
▁price	-868
▁card	-869
urn	-870
▁sure	-871
▁using	-872
▁cle	-873
▁made	-874
▁sout	-875
▁parent	-876
▁open	-877
ways	-878
▁show	-879
▁follow	-880
▁suggestions	-881
▁check	-882
▁free	-883
ever	-884
▁never	-885
▁ter	-886
▁today	-887
▁come	-888
rect	-889
▁cu	-890
▁ext	-891
▁acknow	-892
aff	-893
▁conf	-894
▁public	-895
▁might	-896
▁experien	-897
▁sol	-898
olog	-899
▁both	-900
▁foreign	-901
▁12	-902
▁actually	-903
▁market	-904
▁police	-905
ata	-906
ited	-907
▁main	-908
▁situ	-909
▁cult	-910
▁acknowledge	-911
▁comple	-912
▁disc	-913
▁qual	-914
hic	-915
▁appreciate	-916
self	-917
▁add	-918
▁continuing	-919
▁imp	-920
▁service	-921
ism	-922
cially	-923
▁ass	-924
▁leg	-925
▁months	-926
▁ord	-927
▁expl	-928
▁reason	-929
▁ment	-930
▁hotel	-931
▁tourist	-932
ital	-933
▁polit	-934
amp	-935
▁area	-936
▁near	-937
▁ap	-938
▁cou	-939
▁proble	-940
ices	-941
▁parents	-942
▁num	-943
▁aff	-944
oy	-945
▁company	-946
apt	-947
ric	-948
ready	-949
▁already	-950
ouse	-951
ty	-952
▁hear	-953
▁wanted	-954
▁educ	-955
▁pack	-956
▁cor	-957
▁mat	-958
▁play	-959
▁class	-960
▁else	-961
▁thinking	-962
uk	-963
road	-964
aking	-965
ative	-966
▁question	-967
iri	-968
▁requ	-969
▁different	-970
ale	-971
▁seems	-972
▁south	-973
▁x	-974
▁sk	-975
ets	-976
▁ce	-977
▁fl	-978
▁doesn	-979
ries	-980
▁power	-981
▁mor	-982
▁tech	-983
▁hard	-984
▁vehic	-985
▁president	-986
▁hello	-987
▁wondering	-988
▁hour	-989
▁sw	-990
ister	-991
▁live	-992
▁thoughts	-993
▁situation	-994
▁watch	-995
▁far	-996
▁keep	-997
▁grou	-998
▁webs	-999
▁worth	-1000
ah	-1001
velop	-1002
▁national	-1003
cept	-1004
▁phone	-1005
▁having	-1006
▁small	-1007
▁gi	-1008
alth	-1009
ts	-1010
ash	-1011
land	-1012
▁possible	-1013
▁id	-1014
▁idea	-1015
▁heard	-1016
▁big	-1017
▁bi	-1018
▁top	-1019
▁learn	-1020
▁sci	-1021
▁went	-1022
▁always	-1023
ages	-1024
▁offic	-1025
▁war	-1026
▁visa	-1027
ana	-1028
iya	-1029
▁product	-1030
▁develop	-1031
▁students	-1032
ix	-1033
▁ru	-1034
▁girl	-1035
▁stre	-1036
oc	-1037
▁told	-1038
ock	-1039
▁rs	-1040
▁look	-1041
▁srilanka	-1042
▁india	-1043
▁cust	-1044
▁news	-1045
ote	-1046
▁house	-1047
▁english	-1048
▁lankans	-1049
uth	-1050
▁hon	-1051
▁soft	-1052
▁ret	-1053
▁cert	-1054
▁engineering	-1055
form	-1056
ware	-1057
▁wom	-1058
▁maybe	-1059
ular	-1060
ling	-1061
▁tried	-1062
▁det	-1063
ably	-1064
▁seen	-1065
▁point	-1066
▁however	-1067
▁options	-1068
▁cri	-1069
ween	-1070
▁mir	-1071
▁cent	-1072
▁between	-1073
▁information	-1074
ilar	-1075
ute	-1076
▁land	-1077
▁fac	-1078
where	-1079
▁budget	-1080
▁avail	-1081
▁try	-1082
ility	-1083
▁data	-1084
▁appreciated	-1085
ves	-1086
lud	-1087
stem	-1088
▁neg	-1089
ral	-1090
▁custom	-1091
uwa	-1092
ines	-1093
▁asked	-1094
▁prices	-1095
akes	-1096
ari	-1097
ars	-1098
▁z	-1099
ner	-1100
▁eas	-1101
ants	-1102
ether	-1103
▁vide	-1104
▁similar	-1105
▁due	-1106
▁system	-1107
▁able	-1108
mb	-1109
▁issue	-1110
▁tip	-1111
▁spend	-1112
▁mod	-1113
▁full	-1114
▁shop	-1115
▁level	-1116
▁saw	-1117
▁ty	-1118
light	-1119
its	-1120
ional	-1121
▁11	-1122
▁lapt	-1123
▁laptop	-1124
▁opin	-1125
▁state	-1126
▁hope	-1127
▁child	-1128
ense	-1129
▁started	-1130
▁ask	-1131
▁student	-1132
ings	-1133
man	-1134
▁val	-1135
▁25	-1136
ict	-1137
ember	-1138
issa	-1139
▁science	-1140
gram	-1141
▁abroad	-1142
illion	-1143
▁set	-1144
▁mean	-1145
▁run	-1146
▁stuff	-1147
▁came	-1148
▁short	-1149
▁tell	-1150
com	-1151
ither	-1152
▁international	-1153
▁face	-1154
▁rout	-1155
▁build	-1156
▁ho	-1157
▁road	-1158
▁enough	-1159
▁kid	-1160
ead	-1161
▁201	-1162
▁met	-1163
ittle	-1164
▁espe	-1165
▁available	-1166
▁especially	-1167
att	-1168
▁process	-1169
ied	-1170
▁says	-1171
▁number	-1172
▁prot	-1173
▁mus	-1174
▁questions	-1175
▁whether	-1176
ep	-1177
▁education	-1178
▁fut	-1179
▁includ	-1180
▁little	-1181
mber	-1182
▁sig	-1183
▁social	-1184
▁airport	-1185
view	-1186
ately	-1187
▁head	-1188
▁mom	-1189
▁countries	-1190
▁weeks	-1191
▁vi	-1192
▁software	-1193
▁raj	-1194
▁list	-1195
▁ago	-1196
▁lead	-1197
▁prof	-1198
▁conc	-1199
▁gam	-1200
▁str	-1201
▁issues	-1202
▁tips	-1203
▁quality	-1204
▁expect	-1205
▁called	-1206
ura	-1207
▁tick	-1208
aks	-1209
▁sing	-1210
▁direct	-1211
▁arri	-1212
▁guy	-1213
▁health	-1214
▁test	-1215
▁dist	-1216
▁mind	-1217
▁appro	-1218
▁rece	-1219
▁future	-1220
▁tem	-1221
▁either	-1222
▁mirissa	-1223
▁speci	-1224
▁saying	-1225
▁living	-1226
ised	-1227
ives	-1228
▁law	-1229
▁wel	-1230
▁program	-1231
▁100	-1232
▁based	-1233
az	-1234
▁dam	-1235
▁website	-1236
▁put	-1237
▁less	-1238
▁won	-1239
▁name	-1240
▁visiting	-1241
ters	-1242
▁pick	-1243
▁nuw	-1244
▁against	-1245
ized	-1246
▁mid	-1247
▁project	-1248
▁regard	-1249
▁personal	-1250
▁pret	-1251
iting	-1252
▁experiences	-1253
▁past	-1254
▁result	-1255
ared	-1256
▁rese	-1257
up	-1258
▁ca	-1259
ng	-1260
ures	-1261
iriya	-1262
▁phys	-1263
▁allow	-1264
osed	-1265
▁resp	-1266
ons	-1267
▁times	-1268
▁ref	-1269
▁problem	-1270
▁wa	-1271
less	-1272
cket	-1273
ctor	-1274
ross	-1275
ten	-1276
wor	-1277
bt	-1278
adu	-1279
▁tea	-1280
▁honest	-1281
▁apply	-1282
▁specif	-1283
▁prefer	-1284
▁sign	-1285
▁report	-1286
ook	-1287
▁form	-1288
▁change	-1289
▁ke	-1290
▁brand	-1291
ink	-1292
ided	-1293
▁eli	-1294
▁00	-1295
ural	-1296
ove	-1297
▁tuk	-1298
▁stop	-1299
▁group	-1300
min	-1301
used	-1302
app	-1303
▁water	-1304
▁others	-1305
ution	-1306
▁port	-1307
▁study	-1308
▁nuwara	-1309
▁isn	-1310
way	-1311
▁rent	-1312
▁research	-1313
lie	-1314
▁beh	-1315
▁2025	-1316
ield	-1317
▁q	-1318
▁second	-1319
▁culture	-1320
▁amount	-1321
▁interested	-1322
▁join	-1323
med	-1324
ety	-1325
▁hours	-1326
▁deli	-1327
▁fre	-1328
▁asking	-1329
▁couple	-1330
▁general	-1331
▁safe	-1332
ize	-1333
▁bre	-1334
▁clear	-1335
ats	-1336
▁meet	-1337
▁making	-1338
▁vehicle	-1339
fort	-1340
▁scam	-1341
ament	-1342
▁everything	-1343
ots	-1344
▁yet	-1345
▁sigiriya	-1346
▁away	-1347
▁mention	-1348
▁curi	-1349
▁norm	-1350
▁eliya	-1351
lim	-1352
ese	-1353
▁16	-1354
▁18	-1355
▁eff	-1356
▁ran	-1357
pping	-1358
▁expens	-1359
▁least	-1360
▁party	-1361
dy	-1362
cri	-1363
▁pretty	-1364
pportun	-1365
▁internet	-1366
vious	-1367
▁coming	-1368
▁opportun	-1369
igr	-1370
ired	-1371
▁minister	-1372
ene	-1373
▁mob	-1374
ology	-1375
ib	-1376
▁maj	-1377
▁option	-1378
▁whole	-1379
▁ps	-1380
▁within	-1381
▁14	-1382
▁sell	-1383
ott	-1384
uss	-1385
▁50	-1386
▁def	-1387
▁saf	-1388
▁book	-1389
▁mess	-1390
▁complete	-1391
▁goo	-1392
▁dial	-1393
▁manage	-1394
row	-1395
aut	-1396
gle	-1397
osp	-1398
▁bring	-1399
▁slt	-1400
▁stand	-1401
▁supp	-1402
▁salary	-1403
aur	-1404
▁unt	-1405
▁deal	-1406
▁side	-1407
▁purch	-1408
ails	-1409
ried	-1410
▁media	-1411
▁related	-1412
tern	-1413
▁move	-1414
▁left	-1415
▁field	-1416
▁course	-1417
ha	-1418
most	-1419
▁island	-1420
▁travelling	-1421
▁restaur	-1422
aid	-1423
▁men	-1424
▁belie	-1425
▁though	-1426
cu	-1427
▁view	-1428
▁each	-1429
▁hosp	-1430
▁fun	-1431
▁cut	-1432
▁low	-1433
▁prom	-1434
▁video	-1435
▁contact	-1436
▁women	-1437
sc	-1438
▁uk	-1439
▁major	-1440
▁hist	-1441
▁quite	-1442
▁driver	-1443
▁fact	-1444
uly	-1445
iner	-1446
▁send	-1447
▁rajap	-1448
ik	-1449
▁dem	-1450
▁order	-1451
▁million	-1452
▁curious	-1453
▁ok	-1454
rict	-1455
▁techn	-1456
▁miss	-1457
▁must	-1458
▁myself	-1459
sw	-1460
pped	-1461
▁nothing	-1462
▁wrong	-1463
▁13	-1464
▁beaut	-1465
▁edit	-1466
▁stru	-1467
▁proper	-1468
▁instead	-1469
▁companies	-1470
▁city	-1471
▁dialog	-1472
▁morning	-1473
he	-1474
ists	-1475
▁given	-1476
▁transport	-1477
▁considering	-1478
gan	-1479
nce	-1480
▁cheap	-1481
▁almost	-1482
▁haven	-1483
▁charg	-1484
▁ever	-1485
▁once	-1486
▁store	-1487
▁lu	-1488
▁itiner	-1489
iced	-1490
▁200	-1491
▁answ	-1492
▁hu	-1493
▁ser	-1494
▁tit	-1495
ploy	-1496
▁cricket	-1497
▁until	-1498
▁auth	-1499
▁dont	-1500
▁teach	-1501
▁seri	-1502
▁activ	-1503
ness	-1504
▁mal	-1505
▁dro	-1506
une	-1507
▁24	-1508
▁upd	-1509
▁aust	-1510
▁google	-1511
▁negombo	-1512
▁team	-1513
eng	-1514
▁itinerary	-1515
ills	-1516
▁taking	-1517
▁happened	-1518
▁tre	-1519
▁took	-1520
▁speed	-1521
ted	-1522
▁finan	-1523
▁buying	-1524
▁super	-1525
▁rajapaks	-1526
▁wif	-1527
den	-1528
anna	-1529
els	-1530
▁serious	-1531
wards	-1532
▁case	-1533
▁early	-1534
▁career	-1535
▁pm	-1536
▁close	-1537
ased	-1538
gin	-1539
ulla	-1540
aim	-1541
▁indust	-1542
▁economic	-1543
cc	-1544
▁services	-1545
▁austral	-1546
ota	-1547
cing	-1548
▁choo	-1549
itch	-1550
▁bro	-1551
▁mil	-1552
ories	-1553
▁leave	-1554
▁bel	-1555
▁budd	-1556
▁community	-1557
▁camp	-1558
▁ns	-1559
body	-1560
▁ones	-1561
▁soon	-1562
▁incre	-1563
▁across	-1564
oid	-1565
ency	-1566
▁est	-1567
▁math	-1568
▁afford	-1569
ici	-1570
▁jan	-1571
▁net	-1572
▁pop	-1573
▁following	-1574
▁ann	-1575
▁reli	-1576
▁offer	-1577
▁pract	-1578
▁young	-1579
▁instit	-1580
ought	-1581
ones	-1582
▁package	-1583
▁mas	-1584
urity	-1585
▁phot	-1586
▁turn	-1587
▁indian	-1588
ird	-1589
▁nice	-1590
▁22	-1591
ship	-1592
▁drive	-1593
iter	-1594
▁political	-1595
▁dig	-1596
▁talk	-1597
▁kids	-1598
ann	-1599
ding	-1600
affna	-1601
yl	-1602
▁west	-1603
▁concern	-1604
side	-1605
▁path	-1606
▁title	-1607
▁reach	-1608
▁jaffna	-1609
▁products	-1610
▁chang	-1611
▁higher	-1612
ems	-1613
▁17	-1614
▁ob	-1615
▁regarding	-1616
▁art	-1617
▁noticed	-1618
▁normal	-1619
▁special	-1620
▁remember	-1621
▁prop	-1622
▁sour	-1623
▁later	-1624
▁2024	-1625
▁depart	-1626
▁non	-1627
br	-1628
▁prob	-1629
liament	-1630
▁employ	-1631
▁certific	-1632
ren	-1633
▁rupe	-1634
▁knows	-1635
▁passport	-1636
▁cap	-1637
▁comput	-1638
▁select	-1639
▁gre	-1640
▁ls	-1641
▁mov	-1642
▁stream	-1643
▁trust	-1644
▁results	-1645
▁starting	-1646
▁wal	-1647
▁areas	-1648
▁three	-1649
▁flight	-1650
▁details	-1651
▁stock	-1652
▁parliament	-1653
▁nat	-1654
aya	-1655
iful	-1656
▁wanna	-1657
▁accept	-1658
▁ele	-1659
▁lic	-1660
▁hospital	-1661
rs	-1662
▁insight	-1663
▁beautiful	-1664
▁nor	-1665
▁grow	-1666
▁return	-1667
▁21	-1668
▁const	-1669
▁legal	-1670
▁discuss	-1671
▁opinion	-1672
aken	-1673
ont	-1674
load	-1675
ption	-1676
▁da	-1677
▁event	-1678
▁polic	-1679
▁electric	-1680
▁lim	-1681
ction	-1682
▁couldn	-1683
▁income	-1684
▁eat	-1685
▁hold	-1686
ains	-1687
▁fund	-1688
▁decent	-1689
▁office	-1690
aring	-1691
▁lost	-1692
▁believe	-1693
▁fail	-1694
▁lang	-1695
▁usually	-1696
▁tot	-1697
▁room	-1698
ision	-1699
▁protest	-1700
▁genu	-1701
▁claim	-1702
▁manag	-1703
▁organ	-1704
▁universities	-1705
▁usd	-1706
▁paid	-1707
▁become	-1708
▁economy	-1709
▁foc	-1710
▁uber	-1711
▁speak	-1712
▁basically	-1713
▁aug	-1714
▁genuine	-1715
erg	-1716
val	-1717
▁avoid	-1718
▁provide	-1719
▁subject	-1720
▁enj	-1721
▁jobs	-1722
▁langu	-1723
▁bought	-1724
▁reliable	-1725
▁abs	-1726
▁sho	-1727
▁fil	-1728
▁mot	-1729
unch	-1730
ording	-1731
▁story	-1732
▁traveling	-1733
una	-1734
▁profess	-1735
utes	-1736
▁driving	-1737
▁including	-1738
▁honestly	-1739
oint	-1740
▁expensive	-1741
▁surf	-1742
▁true	-1743
by	-1744
▁fix	-1745
▁match	-1746
co	-1747
▁cy	-1748
▁sli	-1749
▁search	-1750
ds	-1751
▁ranil	-1752
book	-1753
▁hoping	-1754
▁studying	-1755
istry	-1756
▁park	-1757
▁coast	-1758
▁respon	-1759
ior	-1760
▁exch	-1761
▁probably	-1762
ible	-1763
ming	-1764
▁nam	-1765
pr	-1766
▁trad	-1767
aining	-1768
▁23	-1769
▁makes	-1770
not	-1771
▁cit	-1772
▁wed	-1773
▁hal	-1774
▁pet	-1775
▁ideas	-1776
▁forward	-1777
▁history	-1778
▁comes	-1779
▁industry	-1780
leg	-1781
▁sometim	-1782
▁fine	-1783
▁plat	-1784
▁gradu	-1785
asing	-1786
▁medical	-1787
mor	-1788
▁via	-1789
▁compl	-1790
▁australia	-1791
ses	-1792
▁earn	-1793
▁mother	-1794
oice	-1795
▁exc	-1796
▁girls	-1797
ier	-1798
▁infl	-1799
▁above	-1800
▁comments	-1801
ili	-1802
▁credit	-1803
▁strugg	-1804
▁transfer	-1805
ok	-1806
rest	-1807
ush	-1808
▁hum	-1809
▁self	-1810
▁late	-1811
dition	-1812
▁aware	-1813
▁needs	-1814
▁liter	-1815
▁cris	-1816
▁inde	-1817
▁design	-1818
▁along	-1819
▁rate	-1820
ows	-1821
ester	-1822
▁docu	-1823
verage	-1824
▁medic	-1825
▁relig	-1826
▁whats	-1827
▁date	-1828
▁jour	-1829
▁contro	-1830
▁tickets	-1831
▁security	-1832
era	-1833
▁works	-1834
▁charge	-1835
▁repl	-1836
▁treat	-1837
▁specific	-1838
ada	-1839
▁ur	-1840
▁citiz	-1841
▁needed	-1842
▁ste	-1843
▁according	-1844
ability	-1845
▁common	-1846
go	-1847
ived	-1848
▁har	-1849
ising	-1850
▁impro	-1851
▁often	-1852
ugam	-1853
▁suc	-1854
▁posts	-1855
▁seeing	-1856
▁weather	-1857
fully	-1858
▁partic	-1859
bal	-1860
▁type	-1861
▁cause	-1862
▁schools	-1863
▁opportunities	-1864
▁pot	-1865
▁paying	-1866
▁decided	-1867
▁explore	-1868
▁platform	-1869
▁taken	-1870
ai	-1871
▁cash	-1872
▁single	-1873
▁ai	-1874
▁sn	-1875
▁age	-1876
▁vot	-1877
▁buddh	-1878
▁bay	-1879
▁access	-1880
▁matter	-1881
▁sinhal	-1882
▁studies	-1883
ina	-1884
▁dev	-1885
▁payment	-1886
sel	-1887
▁40	-1888
▁taxes	-1889
▁election	-1890
▁development	-1891
▁sat	-1892
▁vac	-1893
▁shit	-1894
▁begin	-1895
▁doctor	-1896
▁learning	-1897
ret	-1898
▁ceyl	-1899
▁daily	-1900
▁mobile	-1901
▁children	-1902
▁computer	-1903
▁enjoy	-1904
▁sus	-1905
ror	-1906
igin	-1907
cture	-1908
▁arugam	-1909
▁mostly	-1910
ify	-1911
▁tourists	-1912
▁knowledge	-1913
▁trin	-1914
▁clean	-1915
▁shops	-1916
▁exchange	-1917
▁pap	-1918
apura	-1919
▁sinhalese	-1920
▁lar	-1921
▁game	-1922
cle	-1923
ery	-1924
▁ah	-1925
▁cal	-1926
▁dece	-1927
▁origin	-1928
▁relations	-1929
ream	-1930
ther	-1931
▁crisis	-1932
▁comment	-1933
▁talking	-1934
▁bri	-1935
▁amaz	-1936
▁term	-1937
▁yala	-1938
▁fur	-1939
▁outside	-1940
▁station	-1941
ium	-1942
ney	-1943
▁bal	-1944
▁looks	-1945
igama	-1946
▁feed	-1947
ides	-1948
▁club	-1949
▁break	-1950
▁eleph	-1951
▁music	-1952
▁na	-1953
▁peri	-1954
▁official	-1955
ract	-1956
▁author	-1957
▁sometimes	-1958
orn	-1959
▁mult	-1960
▁ceylon	-1961
ances	-1962
▁fair	-1963
▁feels	-1964
▁rajapaksa	-1965
▁site	-1966
▁huge	-1967
▁wife	-1968
▁applic	-1969
come	-1970
▁cannot	-1971
▁period	-1972
▁staying	-1973
▁sort	-1974
▁apart	-1975
▁sever	-1976
ude	-1977
▁npp	-1978
▁sam	-1979
itive	-1980
▁happy	-1981
ime	-1982
back	-1983
▁fuel	-1984
▁july	-1985
▁further	-1986
▁language	-1987
gs	-1988
▁yes	-1989
ained	-1990
illed	-1991
▁26	-1992
▁helpful	-1993
▁important	-1994
▁fall	-1995
▁entire	-1996
▁eu	-1997
lled	-1998
▁sent	-1999
▁route	-2000
▁mah	-2001
▁colle	-2002
▁sound	-2003
▁typ	-2004
▁init	-2005
▁rice	-2006
ential	-2007
▁december	-2008
gb	-2009
ma	-2010
work	-2011
▁towards	-2012
▁internship	-2013
dle	-2014
▁fig	-2015
50	-2016
200	-2017
acy	-2018
ane	-2019
hi	-2020
ites	-2021
ially	-2022
▁fort	-2023
ission	-2024
▁several	-2025
▁financial	-2026
▁checked	-2027
cel	-2028
▁equ	-2029
▁review	-2030
por	-2031
ung	-2032
▁oct	-2033
▁bill	-2034
▁info	-2035
▁oper	-2036
▁choose	-2037
▁glo	-2038
▁okay	-2039
▁august	-2040
▁received	-2041
owd	-2042
▁success	-2043
▁consider	-2044
ctors	-2045
▁gone	-2046
▁problems	-2047
▁nights	-2048
▁opinions	-2049
▁toget	-2050
ination	-2051
▁tourism	-2052
▁dad	-2053
▁sen	-2054
▁sun	-2055
▁aren	-2056
ym	-2057
oon	-2058
▁damb	-2059
▁extra	-2060
▁together	-2061
▁connection	-2062
rist	-2063
▁board	-2064
▁sliit	-2065
▁locals	-2066
▁certificate	-2067
ron	-2068
▁desp	-2069
▁friendly	-2070
▁management	-2071
sing	-2072
▁range	-2073
▁relationship	-2074
▁ig	-2075
▁half	-2076
ril	-2077
▁imm	-2078
icult	-2079
▁happening	-2080
▁mentioned	-2081
ases	-2082
▁cam	-2083
▁gon	-2084
▁tia	-2085
▁switch	-2086
▁digital	-2087
▁somewhere	-2088
▁behind	-2089
▁previous	-2090
▁host	-2091
▁june	-2092
▁rather	-2093
▁ride	-2094
▁stat	-2095
▁exact	-2096
▁certain	-2097
▁request	-2098
new	-2099
▁sept	-2100
▁arrest	-2101
▁temple	-2102
▁difficult	-2103
cs	-2104
ivid	-2105
▁cop	-2106
▁lin	-2107
▁moment	-2108
agg	-2109
▁dou	-2110
▁items	-2111
elt	-2112
que	-2113
▁civ	-2114
▁drop	-2115
▁invol	-2116
▁require	-2117
▁physical	-2118
ych	-2119
▁bat	-2120
utions	-2121
▁costs	-2122
▁light	-2123
▁spots	-2124
▁beaches	-2125
▁gov	-2126
▁license	-2127
▁completely	-2128
ned	-2129
ogn	-2130
oring	-2131
▁total	-2132
▁attack	-2133
▁activities	-2134
▁rid	-2135
▁fast	-2136
morrow	-2137
▁buses	-2138
▁hotels	-2139
▁individ	-2140
▁weligama	-2141
▁strong	-2142
▁despite	-2143
▁purchase	-2144
ho	-2145
▁fav	-2146
▁pat	-2147
▁mass	-2148
▁migr	-2149
▁compet	-2150
▁continue	-2151
istr	-2152
▁500	-2153
▁cra	-2154
▁fly	-2155
▁rele	-2156
▁april	-2157
▁commer	-2158
▁middle	-2159
ades	-2160
▁fem	-2161
▁respect	-2162
▁dambulla	-2163
▁tomorrow	-2164
▁interview	-2165
▁hit	-2166
▁wait	-2167
▁focus	-2168
▁example	-2169
▁lea	-2170
▁recogn	-2171
▁delivery	-2172
▁gl	-2173
▁np	-2174
▁effect	-2175
▁corru	-2176
▁sport	-2177
▁events	-2178
▁update	-2179
▁sex	-2180
▁gave	-2181
▁below	-2182
▁final	-2183
▁plans	-2184
ark	-2185
▁lt	-2186
▁win	-2187
▁prem	-2188
▁rain	-2189
▁gonna	-2190
▁value	-2191
▁insights	-2192
reme	-2193
▁ris	-2194
▁chem	-2195
▁prep	-2196
▁vehicles	-2197
kes	-2198
vert	-2199
▁town	-2200
▁insur	-2201
pend	-2202
▁ticket	-2203
rd	-2204
nam	-2205
▁bir	-2206
▁dest	-2207
▁altern	-2208
my	-2209
ention	-2210
▁court	-2211
▁guess	-2212
▁felt	-2213
▁memb	-2214
▁address	-2215
▁greatly	-2216
▁wasn	-2217
▁north	-2218
▁psych	-2219
▁rupees	-2220
▁collect	-2221
▁fi	-2222
ified	-2223
▁doll	-2224
▁means	-2225
▁restaurants	-2226
▁bene	-2227
▁euro	-2228
▁peak	-2229
esterday	-2230
▁finally	-2231
▁members	-2232
pm	-2233
vid	-2234
▁din	-2235
▁hair	-2236
ending	-2237
▁affect	-2238
adh	-2239
▁nt	-2240
uary	-2241
olute	-2242
▁games	-2243
▁comfort	-2244
▁opp	-2245
▁purs	-2246
▁correct	-2247
vir	-2248
awat	-2249
▁pan	-2250
▁absolute	-2251
▁yesterday	-2252
▁investment	-2253
rib	-2254
▁28	-2255
▁hy	-2256
ured	-2257
▁bar	-2258
atives	-2259
▁quick	-2260
▁confir	-2261
▁cultural	-2262
▁september	-2263
kk	-2264
▁foot	-2265
▁benef	-2266
▁china	-2267
▁white	-2268
▁compared	-2269
ued	-2270
▁note	-2271
ncy	-2272
▁feb	-2273
riend	-2274
▁goes	-2275
▁experienced	-2276
ext	-2277
▁cars	-2278
▁yout	-2279
aps	-2280
ury	-2281
▁27	-2282
▁tv	-2283
▁link	-2284
▁suff	-2285
▁classes	-2286
▁bod	-2287
▁books	-2288
▁ident	-2289
▁known	-2290
▁complain	-2291
▁ud	-2292
▁minutes	-2293
20	-2294
▁mb	-2295
alee	-2296
▁cool	-2297
▁maths	-2298
▁monthly	-2299
▁hol	-2300
▁prior	-2301
▁wonder	-2302
▁anybody	-2303
▁decision	-2304
▁technology	-2305
ube	-2306
▁vs	-2307
▁sor	-2308
selves	-2309
▁feeling	-2310
▁60	-2311
▁birth	-2312
▁la	-2313
limited	-2314
▁western	-2315
comalee	-2316
▁giving	-2317
▁department	-2318
more	-2319
▁mis	-2320
▁kinda	-2321
▁terms	-2322
▁chance	-2323
▁improve	-2324
▁building	-2325
▁unlimited	-2326
▁ey	-2327
▁basic	-2328
▁demand	-2329
▁facebook	-2330
plom	-2331
▁ful	-2332
▁bike	-2333
▁allowed	-2334
io	-2335
aph	-2336
awe	-2337
ished	-2338
▁line	-2339
▁pain	-2340
▁slow	-2341
▁vill	-2342
▁diplom	-2343
▁standard	-2344
▁ye	-2345
▁cab	-2346
▁fit	-2347
▁lack	-2348
▁cover	-2349
▁ak	-2350
apan	-2351
▁lol	-2352
cking	-2353
▁answer	-2354
▁trincomalee	-2355
ently	-2356
▁average	-2357
▁fol	-2358
▁easy	-2359
▁fees	-2360
▁alone	-2361
igh	-2362
▁sil	-2363
▁shi	-2364
▁march	-2365
▁muslim	-2366
▁safari	-2367
▁od	-2368
▁sto	-2369
▁woman	-2370
▁skills	-2371
▁email	-2372
▁booking	-2373
▁context	-2374
▁protect	-2375
▁download	-2376
▁srilankan	-2377
phone	-2378
▁wants	-2379
▁finding	-2380
▁feedback	-2381
▁envir	-2382
▁mainly	-2383
▁source	-2384
▁ee	-2385
▁soci	-2386
▁dream	-2387
▁season	-2388
▁youtube	-2389
▁band	-2390
▁worse	-2391
▁college	-2392
▁reading	-2393
▁stories	-2394
▁wedding	-2395
▁insurance	-2396
▁restaurant	-2397
put	-2398
ump	-2399
▁eth	-2400
▁fee	-2401
▁fellow	-2402
▁multip	-2403
▁environ	-2404
bit	-2405
ift	-2406
mar	-2407
lied	-2408
▁january	-2409
▁location	-2410
▁lab	-2411
▁sad	-2412
▁taxi	-2413
▁choice	-2414
▁mental	-2415
▁customs	-2416
▁doctors	-2417
▁engineer	-2418
mes	-2419
over	-2420
▁ach	-2421
▁japan	-2422
ilities	-2423
▁groups	-2424
▁drivers	-2425
ilt	-2426
▁unp	-2427
▁mount	-2428
▁obvious	-2429
▁willing	-2430
▁literally	-2431
▁preferably	-2432
zy	-2433
bers	-2434
▁rock	-2435
▁spot	-2436
▁front	-2437
▁human	-2438
▁center	-2439
▁export	-2440
▁pickme	-2441
▁repair	-2442
▁welcome	-2443
▁customer	-2444
▁medicine	-2445
iy	-2446
▁nd	-2447
▁sep	-2448
reddit	-2449
▁sites	-2450
▁sorry	-2451
sh	-2452
urd	-2453
empt	-2454
▁cin	-2455
▁perform	-2456
▁directly	-2457
▁80	-2458
band	-2459
▁ant	-2460
▁banks	-2461
▁chall	-2462
▁gaming	-2463
▁apparent	-2464
▁occ	-2465
▁anur	-2466
▁staff	-2467
▁central	-2468
▁citizens	-2469
▁watching	-2470
aries	-2471
▁actual	-2472
▁father	-2473
▁sector	-2474
▁anim	-2475
▁gets	-2476
▁parties	-2477
▁fan	-2478
▁relax	-2479
▁christ	-2480
▁moving	-2481
▁environment	-2482
adem	-2483
▁east	-2484
▁meth	-2485
▁chann	-2486
▁resour	-2487
▁partner	-2488
gress	-2489
imate	-2490
▁rand	-2491
▁save	-2492
▁legit	-2493
▁paper	-2494
▁subreddit	-2495
ples	-2496
▁black	-2497
▁morat	-2498
▁affordable	-2499
▁plus	-2500
▁academ	-2501
▁running	-2502
▁anywhere	-2503
▁currency	-2504
▁majority	-2505
umb	-2506
▁del	-2507
▁traff	-2508
▁europe	-2509
▁popular	-2510
▁independ	-2511
▁personally	-2512
▁hate	-2513
▁large	-2514
▁press	-2515
▁safety	-2516
mas	-2517
oda	-2518
awal	-2519
ayake	-2520
▁crit	-2521
▁looked	-2522
▁nation	-2523
ram	-2524
▁29	-2525
▁er	-2526
ined	-2527
▁als	-2528
▁ways	-2529
▁action	-2530
▁appoint	-2531
▁moratuwa	-2532
▁cs	-2533
elan	-2534
▁dut	-2535
▁tur	-2536
▁swim	-2537
▁covid	-2538
▁ver	-2539
▁movie	-2540
▁score	-2541
ification	-2542
▁multiple	-2543
▁shows	-2544
▁worked	-2545
itted	-2546
▁apps	-2547
▁wick	-2548
idence	-2549
▁lives	-2550
▁motor	-2551
▁amazing	-2552
▁extreme	-2553
▁message	-2554
▁visited	-2555
ply	-2556
cript	-2557
▁scen	-2558
ground	-2559
▁civil	-2560
▁remote	-2561
▁content	-2562
▁hid	-2563
night	-2564
▁2022	-2565
▁solo	-2566
▁except	-2567
▁offers	-2568
▁leaving	-2569
▁apparently	-2570
rees	-2571
▁mist	-2572
▁poor	-2573
▁star	-2574
▁among	-2575
▁inside	-2576
▁responsi	-2577
▁solution	-2578
▁boy	-2579
▁dress	-2580
▁grand	-2581
▁holid	-2582
▁traffic	-2583
▁bur	-2584
▁fake	-2585
▁rates	-2586
▁female	-2587
nar	-2588
▁rul	-2589
aduwa	-2590
▁necess	-2591
▁supposed	-2592
avy	-2593
▁adm	-2594
▁batt	-2595
▁hikk	-2596
▁worst	-2597
▁campus	-2598
▁secret	-2599
▁brother	-2600
▁particular	-2601
medi	-2602
▁deep	-2603
▁rich	-2604
fortun	-2605
▁sports	-2606
▁journey	-2607
▁unfortun	-2608
set	-2609
▁provid	-2610
▁random	-2611
adhapura	-2612
▁propert	-2613
▁worried	-2614
▁il	-2615
▁web	-2616
▁cand	-2617
▁minim	-2618
▁immigr	-2619
▁method	-2620
▁nc	-2621
▁coo	-2622
▁brok	-2623
▁stri	-2624
▁achie	-2625
ger	-2626
ient	-2627
ober	-2628
▁rac	-2629
▁till	-2630
▁wish	-2631
▁exist	-2632
▁parts	-2633
▁stuck	-2634
▁original	-2635
ins	-2636
eric	-2637
▁risk	-2638
▁surpr	-2639
▁charges	-2640
▁october	-2641
▁confused	-2642
▁selected	-2643
▁potential	-2644
▁professional	-2645
itely	-2646
▁mine	-2647
▁pict	-2648
▁defin	-2649
▁folks	-2650
▁global	-2651
▁notice	-2652
▁signific	-2653
ume	-2654
▁tu	-2655
▁div	-2656
▁sle	-2657
antly	-2658
▁army	-2659
▁comb	-2660
▁perf	-2661
▁viol	-2662
awatuna	-2663
▁nature	-2664
▁policy	-2665
▁explain	-2666
▁buddhist	-2667
for	-2668
ateg	-2669
lines	-2670
▁2023	-2671
▁chill	-2672
▁guide	-2673
▁express	-2674
▁investig	-2675
▁pc	-2676
jith	-2677
▁becom	-2678
▁record	-2679
▁seriously	-2680
ogr	-2681
▁pu	-2682
ball	-2683
▁skin	-2684
▁vict	-2685
▁intro	-2686
▁booked	-2687
▁canada	-2688
▁candid	-2689
▁saving	-2690
▁degrees	-2691
▁married	-2692
▁district	-2693
▁unawatuna	-2694
▁key	-2695
▁schol	-2696
▁sense	-2697
▁waiting	-2698
resh	-2699
▁purp	-2700
▁vote	-2701
▁wild	-2702
icians	-2703
▁exams	-2704
▁space	-2705
▁electricity	-2706
▁anuradhapura	-2707
anth	-2708
▁song	-2709
▁tast	-2710
▁levels	-2711
▁payments	-2712
▁loan	-2713
▁peace	-2714
▁batter	-2715
▁ministry	-2716
▁politics	-2717
▁300	-2718
▁cele	-2719
▁luck	-2720
▁router	-2721
dge	-2722
yle	-2723
▁aut	-2724
▁emb	-2725
▁mix	-2726
▁bott	-2727
▁physics	-2728
▁completed	-2729
▁genuinely	-2730
▁hikkaduwa	-2731
▁jav	-2732
▁arch	-2733
▁scre	-2734
▁stress	-2735
▁position	-2736
▁ik	-2737
room	-2738
▁jay	-2739
aught	-2740
▁americ	-2741
▁tamils	-2742
▁videos	-2743
▁specifically	-2744
vp	-2745
und	-2746
unt	-2747
▁carry	-2748
▁plant	-2749
▁exactly	-2750
▁reviews	-2751
▁packages	-2752
▁difference	-2753
cut	-2754
atic	-2755
▁asia	-2756
▁nove	-2757
▁sund	-2758
▁brows	-2759
▁handle	-2760
▁anymore	-2761
▁control	-2762
▁websites	-2763
▁35	-2764
▁max	-2765
▁cards	-2766
▁selling	-2767
▁november	-2768
▁foundation	-2769
aly	-2770
▁ram	-2771
▁stra	-2772
▁celebr	-2773
▁convers	-2774
▁weekend	-2775
▁spending	-2776
▁background	-2777
ials	-2778
▁guid	-2779
▁perm	-2780
▁takes	-2781
ustr	-2782
▁dru	-2783
▁block	-2784
▁increase	-2785
▁uns	-2786
▁chat	-2787
▁wind	-2788
▁reply	-2789
ulation	-2790
▁seeking	-2791
▁required	-2792
▁reasonable	-2793
ended	-2794
▁2019	-2795
▁fully	-2796
▁sched	-2797
▁attempt	-2798
▁diploma	-2799
▁tradition	-2800
▁bt	-2801
▁lad	-2802
▁adult	-2803
▁hidden	-2804
▁possib	-2805
ov	-2806
ault	-2807
▁gym	-2808
▁vers	-2809
▁crowd	-2810
▁simply	-2811
▁evening	-2812
▁incident	-2813
▁condition	-2814
▁resources	-2815
oud	-2816
coming	-2817
▁girlf	-2818
▁absolutely	-2819
▁struggling	-2820
▁unfortunately	-2821
rant	-2822
▁gold	-2823
▁overse	-2824
▁changed	-2825
awa	-2826
▁31	-2827
cent	-2828
▁redu	-2829
▁wear	-2830
▁disapp	-2831
▁present	-2832
▁receive	-2833
▁arrested	-2834
▁scholars	-2835
▁girlfriend	-2836
▁application	-2837
60	-2838
ival	-2839
▁hor	-2840
▁coun	-2841
▁dead	-2842
▁suit	-2843
▁investing	-2844
ell	-2845
ored	-2846
▁dish	-2847
▁network	-2848
▁held	-2849
acking	-2850
▁death	-2851
▁heart	-2852
▁arrive	-2853
▁interesting	-2854
augh	-2855
▁cir	-2856
▁jvp	-2857
▁weird	-2858
▁former	-2859
▁likely	-2860
▁movies	-2861
▁rights	-2862
▁series	-2863
dr	-2864
use	-2865
ator	-2866
vent	-2867
▁bag	-2868
▁sud	-2869
▁male	-2870
▁frustr	-2871
▁thread	-2872
▁ordered	-2873
▁reasons	-2874
▁considered	-2875
▁45	-2876
ceed	-2877
▁ign	-2878
▁ship	-2879
▁nearby	-2880
▁stores	-2881
▁applied	-2882
▁undergr	-2883
▁whatsapp	-2884
▁bent	-2885
▁hang	-2886
▁sold	-2887
▁ge	-2888
gest	-2889
▁aud	-2890
▁page	-2891
▁dinner	-2892
▁passed	-2893
▁society	-2894
istration	-2895
▁straight	-2896
▁07	-2897
▁ess	-2898
▁iit	-2899
▁nth	-2900
itiya	-2901
▁fight	-2902
▁green	-2903
▁dh	-2904
ince	-2905
ening	-2906
▁body	-2907
▁neigh	-2908
▁overseas	-2909
▁opportunity	-2910
▁scholarship	-2911
ae	-2912
▁ay	-2913
agama	-2914
ively	-2915
▁brit	-2916
▁rail	-2917
ees	-2918
▁lower	-2919
▁neighb	-2920
▁street	-2921
▁sunday	-2922
▁missing	-2923
▁elephant	-2924
▁shipping	-2925
oke	-2926
▁cli	-2927
▁enc	-2928
▁crazy	-2929
▁fresh	-2930
▁prime	-2931
▁reput	-2932
▁anyway	-2933
▁failed	-2934
▁itself	-2935
▁courses	-2936
▁finance	-2937
aged	-2938
▁lux	-2939
conut	-2940
▁rank	-2941
▁tang	-2942
▁walk	-2943
▁valid	-2944
▁overall	-2945
▁restrict	-2946
▁definitely	-2947
ani	-2948
irt	-2949
oun	-2950
▁90	-2951
inda	-2952
▁idk	-2953
▁illeg	-2954
▁track	-2955
▁coconut	-2956
▁regular	-2957
▁projects	-2958
▁moved	-2959
▁oppos	-2960
▁truly	-2961
▁immedi	-2962
▁threat	-2963
▁teachers	-2964
▁commercial	-2965
ises	-2966
▁word	-2967
▁enter	-2968
▁marri	-2969
▁model	-2970
▁documents	-2971
pal	-2972
uals	-2973
▁akd	-2974
▁tar	-2975
achel	-2976
istic	-2977
using	-2978
▁subjects	-2979
vered	-2980
ization	-2981
▁posted	-2982
▁trains	-2983
▁wouldn	-2984
▁speaking	-2985
▁politicians	-2986
lt	-2987
▁bachel	-2988
▁figure	-2989
▁reserv	-2990
▁senior	-2991
▁warrant	-2992
▁writing	-2993
▁dom	-2994
▁phones	-2995
▁bentota	-2996
▁approach	-2997
▁challeng	-2998
▁document	-2999
▁institute	-3000
▁corruption	-3001
mm	-3002
▁150	-3003
▁fuck	-3004
▁launch	-3005
▁longer	-3006
▁promot	-3007
▁involved	-3008
ka	-3009
oof	-3010
ouch	-3011
▁sea	-3012
▁var	-3013
▁vol	-3014
action	-3015
▁iphone	-3016
▁numbers	-3017
▁nm	-3018
▁lat	-3019
▁cant	-3020
▁tele	-3021
▁masters	-3022
▁stopped	-3023
▁extremely	-3024
▁obviously	-3025
▁recommended	-3026
alls	-3027
▁hom	-3028
▁kept	-3029
▁kott	-3030
▁master	-3031
▁conduct	-3032
cer	-3033
▁wi	-3034
ators	-3035
ommod	-3036
▁imag	-3037
▁step	-3038
▁apple	-3039
▁artic	-3040
▁faced	-3041
▁matara	-3042
▁simple	-3043
▁happens	-3044
▁supported	-3045
ero	-3046
urs	-3047
▁70	-3048
▁behav	-3049
▁calls	-3050
▁third	-3051
▁topic	-3052
▁clearly	-3053
▁limited	-3054
▁dm	-3055
▁ny	-3056
ergy	-3057
▁influ	-3058
▁sleep	-3059
▁letter	-3060
▁offered	-3061
▁themselves	-3062
bed	-3063
▁01	-3064
wala	-3065
▁transl	-3066
▁accommod	-3067
▁bsc	-3068
arely	-3069
▁stup	-3070
▁views	-3071
▁highly	-3072
▁calling	-3073
▁airlines	-3074
▁everywhere	-3075
▁je	-3076
▁cse	-3077
▁adam	-3078
▁separ	-3079
▁british	-3080
▁planned	-3081
▁expenses	-3082
▁platforms	-3083
hood	-3084
▁gar	-3085
▁mag	-3086
▁dehi	-3087
▁arrival	-3088
▁property	-3089
aves	-3090
▁bed	-3091
▁code	-3092
▁rough	-3093
▁whate	-3094
▁sudden	-3095
▁progress	-3096
▁warranty	-3097
hs	-3098
▁ir	-3099
▁kn	-3100
soci	-3101
▁born	-3102
▁four	-3103
▁hous	-3104
erence	-3105
itions	-3106
▁trade	-3107
▁write	-3108
▁perfect	-3109
▁various	-3110
▁guidance	-3111
▁immigration	-3112
ex	-3113
▁dog	-3114
▁curry	-3115
▁ended	-3116
▁udawal	-3117
▁properly	-3118
▁whatever	-3119
ca	-3120
cks	-3121
▁nic	-3122
▁pls	-3123
▁clos	-3124
▁hiri	-3125
▁milk	-3126
▁yall	-3127
▁table	-3128
▁contrib	-3129
▁marketing	-3130
▁comfortable	-3131
▁mr	-3132
▁nu	-3133
▁caf	-3134
▁sco	-3135
▁trou	-3136
▁chick	-3137
▁febru	-3138
ditions	-3139
▁suspect	-3140
▁businesses	-3141
80	-3142
▁ae	-3143
time	-3144
vant	-3145
▁king	-3146
▁cyber	-3147
▁answers	-3148
▁battery	-3149
▁applying	-3150
▁alternative	-3151
▁traditional	-3152
ini	-3153
itel	-3154
▁2020	-3155
▁built	-3156
▁force	-3157
▁associ	-3158
▁brands	-3159
▁consum	-3160
▁banking	-3161
▁depress	-3162
▁replace	-3163
▁religious	-3164
ena	-3165
imb	-3166
▁jun	-3167
ature	-3168
▁flag	-3169
▁maint	-3170
▁chines	-3171
▁february	-3172
▁tangalle	-3173
▁christmas	-3174
▁necessary	-3175
ike	-3176
lier	-3177
▁arg	-3178
▁btw	-3179
▁cuz	-3180
▁kal	-3181
▁lak	-3182
izing	-3183
▁kill	-3184
▁added	-3185
▁fixed	-3186
▁javas	-3187
▁earning	-3188
▁expected	-3189
ns	-3190
▁nb	-3191
▁nw	-3192
▁hus	-3193
▁hut	-3194
▁fest	-3195
▁spent	-3196
▁stupid	-3197
▁balance	-3198
▁billion	-3199
▁mobitel	-3200
▁javascript	-3201
tle	-3202
▁ban	-3203
▁cry	-3204
▁ded	-3205
board	-3206
▁ltte	-3207
idents	-3208
anayake	-3209
▁chinese	-3210
▁sharing	-3211
nch	-3212
▁ger	-3213
▁2021	-3214
ditional	-3215
▁conditions	-3216
▁ss	-3217
▁mer	-3218
▁rat	-3219
▁rev	-3220
ences	-3221
▁pros	-3222
▁seat	-3223
▁assist	-3224
▁decide	-3225
▁effort	-3226
▁facing	-3227
▁modern	-3228
▁ideally	-3229
▁sources	-3230
▁nf	-3231
▁1000	-3232
▁milit	-3233
▁print	-3234
▁ground	-3235
▁cas	-3236
▁gun	-3237
▁nan	-3238
▁obs	-3239
aster	-3240
▁coll	-3241
▁entry	-3242
▁rules	-3243
▁impact	-3244
▁repres	-3245
▁sister	-3246
▁unique	-3247
pper	-3248
▁kum	-3249
▁vacc	-3250
agging	-3251
▁trend	-3252
▁waste	-3253
▁cheaper	-3254
▁chicken	-3255
▁holiday	-3256
▁practice	-3257
▁chemistry	-3258
▁commission	-3259
yal	-3260
life	-3261
ners	-3262
▁que	-3263
▁mach	-3264
ishing	-3265
▁lunch	-3266
pri	-3267
▁arr	-3268
▁log	-3269
▁obt	-3270
apore	-3271
▁drin	-3272
▁loss	-3273
▁admin	-3274
▁cloth	-3275
▁photos	-3276
▁arrived	-3277
▁accounts	-3278
▁singapore	-3279
▁ready	-3280
▁illegal	-3281
▁approved	-3282
ta	-3283
▁ng	-3284
▁limit	-3285
▁expert	-3286
▁additional	-3287
da	-3288
▁ep	-3289
cies	-3290
erve	-3291
ians	-3292
ison	-3293
▁base	-3294
▁favor	-3295
▁usual	-3296
▁facult	-3297
▁lately	-3298
▁husband	-3299
▁install	-3300
▁dehiwala	-3301
▁response	-3302
▁employees	-3303
asa	-3304
▁subs	-3305
▁gives	-3306
▁names	-3307
▁percent	-3308
▁provided	-3309
▁foreigners	-3310
lls	-3311
anch	-3312
▁bey	-3313
▁pie	-3314
▁urg	-3315
acher	-3316
▁lawy	-3317
▁role	-3318
▁wise	-3319
▁image	-3320
▁older	-3321
▁owner	-3322
▁smart	-3323
▁luxury	-3324
▁heading	-3325
do	-3326
fs	-3327
▁ol	-3328
▁exe	-3329
▁god	-3330
▁text	-3331
ograph	-3332
▁sajith	-3333
▁target	-3334
▁dollars	-3335
▁meeting	-3336
▁accident	-3337
▁religion	-3338
▁understanding	-3339
va	-3340
▁anti	-3341
▁diss	-3342
▁broad	-3343
▁attend	-3344
▁confirm	-3345
▁hiriket	-3346
▁leaders	-3347
▁surfing	-3348
▁08	-3349
▁reven	-3350
▁easily	-3351
▁playing	-3352
▁becoming	-3353
▁policies	-3354
▁training	-3355
ocr	-3356
uri	-3357
▁box	-3358
namon	-3359
▁fire	-3360
▁gift	-3361
▁rant	-3362
▁tukt	-3363
▁grade	-3364
▁teacher	-3365
▁concerns	-3366
▁lif	-3367
▁oil	-3368
inghe	-3369
▁emerg	-3370
▁dating	-3371
▁officer	-3372
▁addition	-3373
▁individuals	-3374
▁kur	-3375
▁bang	-3376
▁cuts	-3377
▁catch	-3378
▁rupee	-3379
▁eating	-3380
▁studied	-3381
▁communic	-3382
▁searching	-3383
▁statement	-3384
lk	-3385
oa	-3386
▁32	-3387
▁fle	-3388
▁remo	-3389
angama	-3390
rought	-3391
▁beyond	-3392
▁terror	-3393
▁attract	-3394
▁shouldn	-3395
▁cinnamon	-3396
▁marriage	-3397
▁reported	-3398
▁concerned	-3399
▁customers	-3400
▁led	-3401
▁prin	-3402
▁size	-3403
▁heavy	-3404
▁advise	-3405
▁capital	-3406
▁earlier	-3407
▁showing	-3408
▁udawalawe	-3409
▁presidential	-3410
▁mech	-3411
▁drink	-3412
▁photo	-3413
▁german	-3414
▁member	-3415
▁rental	-3416
▁discussion	-3417
uck	-3418
▁subm	-3419
▁kottu	-3420
▁satur	-3421
istered	-3422
▁corpor	-3423
▁introdu	-3424
▁manager	-3425
▁upcoming	-3426
▁redditors	-3427
how	-3428
vey	-3429
vere	-3430
▁eye	-3431
itten	-3432
▁zero	-3433
▁assign	-3434
▁growth	-3435
▁pursue	-3436
▁achieve	-3437
▁elephants	-3438
▁facilities	-3439
hold	-3440
atory	-3441
press	-3442
rible	-3443
▁debt	-3444
▁words	-3445
▁resort	-3446
▁brought	-3447
▁military	-3448
▁programs	-3449
▁overnight	-3450
ny	-3451
▁inn	-3452
▁fish	-3453
▁tool	-3454
▁vibe	-3455
▁wifi	-3456
▁polon	-3457
▁votes	-3458
▁advert	-3459
▁clothes	-3460
▁hiriketiya	-3461
ague	-3462
▁shy	-3463
▁dark	-3464
▁alleg	-3465
▁materi	-3466
▁points	-3467
▁minimum	-3468
▁protests	-3469
▁swimming	-3470
▁inflation	-3471
arm	-3472
▁om	-3473
▁hur	-3474
▁jud	-3475
▁ther	-3476
▁closed	-3477
▁consult	-3478
▁passion	-3479
▁perspect	-3480
▁positive	-3481
▁practical	-3482
wire	-3483
▁ens	-3484
▁swe	-3485
▁boys	-3486
▁clar	-3487
▁funds	-3488
▁excited	-3489
nal	-3490
▁estab	-3491
▁loved	-3492
▁regul	-3493
▁touch	-3494
▁hearing	-3495
rif	-3496
ender	-3497
▁laws	-3498
▁clubs	-3499
▁became	-3500
▁owners	-3501
▁deliver	-3502
▁telling	-3503
▁academic	-3504
▁electron	-3505
▁football	-3506
▁informed	-3507
▁attention	-3508
▁treatment	-3509
▁generation	-3510
▁individual	-3511
nb	-3512
▁ni	-3513
▁none	-3514
▁turned	-3515
bri	-3516
arana	-3517
entic	-3518
▁conv	-3519
▁input	-3520
▁double	-3521
▁spread	-3522
▁managed	-3523
▁tuition	-3524
▁version	-3525
▁locations	-3526
eal	-3527
ule	-3528
fact	-3529
▁ill	-3530
aging	-3531
iring	-3532
▁ethn	-3533
▁murd	-3534
aduate	-3535
▁blood	-3536
▁depos	-3537
▁famil	-3538
▁status	-3539
▁systems	-3540
▁workers	-3541
▁ahangama	-3542
▁newswire	-3543
lus	-3544
care	-3545
▁ice	-3546
▁cities	-3547
▁estate	-3548
▁imports	-3549
▁finished	-3550
▁transportation	-3551
omb	-3552
rol	-3553
▁42	-3554
ruct	-3555
▁son	-3556
▁sup	-3557
▁ten	-3558
▁usa	-3559
▁clot	-3560
▁upon	-3561
▁roads	-3562
▁style	-3563
▁truth	-3564
▁histor	-3565
▁malays	-3566
▁raised	-3567
▁relative	-3568
iet	-3569
▁cat	-3570
▁dub	-3571
▁mac	-3572
▁mad	-3573
▁cream	-3574
▁monit	-3575
▁scene	-3576
▁solid	-3577
▁respond	-3578
▁benefits	-3579
▁choosing	-3580
▁solutions	-3581
▁ut	-3582
goda	-3583
rast	-3584
▁den	-3585
▁lay	-3586
anger	-3587
▁2000	-3588
▁capt	-3589
▁coff	-3590
▁fill	-3591
▁gard	-3592
▁knew	-3593
▁pool	-3594
isions	-3595
▁hands	-3596
▁produ	-3597
▁linked	-3598
▁victim	-3599
▁lecture	-3600
▁mahinda	-3601
▁clothing	-3602
▁families	-3603
▁polonnar	-3604
▁authentic	-3605
▁cup	-3606
▁ict	-3607
▁unf	-3608
oying	-3609
▁alth	-3610
▁pett	-3611
▁cross	-3612
▁imple	-3613
▁energy	-3614
▁flying	-3615
▁leader	-3616
▁medium	-3617
▁speeds	-3618
▁wickre	-3619
cription	-3620
▁savings	-3621
▁although	-3622
▁officers	-3623
ifications	-3624
▁apartment	-3625
▁authorities	-3626
aha	-3627
eniya	-3628
▁circ	-3629
▁repe	-3630
▁wide	-3631
▁recei	-3632
▁renew	-3633
▁younger	-3634
▁oe	-3635
▁bab	-3636
▁lose	-3637
▁yeah	-3638
▁active	-3639
▁keeping	-3640
▁imported	-3641
▁province	-3642
▁salaries	-3643
▁teaching	-3644
▁implement	-3645
▁represent	-3646
▁responsib	-3647
▁significant	-3648
pto	-3649
sec	-3650
▁ko	-3651
▁imf	-3652
▁san	-3653
▁govt	-3654
▁hire	-3655
▁manu	-3656
icient	-3657
▁chair	-3658
▁fiber	-3659
▁proced	-3660
▁changes	-3661
▁posting	-3662
▁birthday	-3663
▁pressure	-3664
xic	-3665
▁33	-3666
gala	-3667
▁ult	-3668
▁goal	-3669
▁charged	-3670
▁freelan	-3671
▁purpose	-3672
▁particip	-3673
▁relevant	-3674
▁amb	-3675
▁whe	-3676
▁buff	-3677
▁snor	-3678
▁asian	-3679
▁imagine	-3680
▁manufact	-3681
▁hopefully	-3682
▁polonnaruwa	-3683
aa	-3684
to	-3685
▁eta	-3686
▁pun	-3687
astic	-3688
▁gamp	-3689
▁push	-3690
▁sale	-3691
▁vari	-3692
▁trouble	-3693
▁distance	-3694
▁establish	-3695
cil	-3696
▁oh	-3697
▁gas	-3698
▁emot	-3699
▁loans	-3700
▁shoes	-3701
▁stick	-3702
▁trips	-3703
▁users	-3704
▁killed	-3705
▁listen	-3706
▁states	-3707
▁growing	-3708
▁railway	-3709
▁saturday	-3710
▁immediately	-3711
▁bio	-3712
agram	-3713
place	-3714
▁dogs	-3715
▁item	-3716
▁cases	-3717
▁grate	-3718
▁latest	-3719
▁refund	-3720
▁weight	-3721
▁faculty	-3722
▁picture	-3723
acks	-3724
play	-3725
▁anx	-3726
▁pak	-3727
anced	-3728
itter	-3729
▁decl	-3730
▁autom	-3731
▁broke	-3732
▁appear	-3733
▁friday	-3734
▁united	-3735
▁include	-3736
▁justice	-3737
▁american	-3738
▁negative	-3739
▁released	-3740
▁whenever	-3741
▁requirements	-3742
▁recommendation	-3743
eth	-3744
▁rob	-3745
▁sem	-3746
ience	-3747
▁blue	-3748
▁meal	-3749
▁sales	-3750
ruction	-3751
▁ethnic	-3752
▁hiking	-3753
▁reject	-3754
▁snorke	-3755
▁sounds	-3756
ze	-3757
mon	-3758
anda	-3759
urch	-3760
▁400	-3761
▁aim	-3762
▁atm	-3763
▁deb	-3764
▁pic	-3765
▁cook	-3766
▁film	-3767
▁sams	-3768
▁anura	-3769
▁initi	-3770
▁lived	-3771
▁sight	-3772
actions	-3773
▁region	-3774
▁unless	-3775
▁meaning	-3776
▁bachelor	-3777
▁registered	-3778
ela	-3779
pic	-3780
▁wt	-3781
▁199	-3782
▁pal	-3783
▁squ	-3784
▁tree	-3785
▁barely	-3786
▁leading	-3787
▁instagram	-3788
uct	-3789
aign	-3790
ires	-3791
▁nur	-3792
▁rule	-3793
▁seemed	-3794
▁wealth	-3795
▁channel	-3796
▁revenue	-3797
▁section	-3798
▁performance	-3799
cl	-3800
▁36	-3801
rier	-3802
antha	-3803
ously	-3804
▁disp	-3805
▁ahead	-3806
▁backp	-3807
▁goods	-3808
aragama	-3809
▁nearly	-3810
▁survey	-3811
▁strateg	-3812
▁creating	-3813
▁graduate	-3814
▁eventually	-3815
▁population	-3816
▁independence	-3817
aka	-3818
▁05	-3819
▁06	-3820
▁sj	-3821
ring	-3822
▁fib	-3823
▁ive	-3824
▁mem	-3825
▁gems	-3826
▁load	-3827
xpress	-3828
▁frequ	-3829
▁ikman	-3830
▁perad	-3831
▁twice	-3832
▁approx	-3833
▁broken	-3834
▁showed	-3835
▁unable	-3836
▁journal	-3837
▁locally	-3838
▁massive	-3839
▁specially	-3840
ler	-3841
let	-3842
▁09	-3843
▁hr	-3844
ards	-3845
wise	-3846
▁byd	-3847
arant	-3848
▁copy	-3849
▁lond	-3850
▁spok	-3851
▁agent	-3852
▁bunch	-3853
▁church	-3854
▁animals	-3855
▁citizen	-3856
▁conflic	-3857
▁ragging	-3858
▁souther	-3859
▁grateful	-3860
▁register	-3861
▁particularly	-3862
nces	-3863
▁250	-3864
ariff	-3865
▁reci	-3866
▁cabin	-3867
▁gotab	-3868
▁quiet	-3869
▁taste	-3870
▁thats	-3871
▁easier	-3872
▁issued	-3873
▁pettah	-3874
▁helping	-3875
▁samsung	-3876
▁exploring	-3877
▁appointment	-3878
▁conversation	-3879
hd	-3880
km	-3881
▁gd	-3882
▁alie	-3883
▁enro	-3884
▁fear	-3885
▁analy	-3886
▁brain	-3887
▁types	-3888
▁london	-3889
▁shared	-3890
▁stable	-3891
▁campaign	-3892
▁malaysia	-3893
▁yourself	-3894
▁peradeniya	-3895
ged	-3896
▁nn	-3897
ocol	-3898
▁nar	-3899
▁rom	-3900
inary	-3901
istan	-3902
▁hike	-3903
▁pref	-3904
▁pure	-3905
▁samp	-3906
▁sens	-3907
orters	-3908
▁lakhs	-3909
▁dollar	-3910
▁famous	-3911
▁tariff	-3912
▁created	-3913
▁offering	-3914
10	-3915
30	-3916
▁gp	-3917
▁ot	-3918
cast	-3919
ends	-3920
▁slpp	-3921
▁cance	-3922
▁freed	-3923
▁ideal	-3924
▁execut	-3925
▁mechan	-3926
▁models	-3927
▁withdr	-3928
▁natural	-3929
▁proceed	-3930
▁setting	-3931
▁walking	-3932
▁southern	-3933
ef	-3934
ape	-3935
▁03	-3936
▁ic	-3937
▁kar	-3938
ients	-3939
▁hutch	-3940
ructure	-3941
▁secure	-3942
▁tuktuk	-3943
mesinghe	-3944
ological	-3945
▁browser	-3946
▁reports	-3947
▁somehow	-3948
▁startup	-3949
▁favorite	-3950
▁vacation	-3951
▁candidate	-3952
▁purchased	-3953
▁aliexpress	-3954
▁registration	-3955
▁55	-3956
etic	-3957
▁lav	-3958
▁sjb	-3959
▁gain	-3960
▁debit	-3961
▁coffee	-3962
▁remove	-3963
▁possibly	-3964
▁schedule	-3965
▁officials	-3966
▁institutions	-3967
▁75	-3968
▁mic	-3969
▁ppl	-3970
▁smo	-3971
rimin	-3972
▁feat	-3973
▁five	-3974
▁surv	-3975
▁upgr	-3976
▁scoot	-3977
▁sampath	-3978
▁shopping	-3979
▁increased	-3980
▁profession	-3981
▁accommodation	-3982
bm	-3983
ja	-3984
hol	-3985
▁rap	-3986
▁tas	-3987
▁sess	-3988
▁valu	-3989
ologies	-3990
▁helped	-3991
▁passeng	-3992
▁beginning	-3993
▁challenges	-3994
▁bul	-3995
▁cru	-3996
▁tow	-3997
▁shot	-3998
▁climb	-3999
▁advent	-4000
▁camera	-4001
▁democr	-4002
▁networ	-4003
▁players	-4004
▁suitable	-4005
▁wickremesinghe	-4006
▁02	-4007
▁ven	-4008
going	-4009
▁bars	-4010
▁duty	-4011
▁lots	-4012
▁runs	-4013
▁afric	-4014
▁seats	-4015
▁attach	-4016
▁monday	-4017
▁impress	-4018
▁reality	-4019
▁followed	-4020
▁suddenly	-4021
▁foreigner	-4022
▁opposition	-4023
oti	-4024
thy	-4025
▁gb	-4026
▁nv	-4027
▁egg	-4028
▁kat	-4029
▁nav	-4030
▁sir	-4031
eless	-4032
▁nthe	-4033
▁minor	-4034
▁stage	-4035
▁conven	-4036
▁forest	-4037
▁gotten	-4038
▁slight	-4039
▁channels	-4040
▁pursuing	-4041
▁developed	-4042
▁successful	-4043
uses	-4044
▁mos	-4045
▁toy	-4046
abled	-4047
arian	-4048
▁reve	-4049
▁daugh	-4050
▁youth	-4051
▁highest	-4052
▁treated	-4053
▁beginner	-4054
▁bringing	-4055
▁checking	-4056
▁contract	-4057
▁complaint	-4058
mp	-4059
han	-4060
▁nh	-4061
fast	-4062
▁198	-4063
ellig	-4064
▁dumb	-4065
▁poll	-4066
ailand	-4067
▁marks	-4068
▁rooms	-4069
unegala	-4070
▁resign	-4071
▁scared	-4072
▁council	-4073
▁reached	-4074
▁written	-4075
▁therefore	-4076
csl	-4077
rop	-4078
bing	-4079
▁der	-4080
▁nre	-4081
▁tin	-4082
least	-4083
▁cous	-4084
▁eats	-4085
▁cafes	-4086
▁toxic	-4087
▁adults	-4088
▁danger	-4089
▁forced	-4090
▁reduce	-4091
dom	-4092
ller	-4093
▁pil	-4094
▁van	-4095
▁vir	-4096
iliar	-4097
▁dude	-4098
▁unit	-4099
▁assum	-4100
▁color	-4101
▁embass	-4102
▁hospit	-4103
▁atleast	-4104
▁migrate	-4105
▁intellig	-4106
▁thailand	-4107
▁generally	-4108
▁secretary	-4109
▁kurunegala	-4110
gar	-4111
airs	-4112
ours	-4113
▁hnd	-4114
▁drug	-4115
▁loud	-4116
▁bills	-4117
▁fibre	-4118
▁honey	-4119
▁leads	-4120
▁round	-4121
▁steps	-4122
▁veget	-4123
▁perman	-4124
inations	-4125
▁typical	-4126
▁accepted	-4127
▁discount	-4128
▁discrimin	-4129
▁importing	-4130
▁qualifications	-4131
oe	-4132
▁48	-4133
irts	-4134
▁nut	-4135
▁rus	-4136
▁2015	-4137
▁alot	-4138
▁sick	-4139
▁foods	-4140
▁tired	-4141
▁caught	-4142
▁fields	-4143
▁forget	-4144
▁useful	-4145
▁corrupt	-4146
▁counter	-4147
▁freedom	-4148
▁gampaha	-4149
▁learned	-4150
▁perspective	-4151
12	-4152
ika	-4153
aced	-4154
atha	-4155
raid	-4156
▁inj	-4157
ension	-4158
▁mixed	-4159
▁profit	-4160
▁biggest	-4161
▁crowded	-4162
▁fucking	-4163
▁breakfast	-4164
▁emergency	-4165
▁graduates	-4166
▁relatives	-4167
▁destination	-4168
▁fb	-4169
▁lg	-4170
▁ug	-4171
force	-4172
▁busy	-4173
▁hind	-4174
▁lady	-4175
istics	-4176
▁usage	-4177
▁afraid	-4178
▁cancel	-4179
▁critic	-4180
▁laptops	-4181
▁sending	-4182
▁sitting	-4183
▁behavior	-4184
▁decisions	-4185
▁delivered	-4186
▁initially	-4187
▁recognized	-4188
▁connections	-4189
▁undergraduate	-4190
bes	-4191
▁99	-4192
▁gf	-4193
cers	-4194
▁dur	-4195
▁flo	-4196
▁nov	-4197
▁adop	-4198
▁summ	-4199
▁abuse	-4200
▁occas	-4201
▁announ	-4202
▁centre	-4203
▁opened	-4204
▁severe	-4205
▁therap	-4206
▁focused	-4207
▁knowing	-4208
▁japanese	-4209
araz	-4210
what	-4211
▁rad	-4212
▁rav	-4213
▁ton	-4214
▁baby	-4215
▁tough	-4216
▁trcsl	-4217
▁branch	-4218
▁chocol	-4219
▁embassy	-4220
▁prevent	-4221
▁everyday	-4222
▁bb	-4223
▁gem	-4224
rance	-4225
▁cafe	-4226
▁user	-4227
▁daraz	-4228
▁proof	-4229
asinghe	-4230
▁aftern	-4231
▁commit	-4232
▁finish	-4233
▁scenic	-4234
▁sexual	-4235
▁strict	-4236
▁cooking	-4237
▁putting	-4238
▁quickly	-4239
▁updates	-4240
▁charging	-4241
▁struggle	-4242
▁direction	-4243
lkr	-4244
mbps	-4245
pects	-4246
▁damn	-4247
▁pere	-4248
ricult	-4249
▁dubai	-4250
▁shoot	-4251
▁whale	-4252
▁claims	-4253
▁dishes	-4254
▁favour	-4255
▁screen	-4256
▁article	-4257
▁approval	-4258
▁separate	-4259
▁engineers	-4260
ob	-4261
ando	-4262
rupt	-4263
▁cmb	-4264
▁pen	-4265
▁pin	-4266
▁tut	-4267
▁wij	-4268
▁meas	-4269
▁rural	-4270
▁shown	-4271
▁temples	-4272
▁daughter	-4273
▁surround	-4274
▁restrictions	-4275
aram	-4276
▁six	-4277
▁wit	-4278
ertain	-4279
▁meant	-4280
▁refer	-4281
▁songs	-4282
▁detail	-4283
▁extern	-4284
▁lawyer	-4285
▁listed	-4286
▁orders	-4287
▁played	-4288
entially	-4289
▁cabinet	-4290
▁constit	-4291
▁display	-4292
▁agricult	-4293
▁contacted	-4294
▁hospitals	-4295
aces	-4296
inia	-4297
▁cart	-4298
▁dear	-4299
▁mand	-4300
▁nuge	-4301
▁helps	-4302
▁missed	-4303
▁consist	-4304
▁healthy	-4305
▁premium	-4306
▁financially	-4307
25	-4308
wa	-4309
ups	-4310
oses	-4311
▁bes	-4312
▁ltd	-4313
itude	-4314
▁hasn	-4315
▁blame	-4316
▁piece	-4317
▁agency	-4318
▁belong	-4319
▁crimin	-4320
▁forces	-4321
▁incred	-4322
▁lavinia	-4323
▁changing	-4324
▁commerce	-4325
▁effective	-4326
▁suffering	-4327
rep	-4328
▁fa	-4329
ands	-4330
ging	-4331
mers	-4332
▁ang	-4333
▁cyc	-4334
ivity	-4335
others	-4336
▁batch	-4337
▁voice	-4338
▁casual	-4339
▁actions	-4340
▁infrast	-4341
▁prepare	-4342
▁wanting	-4343
▁gotabaya	-4344
▁nugegoda	-4345
▁afternoon	-4346
▁authority	-4347
▁citizenship	-4348
▁frustrating	-4349
15	-4350
ham	-4351
icy	-4352
▁os	-4353
icul	-4354
▁oya	-4355
▁ple	-4356
▁sou	-4357
acity	-4358
▁suic	-4359
▁liber	-4360
▁strike	-4361
▁totally	-4362
▁evidence	-4363
▁festival	-4364
▁wildlife	-4365
▁procedure	-4366
▁competitive	-4367
xx	-4368
raft	-4369
▁197	-4370
▁scr	-4371
▁tik	-4372
sible	-4373
▁fash	-4374
▁fern	-4375
▁inqu	-4376
▁nsbm	-4377
▁spoke	-4378
▁cheers	-4379
▁harass	-4380
▁taught	-4381
▁airline	-4382
▁chances	-4383
▁joining	-4384
▁executive	-4385
▁highlight	-4386
▁suggested	-4387
▁supporting	-4388
▁relationships	-4389
cul	-4390
▁37	-4391
▁38	-4392
▁gri	-4393
▁map	-4394
adesh	-4395
▁bull	-4396
▁hort	-4397
▁jump	-4398
▁tend	-4399
encies	-4400
▁keeps	-4401
▁unsure	-4402
▁benefit	-4403
▁markets	-4404
▁trading	-4405
▁familiar	-4406
▁identity	-4407
▁childhood	-4408
▁clearance	-4409
▁developer	-4410
▁infrastructure	-4411
ali	-4412
▁bon	-4413
▁bow	-4414
▁forg	-4415
▁delay	-4416
▁falls	-4417
▁links	-4418
▁throw	-4419
ologist	-4420
▁bridge	-4421
▁easter	-4422
▁ensure	-4423
▁houses	-4424
▁insane	-4425
▁tempor	-4426
▁fashion	-4427
▁machine	-4428
▁independent	-4429
▁investigation	-4430
ech	-4431
▁39	-4432
ales	-4433
arat	-4434
ened	-4435
link	-4436
▁api	-4437
▁vat	-4438
oices	-4439
▁2026	-4440
▁estim	-4441
▁fancy	-4442
▁curric	-4443
▁garden	-4444
▁starts	-4445
▁badulla	-4446
▁flights	-4447
▁respons	-4448
▁maintain	-4449
▁somewhat	-4450
cd	-4451
nes	-4452
verse	-4453
▁colon	-4454
▁perera	-4455
▁reform	-4456
▁matches	-4457
▁messages	-4458
▁violence	-4459
▁confirmed	-4460
▁standards	-4461
▁photograph	-4462
▁transactions	-4463
ads	-4464
mat	-4465
▁km	-4466
▁pv	-4467
▁ath	-4468
▁sac	-4469
adasa	-4470
awala	-4471
award	-4472
▁airb	-4473
▁pand	-4474
▁pred	-4475
▁prim	-4476
icated	-4477
inated	-4478
▁categ	-4479
ibility	-4480
▁ridicul	-4481
▁turning	-4482
▁twitter	-4483
▁village	-4484
▁watched	-4485
▁advanced	-4486
▁external	-4487
▁corporate	-4488
▁candidates	-4489
▁psychology	-4490
▁responsible	-4491
agn	-4492
▁ba	-4493
iety	-4494
▁120	-4495
▁msc	-4496
▁oce	-4497
▁flex	-4498
▁grew	-4499
▁hero	-4500
worthy	-4501
▁didnt	-4502
▁impos	-4503
▁maxim	-4504
▁buddha	-4505
▁losing	-4506
▁minute	-4507
▁upload	-4508
▁scooter	-4509
▁awareness	-4510
▁expecting	-4511
▁employment	-4512
▁increasing	-4513
▁recognition	-4514
iat	-4515
oss	-4516
▁bs	-4517
▁mp	-4518
▁uc	-4519
like	-4520
roud	-4521
▁mba	-4522
▁wtf	-4523
iding	-4524
orter	-4525
ppers	-4526
▁2018	-4527
▁icbt	-4528
▁rise	-4529
▁cinem	-4530
▁drugs	-4531
▁namal	-4532
▁resol	-4533
▁thous	-4534
▁union	-4535
▁anxiety	-4536
▁opening	-4537
▁removed	-4538
▁trusted	-4539
▁witness	-4540
▁valuable	-4541
▁otherwise	-4542
▁previously	-4543
▁construction	-4544
ima	-4545
key	-4546
ope	-4547
▁oo	-4548
down	-4549
roid	-4550
owder	-4551
▁lets	-4552
▁hence	-4553
▁kelan	-4554
▁monso	-4555
▁royal	-4556
▁tools	-4557
▁tooth	-4558
itation	-4559
▁matters	-4560
▁internships	-4561
24	-4562
zz	-4563
ban	-4564
▁ip	-4565
aled	-4566
▁emp	-4567
▁cuis	-4568
▁hill	-4569
▁skip	-4570
▁bikes	-4571
▁device	-4572
▁horton	-4573
▁routes	-4574
▁supply	-4575
▁attacks	-4576
▁mindset	-4577
▁muslims	-4578
▁recover	-4579
▁release	-4580
▁buddhism	-4581
▁providing	-4582
▁intelligence	-4583
lam	-4584
oft	-4585
▁hs	-4586
▁ly	-4587
▁ads	-4588
▁hes	-4589
▁sky	-4590
▁thr	-4591
▁disg	-4592
▁flow	-4593
▁mald	-4594
▁race	-4595
▁basis	-4596
▁meals	-4597
▁africa	-4598
▁amazon	-4599
▁encour	-4600
▁kumara	-4601
▁papers	-4602
▁regret	-4603
▁settle	-4604
▁blocked	-4605
▁complex	-4606
▁renting	-4607
▁scammed	-4608
▁wearing	-4609
▁european	-4610
▁announced	-4611
▁elections	-4612
▁constantly	-4613
▁responsibility	-4614
ew	-4615
gn	-4616
izz	-4617
ola	-4618
ula	-4619
▁65	-4620
anga	-4621
haps	-4622
aphic	-4623
arily	-4624
▁alco	-4625
▁beat	-4626
▁died	-4627
▁hall	-4628
▁hamb	-4629
▁libr	-4630
▁surg	-4631
▁tues	-4632
▁unre	-4633
▁proud	-4634
▁plains	-4635
▁remain	-4636
▁dealing	-4637
▁influen	-4638
▁monitor	-4639
▁privacy	-4640
▁entrance	-4641
▁pakistan	-4642
▁alternatives	-4643
▁communication	-4644
40	-4645
▁49	-4646
enty	-4647
moon	-4648
▁600	-4649
▁ceb	-4650
▁rug	-4651
▁tho	-4652
▁gate	-4653
ctures	-4654
overed	-4655
usting	-4656
▁guest	-4657
▁lines	-4658
▁diving	-4659
▁permit	-4660
▁server	-4661
▁alcohol	-4662
▁biology	-4663
▁compens	-4664
▁himself	-4665
▁holding	-4666
▁methods	-4667
▁perhaps	-4668
▁schedul	-4669
▁arriving	-4670
▁starlink	-4671
▁terrible	-4672
▁situations	-4673
▁educational	-4674
▁successfully	-4675
af	-4676
▁eg	-4677
cipl	-4678
here	-4679
rael	-4680
reed	-4681
▁pod	-4682
atics	-4683
right	-4684
ublic	-4685
▁cake	-4686
▁clin	-4687
▁cold	-4688
▁lane	-4689
▁uses	-4690
▁wall	-4691
antota	-4692
▁prote	-4693
▁shock	-4694
▁solar	-4695
▁tower	-4696
▁beauty	-4697
▁caused	-4698
▁detect	-4699
▁topics	-4700
▁concept	-4701
▁battical	-4702
▁pictures	-4703
▁honeymoon	-4704
cal	-4705
eep	-4706
hop	-4707
ila	-4708
itha	-4709
▁fal	-4710
▁hab	-4711
▁kdu	-4712
▁pad	-4713
ading	-4714
anted	-4715
esome	-4716
ittee	-4717
ounce	-4718
while	-4719
▁bags	-4720
▁fans	-4721
▁joke	-4722
▁mark	-4723
▁ucsc	-4724
▁vent	-4725
market	-4726
▁cycle	-4727
▁equip	-4728
▁scale	-4729
▁worry	-4730
tenance	-4731
▁assume	-4732
▁paypal	-4733
▁signal	-4734
▁urgent	-4735
▁initial	-4736
▁fernando	-4737
▁investments	-4738
▁maintenance	-4739
amb	-4740
sequ	-4741
▁eld	-4742
▁nil	-4743
▁unc	-4744
▁wil	-4745
aming	-4746
▁bomb	-4747
▁lgbt	-4748
▁mill	-4749
▁wash	-4750
▁bangl	-4751
▁micro	-4752
▁named	-4753
▁filled	-4754
▁talent	-4755
▁mistake	-4756
▁ongoing	-4757
▁claiming	-4758
▁agreement	-4759
▁surprised	-4760
▁electrical	-4761
▁maharagama	-4762
▁throughout	-4763
▁trustworthy	-4764
rit	-4765
rene	-4766
▁fat	-4767
▁flu	-4768
▁kot	-4769
▁nom	-4770
ables	-4771
estic	-4772
▁grab	-4773
▁maps	-4774
▁mbps	-4775
▁russi	-4776
▁villa	-4777
▁adding	-4778
▁gather	-4779
▁kindly	-4780
▁mannar	-4781
▁petrol	-4782
▁volunt	-4783
▁discipl	-4784
▁monsoon	-4785
▁transit	-4786
▁warning	-4787
▁annoying	-4788
▁purposes	-4789
▁withdraw	-4790
▁disappoint	-4791
▁regulations	-4792
pet	-4793
uma	-4794
▁41	-4795
attu	-4796
omed	-4797
▁jer	-4798
▁gota	-4799
▁harm	-4800
▁lugg	-4801
▁rush	-4802
▁crime	-4803
▁doubt	-4804
▁uncle	-4805
isation	-4806
▁desper	-4807
▁retail	-4808
▁toyota	-4809
▁arrange	-4810
▁dropped	-4811
▁pricing	-4812
▁realize	-4813
▁tuesday	-4814
▁features	-4815
▁included	-4816
▁priority	-4817
▁committee	-4818
▁programme	-4819
▁structure	-4820
▁batticaloa	-4821
▁regardless	-4822
▁snorkeling	-4823
▁og	-4824
▁ts	-4825
rain	-4826
ront	-4827
▁adj	-4828
▁ing	-4829
▁door	-4830
▁gang	-4831
▁lock	-4832
▁error	-4833
▁homes	-4834
▁ocean	-4835
▁pharm	-4836
▁destro	-4837
▁israel	-4838
▁joined	-4839
▁stocks	-4840
▁voting	-4841
▁deposit	-4842
▁reflect	-4843
▁replies	-4844
▁upgrade	-4845
▁slightly	-4846
▁preferred	-4847
▁responses	-4848
isf	-4849
▁tb	-4850
bage	-4851
char	-4852
emic	-4853
oted	-4854
▁dil	-4855
▁eee	-4856
▁nin	-4857
icing	-4858
▁edex	-4859
▁heat	-4860
▁teen	-4861
▁unis	-4862
▁watt	-4863
▁chose	-4864
▁shame	-4865
▁walle	-4866
▁weren	-4867
▁closer	-4868
▁discon	-4869
▁mathem	-4870
▁spoken	-4871
▁alleged	-4872
▁anyways	-4873
▁cycling	-4874
▁primary	-4875
▁useless	-4876
▁disabled	-4877
▁drinking	-4878
▁existing	-4879
▁peaceful	-4880
▁resident	-4881
▁essential	-4882
▁technical	-4883
▁australian	-4884
▁institutes	-4885
har	-4886
ums	-4887
▁nl	-4888
▁pi	-4889
eing	-4890
esth	-4891
▁aunt	-4892
▁bath	-4893
▁cave	-4894
▁file	-4895
▁islam	-4896
▁owned	-4897
▁schem	-4898
▁trees	-4899
▁wheel	-4900
▁conserv	-4901
▁factory	-4902
▁protein	-4903
▁attached	-4904
▁capacity	-4905
▁includes	-4906
▁kelaniya	-4907
▁mountain	-4908
▁dangerous	-4909
▁ministers	-4910
▁assistance	-4911
▁officially	-4912
▁plantation	-4913
▁dissanayake	-4914
▁professionals	-4915
off	-4916
▁bc	-4917
▁gm	-4918
onda	-4919
▁mel	-4920
▁soo	-4921
▁bail	-4922
▁hass	-4923
ensive	-4924
idency	-4925
nament	-4926
▁accom	-4927
▁deals	-4928
▁fault	-4929
▁index	-4930
▁motiv	-4931
▁notes	-4932
▁rugby	-4933
▁setup	-4934
▁sugar	-4935
▁turns	-4936
▁annual	-4937
▁appeal	-4938
▁shirts	-4939
▁stayed	-4940
▁android	-4941
▁garbage	-4942
▁indians	-4943
▁affected	-4944
▁coverage	-4945
▁entirely	-4946
▁impossible	-4947
▁tournament	-4948
▁competition	-4949
▁discussions	-4950
fl	-4951
chi	-4952
▁pa	-4953
▁tra	-4954
▁calm	-4955
▁fare	-4956
▁keen	-4957
▁whom	-4958
▁false	-4959
▁roles	-4960
▁silva	-4961
▁thurs	-4962
▁agreed	-4963
▁bottle	-4964
▁remind	-4965
▁psychiat	-4966
▁additionally	-4967
▁experiencing	-4968
ita	-4969
▁gy	-4970
fall	-4971
ibly	-4972
iest	-4973
▁800	-4974
▁pvt	-4975
aling	-4976
itect	-4977
▁fell	-4978
▁mins	-4979
▁stor	-4980
inting	-4981
putale	-4982
▁laugh	-4983
▁scams	-4984
▁serve	-4985
▁tests	-4986
▁damage	-4987
▁descri	-4988
▁forgot	-4989
▁gender	-4990
▁murder	-4991
▁propos	-4992
▁edexcel	-4993
▁updated	-4994
▁haputale	-4995
▁architect	-4996
▁controvers	-4997
▁relatively	-4998
▁transaction	-4999
▁gh	-5000
▁nr	-5001
▁fed	-5002
▁gro	-5003
▁pix	-5004
▁bear	-5005
▁flav	-5006
▁sust	-5007
▁virt	-5008
▁fried	-5009
▁liked	-5010
▁animal	-5011
▁fairly	-5012
▁nobody	-5013
▁player	-5014
▁anytime	-5015
▁awesome	-5016
▁devices	-5017
▁suicide	-5018
▁linkedin	-5019
▁broadband	-5020
▁py	-5021
ifts	-5022
ulum	-5023
▁anc	-5024
▁cere	-5025
▁draw	-5026
▁fing	-5027
▁mode	-5028
▁pera	-5029
▁spir	-5030
▁vend	-5031
▁obtain	-5032
▁signed	-5033
▁climate	-5034
▁backpack	-5035
▁identify	-5036
▁mistakes	-5037
▁normally	-5038
▁realized	-5039
▁household	-5040
▁hambantota	-5041
▁healthcare	-5042
egr	-5043
▁58	-5044
ngth	-5045
▁und	-5046
anned	-5047
cient	-5048
erior	-5049
ining	-5050
lanka	-5051
lying	-5052
▁dual	-5053
▁ends	-5054
▁sand	-5055
▁wont	-5056
iction	-5057
▁dates	-5058
▁flood	-5059
▁honda	-5060
▁allows	-5061
▁bigger	-5062
▁enable	-5063
▁leaves	-5064
▁lifest	-5065
▁negoti	-5066
▁powder	-5067
▁unfair	-5068
▁encount	-5069
▁motorcy	-5070
▁reserved	-5071
▁strength	-5072
▁surprise	-5073
▁supermarket	-5074
11	-5075
ino	-5076
cell	-5077
oned	-5078
▁die	-5079
▁era	-5080
▁hnb	-5081
ician	-5082
iture	-5083
▁ball	-5084
▁dent	-5085
▁elig	-5086
▁insp	-5087
▁award	-5088
▁brown	-5089
▁diagn	-5090
▁parks	-5091
▁spons	-5092
▁advant	-5093
▁buffet	-5094
▁drinks	-5095
▁suspic	-5096
▁clients	-5097
▁compare	-5098
▁decades	-5099
▁guarant	-5100
▁breaking	-5101
▁maldives	-5102
▁partners	-5103
▁rejected	-5104
▁shortage	-5105
▁touristy	-5106
▁equipment	-5107
▁realistic	-5108
▁depression	-5109
▁passengers	-5110
▁agriculture	-5111
▁88	-5112
▁mn	-5113
hera	-5114
idas	-5115
llab	-5116
▁ale	-5117
▁dan	-5118
▁acqu	-5119
▁kick	-5120
▁mini	-5121
▁nine	-5122
▁blind	-5123
▁glass	-5124
▁engage	-5125
▁entrep	-5126
▁advices	-5127
▁affairs	-5128
▁ancient	-5129
▁eastern	-5130
▁highway	-5131
▁located	-5132
▁luggage	-5133
▁maximum	-5134
▁roughly	-5135
▁provider	-5136
▁reaching	-5137
▁thursday	-5138
▁confident	-5139
▁remaining	-5140
▁curriculum	-5141
▁electronics	-5142
▁scholarships	-5143
ray	-5144
ette	-5145
ider	-5146
▁cos	-5147
▁maf	-5148
▁eyes	-5149
▁hars	-5150
▁mail	-5151
▁mall	-5152
▁onto	-5153
▁pizz	-5154
phones	-5155
▁floor	-5156
▁revol	-5157
▁voted	-5158
▁charac	-5159
▁priced	-5160
▁surgery	-5161
▁handling	-5162
▁launched	-5163
▁material	-5164
▁provides	-5165
▁searched	-5166
▁departure	-5167
▁graduated	-5168
▁receiving	-5169
▁temporary	-5170
▁bangladesh	-5171
▁qualification	-5172
▁administration	-5173
akk	-5174
ief	-5175
tok	-5176
▁56	-5177
▁yo	-5178
▁dry	-5179
▁spl	-5180
▁tap	-5181
iling	-5182
▁advis	-5183
▁esoft	-5184
▁occur	-5185
▁pages	-5186
▁steam	-5187
apitiya	-5188
▁calcul	-5189
▁integr	-5190
▁tiktok	-5191
▁assault	-5192
▁parking	-5193
▁patient	-5194
▁storage	-5195
▁educated	-5196
▁chocolate	-5197
▁ourselves	-5198
▁permanent	-5199
▁completing	-5200
▁historical	-5201
▁physically	-5202
▁production	-5203
▁purchasing	-5204
▁reputation	-5205
unk	-5206
usi	-5207
▁47	-5208
▁nq	-5209
▁rn	-5210
▁hrs	-5211
▁vet	-5212
avily	-5213
urved	-5214
▁adhd	-5215
▁desk	-5216
▁click	-5217
▁herit	-5218
▁recru	-5219
oration	-5220
▁colour	-5221
▁keells	-5222
▁satisf	-5223
▁syllab	-5224
▁ayurved	-5225
▁covered	-5226
▁heavily	-5227
▁killing	-5228
▁refused	-5229
▁articles	-5230
▁criminal	-5231
▁prepared	-5232
▁economics	-5233
▁entreprene	-5234
▁mathematics	-5235
ls	-5236
▁46	-5237
mint	-5238
olen	-5239
▁ast	-5240
▁cha	-5241
▁fru	-5242
▁gaz	-5243
araja	-5244
▁5000	-5245
▁argu	-5246
▁empt	-5247
▁lion	-5248
▁nand	-5249
▁rude	-5250
▁weak	-5251
▁frame	-5252
▁freel	-5253
▁funny	-5254
▁shall	-5255
▁sweet	-5256
▁busses	-5257
▁observ	-5258
▁punish	-5259
▁smooth	-5260
▁convert	-5261
▁failure	-5262
▁germany	-5263
▁housing	-5264
▁victims	-5265
▁volunte	-5266
▁brothers	-5267
▁carrying	-5268
▁republic	-5269
▁standing	-5270
▁tracking	-5271
▁adventure	-5272
▁positions	-5273
▁reference	-5274
▁mechanical	-5275
dd	-5276
hy	-5277
mal	-5278
oom	-5279
▁44	-5280
▁94	-5281
▁ya	-5282
▁pee	-5283
▁kore	-5284
▁ratn	-5285
bridge	-5286
priate	-5287
▁drama	-5288
▁equal	-5289
▁innov	-5290
▁knuck	-5291
▁moder	-5292
▁sigir	-5293
▁stays	-5294
▁vibes	-5295
▁affili	-5296
▁compar	-5297
▁depend	-5298
▁extent	-5299
▁landsc	-5300
▁served	-5301
▁stolen	-5302
security	-5303
▁cuisine	-5304
▁organiz	-5305
▁passing	-5306
▁wattala	-5307
▁requires	-5308
▁celebrate	-5309
▁investors	-5310
▁languages	-5311
▁practices	-5312
▁organization	-5313
ga	-5314
hn	-5315
uty	-5316
▁04	-5317
▁ec	-5318
▁fy	-5319
aked	-5320
▁gap	-5321
▁idi	-5322
▁nib	-5323
pattu	-5324
rated	-5325
▁anal	-5326
▁boat	-5327
▁doub	-5328
▁furn	-5329
▁lake	-5330
▁meat	-5331
▁nanu	-5332
▁thri	-5333
▁cloud	-5334
▁outdo	-5335
▁wrote	-5336
ionally	-5337
▁lovely	-5338
▁wallet	-5339
aranaike	-5340
▁legally	-5341
▁plastic	-5342
▁pandemic	-5343
▁remotely	-5344
▁syllabus	-5345
▁advertise	-5346
▁cancelled	-5347
▁materials	-5348
▁meanwhile	-5349
▁streaming	-5350
▁thousands	-5351
▁compensation	-5352
16	-5353
ker	-5354
sey	-5355
▁ow	-5356
iles	-5357
lock	-5358
outs	-5359
▁195	-5360
▁cid	-5361
▁coz	-5362
▁las	-5363
▁phd	-5364
▁rum	-5365
▁sar	-5366
▁bond	-5367
▁hons	-5368
▁hurt	-5369
▁liqu	-5370
friend	-5371
▁indic	-5372
▁absurd	-5373
▁adidas	-5374
▁lights	-5375
▁racist	-5376
▁trinco	-5377
▁choices	-5378
▁deserve	-5379
▁sustain	-5380
▁combined	-5381
▁constant	-5382
▁cambridge	-5383
▁committed	-5384
▁contribute	-5385
▁bandaranaike	-5386
77	-5387
ey	-5388
ded	-5389
▁ms	-5390
whel	-5391
▁kil	-5392
▁uae	-5393
craft	-5394
llers	-5395
▁arts	-5396
▁cham	-5397
▁clue	-5398
▁enth	-5399
▁angry	-5400
▁drone	-5401
▁overs	-5402
▁react	-5403
▁cousin	-5404
▁grades	-5405
▁hostel	-5406
▁princi	-5407
▁racism	-5408
▁ceremon	-5409
▁complic	-5410
▁distrib	-5411
▁elected	-5412
▁publish	-5413
▁chairman	-5414
▁cheapest	-5415
▁fighting	-5416
▁knuckles	-5417
▁managing	-5418
▁stability	-5419
▁developers	-5420
▁disconnect	-5421
▁introduced	-5422
▁significantly	-5423
log	-5424
▁du	-5425
▁dy	-5426
iled	-5427
lies	-5428
list	-5429
▁pow	-5430
▁tor	-5431
anage	-5432
▁lean	-5433
▁rare	-5434
▁temu	-5435
ocking	-5436
▁empty	-5437
▁likes	-5438
▁marry	-5439
▁raise	-5440
▁saved	-5441
▁shirt	-5442
▁crypto	-5443
▁deeply	-5444
▁deputy	-5445
▁intake	-5446
▁plenty	-5447
▁ability	-5448
▁defence	-5449
▁enthusi	-5450
▁library	-5451
▁nations	-5452
▁extended	-5453
▁holidays	-5454
▁returned	-5455
▁wilpattu	-5456
▁appointed	-5457
▁connected	-5458
▁influence	-5459
▁premadasa	-5460
▁requested	-5461
▁developing	-5462
▁interviews	-5463
▁manufacture	-5464
oko	-5465
pes	-5466
▁43	-5467
▁85	-5468
▁ie	-5469
▁rw	-5470
ager	-5471
onym	-5472
outh	-5473
ster	-5474
▁194	-5475
▁boc	-5476
▁sab	-5477
icial	-5478
iment	-5479
▁bird	-5480
▁gear	-5481
▁discl	-5482
▁lands	-5483
▁teams	-5484
▁theat	-5485
▁trail	-5486
imately	-5487
▁crimes	-5488
▁driven	-5489
▁native	-5490
▁unlike	-5491
▁destroy	-5492
▁lessons	-5493
▁streets	-5494
▁windows	-5495
▁interact	-5496
▁neighbor	-5497
▁weekends	-5498
▁intention	-5499
▁lifestyle	-5500
▁wonderful	-5501
▁institution	-5502
▁requirement	-5503
▁34	-5504
aran	-5505
uted	-5506
▁unb	-5507
▁ves	-5508
▁2017	-5509
▁tenn	-5510
minton	-5511
nesday	-5512
▁kitch	-5513
▁trash	-5514
▁urban	-5515
▁handed	-5516
▁seller	-5517
▁slowly	-5518
▁stated	-5519
▁england	-5520
▁scenari	-5521
▁activity	-5522
▁domestic	-5523
▁midnight	-5524
▁admission	-5525
▁badminton	-5526
▁dedicated	-5527
▁incredibly	-5528
▁plantations	-5529
▁possibility	-5530
▁replacement	-5531
aj	-5532
box	-5533
pay	-5534
rom	-5535
hand	-5536
udes	-5537
▁bid	-5538
▁gay	-5539
▁lie	-5540
▁tbh	-5541
▁wat	-5542
adura	-5543
overy	-5544
usted	-5545
▁firm	-5546
▁glad	-5547
▁hung	-5548
▁moon	-5549
▁nibm	-5550
▁rang	-5551
▁earth	-5552
▁filed	-5553
▁uncom	-5554
▁formal	-5555
▁ladies	-5556
▁parcel	-5557
▁becomes	-5558
▁contain	-5559
▁courier	-5560
▁graphic	-5561
▁critical	-5562
▁division	-5563
▁lectures	-5564
▁incidents	-5565
▁membership	-5566
ton	-5567
▁57	-5568
▁rt	-5569
▁ali	-5570
▁ben	-5571
point	-5572
▁cred	-5573
▁hatt	-5574
▁outs	-5575
▁poya	-5576
▁amend	-5577
▁mafia	-5578
▁navig	-5579
▁pregn	-5580
▁sides	-5581
▁whose	-5582
▁shorts	-5583
▁besides	-5584
▁factors	-5585
▁landing	-5586
▁printed	-5587
▁returns	-5588
▁heritage	-5589
▁electronic	-5590
▁presidency	-5591
▁potentially	-5592
▁availability	-5593
ii	-5594
mer	-5595
agon	-5596
atta	-5597
enge	-5598
geon	-5599
iers	-5600
rent	-5601
▁bor	-5602
▁ine	-5603
▁spa	-5604
antic	-5605
apped	-5606
uriya	-5607
▁dele	-5608
▁niss	-5609
▁pair	-5610
▁quit	-5611
ushing	-5612
▁accur	-5613
▁adopt	-5614
▁alive	-5615
▁graph	-5616
▁skill	-5617
▁tight	-5618
erences	-5619
▁doesnt	-5620
▁expand	-5621
▁sunset	-5622
▁values	-5623
▁equival	-5624
▁experts	-5625
▁conflict	-5626
▁contacts	-5627
▁depending	-5628
▁scheduled	-5629
▁sinharaja	-5630
▁wednesday	-5631
▁convenient	-5632
▁democratic	-5633
▁constitution	-5634
▁investigations	-5635
bu	-5636
tt	-5637
lets	-5638
▁cig	-5639
▁len	-5640
▁mum	-5641
▁mut	-5642
▁wik	-5643
▁shut	-5644
urally	-5645
▁bonus	-5646
▁lucky	-5647
▁newly	-5648
▁pixel	-5649
▁subur	-5650
▁towns	-5651
▁coding	-5652
▁hatton	-5653
▁picked	-5654
▁snacks	-5655
▁termin	-5656
▁claimed	-5657
▁kitchen	-5658
▁largest	-5659
▁sigirya	-5660
▁promises	-5661
▁relaxing	-5662
▁boyfriend	-5663
▁confidence	-5664
▁leadership	-5665
▁ridiculous	-5666
▁supporters	-5667
▁discrimination	-5668
23	-5669
bb	-5670
ges	-5671
men	-5672
eral	-5673
gged	-5674
olic	-5675
ysis	-5676
▁kad	-5677
▁uom	-5678
▁cree	-5679
▁muse	-5680
▁siri	-5681
▁alert	-5682
▁elder	-5683
▁memor	-5684
▁recon	-5685
▁spare	-5686
▁subst	-5687
respect	-5688
▁anonym	-5689
▁excell	-5690
▁extend	-5691
▁faster	-5692
▁ingred	-5693
▁league	-5694
▁speech	-5695
▁spices	-5696
▁continu	-5697
▁figures	-5698
▁fitness	-5699
▁overwhel	-5700
▁travelled	-5701
▁uncomfort	-5702
▁motorcycle	-5703
gi	-5704
mi	-5705
lig	-5706
▁68	-5707
▁pf	-5708
ames	-5709
ancy	-5710
wide	-5711
▁cro	-5712
▁gram	-5713
▁koko	-5714
aratne	-5715
▁guard	-5716
▁mosqu	-5717
▁stack	-5718
▁units	-5719
issions	-5720
▁cinema	-5721
▁deduct	-5722
▁hassle	-5723
▁memory	-5724
▁submit	-5725
▁talked	-5726
▁consequ	-5727
▁granted	-5728
▁reputed	-5729
▁russian	-5730
▁assuming	-5731
▁duration	-5732
▁employee	-5733
▁ordering	-5734
▁regional	-5735
▁telegram	-5736
▁associate	-5737
▁challenge	-5738
▁favourite	-5739
▁submitted	-5740
▁complaints	-5741
▁disgusting	-5742
▁statistics	-5743
▁cybersecurity	-5744
alf	-5745
eds	-5746
iru	-5747
oms	-5748
▁sr	-5749
vels	-5750
▁gdp	-5751
▁jew	-5752
anged	-5753
osity	-5754
▁beer	-5755
▁rape	-5756
▁sole	-5757
▁warm	-5758
▁badly	-5759
▁grown	-5760
▁hybri	-5761
▁pizza	-5762
▁sadly	-5763
▁shift	-5764
▁solve	-5765
▁broker	-5766
▁theres	-5767
▁thinks	-5768
▁toward	-5769
▁causing	-5770
▁concert	-5771
▁forever	-5772
▁session	-5773
▁survive	-5774
▁creative	-5775
▁detected	-5776
▁instruct	-5777
▁opposite	-5778
▁panadura	-5779
▁conducted	-5780
▁freelance	-5781
▁promoting	-5782
▁selection	-5783
▁switching	-5784
▁collection	-5785
▁discipline	-5786
▁initiative	-5787
▁examination	-5788
▁generations	-5789
▁uncomfortable	-5790
29	-5791
vi	-5792
yo	-5793
tin	-5794
uba	-5795
izer	-5796
▁cod	-5797
▁sms	-5798
adays	-5799
arter	-5800
issed	-5801
rooms	-5802
▁fert	-5803
▁pays	-5804
▁aside	-5805
▁coach	-5806
▁goals	-5807
▁lotus	-5808
▁paths	-5809
▁rides	-5810
▁ultra	-5811
▁upper	-5812
▁visas	-5813
▁assets	-5814
▁behavi	-5815
▁bother	-5816
▁earned	-5817
▁images	-5818
▁licens	-5819
▁ravana	-5820
▁macbook	-5821
▁boarding	-5822
▁nowadays	-5823
▁patients	-5824
▁printing	-5825
▁attending	-5826
▁providers	-5827
▁frequently	-5828
▁networking	-5829
▁operations	-5830
▁destinations	-5831
▁expectations	-5832
▁psychiatrist	-5833
26	-5834
aud	-5835
hib	-5836
▁64	-5837
▁77	-5838
▁hat	-5839
ussia	-5840
▁cast	-5841
▁core	-5842
▁lift	-5843
▁navy	-5844
▁seek	-5845
▁deter	-5846
▁divor	-5847
▁explo	-5848
▁hindu	-5849
▁plate	-5850
▁rainy	-5851
▁smell	-5852
iciency	-5853
▁distur	-5854
▁dreams	-5855
▁prison	-5856
▁riding	-5857
▁amounts	-5858
▁exposed	-5859
▁indones	-5860
▁remains	-5861
▁smaller	-5862
▁therapy	-5863
▁eligible	-5864
▁northern	-5865
▁supports	-5866
▁workplace	-5867
▁passionate	-5868
▁assignments	-5869
mn	-5870
▁fd	-5871
days	-5872
ilty	-5873
inge	-5874
ooks	-5875
unga	-5876
bally	-5877
▁2009	-5878
▁cath	-5879
▁cima	-5880
▁fant	-5881
▁hack	-5882
▁hunt	-5883
▁john	-5884
▁mods	-5885
▁pray	-5886
▁sett	-5887
▁upto	-5888
lusive	-5889
priced	-5890
▁chand	-5891
▁flash	-5892
▁tells	-5893
▁behalf	-5894
▁hiring	-5895
▁object	-5896
▁russia	-5897
▁america	-5898
▁carried	-5899
▁effects	-5900
▁entered	-5901
▁exports	-5902
▁footage	-5903
▁reduced	-5904
▁shocked	-5905
▁vaccine	-5906
▁agencies	-5907
▁announce	-5908
▁director	-5909
▁horrible	-5910
▁jayaward	-5911
▁presence	-5912
▁proposed	-5913
▁traveler	-5914
▁estimated	-5915
▁immediate	-5916
▁migration	-5917
▁travelers	-5918
▁suggestion	-5919
▁association	-5920
▁challenging	-5921
▁implemented	-5922
22	-5923
ox	-5924
▁51	-5925
▁66	-5926
▁89	-5927
▁bm	-5928
aded	-5929
well	-5930
▁180	-5931
▁sum	-5932
▁unw	-5933
▁ups	-5934
▁voc	-5935
ambal	-5936
icted	-5937
ndred	-5938
under	-5939
wella	-5940
▁asks	-5941
▁diet	-5942
▁exha	-5943
▁tail	-5944
▁unus	-5945
▁wake	-5946
ifying	-5947
seeing	-5948
▁apiit	-5949
▁boost	-5950
▁brief	-5951
▁kinds	-5952
▁merch	-5953
▁queue	-5954
▁talks	-5955
entials	-5956
▁banned	-5957
▁conver	-5958
▁duties	-5959
▁explan	-5960
▁messed	-5961
▁spirit	-5962
▁verify	-5963
▁vision	-5964
▁advised	-5965
▁clarify	-5966
▁hundred	-5967
▁outdoor	-5968
▁profile	-5969
▁speaker	-5970
▁entering	-5971
▁traveled	-5972
▁computing	-5973
▁depressed	-5974
▁frustrated	-5975
▁politician	-5976
▁protection	-5977
▁differences	-5978
▁sightseeing	-5979
▁translation	-5980
▁applications	-5981
pap	-5982
▁ml	-5983
▁ti	-5984
izes	-5985
rics	-5986
▁arm	-5987
▁imo	-5988
▁ish	-5989
cious	-5990
order	-5991
▁feas	-5992
▁feet	-5993
▁fulf	-5994
▁laks	-5995
▁orph	-5996
▁tatt	-5997
▁zone	-5998
▁bound	-5999
▁expos	-6000
▁judge	-6001
▁ports	-6002
ception	-6003
▁acting	-6004
▁agents	-6005
▁collab	-6006
▁cooked	-6007
▁hybrid	-6008
▁provin	-6009
▁rising	-6010
▁shares	-6011
▁spaces	-6012
▁transf	-6013
▁transp	-6014
▁bottles	-6015
▁hostels	-6016
▁hotline	-6017
▁screens	-6018
▁variety	-6019
▁allowing	-6020
▁designed	-6021
▁proposal	-6022
▁romantic	-6023
▁bachelors	-6024
▁entertain	-6025
▁lecturers	-6026
▁neighbour	-6027
▁overpriced	-6028
▁permission	-6029
▁accountability	-6030
gpt	-6031
ley	-6032
▁mi	-6033
▁tl	-6034
cuse	-6035
eper	-6036
food	-6037
imal	-6038
▁350	-6039
▁900	-6040
▁gal	-6041
▁nal	-6042
ocide	-6043
orate	-6044
▁amid	-6045
▁asap	-6046
▁tort	-6047
icking	-6048
▁chief	-6049
▁incom	-6050
▁sells	-6051
▁client	-6052
▁excuse	-6053
▁funded	-6054
▁sacrif	-6055
▁tattoo	-6056
▁cutting	-6057
▁hoppers	-6058
▁neither	-6059
▁promote	-6060
▁receipt	-6061
▁browsers	-6062
▁category	-6063
▁colonial	-6064
▁replaced	-6065
▁workshop	-6066
▁advantage	-6067
▁interests	-6068
▁purchases	-6069
▁regularly	-6070
▁translate	-6071
▁established	-6072
▁ingredients	-6073
▁disappointed	-6074
▁conversations	-6075
19	-6076
ags	-6077
bay	-6078
▁67	-6079
▁ft	-6080
unic	-6081
▁fab	-6082
▁fyi	-6083
▁raw	-6084
▁rot	-6085
▁ruh	-6086
lands	-6087
▁fits	-6088
▁indo	-6089
▁isol	-6090
▁menu	-6091
▁symb	-6092
▁thus	-6093
▁wood	-6094
erning	-6095
▁abans	-6096
▁dutch	-6097
▁nepal	-6098
▁taxed	-6099
ointing	-6100
▁cancer	-6101
▁ending	-6102
▁finger	-6103
▁guilty	-6104
▁scheme	-6105
▁tennis	-6106
▁consent	-6107
▁involve	-6108
▁onwards	-6109
▁skilled	-6110
▁measures	-6111
▁randomly	-6112
▁scenario	-6113
▁somebody	-6114
▁stressed	-6115
▁elsewhere	-6116
▁everybody	-6117
▁suspicious	-6118
▁internation	-6119
ody	-6120
rem	-6121
▁59	-6122
▁aa	-6123
▁gs	-6124
▁mt	-6125
▁si	-6126
ched	-6127
iped	-6128
pass	-6129
▁avi	-6130
▁gig	-6131
▁lan	-6132
▁mps	-6133
▁ski	-6134
orant	-6135
▁2010	-6136
▁cond	-6137
▁dies	-6138
ession	-6139
▁monks	-6140
▁quote	-6141
▁risky	-6142
▁stops	-6143
▁trump	-6144
▁burden	-6145
▁circum	-6146
▁follows	-6147
▁injured	-6148
▁repairs	-6149
▁sellers	-6150
▁testing	-6151
▁aircraft	-6152
▁analysis	-6153
▁examples	-6154
▁invested	-6155
▁ordinary	-6156
▁powerful	-6157
▁promised	-6158
▁revealed	-6159
▁christian	-6160
▁efficient	-6161
▁encourage	-6162
▁mandatory	-6163
▁prospects	-6164
▁residence	-6165
▁vegetarian	-6166
▁parliamentary	-6167
33	-6168
bc	-6169
pa	-6170
isa	-6171
tha	-6172
▁76	-6173
▁nj	-6174
abet	-6175
hana	-6176
itty	-6177
▁700	-6178
▁twe	-6179
gging	-6180
ivers	-6181
▁chip	-6182
▁dise	-6183
▁lone	-6184
▁pull	-6185
▁shar	-6186
▁tank	-6187
awatte	-6188
pitiya	-6189
▁crash	-6190
▁faith	-6191
▁prove	-6192
▁trial	-6193
▁airbnb	-6194
▁analyt	-6195
▁window	-6196
▁yellow	-6197
▁aggress	-6198
▁chatgpt	-6199
▁dealers	-6200
▁enforce	-6201
▁hangout	-6202
▁lawyers	-6203
▁minimal	-6204
▁produce	-6205
▁stating	-6206
▁recorded	-6207
▁continued	-6208
▁desperate	-6209
▁operating	-6210
▁concerning	-6211
▁disrespect	-6212
▁originally	-6213
▁rajapaksha	-6214
▁environmental	-6215
18	-6216
py	-6217
rog	-6218
uru	-6219
▁az	-6220
anka	-6221
ches	-6222
hips	-6223
wood	-6224
▁cow	-6225
▁ofc	-6226
▁rit	-6227
▁tel	-6228
iance	-6229
▁defe	-6230
▁grad	-6231
▁unne	-6232
forest	-6233
▁canad	-6234
▁champ	-6235
▁italy	-6236
▁lgbtq	-6237
▁tours	-6238
▁treas	-6239
▁covers	-6240
▁dining	-6241
▁enroll	-6242
▁fertil	-6243
▁labour	-6244
▁suffer	-6245
atically	-6246
▁coastal	-6247
▁inspect	-6248
▁pushing	-6249
▁records	-6250
▁feelings	-6251
▁memories	-6252
▁mentally	-6253
▁semester	-6254
▁stations	-6255
▁emotional	-6256
▁socialist	-6257
▁sufficient	-6258
▁conditioner	-6259
pn	-6260
xy	-6261
asc	-6262
ops	-6263
▁cp	-6264
▁ww	-6265
▁aus	-6266
▁nye	-6267
▁ped	-6268
▁tok	-6269
uting	-6270
▁arag	-6271
▁gyms	-6272
▁hype	-6273
▁prev	-6274
▁remem	-6275
▁shout	-6276
▁smile	-6277
▁split	-6278
▁cheese	-6279
▁deserv	-6280
▁golden	-6281
▁ignore	-6282
▁placed	-6283
aramulla	-6284
▁efforts	-6285
▁invited	-6286
▁letters	-6287
▁picking	-6288
▁accurate	-6289
▁chemical	-6290
▁networks	-6291
▁realised	-6292
▁repeated	-6293
▁sessions	-6294
▁unnecess	-6295
▁organized	-6296
▁privately	-6297
▁reputable	-6298
▁enthusiast	-6299
▁equivalent	-6300
▁impression	-6301
▁hospitality	-6302
▁surrounding	-6303
▁verification	-6304
▁93	-6305
apes	-6306
bour	-6307
enna	-6308
inal	-6309
onal	-6310
▁amd	-6311
▁nas	-6312
▁odd	-6313
▁rub	-6314
alaya	-6315
utara	-6316
▁2016	-6317
▁acne	-6318
▁carg	-6319
▁dham	-6320
▁porn	-6321
▁rely	-6322
▁whil	-6323
awatha	-6324
▁began	-6325
▁gifts	-6326
▁hikes	-6327
▁metal	-6328
▁meter	-6329
▁postp	-6330
▁rapid	-6331
▁scuba	-6332
▁stone	-6333
▁decade	-6334
▁excess	-6335
▁fucked	-6336
▁harder	-6337
▁marine	-6338
▁mining	-6339
▁retire	-6340
▁analyst	-6341
▁careful	-6342
▁pattern	-6343
▁scratch	-6344
▁visible	-6345
▁admitted	-6346
▁consumer	-6347
▁designer	-6348
▁discover	-6349
▁feasible	-6350
▁genocide	-6351
▁habarana	-6352
▁keyboard	-6353
▁suspects	-6354
▁curiosity	-6355
▁operation	-6356
▁undergrad	-6357
▁industries	-6358
▁properties	-6359
▁appropriate	-6360
▁certificates	-6361
▁consequences	-6362
▁internationally	-6363
68	-6364
kg	-6365
yy	-6366
nel	-6367
▁aqu	-6368
▁bbc	-6369
▁dns	-6370
▁ske	-6371
▁ugc	-6372
▁1500	-6373
▁asus	-6374
▁auto	-6375
▁bicy	-6376
▁burn	-6377
▁cats	-6378
▁mbbs	-6379
▁task	-6380
▁zeal	-6381
urning	-6382
▁chain	-6383
▁facts	-6384
▁heads	-6385
▁innoc	-6386
▁lease	-6387
▁noise	-6388
▁spice	-6389
▁stray	-6390
▁festiv	-6391
▁instru	-6392
▁museum	-6393
▁packed	-6394
▁plants	-6395
▁weekly	-6396
▁whilst	-6397
▁couples	-6398
▁falling	-6399
▁funding	-6400
▁ignored	-6401
▁portion	-6402
▁priorit	-6403
▁privile	-6404
▁reforms	-6405
▁sectors	-6406
▁threads	-6407
▁zealand	-6408
▁attacked	-6409
▁screensh	-6410
▁generated	-6411
▁mountains	-6412
▁transform	-6413
▁traveller	-6414
▁acceptable	-6415
▁percentage	-6416
ambalapitiya	-6417
▁allegations	-6418
▁complaining	-6419
▁differently	-6420
▁freelancing	-6421
▁programming	-6422
▁architecture	-6423
▁confirmation	-6424
fo	-6425
hr	-6426
hab	-6427
▁53	-6428
▁eo	-6429
▁qa	-6430
acle	-6431
cape	-6432
rial	-6433
▁alt	-6434
▁nst	-6435
▁odi	-6436
▁pas	-6437
▁pir	-6438
apter	-6439
▁iron	-6440
igning	-6441
▁embar	-6442
▁hesit	-6443
▁intel	-6444
▁pleas	-6445
▁scope	-6446
▁battle	-6447
▁corner	-6448
▁minded	-6449
▁mirror	-6450
▁motorb	-6451
▁passes	-6452
▁portal	-6453
▁rarely	-6454
▁recipe	-6455
▁ruhuna	-6456
▁scient	-6457
▁captain	-6458
▁licence	-6459
▁pathway	-6460
▁reserve	-6461
▁wasting	-6462
▁recovery	-6463
▁reserves	-6464
▁speakers	-6465
▁extension	-6466
▁listening	-6467
▁migrating	-6468
▁nightlife	-6469
▁returning	-6470
▁spreading	-6471
▁affiliated	-6472
▁srilankans	-6473
▁supportive	-6474
▁transition	-6475
fol	-6476
str	-6477
uls	-6478
ique	-6479
▁pid	-6480
▁vit	-6481
usion	-6482
▁airt	-6483
▁cops	-6484
▁ties	-6485
▁wire	-6486
▁aband	-6487
▁hopes	-6488
▁seven	-6489
▁tasks	-6490
▁taxis	-6491
▁escape	-6492
▁ruined	-6493
▁aspects	-6494
▁ethical	-6495
▁failing	-6496
▁nowhere	-6497
▁pointed	-6498
▁vendors	-6499
▁violent	-6500
▁actively	-6501
▁ceremony	-6502
▁deciding	-6503
▁visitors	-6504
▁published	-6505
▁terrorist	-6506
▁transfers	-6507
▁apartments	-6508
▁assignment	-6509
▁graduation	-6510
▁surprising	-6511
▁combination	-6512
▁personality	-6513
▁battaramulla	-6514
▁technologies	-6515
la	-6516
few	-6517
iry	-6518
ode	-6519
pot	-6520
reh	-6521
rew	-6522
thi	-6523
▁69	-6524
▁95	-6525
▁bh	-6526
▁dj	-6527
▁ii	-6528
elam	-6529
eria	-6530
oles	-6531
▁noo	-6532
▁tab	-6533
▁wis	-6534
amuwa	-6535
ourse	-6536
▁bund	-6537
▁crab	-6538
▁crap	-6539
▁monk	-6540
rative	-6541
▁cable	-6542
▁crush	-6543
▁flags	-6544
▁gotta	-6545
▁greet	-6546
▁overt	-6547
▁peeps	-6548
▁quant	-6549
▁tutor	-6550
▁apolog	-6551
▁bottom	-6552
▁breath	-6553
▁exists	-6554
▁manner	-6555
▁symbol	-6556
▁ukrain	-6557
▁visits	-6558
▁default	-6559
▁forcing	-6560
▁moments	-6561
▁organic	-6562
▁seafood	-6563
▁suspend	-6564
▁focusing	-6565
▁perahera	-6566
▁confusing	-6567
▁explained	-6568
▁furniture	-6569
▁sensitive	-6570
▁struggles	-6571
▁typically	-6572
▁accessible	-6573
▁discovered	-6574
▁disappointing	-6575
▁entertainment	-6576
28	-6577
45	-6578
abe	-6579
ils	-6580
iqu	-6581
oes	-6582
ovo	-6583
▁ds	-6584
▁nk	-6585
next	-6586
word	-6587
▁dim	-6588
▁yog	-6589
agues	-6590
stood	-6591
▁brut	-6592
▁leaf	-6593
▁plot	-6594
ulated	-6595
▁adams	-6596
▁atmos	-6597
▁chart	-6598
▁karun	-6599
▁monet	-6600
▁venue	-6601
▁collap	-6602
▁courts	-6603
▁exclud	-6604
▁summer	-6605
▁viable	-6606
▁accomod	-6607
▁camping	-6608
▁classic	-6609
▁command	-6610
▁damaged	-6611
▁strange	-6612
▁supreme	-6613
▁arranged	-6614
▁detailed	-6615
▁globally	-6616
▁innocent	-6617
▁internal	-6618
▁meetings	-6619
▁movement	-6620
▁obtained	-6621
▁criticism	-6622
▁terrorism	-6623
▁explaining	-6624
▁protesters	-6625
▁revolution	-6626
▁importantly	-6627
▁researching	-6628
13	-6629
che	-6630
een	-6631
net	-6632
▁cc	-6633
iors	-6634
▁aid	-6635
▁fis	-6636
▁gce	-6637
▁lit	-6638
▁suv	-6639
▁vpn	-6640
agala	-6641
enced	-6642
falls	-6643
▁coin	-6644
▁eggs	-6645
▁flat	-6646
▁rath	-6647
▁tiny	-6648
angala	-6649
▁balls	-6650
▁faces	-6651
▁forex	-6652
▁kings	-6653
▁plane	-6654
▁quota	-6655
▁vague	-6656
asuriya	-6657
▁assess	-6658
▁cigare	-6659
▁curfew	-6660
▁divers	-6661
▁emails	-6662
▁lenovo	-6663
▁pickup	-6664
▁pocket	-6665
▁shitty	-6666
▁artific	-6667
▁capable	-6668
▁enjoyed	-6669
▁gazette	-6670
▁premier	-6671
▁profits	-6672
▁recruit	-6673
▁regards	-6674
▁attitude	-6675
▁canadian	-6676
▁circumst	-6677
▁frequent	-6678
▁function	-6679
▁kalutara	-6680
▁minority	-6681
▁pregnant	-6682
▁sometime	-6683
▁superior	-6684
▁behaviour	-6685
▁fundament	-6686
▁improving	-6687
▁mentality	-6688
▁processing	-6689
▁sustainable	-6690
▁manufacturing	-6691
▁organizations	-6692
70	-6693
ba	-6694
fc	-6695
▁63	-6696
▁98	-6697
▁ct	-6698
▁mc	-6699
▁md	-6700
aker	-6701
▁asp	-6702
▁dol	-6703
▁fer	-6704
▁hyp	-6705
▁ird	-6706
▁jet	-6707
▁lap	-6708
▁otp	-6709
▁por	-6710
agged	-6711
dated	-6712
engue	-6713
hamed	-6714
▁acts	-6715
▁dism	-6716
▁dram	-6717
▁hsbc	-6718
▁hust	-6719
▁java	-6720
▁wave	-6721
orough	-6722
▁eelam	-6723
▁katun	-6724
▁panel	-6725
▁plain	-6726
▁dengue	-6727
▁lesser	-6728
▁queues	-6729
▁singer	-6730
▁cleared	-6731
▁contest	-6732
▁divorce	-6733
▁editing	-6734
▁handled	-6735
▁layover	-6736
▁newspap	-6737
▁suburbs	-6738
▁achieved	-6739
▁stopping	-6740
▁switched	-6741
▁apologies	-6742
▁aragalaya	-6743
▁continues	-6744
▁shortages	-6745
▁accounting	-6746
▁identified	-6747
▁meaningful	-6748
▁punishment	-6749
▁strategies	-6750
▁treatments	-6751
▁documentary	-6752
▁governments	-6753
fa	-6754
gu	-6755
mo	-6756
old	-6757
reg	-6758
rip	-6759
▁cv	-6760
▁pd	-6761
▁sq	-6762
otic	-6763
umes	-6764
▁ate	-6765
▁ols	-6766
▁plz	-6767
▁ren	-6768
eriya	-6769
▁edge	-6770
▁leop	-6771
▁mora	-6772
▁myth	-6773
▁nerv	-6774
▁vast	-6775
▁viet	-6776
▁zoom	-6777
▁argue	-6778
▁chaos	-6779
▁dance	-6780
▁domin	-6781
▁escal	-6782
▁fruit	-6783
▁joint	-6784
▁korea	-6785
▁label	-6786
▁spect	-6787
▁spicy	-6788
▁stret	-6789
ensions	-6790
▁beaten	-6791
▁bullsh	-6792
▁deeper	-6793
▁derana	-6794
▁insist	-6795
▁limits	-6796
▁monkey	-6797
▁pieces	-6798
▁purely	-6799
▁rented	-6800
▁scream	-6801
▁silent	-6802
▁turtle	-6803
▁wasted	-6804
▁whales	-6805
▁worthy	-6806
▁accused	-6807
▁filling	-6808
▁hanging	-6809
▁operate	-6810
▁portfol	-6811
▁prescri	-6812
▁shipped	-6813
▁aviation	-6814
▁enjoying	-6815
▁historic	-6816
▁outdated	-6817
▁produced	-6818
▁settings	-6819
▁disappear	-6820
▁reporting	-6821
▁colleagues	-6822
▁conducting	-6823
▁description	-6824
▁journalists	-6825
▁participate	-6826
▁unnecessary	-6827
esh	-6828
lix	-6829
mpt	-6830
ods	-6831
ran	-6832
rig	-6833
▁74	-6834
▁78	-6835
▁cm	-6836
away	-6837
rass	-6838
thon	-6839
tles	-6840
usal	-6841
wing	-6842
▁ash	-6843
▁ble	-6844
▁eve	-6845
▁kap	-6846
▁nse	-6847
▁pcr	-6848
▁tom	-6849
ulate	-6850
uries	-6851
works	-6852
▁amar	-6853
▁ange	-6854
▁blog	-6855
▁boss	-6856
▁bure	-6857
▁gala	-6858
▁isnt	-6859
▁jail	-6860
▁nuts	-6861
▁shad	-6862
▁stab	-6863
unning	-6864
▁camer	-6865
▁crack	-6866
▁fraud	-6867
▁manip	-6868
▁multi	-6869
▁occup	-6870
▁scold	-6871
▁trick	-6872
▁airtel	-6873
▁bloody	-6874
▁brings	-6875
▁inland	-6876
▁jungle	-6877
▁pepper	-6878
▁portug	-6879
▁theory	-6880
▁alright	-6881
▁blaming	-6882
▁century	-6883
▁crucial	-6884
▁feature	-6885
▁leaning	-6886
▁nursing	-6887
▁persons	-6888
▁vietnam	-6889
▁answered	-6890
▁audience	-6891
▁exposure	-6892
▁hardware	-6893
▁scammers	-6894
▁shooting	-6895
▁startups	-6896
▁ayurvedic	-6897
▁buildings	-6898
▁diagnosed	-6899
▁indonesia	-6900
▁introduce	-6901
▁preparing	-6902
▁qualified	-6903
▁afterwards	-6904
▁harassment	-6905
▁literature	-6906
▁medication	-6907
▁rajapaksas	-6908
▁accountable	-6909
▁complicated	-6910
▁freelancers	-6911
▁controversial	-6912
ldr	-6913
oty	-6914
rad	-6915
uge	-6916
▁ju	-6917
▁tf	-6918
kara	-6919
kers	-6920
resp	-6921
▁450	-6922
▁dat	-6923
▁nac	-6924
▁plc	-6925
▁sav	-6926
▁suz	-6927
▁bats	-6928
▁leng	-6929
▁phil	-6930
▁roll	-6931
▁sake	-6932
▁tldr	-6933
▁tuks	-6934
ctions	-6935
▁colum	-6936
▁paint	-6937
▁pidur	-6938
▁sucks	-6939
▁accent	-6940
▁bureau	-6941
▁counse	-6942
▁doubts	-6943
▁height	-6944
▁orient	-6945
▁quoted	-6946
▁rating	-6947
▁unknow	-6948
▁walked	-6949
▁artists	-6950
▁figured	-6951
▁grandma	-6952
▁subscri	-6953
▁whereas	-6954
▁bankrupt	-6955
▁cleaning	-6956
▁declared	-6957
▁employed	-6958
▁enrolled	-6959
▁improved	-6960
▁analytics	-6961
▁certified	-6962
▁character	-6963
▁religions	-6964
▁authorized	-6965
▁comparison	-6966
▁conference	-6967
▁attractions	-6968
▁photography	-6969
▁approximately	-6970
14	-6971
ux	-6972
bby	-6973
jan	-6974
uce	-6975
uki	-6976
uts	-6977
▁84	-6978
▁cd	-6979
▁ea	-6980
▁hd	-6981
osis	-6982
▁160	-6983
▁360	-6984
▁bis	-6985
▁isp	-6986
▁nch	-6987
▁som	-6988
▁tag	-6989
books	-6990
eliya	-6991
gment	-6992
mates	-6993
▁boom	-6994
▁bout	-6995
▁goog	-6996
▁nood	-6997
▁roof	-6998
▁tons	-6999
▁coord	-7000
▁hired	-7001
▁rajag	-7002
▁river	-7003
▁basket	-7004
▁dental	-7005
▁infect	-7006
▁planet	-7007
▁pulled	-7008
▁widely	-7009
▁credits	-7010
▁depreci	-7011
▁gaining	-7012
▁kingdom	-7013
▁mosquit	-7014
▁podcast	-7015
▁raining	-7016
▁serving	-7017
▁tariffs	-7018
▁theatre	-7019
▁argument	-7020
▁bookings	-7021
▁covering	-7022
▁dropping	-7023
▁flexible	-7024
▁painting	-7025
▁stronger	-7026
▁suffered	-7027
▁correctly	-7028
▁orphanage	-7029
▁promotion	-7030
▁applicable	-7031
▁consistent	-7032
▁journalist	-7033
▁legitimate	-7034
▁mentioning	-7035
▁resignation	-7036
cr	-7037
bre	-7038
bsl	-7039
ivu	-7040
▁54	-7041
▁72	-7042
▁79	-7043
aped	-7044
elts	-7045
gger	-7046
yani	-7047
▁196	-7048
▁icc	-7049
▁kit	-7050
▁tig	-7051
akers	-7052
eared	-7053
usive	-7054
▁2012	-7055
▁bare	-7056
▁cann	-7057
▁crew	-7058
▁nons	-7059
▁suck	-7060
ipedia	-7061
▁alloc	-7062
▁ambul	-7063
▁bread	-7064
▁drunk	-7065
▁inver	-7066
▁loyal	-7067
▁paran	-7068
▁relie	-7069
▁shape	-7070
▁stood	-7071
▁sympt	-7072
▁unity	-7073
▁attest	-7074
▁breaks	-7075
▁cooper	-7076
▁extrem	-7077
▁guests	-7078
▁landed	-7079
▁openly	-7080
▁welcom	-7081
iversary	-7082
▁depends	-7083
▁educate	-7084
▁relaxed	-7085
▁winning	-7086
▁attended	-7087
▁bullshit	-7088
▁catholic	-7089
▁democracy	-7090
▁finishing	-7091
▁medicines	-7092
▁ratnapura	-7093
▁connecting	-7094
▁expressway	-7095
▁manageable	-7096
▁statements	-7097
▁anniversary	-7098
▁consumption	-7099
▁prescription	-7100
▁bambalapitiya	-7101
alu	-7102
aug	-7103
eed	-7104
▁mm	-7105
▁ry	-7106
keys	-7107
oons	-7108
otes	-7109
rend	-7110
▁cad	-7111
▁gor	-7112
▁ngo	-7113
acing	-7114
ucing	-7115
▁2005	-7116
▁alph	-7117
▁dias	-7118
▁kiri	-7119
▁mend	-7120
▁neut	-7121
▁newb	-7122
▁pfca	-7123
▁pump	-7124
▁reck	-7125
▁ruin	-7126
▁weer	-7127
ilians	-7128
▁admit	-7129
▁armed	-7130
▁bless	-7131
▁drain	-7132
▁grave	-7133
▁lying	-7134
▁toile	-7135
rilanka	-7136
▁adjust	-7137
▁causes	-7138
▁intent	-7139
▁lesson	-7140
▁nissan	-7141
▁repeat	-7142
▁suzuki	-7143
▁tested	-7144
▁voters	-7145
▁appears	-7146
▁closest	-7147
▁cousins	-7148
▁replied	-7149
▁climbing	-7150
▁employer	-7151
▁facility	-7152
▁instance	-7153
▁requests	-7154
▁strategy	-7155
▁civilians	-7156
▁construct	-7157
▁destroyed	-7158
▁excellent	-7159
▁landscape	-7160
▁naturally	-7161
▁portfolio	-7162
▁secondary	-7163
▁artificial	-7164
▁complained	-7165
▁katunayake	-7166
▁rajagiriya	-7167
▁traditions	-7168
▁travellers	-7169
▁emotionally	-7170
▁pidurangala	-7171
▁transferred	-7172
▁conservative	-7173
▁entrepreneur	-7174
▁certification	-7175
ij	-7176
vy	-7177
▁kr	-7178
▁oc	-7179
asia	-7180
olit	-7181
plic	-7182
rise	-7183
▁abt	-7184
▁ios	-7185
▁lem	-7186
▁org	-7187
▁pek	-7188
inder	-7189
phere	-7190
riers	-7191
▁ages	-7192
▁bell	-7193
▁caut	-7194
▁pets	-7195
▁ring	-7196
▁salt	-7197
▁tear	-7198
▁tiss	-7199
charge	-7200
harama	-7201
neriya	-7202
▁align	-7203
▁films	-7204
▁pants	-7205
▁parad	-7206
▁squee	-7207
▁toler	-7208
▁troub	-7209
▁upset	-7210
▁aspect	-7211
▁circle	-7212
▁horror	-7213
▁lonely	-7214
▁margin	-7215
▁marked	-7216
▁mosque	-7217
▁surely	-7218
▁trends	-7219
▁brokers	-7220
▁discord	-7221
▁easiest	-7222
▁fastest	-7223
▁liberal	-7224
▁nervous	-7225
▁organis	-7226
▁travels	-7227
▁hundreds	-7228
▁interior	-7229
▁inverter	-7230
▁migrated	-7231
▁nonsense	-7232
▁sciences	-7233
▁symptoms	-7234
▁alongside	-7235
▁amendment	-7236
▁passenger	-7237
▁commitment	-7238
▁preference	-7239
▁reasonably	-7240
▁wellawatte	-7241
▁accessories	-7242
▁explanation	-7243
17	-7244
35	-7245
azy	-7246
ews	-7247
hrs	-7248
zen	-7249
▁97	-7250
▁ja	-7251
bery	-7252
icks	-7253
ikud	-7254
soft	-7255
▁125	-7256
▁bot	-7257
▁gpu	-7258
▁jam	-7259
▁nae	-7260
▁sib	-7261
count	-7262
▁hits	-7263
▁legs	-7264
▁pean	-7265
▁pinn	-7266
▁poss	-7267
▁tall	-7268
▁weap	-7269
ortion	-7270
▁anime	-7271
▁attor	-7272
▁awful	-7273
▁dying	-7274
▁entit	-7275
▁pekoe	-7276
ography	-7277
▁aiming	-7278
▁burger	-7279
▁deaths	-7280
▁denied	-7281
▁dermat	-7282
▁factor	-7283
▁nurses	-7284
▁prompt	-7285
▁sorted	-7286
▁studio	-7287
▁unions	-7288
▁awarded	-7289
▁beliefs	-7290
▁demands	-7291
▁diaspor	-7292
▁disrupt	-7293
▁holders	-7294
▁monkeys	-7295
▁predict	-7296
▁recipes	-7297
▁succeed	-7298
▁turtles	-7299
▁virtual	-7300
▁alliance	-7301
▁cargills	-7302
▁cautious	-7303
▁checkout	-7304
▁convince	-7305
▁greatest	-7306
▁millions	-7307
▁reducing	-7308
▁suggests	-7309
▁welcomed	-7310
▁attempted	-7311
▁embarrass	-7312
▁happiness	-7313
▁minneriya	-7314
▁passports	-7315
▁uncertain	-7316
▁witnessed	-7317
▁atmosphere	-7318
▁attractive	-7319
▁essentials	-7320
▁highlights	-7321
▁innovation	-7322
▁rainforest	-7323
▁respectful	-7324
▁convenience	-7325
▁economynext	-7326
▁disconnected	-7327
▁circumstances	-7328
der	-7329
hob	-7330
ios	-7331
met	-7332
▁92	-7333
▁bf	-7334
▁ui	-7335
bble	-7336
cery	-7337
ties	-7338
ubow	-7339
vals	-7340
▁beg	-7341
▁dun	-7342
▁lag	-7343
▁lpl	-7344
▁nad	-7345
▁nee	-7346
appro	-7347
erson	-7348
front	-7349
iform	-7350
ounge	-7351
redit	-7352
▁abey	-7353
▁arab	-7354
▁chos	-7355
▁dell	-7356
▁ease	-7357
▁fool	-7358
▁labs	-7359
▁neck	-7360
▁ours	-7361
▁prec	-7362
▁pron	-7363
▁sare	-7364
▁shel	-7365
▁ward	-7366
▁welf	-7367
elines	-7368
▁blast	-7369
▁bored	-7370
▁cargo	-7371
▁femin	-7372
▁maith	-7373
▁paste	-7374
▁waves	-7375
utional	-7376
▁clinic	-7377
▁debate	-7378
▁defend	-7379
▁fortun	-7380
▁france	-7381
▁insult	-7382
▁invite	-7383
▁junior	-7384
▁pissed	-7385
▁postgr	-7386
standing	-7387
▁applies	-7388
▁branded	-7389
▁cameras	-7390
▁careers	-7391
▁combank	-7392
▁defense	-7393
▁delayed	-7394
▁dresses	-7395
▁hitting	-7396
▁islamic	-7397
▁magistr	-7398
▁regions	-7399
▁streams	-7400
▁uniform	-7401
▁watches	-7402
▁wickets	-7403
▁collapse	-7404
▁creation	-7405
▁deposits	-7406
▁distract	-7407
▁fortress	-7408
▁pharmacy	-7409
▁publicly	-7410
▁skincare	-7411
▁accidents	-7412
▁discounts	-7413
▁guarantee	-7414
▁involving	-7415
▁motorbike	-7416
▁neighbors	-7417
▁satisfied	-7418
▁wikipedia	-7419
▁consultant	-7420
▁freelancer	-7421
▁waterfalls	-7422
▁exploration	-7423
▁marketplace	-7424
▁vaccination	-7425
▁instructions	-7426
ml	-7427
po	-7428
uh	-7429
ius	-7430
osh	-7431
ubs	-7432
▁73	-7433
▁83	-7434
▁ul	-7435
alam	-7436
aris	-7437
inct	-7438
ript	-7439
shan	-7440
▁nbe	-7441
ckets	-7442
inate	-7443
irect	-7444
print	-7445
▁3000	-7446
▁aged	-7447
▁emph	-7448
▁exit	-7449
▁fasc	-7450
▁grid	-7451
▁koll	-7452
▁magn	-7453
▁ping	-7454
▁span	-7455
lusion	-7456
malana	-7457
marily	-7458
▁demon	-7459
▁eager	-7460
▁forms	-7461
▁forth	-7462
▁incon	-7463
▁misle	-7464
▁penal	-7465
▁radio	-7466
▁risks	-7467
▁storm	-7468
▁tries	-7469
inating	-7470
▁ancest	-7471
▁biomed	-7472
▁borrow	-7473
▁bubble	-7474
▁butter	-7475
▁convin	-7476
▁fallen	-7477
▁french	-7478
▁larger	-7479
▁lifted	-7480
▁mendis	-7481
▁narrow	-7482
▁promin	-7483
▁script	-7484
▁spokes	-7485
▁statue	-7486
▁thrott	-7487
▁bedroom	-7488
▁bicycle	-7489
▁commute	-7490
▁diverse	-7491
▁edition	-7492
▁grounds	-7493
▁herself	-7494
▁imposed	-7495
▁letting	-7496
▁raising	-7497
▁welfare	-7498
▁attempts	-7499
▁disaster	-7500
▁ignorant	-7501
▁junction	-7502
▁password	-7503
▁verified	-7504
▁academics	-7505
▁accepting	-7506
▁addressed	-7507
▁allegedly	-7508
▁anonymous	-7509
▁conductor	-7510
▁promising	-7511
▁responded	-7512
▁stressful	-7513
▁welcoming	-7514
▁aggressive	-7515
▁beforehand	-7516
▁biological	-7517
▁recognised	-7518
▁reportedly	-7519
▁understood	-7520
▁encountered	-7521
▁threatening	-7522
55	-7523
edy	-7524
udi	-7525
uks	-7526
▁qr	-7527
▁vo	-7528
city	-7529
mika	-7530
rama	-7531
vest	-7532
▁110	-7533
▁130	-7534
▁doc	-7535
▁ime	-7536
▁nde	-7537
▁nto	-7538
▁pra	-7539
▁rtx	-7540
▁til	-7541
agoda	-7542
logic	-7543
ooked	-7544
ophob	-7545
▁2008	-7546
▁cbsl	-7547
▁cine	-7548
▁crow	-7549
▁guit	-7550
▁isps	-7551
▁jack	-7552
▁lies	-7553
▁spin	-7554
▁trop	-7555
awatta	-7556
ceries	-7557
stream	-7558
▁decre	-7559
▁jokes	-7560
▁malay	-7561
▁phase	-7562
▁brutal	-7563
▁chosen	-7564
▁delays	-7565
▁drives	-7566
▁exceed	-7567
▁fluent	-7568
▁galaxy	-7569
▁harsha	-7570
▁hatred	-7571
▁lounge	-7572
▁lowest	-7573
▁matale	-7574
▁overth	-7575
▁refuse	-7576
▁relief	-7577
▁solved	-7578
▁alevels	-7579
▁charger	-7580
▁disease	-7581
▁gateway	-7582
▁outcome	-7583
▁selfish	-7584
▁silence	-7585
▁sunrise	-7586
▁threats	-7587
▁unusual	-7588
▁victory	-7589
▁wickram	-7590
▁attorney	-7591
▁deserves	-7592
▁earnings	-7593
▁freaking	-7594
▁guessing	-7595
▁learners	-7596
▁machines	-7597
▁managers	-7598
▁occurred	-7599
▁resource	-7600
▁abandoned	-7601
▁assistant	-7602
▁comparing	-7603
▁ethnicity	-7604
▁groceries	-7605
▁pinnawala	-7606
▁discussing	-7607
▁restricted	-7608
▁threatened	-7609
▁accordingly	-7610
▁advertising	-7611
▁effectively	-7612
▁furthermore	-7613
▁motherboard	-7614
▁documentation	-7615
ami	-7616
arl	-7617
ppy	-7618
ras	-7619
top	-7620
▁62	-7621
▁kg	-7622
▁sd	-7623
athy	-7624
otal	-7625
▁bol	-7626
▁dos	-7627
eward	-7628
verty	-7629
▁icon	-7630
▁lord	-7631
▁nadu	-7632
▁root	-7633
▁shif	-7634
▁slip	-7635
▁subt	-7636
▁coins	-7637
▁delic	-7638
▁elite	-7639
▁emigr	-7640
▁files	-7641
▁firms	-7642
▁incor	-7643
▁jewel	-7644
▁keels	-7645
▁login	-7646
▁relic	-7647
▁smoke	-7648
▁specs	-7649
▁utter	-7650
▁artist	-7651
▁backed	-7652
▁bodies	-7653
▁fabric	-7654
▁gained	-7655
▁legend	-7656
▁liquid	-7657
▁pushed	-7658
▁silver	-7659
▁abusive	-7660
▁allergy	-7661
▁counsel	-7662
▁craving	-7663
▁farmers	-7664
▁flowers	-7665
▁outlets	-7666
▁painful	-7667
▁settled	-7668
▁disclaim	-7669
▁estimate	-7670
▁mentions	-7671
▁sleeping	-7672
▁soldiers	-7673
▁validity	-7674
▁allowance	-7675
▁consumers	-7676
▁demanding	-7677
▁intermedi	-7678
▁kalpitiya	-7679
▁primarily	-7680
▁professor	-7681
▁softlogic	-7682
▁efficiency	-7683
▁forwarding	-7684
▁maintained	-7685
▁terrorists	-7686
▁essentially	-7687
▁installment	-7688
▁practically	-7689
▁automatically	-7690
▁clarification	-7691
▁dermatologist	-7692
36	-7693
ec	-7694
arn	-7695
aza	-7696
bar	-7697
pan	-7698
the	-7699
▁86	-7700
▁bn	-7701
▁ek	-7702
▁ov	-7703
▁oy	-7704
aint	-7705
case	-7706
mare	-7707
mine	-7708
stit	-7709
▁ain	-7710
▁aka	-7711
▁ccc	-7712
▁cus	-7713
▁nof	-7714
▁ntr	-7715
▁ogf	-7716
▁sty	-7717
▁wet	-7718
fting	-7719
ograp	-7720
▁abol	-7721
▁bagg	-7722
▁boot	-7723
▁carn	-7724
▁dive	-7725
▁dust	-7726
▁lazy	-7727
▁lens	-7728
▁odys	-7729
▁prab	-7730
▁unem	-7731
▁vish	-7732
▁wand	-7733
arency	-7734
ployed	-7735
▁clock	-7736
▁coron	-7737
▁ielts	-7738
▁mouth	-7739
▁mulla	-7740
▁oblig	-7741
▁optim	-7742
▁plays	-7743
▁sauce	-7744
upitiya	-7745
▁abused	-7746
▁boring	-7747
▁diesel	-7748
▁emphas	-7749
▁exempt	-7750
▁kicked	-7751
▁postal	-7752
▁powers	-7753
▁rushed	-7754
▁shower	-7755
▁solely	-7756
▁string	-7757
▁venues	-7758
▁victor	-7759
▁anxious	-7760
▁fulfill	-7761
▁poverty	-7762
▁retired	-7763
▁sibling	-7764
▁tuktuks	-7765
▁washing	-7766
istically	-7767
▁bullying	-7768
▁cultures	-7769
▁diaspora	-7770
▁inconven	-7771
▁tropical	-7772
▁ultimate	-7773
▁activated	-7774
▁festivals	-7775
▁gathering	-7776
▁logistics	-7777
▁ownership	-7778
▁sentiment	-7779
▁biomedical	-7780
▁disclaimer	-7781
▁fertilizer	-7782
▁industrial	-7783
▁mainstream	-7784
▁occasional	-7785
▁separately	-7786
▁specialist	-7787
▁suggesting	-7788
▁permanently	-7789
▁neighborhood	-7790
▁perspectives	-7791
▁subscription	-7792
▁transparency	-7793
▁advertisement	-7794
mg	-7795
erc	-7796
mil	-7797
pex	-7798
uka	-7799
▁96	-7800
▁ox	-7801
▁ub	-7802
ping	-7803
▁750	-7804
▁awa	-7805
▁bmw	-7806
▁bum	-7807
▁gpa	-7808
▁kam	-7809
▁ker	-7810
▁kul	-7811
▁nit	-7812
▁rab	-7813
▁rip	-7814
▁vid	-7815
▁yrs	-7816
ashed	-7817
chool	-7818
oured	-7819
▁beng	-7820
▁cabs	-7821
▁orth	-7822
▁pill	-7823
▁sapp	-7824
▁scan	-7825
▁slim	-7826
▁wing	-7827
▁wors	-7828
erable	-7829
▁audio	-7830
▁combo	-7831
▁dolph	-7832
▁kotte	-7833
▁patri	-7834
▁sanct	-7835
▁screw	-7836
▁sorts	-7837
▁allerg	-7838
▁domain	-7839
▁filter	-7840
▁guitar	-7841
▁japura	-7842
▁malabe	-7843
▁panels	-7844
▁proven	-7845
▁python	-7846
▁regime	-7847
▁reluct	-7848
▁safely	-7849
▁supple	-7850
▁waited	-7851
▁warned	-7852
▁academy	-7853
▁centers	-7854
▁grammar	-7855
▁grocery	-7856
▁justify	-7857
▁mission	-7858
▁noodles	-7859
▁pending	-7860
▁quarter	-7861
▁rajapak	-7862
▁renewal	-7863
▁routers	-7864
▁sisters	-7865
▁spotify	-7866
▁stretch	-7867
▁concepts	-7868
▁railways	-7869
▁strongly	-7870
▁treating	-7871
▁breakdown	-7872
▁collected	-7873
▁installed	-7874
▁microsoft	-7875
▁nightmare	-7876
▁perfectly	-7877
▁prominent	-7878
▁suspended	-7879
▁associated	-7880
▁collecting	-7881
▁incredible	-7882
▁procedures	-7883
▁protesting	-7884
▁retirement	-7885
▁senanayake	-7886
▁withdrawal	-7887
▁accidentally	-7888
90	-7889
bn	-7890
aze	-7891
hal	-7892
ias	-7893
ole	-7894
▁gt	-7895
▁tt	-7896
ache	-7897
atne	-7898
avel	-7899
avun	-7900
bell	-7901
comm	-7902
flix	-7903
jaya	-7904
onse	-7905
reen	-7906
uese	-7907
ules	-7908
▁cer	-7909
▁dal	-7910
▁fup	-7911
▁msi	-7912
▁ner	-7913
▁nun	-7914
▁ous	-7915
▁poo	-7916
▁rcs	-7917
agers	-7918
ented	-7919
eries	-7920
inesh	-7921
nings	-7922
talam	-7923
venir	-7924
▁dick	-7925
▁evol	-7926
▁gall	-7927
▁mile	-7928
▁pink	-7929
▁rein	-7930
▁roti	-7931
▁sets	-7932
▁tone	-7933
▁vice	-7934
cdonal	-7935
father	-7936
inform	-7937
liness	-7938
▁adapt	-7939
▁biscu	-7940
▁craft	-7941
▁creat	-7942
▁drops	-7943
▁hills	-7944
▁insta	-7945
▁logic	-7946
▁overl	-7947
▁pilot	-7948
▁rains	-7949
▁signs	-7950
▁spray	-7951
▁stake	-7952
▁steal	-7953
▁viral	-7954
▁walks	-7955
▁beware	-7956
▁dinesh	-7957
▁doable	-7958
▁guides	-7959
▁heroes	-7960
▁manual	-7961
▁recall	-7962
▁societ	-7963
▁tricks	-7964
▁vessel	-7965
▁wisdom	-7966
ographer	-7967
▁decline	-7968
▁exchang	-7969
▁expired	-7970
▁inquiry	-7971
▁needing	-7972
▁netflix	-7973
▁offices	-7974
▁opposed	-7975
▁peoples	-7976
▁quarant	-7977
▁routine	-7978
▁seconds	-7979
▁servers	-7980
▁torture	-7981
▁unknown	-7982
criptions	-7983
▁abortion	-7984
▁avoiding	-7985
▁browsing	-7986
▁finances	-7987
▁monetary	-7988
▁navigate	-7989
▁noticing	-7990
▁overcome	-7991
▁petition	-7992
▁powercut	-7993
▁souvenir	-7994
▁thorough	-7995
▁affecting	-7996
▁buddhists	-7997
▁discussed	-7998
▁followers	-7999
▁rajapakse	-8000
▁therapist	-8001
▁governance	-8002
▁protestors	-8003
▁provincial	-8004
▁questioned	-8005
▁communicate	-8006
▁fundamental	-8007
▁improvement	-8008
▁psychologist	-8009
▁certifications	-8010
gy	-8011
sl	-8012
bol	-8013
gri	-8014
raj	-8015
▁ax	-8016
amed	-8017
ttes	-8018
west	-8019
▁ade	-8020
▁fry	-8021
▁lma	-8022
▁mud	-8023
▁oly	-8024
▁tro	-8025
▁vul	-8026
isena	-8027
iving	-8028
▁4000	-8029
▁arms	-8030
▁cope	-8031
▁ears	-8032
▁elev	-8033
▁farm	-8034
▁hots	-8035
▁hygi	-8036
▁proc	-8037
▁seal	-8038
▁shed	-8039
▁stad	-8040
▁wage	-8041
ancing	-8042
soever	-8043
umbled	-8044
▁annoy	-8045
▁fever	-8046
▁frank	-8047
▁kusal	-8048
▁noted	-8049
▁pride	-8050
▁samar	-8051
▁thick	-8052
▁vavun	-8053
▁boxing	-8054
▁capita	-8055
▁compon	-8056
▁crowds	-8057
▁fixing	-8058
▁freely	-8059
▁grandp	-8060
▁hardly	-8061
▁intend	-8062
▁locked	-8063
▁overst	-8064
▁trauma	-8065
▁adapter	-8066
▁centres	-8067
▁designs	-8068
▁lasting	-8069
▁odyssey	-8070
▁resolve	-8071
▁ukraine	-8072
▁commonly	-8073
▁exciting	-8074
▁graphics	-8075
▁lecturer	-8076
▁mistaken	-8077
▁promoted	-8078
▁stunning	-8079
▁wondered	-8080
▁campaigns	-8081
▁excluding	-8082
▁fantastic	-8083
▁importers	-8084
▁narrative	-8085
▁pollution	-8086
▁attendance	-8087
▁magistrate	-8088
▁meditation	-8089
▁portuguese	-8090
▁whatsoever	-8091
▁celebrating	-8092
▁involvement	-8093
▁overwhelmed	-8094
▁progressive	-8095
▁appreciation	-8096
▁manufacturer	-8097
hz	-8098
kw	-8099
ira	-8100
oma	-8101
ugs	-8102
zer	-8103
▁82	-8104
▁91	-8105
▁lm	-8106
▁oa	-8107
▁rm	-8108
▁yt	-8109
irst	-8110
ores	-8111
osop	-8112
▁225	-8113
▁apt	-8114
▁ber	-8115
▁clu	-8116
▁ipl	-8117
▁mee	-8118
▁mit	-8119
▁sed	-8120
▁yah	-8121
aired	-8122
eline	-8123
oneer	-8124
quate	-8125
▁bulk	-8126
▁guns	-8127
▁hadn	-8128
▁haha	-8129
▁hect	-8130
▁hook	-8131
▁jeep	-8132
▁laid	-8133
▁nost	-8134
▁ousl	-8135
▁scro	-8136
▁thai	-8137
▁vary	-8138
arents	-8139
ashing	-8140
▁cinec	-8141
▁cruel	-8142
▁crypt	-8143
▁depth	-8144
▁habit	-8145
▁labor	-8146
▁loose	-8147
▁merit	-8148
▁numer	-8149
▁opens	-8150
▁panic	-8151
▁pearl	-8152
▁popul	-8153
▁rider	-8154
▁scary	-8155
▁yours	-8156
▁awards	-8157
▁bright	-8158
▁creepy	-8159
▁crying	-8160
▁length	-8161
▁liquor	-8162
▁loving	-8163
▁lyrics	-8164
▁plates	-8165
▁resist	-8166
▁terrif	-8167
▁territ	-8168
▁virgin	-8169
▁belongs	-8170
▁burning	-8171
▁cartoon	-8172
▁chasing	-8173
▁custody	-8174
▁emailed	-8175
▁enlight	-8176
▁interns	-8177
▁mullait	-8178
▁permits	-8179
▁ranking	-8180
▁removal	-8181
▁scenery	-8182
▁tonight	-8183
▁whoever	-8184
▁assigned	-8185
▁blocking	-8186
▁deducted	-8187
▁directed	-8188
▁equality	-8189
▁inspired	-8190
▁shocking	-8191
▁batteries	-8192
▁champions	-8193
▁expertise	-8194
▁introvert	-8195
▁obtaining	-8196
▁recording	-8197
▁volunteer	-8198
▁worldwide	-8199
▁characters	-8200
▁cigarettes	-8201
▁contacting	-8202
▁directions	-8203
▁presidents	-8204
▁downloading	-8205
▁influencers	-8206
▁residential	-8207
▁celebrations	-8208
▁competitions	-8209
▁connectivity	-8210
▁grandparents	-8211
▁postgraduate	-8212
▁accommodations	-8213
44	-8214
fp	-8215
gl	-8216
isl	-8217
ogy	-8218
rof	-8219
▁71	-8220
▁qo	-8221
irty	-8222
pods	-8223
▁dod	-8224
▁fou	-8225
▁jul	-8226
▁pac	-8227
▁pit	-8228
▁sid	-8229
▁ssd	-8230
▁syn	-8231
▁usb	-8232
acies	-8233
amuna	-8234
erial	-8235
erved	-8236
▁2014	-8237
▁arun	-8238
▁brid	-8239
▁dict	-8240
▁epis	-8241
▁folk	-8242
▁lmao	-8243
▁maha	-8244
▁matt	-8245
▁mism	-8246
▁myst	-8247
▁ncon	-8248
▁nsri	-8249
▁outr	-8250
▁pace	-8251
▁pics	-8252
▁spam	-8253
▁stir	-8254
▁tact	-8255
▁thar	-8256
▁trek	-8257
▁vibr	-8258
▁yoga	-8259
achchi	-8260
akkara	-8261
ancies	-8262
rition	-8263
verted	-8264
▁bucks	-8265
▁dealt	-8266
▁dynam	-8267
▁exerc	-8268
▁hobby	-8269
▁hyper	-8270
▁landl	-8271
▁magic	-8272
▁roast	-8273
▁shady	-8274
▁skept	-8275
▁stere	-8276
▁swear	-8277
▁vesak	-8278
▁arches	-8279
▁bowler	-8280
▁cringe	-8281
▁donate	-8282
▁expend	-8283
▁fisher	-8284
▁learnt	-8285
▁losses	-8286
▁motion	-8287
▁pigeon	-8288
▁poorly	-8289
▁propag	-8290
▁ruling	-8291
▁sacred	-8292
▁thrown	-8293
▁volume	-8294
▁barrier	-8295
▁loading	-8296
▁resorts	-8297
▁solving	-8298
▁species	-8299
▁stadium	-8300
▁summary	-8301
▁suppose	-8302
▁worship	-8303
abilities	-8304
▁activate	-8305
▁clueless	-8306
▁criteria	-8307
▁describe	-8308
▁emotions	-8309
▁payoneer	-8310
▁philosop	-8311
▁puttalam	-8312
▁sirisena	-8313
▁employers	-8314
▁forgotten	-8315
▁recognize	-8316
▁appearance	-8317
▁chocolates	-8318
▁converting	-8319
▁depressing	-8320
▁enforcement	-8321
▁kollupitiya	-8322
▁necessarily	-8323
▁questioning	-8324
▁accomodation	-8325
▁participation	-8326
66	-8327
ni	-8328
tr	-8329
alg	-8330
bod	-8331
col	-8332
udu	-8333
ull	-8334
wid	-8335
zel	-8336
▁hv	-8337
athi	-8338
indu	-8339
rely	-8340
rets	-8341
riya	-8342
▁128	-8343
▁140	-8344
▁awk	-8345
▁cct	-8346
▁ela	-8347
▁iam	-8348
▁koh	-8349
▁pdf	-8350
▁ree	-8351
▁sne	-8352
▁trc	-8353
▁tun	-8354
▁uoc	-8355
▁veg	-8356
athan	-8357
awela	-8358
build	-8359
check	-8360
ennai	-8361
essed	-8362
ggers	-8363
iques	-8364
leges	-8365
vable	-8366
▁bast	-8367
▁beef	-8368
▁cott	-8369
▁dash	-8370
▁frag	-8371
▁gent	-8372
▁greg	-8373
▁holy	-8374
▁imei	-8375
▁owns	-8376
▁sees	-8377
▁semi	-8378
▁soul	-8379
▁symp	-8380
▁unav	-8381
▁unhe	-8382
erving	-8383
opular	-8384
ubowan	-8385
▁advoc	-8386
▁birds	-8387
▁damro	-8388
▁disag	-8389
▁forum	-8390
▁grind	-8391
▁harsh	-8392
▁ineff	-8393
▁minds	-8394
▁saree	-8395
▁virus	-8396
ctional	-8397
station	-8398
▁basics	-8399
▁explos	-8400
▁grandm	-8401
▁havent	-8402
▁makeup	-8403
▁nether	-8404
▁perpet	-8405
▁resume	-8406
▁ripped	-8407
▁sovere	-8408
▁stands	-8409
▁toilet	-8410
▁tutors	-8411
▁vishwa	-8412
▁worker	-8413
▁arrives	-8414
▁awkward	-8415
▁columbo	-8416
▁curries	-8417
▁desktop	-8418
▁distant	-8419
▁earners	-8420
▁illness	-8421
▁leasing	-8422
▁liberty	-8423
▁meetups	-8424
▁melbour	-8425
▁neutral	-8426
▁offence	-8427
▁registr	-8428
▁seniors	-8429
▁smoking	-8430
▁strikes	-8431
▁adoption	-8432
▁ayubowan	-8433
▁bombings	-8434
▁clinical	-8435
▁colleges	-8436
▁contains	-8437
▁deadline	-8438
▁determin	-8439
▁engaging	-8440
▁ignoring	-8441
▁vavuniya	-8442
▁versions	-8443
▁wireless	-8444
▁administr	-8445
▁automatic	-8446
▁broadcast	-8447
▁greetings	-8448
▁residents	-8449
▁waterfall	-8450
▁difficulty	-8451
▁pretending	-8452
▁backpacking	-8453
▁celebration	-8454
▁enthusiasts	-8455
▁grandfather	-8456
▁netherlands	-8457
▁consistently	-8458
▁supermarkets	-8459
27	-8460
ih	-8461
afe	-8462
agi	-8463
asy	-8464
has	-8465
ica	-8466
iva	-8467
lly	-8468
oys	-8469
▁87	-8470
▁ga	-8471
▁ou	-8472
anan	-8473
cles	-8474
icit	-8475
math	-8476
oral	-8477
rors	-8478
sole	-8479
ston	-8480
wela	-8481
▁119	-8482
▁enh	-8483
▁esc	-8484
▁ist	-8485
▁joy	-8486
▁kos	-8487
▁lou	-8488
▁nag	-8489
▁nrs	-8490
acles	-8491
arath	-8492
dings	-8493
etime	-8494
ounds	-8495
unami	-8496
▁audi	-8497
▁beds	-8498
▁blah	-8499
▁caps	-8500
▁cctv	-8501
▁cozy	-8502
▁gath	-8503
▁heck	-8504
▁stom	-8505
▁tack	-8506
▁ugly	-8507
urance	-8508
▁aesth	-8509
▁cowor	-8510
▁downs	-8511
▁exhib	-8512
▁insec	-8513
▁kapru	-8514
▁loves	-8515
▁overc	-8516
▁repay	-8517
▁tweet	-8518
▁twist	-8519
agamuwa	-8520
otherap	-8521
▁behave	-8522
▁border	-8523
▁checks	-8524
▁diabet	-8525
▁format	-8526
▁gentle	-8527
▁headed	-8528
▁idiots	-8529
▁orange	-8530
▁pilgri	-8531
▁ranges	-8532
▁reward	-8533
▁scores	-8534
▁speaks	-8535
▁viewed	-8536
communic	-8537
▁affects	-8538
▁beating	-8539
▁comprom	-8540
▁couldnt	-8541
▁deleted	-8542
▁digging	-8543
▁equally	-8544
▁innings	-8545
▁kilomet	-8546
▁loyalty	-8547
▁tissama	-8548
▁tsunami	-8549
▁ayurveda	-8550
▁calories	-8551
▁casually	-8552
▁forecast	-8553
▁inflated	-8554
▁intended	-8555
▁investor	-8556
▁isolated	-8557
▁landlord	-8558
▁literacy	-8559
▁numerous	-8560
▁paradise	-8561
▁stereoty	-8562
▁delicious	-8563
▁described	-8564
▁excessive	-8565
▁faculties	-8566
▁increases	-8567
▁melbourne	-8568
▁motivated	-8569
▁occasions	-8570
▁processed	-8571
▁signature	-8572
▁suspected	-8573
▁unpopular	-8574
▁functional	-8575
▁guaranteed	-8576
▁headphones	-8577
▁kataragama	-8578
▁motivation	-8579
▁screenshot	-8580
▁vaccinated	-8581
▁comfortably	-8582
▁preferences	-8583
▁reliability	-8584
▁announcement	-8585
▁conservation	-8586
▁installments	-8587
▁overwhelming	-8588
▁psychological	-8589
▁realistically	-8590
38	-8591
enn	-8592
eve	-8593
iny	-8594
iyo	-8595
oka	-8596
ora	-8597
▁52	-8598
▁au	-8599
▁eh	-8600
▁js	-8601
apal	-8602
bath	-8603
east	-8604
home	-8605
ilit	-8606
iser	-8607
▁bin	-8608
▁chr	-8609
▁dhl	-8610
▁ecu	-8611
▁epf	-8612
▁hub	-8613
▁kfc	-8614
▁mak	-8615
▁nes	-8616
▁reb	-8617
▁sis	-8618
▁unl	-8619
▁wow	-8620
adana	-8621
▁2013	-8622
▁2500	-8623
▁adds	-8624
▁atto	-8625
▁chil	-8626
▁dess	-8627
▁dump	-8628
▁elim	-8629
▁fled	-8630
▁hide	-8631
▁hole	-8632
▁hong	-8633
▁kang	-8634
▁kong	-8635
▁lyce	-8636
▁nest	-8637
▁nyou	-8638
▁resc	-8639
▁sons	-8640
▁stig	-8641
▁trap	-8642
▁weed	-8643
istani	-8644
▁arrog	-8645
▁cared	-8646
▁chath	-8647
▁drove	-8648
▁ghost	-8649
▁holds	-8650
▁plaza	-8651
▁punch	-8652
▁ranks	-8653
▁reset	-8654
▁roots	-8655
▁safer	-8656
▁sheet	-8657
▁swift	-8658
▁wages	-8659
asekara	-8660
▁assass	-8661
▁buyers	-8662
▁cultiv	-8663
▁dispos	-8664
▁editor	-8665
▁expose	-8666
▁guesth	-8667
▁habits	-8668
▁harini	-8669
▁litter	-8670
▁outlet	-8671
▁packet	-8672
▁ranked	-8673
▁visual	-8674
▁ashamed	-8675
▁assumed	-8676
▁chennai	-8677
▁compreh	-8678
▁dessert	-8679
▁discour	-8680
▁elderly	-8681
▁fishing	-8682
▁greater	-8683
▁immense	-8684
▁kandyan	-8685
▁listing	-8686
▁parcels	-8687
▁promise	-8688
▁propose	-8689
▁safaris	-8690
▁signals	-8691
▁believed	-8692
▁cheating	-8693
▁dhammika	-8694
▁optional	-8695
▁pathetic	-8696
▁premises	-8697
▁reckless	-8698
▁stealing	-8699
▁stumbled	-8700
▁targeted	-8701
▁workload	-8702
▁beginners	-8703
▁districts	-8704
▁diversity	-8705
▁exclusive	-8706
▁illegally	-8707
▁operators	-8708
▁addressing	-8709
▁collective	-8710
▁disturbing	-8711
▁importance	-8712
▁mullaitivu	-8713
▁represents	-8714
▁reservation	-8715
▁technically	-8716
▁increasingly	-8717
▁photographer	-8718
▁entrepreneurs	-8719
cm	-8720
fh	-8721
hum	-8722
iff	-8723
isy	-8724
rer	-8725
▁61	-8726
▁fm	-8727
▁ka	-8728
▁yr	-8729
coin	-8730
gaya	-8731
ghan	-8732
head	-8733
iliy	-8734
ingu	-8735
omic	-8736
rary	-8737
uwan	-8738
▁bia	-8739
▁cis	-8740
▁gut	-8741
▁jee	-8742
▁lah	-8743
▁phr	-8744
▁ses	-8745
▁spr	-8746
aches	-8747
ahini	-8748
aping	-8749
arata	-8750
assad	-8751
ilipp	-8752
owing	-8753
urren	-8754
water	-8755
▁ants	-8756
▁bite	-8757
▁cell	-8758
▁ital	-8759
▁ligh	-8760
▁monu	-8761
▁nich	-8762
▁obst	-8763
▁outl	-8764
▁ravi	-8765
▁sang	-8766
▁sket	-8767
▁spar	-8768
▁tied	-8769
▁tier	-8770
▁todd	-8771
▁trag	-8772
▁unst	-8773
▁aluth	-8774
▁arent	-8775
▁cents	-8776
▁consp	-8777
▁doors	-8778
▁dudes	-8779
▁exper	-8780
▁grass	-8781
▁hates	-8782
▁moral	-8783
▁mouse	-8784
▁perce	-8785
▁proph	-8786
▁ruins	-8787
▁shots	-8788
▁tasty	-8789
▁wagon	-8790
ogether	-8791
wellery	-8792
▁calend	-8793
▁citing	-8794
▁condem	-8795
▁devast	-8796
▁holder	-8797
▁hungry	-8798
▁interf	-8799
▁motors	-8800
▁privat	-8801
▁serves	-8802
▁subtit	-8803
▁temper	-8804
▁tracks	-8805
▁valued	-8806
▁airpods	-8807
▁consume	-8808
▁dancing	-8809
▁enabled	-8810
▁fiction	-8811
▁inappro	-8812
▁islands	-8813
▁kottawa	-8814
▁nostalg	-8815
▁pasikud	-8816
▁policem	-8817
▁realise	-8818
▁shorter	-8819
▁shortly	-8820
▁stomach	-8821
▁wheeler	-8822
▁competit	-8823
▁diplomas	-8824
▁flagship	-8825
▁homophob	-8826
▁incompet	-8827
▁licenses	-8828
▁lifetime	-8829
▁misunder	-8830
▁throwing	-8831
▁treasury	-8832
▁villages	-8833
▁acknowled	-8834
▁activists	-8835
▁animation	-8836
▁arugambay	-8837
▁colleague	-8838
▁downloads	-8839
▁enlighten	-8840
▁everytime	-8841
▁expressed	-8842
▁principal	-8843
▁recovered	-8844
▁skeptical	-8845
▁teachings	-8846
▁telephone	-8847
▁impressive	-8848
▁misleading	-8849
▁profitable	-8850
▁underrated	-8851
▁controversy	-8852
▁frustration	-8853
▁karunaratne	-8854
▁difficulties	-8855
▁distribution	-8856
▁intermediate	-8857
▁organisations	-8858
56	-8859
78	-8860
98	-8861
no	-8862
sy	-8863
tb	-8864
bud	-8865
olf	-8866
oly	-8867
usd	-8868
yrs	-8869
zed	-8870
▁81	-8871
▁cz	-8872
▁ht	-8873
▁nz	-8874
▁qe	-8875
▁qs	-8876
alla	-8877
amps	-8878
atar	-8879
avid	-8880
neys	-8881
▁256	-8882
▁amp	-8883
▁blo	-8884
▁bom	-8885
▁dmt	-8886
▁fro	-8887
▁ire	-8888
▁ons	-8889
▁ont	-8890
▁ras	-8891
inity	-8892
ipped	-8893
obile	-8894
proof	-8895
▁byob	-8896
▁embr	-8897
▁extr	-8898
▁hiru	-8899
▁mart	-8900
▁medi	-8901
▁meds	-8902
▁pard	-8903
▁posh	-8904
▁scar	-8905
▁wars	-8906
▁wins	-8907
▁xbox	-8908
ereats	-8909
▁agend	-8910
▁bands	-8911
▁basil	-8912
▁boxes	-8913
▁chips	-8914
▁codes	-8915
▁draft	-8916
▁groom	-8917
▁inaug	-8918
▁kumar	-8919
▁newer	-8920
▁rally	-8921
▁scand	-8922
▁stamp	-8923
▁truck	-8924
ocurren	-8925
▁curtin	-8926
▁delete	-8927
▁exclus	-8928
▁indeed	-8929
▁jersey	-8930
▁kidney	-8931
▁meetup	-8932
▁mutual	-8933
▁prohib	-8934
▁refuge	-8935
▁rumors	-8936
▁safest	-8937
▁sights	-8938
▁superv	-8939
▁tastes	-8940
▁unpaid	-8941
▁vendor	-8942
▁vulner	-8943
▁batsman	-8944
▁closely	-8945
▁concent	-8946
▁dressed	-8947
▁farming	-8948
▁gardens	-8949
▁glasses	-8950
▁intense	-8951
▁issuing	-8952
▁kapruka	-8953
▁largely	-8954
▁mcdonal	-8955
▁measure	-8956
▁perfume	-8957
▁periods	-8958
▁philipp	-8959
▁powered	-8960
▁qualify	-8961
▁rentals	-8962
▁sponsor	-8963
▁sticker	-8964
▁wealthy	-8965
▁yahapal	-8966
▁accredit	-8967
▁ambassad	-8968
▁counting	-8969
▁diabetes	-8970
▁figuring	-8971
▁governor	-8972
▁hardship	-8973
▁hesitant	-8974
▁moderate	-8975
▁referred	-8976
▁refusing	-8977
▁resigned	-8978
▁scamming	-8979
▁siblings	-8980
▁skipping	-8981
▁ubereats	-8982
▁victoria	-8983
▁worrying	-8984
▁colorized	-8985
▁conscious	-8986
▁estimates	-8987
▁exhausted	-8988
▁jewellery	-8989
▁memorable	-8990
▁negotiate	-8991
▁pakistani	-8992
▁advertised	-8993
▁basketball	-8994
▁calculated	-8995
▁graduating	-8996
▁prescribed	-8997
▁quarantine	-8998
▁responding	-8999
▁smartphone	-9000
▁specialize	-9001
▁surrounded	-9002
▁vegetables	-9003
▁approximate	-9004
▁conflicting	-9005
▁corporation	-9006
▁fingerprint	-9007
▁grandmother	-9008
▁maintaining	-9009
▁remembering	-9010
▁cryptocurren	-9011
▁organisation	-9012
▁tissamaharama	-9013
bl	-9014
kb	-9015
ti	-9016
uv	-9017
yc	-9018
100	-9019
awn	-9020
aws	-9021
chy	-9022
emy	-9023
lip	-9024
oos	-9025
osa	-9026
ped	-9027
wan	-9028
▁sb	-9029
▁ux	-9030
▁vv	-9031
abis	-9032
tery	-9033
tion	-9034
xxxx	-9035
▁ane	-9036
▁eid	-9037
▁lau	-9038
▁lmk	-9039
▁lod	-9040
▁nie	-9041
aveli	-9042
epura	-9043
ingly	-9044
luded	-9045
ouses	-9046
world	-9047
▁anth	-9048
▁atro	-9049
▁bung	-9050
▁dans	-9051
▁exec	-9052
▁imax	-9053
▁iran	-9054
▁lamp	-9055
▁meme	-9056
▁mood	-9057
▁mort	-9058
▁olds	-9059
▁slfp	-9060
▁thal	-9061
▁torn	-9062
andala	-9063
aweera	-9064
person	-9065
screen	-9066
▁ajith	-9067
▁anger	-9068
▁buyer	-9069
▁datab	-9070
▁delhi	-9071
▁digit	-9072
▁dirty	-9073
▁excel	-9074
▁fewer	-9075
▁finds	-9076
▁flour	-9077
▁homet	-9078
▁hurts	-9079
▁idiot	-9080
▁medal	-9081
▁rated	-9082
▁shamp	-9083
▁snack	-9084
▁stare	-9085
▁stead	-9086
▁sunil	-9087
▁teens	-9088
aration	-9089
▁banana	-9090
▁bandar	-9091
▁bundle	-9092
▁copies	-9093
▁dramas	-9094
▁hacked	-9095
▁herath	-9096
▁horrif	-9097
▁inject	-9098
▁korean	-9099
▁overly	-9100
▁poison	-9101
▁pricey	-9102
▁ranjan	-9103
▁repost	-9104
▁scenes	-9105
▁stabil	-9106
▁stages	-9107
▁trails	-9108
▁backend	-9109
▁charity	-9110
▁creates	-9111
▁haircut	-9112
▁jewelry	-9113
▁modules	-9114
▁neglect	-9115
▁outsour	-9116
▁packets	-9117
▁passive	-9118
▁pockets	-9119
▁radical	-9120
▁rapidly	-9121
▁renewed	-9122
▁reverse	-9123
▁trained	-9124
▁trainee	-9125
▁venture	-9126
▁vibrant	-9127
▁bothered	-9128
▁cannabis	-9129
▁contrast	-9130
▁distress	-9131
▁generate	-9132
▁gunaward	-9133
▁helpless	-9134
▁hometown	-9135
▁judgment	-9136
▁lockdown	-9137
▁overcrow	-9138
▁paranoid	-9139
▁peramuna	-9140
▁portable	-9141
▁reminder	-9142
▁substant	-9143
▁supplies	-9144
▁advisable	-9145
▁marriages	-9146
▁miserable	-9147
▁nationals	-9148
▁nutrition	-9149
▁packaging	-9150
▁presented	-9151
▁referring	-9152
▁reluctant	-9153
▁selecting	-9154
▁spiritual	-9155
▁targeting	-9156
▁conclusion	-9157
▁continuous	-9158
▁engagement	-9159
▁promotions	-9160
▁controlling	-9161
▁expenditure	-9162
▁nationalism	-9163
▁snorkelling	-9164
▁continuously	-9165
▁telecommunic	-9166
▁knowledgeable	-9167
gd	-9168
ife	-9169
jay	-9170
oad	-9171
omi	-9172
oya	-9173
ppu	-9174
abwe	-9175
aroo	-9176
card	-9177
enic	-9178
gama	-9179
inga	-9180
jana	-9181
mani	-9182
xual	-9183
zing	-9184
▁cul	-9185
▁gad	-9186
▁igp	-9187
▁inr	-9188
▁nhe	-9189
▁nis	-9190
▁syd	-9191
angle	-9192
chchi	-9193
otics	-9194
storm	-9195
width	-9196
▁6000	-9197
▁aims	-9198
▁alar	-9199
▁biri	-9200
▁ebay	-9201
▁exor	-9202
▁glor	-9203
▁kade	-9204
▁meta	-9205
▁sate	-9206
▁shoe	-9207
▁temp	-9208
▁thie	-9209
▁unaw	-9210
▁zimb	-9211
istent	-9212
ronics	-9213
▁ambit	-9214
▁calor	-9215
▁decor	-9216
▁fonse	-9217
▁guilt	-9218
▁hatch	-9219
▁horiz	-9220
▁inher	-9221
▁intim	-9222
▁loads	-9223
▁mango	-9224
▁messy	-9225
▁reloc	-9226
▁salon	-9227
▁shang	-9228
▁sharp	-9229
▁sheer	-9230
▁squad	-9231
▁stars	-9232
▁surge	-9233
▁teeth	-9234
▁uncon	-9235
▁wimal	-9236
▁zones	-9237
holders	-9238
ication	-9239
ulating	-9240
▁bungal	-9241
▁button	-9242
▁caring	-9243
▁chilaw	-9244
▁contem	-9245
▁defeat	-9246
▁fought	-9247
▁franch	-9248
▁hectic	-9249
▁hustle	-9250
▁indies	-9251
▁indoor	-9252
▁jerome	-9253
▁meters	-9254
▁nanote	-9255
▁reccom	-9256
▁rubber	-9257
▁sambol	-9258
▁square	-9259
▁tragic	-9260
▁villas	-9261
▁winter	-9262
▁carnage	-9263
▁console	-9264
▁engaged	-9265
▁excuses	-9266
▁garment	-9267
▁italian	-9268
▁lacking	-9269
▁outrage	-9270
▁surface	-9271
▁surgeon	-9272
▁torrent	-9273
ghanistan	-9274
▁aptitude	-9275
▁barriers	-9276
▁bathroom	-9277
▁detained	-9278
▁donation	-9279
▁ensuring	-9280
▁entitled	-9281
▁gathered	-9282
▁ideology	-9283
▁lasantha	-9284
▁monaster	-9285
▁reaction	-9286
▁resolved	-9287
▁sections	-9288
▁sponsors	-9289
▁urgently	-9290
▁weddings	-9291
▁wellness	-9292
▁zimbabwe	-9293
▁answering	-9294
▁bandwidth	-9295
▁dickwella	-9296
▁enrolling	-9297
▁messaging	-9298
▁organised	-9299
▁personnel	-9300
▁processor	-9301
▁protected	-9302
▁replacing	-9303
▁southwest	-9304
▁subtitles	-9305
▁viewpoint	-9306
▁altogether	-9307
▁approached	-9308
▁beneficial	-9309
▁delivering	-9310
▁guidelines	-9311
▁landscapes	-9312
▁philosophy	-9313
▁popularity	-9314
▁propaganda	-9315
▁regulatory	-9316
▁requesting	-9317
▁accommodate	-9318
▁departments	-9319
▁exceptional	-9320
▁philippines	-9321
▁agricultural	-9322
▁appointments	-9323
▁notification	-9324
▁consideration	-9325
08	-9326
21	-9327
ez	-9328
ky	-9329
md	-9330
adi	-9331
omy	-9332
sal	-9333
urt	-9334
▁dd	-9335
▁ta	-9336
amba	-9337
ects	-9338
gath	-9339
hire	-9340
kera	-9341
mark	-9342
onto	-9343
plus	-9344
unge	-9345
▁077	-9346
▁220	-9347
▁gee	-9348
▁mun	-9349
▁ned	-9350
▁pul	-9351
▁spo	-9352
▁wfh	-9353
ensus	-9354
ilton	-9355
table	-9356
▁1989	-9357
▁2027	-9358
▁asse	-9359
▁bali	-9360
▁barg	-9361
▁cute	-9362
▁gmoa	-9363
▁odel	-9364
▁poin	-9365
▁quiz	-9366
▁sene	-9367
▁shan	-9368
▁util	-9369
▁woke	-9370
arians	-9371
listed	-9372
lywood	-9373
▁arbit	-9374
▁civic	-9375
▁drawn	-9376
▁eight	-9377
▁embed	-9378
▁enfor	-9379
▁evisa	-9380
▁flair	-9381
▁gorge	-9382
▁knock	-9383
▁lemme	-9384
▁niche	-9385
▁nview	-9386
▁packs	-9387
▁pitch	-9388
▁pools	-9389
▁raped	-9390
▁ships	-9391
▁sized	-9392
▁suits	-9393
▁theme	-9394
▁vezel	-9395
▁weigh	-9396
▁yield	-9397
enepura	-9398
eration	-9399
▁athlet	-9400
▁earbud	-9401
▁fruits	-9402
▁humili	-9403
▁implic	-9404
▁modest	-9405
▁parked	-9406
▁racial	-9407
▁serend	-9408
▁shifts	-9409
▁stalls	-9410
▁tables	-9411
▁unsafe	-9412
▁billing	-9413
▁bullied	-9414
▁circles	-9415
▁colours	-9416
▁conspir	-9417
▁deliber	-9418
▁dilshan	-9419
▁enhance	-9420
▁hopeful	-9421
▁hosting	-9422
▁infront	-9423
▁literal	-9424
▁mawatha	-9425
▁offense	-9426
▁pacific	-9427
▁slapped	-9428
▁timings	-9429
▁unavail	-9430
▁weapons	-9431
▁branches	-9432
▁creators	-9433
▁failures	-9434
▁kangaroo	-9435
▁kiribath	-9436
▁laughing	-9437
▁nilaveli	-9438
▁observed	-9439
▁overstay	-9440
▁overtake	-9441
▁pointers	-9442
▁relation	-9443
▁sentence	-9444
▁shouting	-9445
▁weekdays	-9446
▁certainly	-9447
▁chartered	-9448
▁commented	-9449
▁convinced	-9450
▁criminals	-9451
▁distances	-9452
▁encounter	-9453
▁framework	-9454
▁kadawatha	-9455
▁newspaper	-9456
▁paperwork	-9457
▁processes	-9458
▁ratmalana	-9459
▁reception	-9460
▁sanctuary	-9461
▁strategic	-9462
▁textbooks	-9463
▁vacancies	-9464
▁workforce	-9465
▁celebrated	-9466
▁controlled	-9467
▁influencer	-9468
▁prioritize	-9469
▁regulation	-9470
▁respective	-9471
▁techniques	-9472
▁afghanistan	-9473
▁backgrounds	-9474
▁contributed	-9475
▁introducing	-9476
▁restriction	-9477
▁arrangements	-9478
▁consultation	-9479
▁constitutional	-9480
cg	-9481
hu	-9482
nn	-9483
hak	-9484
lem	-9485
van	-9486
you	-9487
▁hp	-9488
▁iy	-9489
▁vy	-9490
chem	-9491
core	-9492
hara	-9493
ianc	-9494
ipal	-9495
iran	-9496
llor	-9497
seys	-9498
▁112	-9499
▁abe	-9500
▁cho	-9501
▁dms	-9502
▁lal	-9503
▁lil	-9504
▁llb	-9505
▁mur	-9506
▁ndb	-9507
▁nel	-9508
▁nge	-9509
▁nme	-9510
▁npe	-9511
▁ntb	-9512
▁nwe	-9513
▁pta	-9514
▁ray	-9515
▁rmv	-9516
athon	-9517
galle	-9518
▁acid	-9519
▁alum	-9520
▁aven	-9521
▁drow	-9522
▁fost	-9523
▁gigs	-9524
▁nfor	-9525
▁puts	-9526
▁roam	-9527
▁teas	-9528
▁thes	-9529
▁unex	-9530
▁warn	-9531
▁whis	-9532
ansion	-9533
anting	-9534
arters	-9535
atunga	-9536
veness	-9537
▁asiri	-9538
▁cares	-9539
▁chase	-9540
▁fianc	-9541
▁gmail	-9542
▁halal	-9543
▁lover	-9544
▁metro	-9545
▁munic	-9546
▁mural	-9547
▁nurse	-9548
▁saudi	-9549
▁stall	-9550
▁stats	-9551
▁token	-9552
iration	-9553
llation	-9554
▁appare	-9555
▁archae	-9556
▁breach	-9557
▁bucket	-9558
▁divide	-9559
▁empire	-9560
▁incons	-9561
▁lastly	-9562
▁legisl	-9563
▁mechat	-9564
▁palace	-9565
▁palest	-9566
▁polite	-9567
▁stripe	-9568
▁waters	-9569
ologists	-9570
▁assured	-9571
▁baggage	-9572
▁bitcoin	-9573
▁calorie	-9574
▁clarity	-9575
▁fonseka	-9576
▁hunting	-9577
▁legends	-9578
▁marissa	-9579
▁marking	-9580
▁ranjith	-9581
▁spanish	-9582
▁subsequ	-9583
▁sympath	-9584
▁targets	-9585
▁thunder	-9586
▁workout	-9587
▁biriyani	-9588
▁calendar	-9589
▁captured	-9590
▁concentr	-9591
▁declined	-9592
▁demonstr	-9593
▁graphite	-9594
▁havelock	-9595
▁headache	-9596
▁highways	-9597
▁holdings	-9598
▁insecure	-9599
▁involves	-9600
▁maithrip	-9601
▁operated	-9602
▁residing	-9603
▁roadside	-9604
▁russians	-9605
▁smoothly	-9606
▁socially	-9607
▁strictly	-9608
▁talented	-9609
▁americans	-9610
▁calculate	-9611
▁computers	-9612
▁designing	-9613
▁municipal	-9614
▁permitted	-9615
▁struggled	-9616
▁assessment	-9617
▁boundaries	-9618
▁controller	-9619
▁emigration	-9620
▁jayasuriya	-9621
▁monitoring	-9622
▁organizing	-9623
▁priorities	-9624
▁productive	-9625
▁protecting	-9626
▁approaching	-9627
▁desperately	-9628
▁nationality	-9629
▁unfortunate	-9630
▁contributing	-9631
▁ridiculously	-9632
▁alternatively	-9633
▁comprehensive	-9634
37	-9635
yr	-9636
ago	-9637
ett	-9638
hel	-9639
ige	-9640
mav	-9641
ooo	-9642
rid	-9643
sss	-9644
ste	-9645
▁bd	-9646
▁nx	-9647
aved	-9648
cked	-9649
dule	-9650
hill	-9651
iary	-9652
qual	-9653
▁240	-9654
▁aaa	-9655
▁bee	-9656
▁bug	-9657
▁cem	-9658
▁diy	-9659
▁dow	-9660
▁ged	-9661
▁les	-9662
▁nex	-9663
▁nik	-9664
▁peo	-9665
▁pon	-9666
▁rup	-9667
▁sth	-9668
▁thu	-9669
▁xia	-9670
alous	-9671
arson	-9672
bling	-9673
iders	-9674
isure	-9675
lemma	-9676
liers	-9677
oning	-9678
rolog	-9679
▁2004	-9680
▁bruh	-9681
▁crop	-9682
▁epic	-9683
▁inch	-9684
▁kiss	-9685
▁lite	-9686
▁mild	-9687
▁ncol	-9688
▁nish	-9689
▁oils	-9690
▁recs	-9691
▁sant	-9692
▁spec	-9693
▁stem	-9694
▁tent	-9695
▁wine	-9696
angoda	-9697
enties	-9698
irates	-9699
wealth	-9700
▁aimed	-9701
▁bribe	-9702
▁chest	-9703
▁congr	-9704
▁debut	-9705
▁fired	-9706
▁humid	-9707
▁hurry	-9708
▁manif	-9709
▁peers	-9710
▁queen	-9711
▁silly	-9712
▁sizes	-9713
▁teled	-9714
▁traum	-9715
▁unres	-9716
country	-9717
lishing	-9718
▁biased	-9719
▁chains	-9720
▁compli	-9721
▁costly	-9722
▁fights	-9723
▁hating	-9724
▁leaked	-9725
▁module	-9726
▁muscle	-9727
▁nawala	-9728
▁rocket	-9729
▁typing	-9730
arachchi	-9731
▁adopted	-9732
▁advisor	-9733
▁african	-9734
▁annoyed	-9735
▁arguing	-9736
▁bowling	-9737
▁cinemas	-9738
▁compuls	-9739
▁convent	-9740
▁declare	-9741
▁deficit	-9742
▁dolphin	-9743
▁durable	-9744
▁episode	-9745
▁extract	-9746
▁females	-9747
▁founder	-9748
▁frankly	-9749
▁gregory	-9750
▁hygiene	-9751
▁iphones	-9752
▁jerseys	-9753
▁lookout	-9754
▁mileage	-9755
▁mothers	-9756
▁murdere	-9757
▁offline	-9758
▁pearson	-9759
▁planing	-9760
▁rebuild	-9761
▁retreat	-9762
▁tablets	-9763
▁wishing	-9764
▁arrogant	-9765
▁disagree	-9766
▁explored	-9767
▁googling	-9768
▁gorgeous	-9769
▁kindness	-9770
▁leopards	-9771
▁merchant	-9772
▁politely	-9773
▁resulted	-9774
▁secondly	-9775
▁severely	-9776
▁sexually	-9777
▁tailored	-9778
▁teenager	-9779
▁theories	-9780
▁triangle	-9781
▁twenties	-9782
iliyandala	-9783
▁alternate	-9784
▁counselor	-9785
▁countless	-9786
▁dependent	-9787
▁inspector	-9788
▁performed	-9789
▁provinces	-9790
▁respected	-9791
▁screaming	-9792
▁scrolling	-9793
▁secretari	-9794
▁supporter	-9795
▁terrified	-9796
▁violation	-9797
▁components	-9798
▁economical	-9799
▁influenced	-9800
▁prevention	-9801
▁recovering	-9802
▁resolution	-9803
▁structures	-9804
▁supposedly	-9805
▁unemployed	-9806
▁nuwaraeliya	-9807
▁commissioner	-9808
▁commonwealth	-9809
▁implications	-9810
▁transferring	-9811
▁disrespectful	-9812
▁disappointment	-9813
▁representatives	-9814
76	-9815
85	-9816
hh	-9817
rr	-9818
sd	-9819
wr	-9820
ws	-9821
add	-9822
cod	-9823
cse	-9824
gor	-9825
kka	-9826
par	-9827
rum	-9828
urf	-9829
yan	-9830
▁cb	-9831
▁jk	-9832
▁ku	-9833
▁wo	-9834
▁ws	-9835
alai	-9836
arma	-9837
ford	-9838
hani	-9839
idal	-9840
oops	-9841
ummy	-9842
▁arc	-9843
▁ceo	-9844
▁eco	-9845
▁ham	-9846
▁lor	-9847
▁los	-9848
▁mcq	-9849
▁mes	-9850
▁roo	-9851
akoon	-9852
althy	-9853
anded	-9854
ayaka	-9855
chain	-9856
estos	-9857
guard	-9858
sters	-9859
▁2006	-9860
▁2007	-9861
▁alto	-9862
▁aqua	-9863
▁auss	-9864
▁bore	-9865
▁buck	-9866
▁clay	-9867
▁cock	-9868
▁incl	-9869
▁leak	-9870
▁mask	-9871
▁mint	-9872
▁nose	-9873
▁podu	-9874
▁rede	-9875
▁seam	-9876
▁seas	-9877
▁sony	-9878
▁swed	-9879
▁toll	-9880
advant	-9881
forget	-9882
inking	-9883
olitan	-9884
pected	-9885
rocket	-9886
uranga	-9887
urious	-9888
urring	-9889
▁abeys	-9890
▁asset	-9891
▁brush	-9892
▁camps	-9893
▁clown	-9894
▁delft	-9895
▁esala	-9896
▁evalu	-9897
▁farms	-9898
▁hated	-9899
▁hilar	-9900
▁mates	-9901
▁mayor	-9902
▁meets	-9903
▁mines	-9904
▁naval	-9905
▁norms	-9906
▁olymp	-9907
▁ratio	-9908
▁rehab	-9909
▁renov	-9910
▁sabar	-9911
▁vital	-9912
▁walls	-9913
▁wider	-9914
▁wides	-9915
charged	-9916
duction	-9917
itarian	-9918
▁agenda	-9919
▁commem	-9920
▁cotton	-9921
▁dissol	-9922
▁entity	-9923
▁gamage	-9924
▁herbal	-9925
▁hilton	-9926
▁honour	-9927
▁incent	-9928
▁inputs	-9929
▁lagoon	-9930
▁metrop	-9931
▁oldest	-9932
▁owning	-9933
▁remark	-9934
▁remitt	-9935
▁rescue	-9936
▁reveal	-9937
▁satell	-9938
▁sought	-9939
▁taxing	-9940
▁tigers	-9941
▁tinder	-9942
▁unlock	-9943
essional	-9944
▁apparel	-9945
▁carrier	-9946
▁cleaner	-9947
▁closing	-9948
▁dilemma	-9949
▁expense	-9950
▁firstly	-9951
▁flavors	-9952
▁funeral	-9953
▁intimid	-9954
▁ireland	-9955
▁jealous	-9956
▁leisure	-9957
▁leopard	-9958
▁logical	-9959
▁prayers	-9960
▁prostit	-9961
▁schemes	-9962
▁singing	-9963
▁tattoos	-9964
▁toddler	-9965
▁trapped	-9966
▁visitor	-9967
▁balanced	-9968
▁chemmani	-9969
▁credible	-9970
▁database	-9971
▁emirates	-9972
▁heartbre	-9973
▁inquired	-9974
▁insanely	-9975
▁maradana	-9976
▁matching	-9977
▁occasion	-9978
▁overtime	-9979
▁pasikuda	-9980
▁pleasant	-9981
▁quantity	-9982
▁rajarata	-9983
▁repaired	-9984
▁shoulder	-9985
▁stepping	-9986
▁thousand	-9987
▁unstable	-9988
▁vaccines	-9989
▁wherever	-9990
▁arguments	-9991
▁assaulted	-9992
▁commander	-9993
▁consuming	-9994
▁disadvant	-9995
▁fortunate	-9996
▁harassing	-9997
▁hilarious	-9998
▁integrity	-9999
▁intercity	-10000
▁mechanism	-10001
▁misinform	-10002
▁placement	-10003
▁sacrifice	-10004
▁skyrocket	-10005
▁southeast	-10006
▁specified	-10007
▁stressing	-10008
▁acceptance	-10009
▁classmates	-10010
▁conspiracy	-10011
▁minorities	-10012
▁performing	-10013
▁subreddits	-10014
▁thankfully	-10015
▁maithripala	-10016
▁observation	-10017
▁partnership	-10018
▁piliyandala	-10019
▁secretariat	-10020
▁temporarily	-10021
▁depreciation	-10022
▁installation	-10023
▁representative	-10024
mc	-10025
of	-10026
apa	-10027
ask	-10028
esl	-10029
eto	-10030
mah	-10031
mir	-10032
unu	-10033
▁cg	-10034
adan	-10035
atte	-10036
awei	-10037
edda	-10038
flow	-10039
hole	-10040
igen	-10041
isor	-10042
lers	-10043
made	-10044
omen	-10045
rete	-10046
▁170	-10047
▁aer	-10048
▁bac	-10049
▁gan	-10050
▁mou	-10051
▁nay	-10052
▁nen	-10053
▁nim	-10054
▁nos	-10055
▁owe	-10056
▁pov	-10057
▁sod	-10058
▁tsh	-10059
▁una	-10060
▁vic	-10061
archy	-10062
arest	-10063
holes	-10064
house	-10065
opoly	-10066
otech	-10067
oween	-10068
pread	-10069
udeen	-10070
umbai	-10071
▁1948	-10072
▁amma	-10073
▁athe	-10074
▁elon	-10075
▁exem	-10076
▁godd	-10077
▁hash	-10078
▁hood	-10079
▁nall	-10080
▁outf	-10081
▁pada	-10082
▁palm	-10083
▁seed	-10084
▁stro	-10085
▁vegg	-10086
athers	-10087
italin	-10088
orders	-10089
respon	-10090
vision	-10091
▁accel	-10092
▁acres	-10093
▁adani	-10094
▁boats	-10095
▁botan	-10096
▁caves	-10097
▁chron	-10098
▁coinc	-10099
▁conce	-10100
▁disgr	-10101
▁fails	-10102
▁ferry	-10103
▁gamer	-10104
▁giant	-10105
▁grads	-10106
▁grama	-10107
▁juice	-10108
▁koomb	-10109
▁nomad	-10110
▁perks	-10111
▁recre	-10112
▁reson	-10113
▁rival	-10114
▁ruwan	-10115
▁suite	-10116
▁surve	-10117
▁swiss	-10118
▁veter	-10119
million	-10120
urities	-10121
verages	-10122
▁backup	-10123
▁begins	-10124
▁chairs	-10125
▁fridge	-10126
▁futsal	-10127
▁humans	-10128
▁humble	-10129
▁impose	-10130
▁ladder	-10131
▁lahiru	-10132
▁legacy	-10133
▁legion	-10134
▁newbie	-10135
▁ntrans	-10136
▁relate	-10137
▁rivers	-10138
▁shaped	-10139
▁stance	-10140
▁strang	-10141
▁sydney	-10142
▁timing	-10143
▁titles	-10144
▁xiaomi	-10145
▁abusing	-10146
▁amongst	-10147
▁decides	-10148
▁enterpr	-10149
▁fitting	-10150
▁harmful	-10151
▁healing	-10152
▁hotspot	-10153
▁instant	-10154
▁luckily	-10155
▁massage	-10156
▁pulling	-10157
▁ratings	-10158
▁relying	-10159
▁ritalin	-10160
▁ruining	-10161
▁screwed	-10162
▁shangri	-10163
▁smarter	-10164
▁theater	-10165
▁unaware	-10166
▁utility	-10167
▁analysts	-10168
▁appeared	-10169
▁biscuits	-10170
▁catering	-10171
▁clearing	-10172
▁confront	-10173
▁drowning	-10174
▁elements	-10175
▁evenings	-10176
▁jayeward	-10177
▁licensed	-10178
▁midigama	-10179
▁proceeds	-10180
▁rankings	-10181
▁sapphire	-10182
▁serendip	-10183
▁stafford	-10184
▁thankyou	-10185
▁troubles	-10186
▁unforget	-10187
▁unlikely	-10188
▁addresses	-10189
▁apologize	-10190
▁departing	-10191
▁donations	-10192
▁expansion	-10193
▁halloween	-10194
▁initiated	-10195
▁luxurious	-10196
▁reccomend	-10197
▁reduction	-10198
▁schooling	-10199
▁workshops	-10200
▁admissions	-10201
▁adventures	-10202
▁blockchain	-10203
▁categories	-10204
▁completion	-10205
▁friendship	-10206
▁navigating	-10207
▁newspapers	-10208
▁peacefully	-10209
▁pharmacies	-10210
▁repeatedly	-10211
▁resistance	-10212
▁scientific	-10213
▁structured	-10214
▁unexpected	-10215
▁widespread	-10216
▁flexibility	-10217
▁interaction	-10218
▁interactive	-10219
▁investigate	-10220
▁screenshots	-10221
▁unavailable	-10222
▁achievements	-10223
▁cancellation	-10224
▁contribution	-10225
▁embarrassing	-10226
▁metropolitan	-10227
▁performances	-10228
▁surprisingly	-10229
▁unforgettable	-10230
48	-10231
95	-10232
ww	-10233
za	-10234
ado	-10235
aru	-10236
ati	-10237
bor	-10238
eee	-10239
ghz	-10240
ikk	-10241
thu	-10242
urb	-10243
▁dv	-10244
▁iq	-10245
aaaa	-10246
aman	-10247
bury	-10248
cili	-10249
elie	-10250
gers	-10251
hman	-10252
ikes	-10253
info	-10254
▁ddr	-10255
▁dji	-10256
▁ego	-10257
▁fet	-10258
▁hay	-10259
▁kia	-10260
▁nab	-10261
▁neu	-10262
▁nte	-10263
▁sap	-10264
▁slc	-10265
▁sme	-10266
▁uda	-10267
adeep	-10268
anaya	-10269
bbies	-10270
bered	-10271
comes	-10272
ernet	-10273
first	-10274
ports	-10275
rison	-10276
uwala	-10277
▁1990	-10278
▁baff	-10279
▁beli	-10280
▁bias	-10281
▁blat	-10282
▁cpex	-10283
▁cric	-10284
▁dign	-10285
▁elab	-10286
▁fixt	-10287
▁maid	-10288
▁mour	-10289
▁niro	-10290
▁nmon	-10291
▁priy	-10292
▁raid	-10293
▁sltb	-10294
▁tale	-10295
▁vape	-10296
atable	-10297
inging	-10298
itable	-10299
▁audit	-10300
▁bench	-10301
▁chats	-10302
▁comic	-10303
▁divid	-10304
▁gross	-10305
▁hosts	-10306
▁james	-10307
▁lacks	-10308
▁linux	-10309
▁lists	-10310
▁malig	-10311
▁memes	-10312
▁nudes	-10313
▁paddy	-10314
▁paral	-10315
▁qatar	-10316
▁races	-10317
▁riots	-10318
▁snake	-10319
▁stole	-10320
▁sweat	-10321
▁thier	-10322
▁toast	-10323
▁uneth	-10324
▁unoff	-10325
▁assemb	-10326
▁aussie	-10327
▁buried	-10328
▁chilli	-10329
▁eventh	-10330
▁excurs	-10331
▁filing	-10332
▁gamers	-10333
▁headqu	-10334
▁hopper	-10335
▁huawei	-10336
▁iconic	-10337
▁intrig	-10338
▁lenses	-10339
▁lovers	-10340
▁massac	-10341
▁mumbai	-10342
▁neglig	-10343
▁nreply	-10344
▁ntotal	-10345
▁output	-10346
▁peanut	-10347
▁preval	-10348
▁ragama	-10349
▁sweets	-10350
▁treats	-10351
ographic	-10352
▁batting	-10353
▁bottled	-10354
▁dispute	-10355
▁flavour	-10356
▁formula	-10357
▁freight	-10358
▁gampola	-10359
▁generic	-10360
▁hopping	-10361
▁jumping	-10362
▁kegalle	-10363
▁magical	-10364
▁malinga	-10365
▁mathews	-10366
▁nanotek	-10367
▁prophet	-10368
▁robbery	-10369
▁rolling	-10370
▁scammer	-10371
▁secured	-10372
▁senevir	-10373
▁toronto	-10374
▁unbelie	-10375
▁accompan	-10376
▁adequate	-10377
▁annually	-10378
▁concrete	-10379
▁ethernet	-10380
▁flooding	-10381
▁monument	-10382
▁offended	-10383
▁operator	-10384
▁overview	-10385
▁pathways	-10386
▁perfumes	-10387
▁removing	-10388
▁stranger	-10389
▁terminal	-10390
▁trainers	-10391
▁unwanted	-10392
▁centuries	-10393
▁conflicts	-10394
▁exporting	-10395
▁financing	-10396
▁firsthand	-10397
▁franchise	-10398
▁infection	-10399
▁libraries	-10400
▁overrated	-10401
▁paintings	-10402
▁reconcili	-10403
▁resulting	-10404
▁sponsored	-10405
▁subjected	-10406
▁unethical	-10407
▁unhealthy	-10408
▁agreements	-10409
▁automation	-10410
▁commenting	-10411
▁compulsory	-10412
▁journalism	-10413
▁neighbours	-10414
▁prohibited	-10415
▁translated	-10416
▁ultimately	-10417
▁undergradu	-10418
▁cleanliness	-10419
▁exclusively	-10420
▁gunawardena	-10421
▁initiatives	-10422
▁outsourcing	-10423
▁registering	-10424
▁transparent	-10425
▁examinations	-10426
▁mechatronics	-10427
▁occasionally	-10428
▁specializing	-10429
▁spokesperson	-10430
▁volunteering	-10431
▁establishment	-10432
▁inappropriate	-10433
▁participating	-10434
▁considerations	-10435
▁understandable	-10436
34	-10437
sa	-10438
bur	-10439
cos	-10440
gge	-10441
ifi	-10442
isc	-10443
▁ao	-10444
▁aq	-10445
▁tm	-10446
▁wd	-10447
▁wn	-10448
▁xd	-10449
asty	-10450
chol	-10451
ests	-10452
icip	-10453
ista	-10454
mail	-10455
news	-10456
wana	-10457
wear	-10458
ylan	-10459
▁165	-10460
▁ape	-10461
▁apr	-10462
▁asb	-10463
▁atl	-10464
▁bak	-10465
▁bil	-10466
▁cds	-10467
▁cey	-10468
▁cum	-10469
▁eka	-10470
▁gim	-10471
▁meh	-10472
▁noe	-10473
▁omg	-10474
▁oss	-10475
▁ott	-10476
▁ric	-10477
▁seg	-10478
▁tec	-10479
▁tex	-10480
▁une	-10481
alore	-10482
anthi	-10483
assis	-10484
ching	-10485
lated	-10486
marks	-10487
nered	-10488
oting	-10489
rence	-10490
vidia	-10491
▁1200	-10492
▁1983	-10493
▁1993	-10494
▁acre	-10495
▁amex	-10496
▁bros	-10497
▁buzz	-10498
▁docs	-10499
▁gods	-10500
▁golf	-10501
▁halt	-10502
▁heal	-10503
▁iraj	-10504
▁iten	-10505
▁loop	-10506
▁nail	-10507
▁nope	-10508
▁piss	-10509
▁plug	-10510
▁rust	-10511
▁scot	-10512
▁swap	-10513
▁thru	-10514
▁urge	-10515
▁volt	-10516
▁ware	-10517
active	-10518
apping	-10519
ateral	-10520
cities	-10521
liment	-10522
mirror	-10523
regard	-10524
▁alpha	-10525
▁chess	-10526
▁downv	-10527
▁highs	-10528
▁mater	-10529
▁patch	-10530
▁purif	-10531
▁remar	-10532
▁repet	-10533
▁roman	-10534
▁ruled	-10535
▁scare	-10536
▁sunny	-10537
▁threw	-10538
▁unreg	-10539
▁vegan	-10540
▁vitam	-10541
▁wijes	-10542
iveness	-10543
▁amidst	-10544
▁boards	-10545
▁bypass	-10546
▁config	-10547
▁dealer	-10548
▁forums	-10549
▁greedy	-10550
▁kitten	-10551
▁orthod	-10552
▁racing	-10553
▁resili	-10554
▁rohana	-10555
▁seylan	-10556
▁skinny	-10557
▁stigma	-10558
▁styles	-10559
▁subsid	-10560
▁traged	-10561
▁trusts	-10562
▁unprof	-10563
▁unreal	-10564
▁voices	-10565
▁workar	-10566
inochchi	-10567
▁cashier	-10568
▁chassis	-10569
▁dentist	-10570
▁drained	-10571
▁empower	-10572
▁endless	-10573
▁facilit	-10574
▁israeli	-10575
▁mosques	-10576
▁nearest	-10577
▁pradesh	-10578
▁ranging	-10579
▁rituals	-10580
▁shampoo	-10581
▁sketchy	-10582
▁soldier	-10583
▁squeeze	-10584
▁alphabet	-10585
▁assholes	-10586
▁awaiting	-10587
▁boutique	-10588
▁chilling	-10589
▁crossing	-10590
▁cuisines	-10591
▁distinct	-10592
▁downfall	-10593
▁explains	-10594
▁hesitate	-10595
▁hopeless	-10596
▁koombiyo	-10597
▁mcdonald	-10598
▁mosquito	-10599
▁obsessed	-10600
▁oriented	-10601
▁overload	-10602
▁podcasts	-10603
▁spelling	-10604
▁tutoring	-10605
▁warnings	-10606
▁appealing	-10607
▁bangalore	-10608
▁believing	-10609
▁belonging	-10610
▁converted	-10611
▁corrupted	-10612
▁designers	-10613
▁directors	-10614
▁elaborate	-10615
▁enjoyable	-10616
▁expanding	-10617
▁fireworks	-10618
▁gradually	-10619
▁instantly	-10620
▁justified	-10621
▁ratnayake	-10622
▁reasoning	-10623
▁souvenirs	-10624
▁suppliers	-10625
▁surviving	-10626
▁territory	-10627
▁universal	-10628
▁vegetable	-10629
▁ambassador	-10630
▁applicants	-10631
▁bankruptcy	-10632
▁conversion	-10633
▁culturally	-10634
▁determined	-10635
▁eventhough	-10636
▁homophobic	-10637
▁intentions	-10638
▁moderators	-10639
▁privileged	-10640
▁references	-10641
▁relaxation	-10642
▁unreserved	-10643
▁vulnerable	-10644
▁achievement	-10645
▁collaborate	-10646
▁commissions	-10647
▁credibility	-10648
▁disappeared	-10649
▁highlighted	-10650
▁limitations	-10651
▁rajapakshas	-10652
▁specialized	-10653
▁substantial	-10654
▁uncertainty	-10655
▁considerable	-10656
▁economically	-10657
▁observations	-10658
▁sabaragamuwa	-10659
▁significance	-10660
▁collaboration	-10661
▁establishments	-10662
▁reconciliation	-10663
▁undergraduates	-10664
41	-10665
65	-10666
75	-10667
96	-10668
ev	-10669
jp	-10670
ams	-10671
avi	-10672
inn	-10673
lin	-10674
map	-10675
nan	-10676
pro	-10677
rel	-10678
ros	-10679
tec	-10680
uff	-10681
▁fs	-10682
▁mf	-10683
▁mh	-10684
▁va	-10685
▁xx	-10686
boda	-10687
cott	-10688
eart	-10689
iant	-10690
irus	-10691
iyal	-10692
mins	-10693
raal	-10694
rais	-10695
umps	-10696
unci	-10697
uten	-10698
▁101	-10699
▁365	-10700
▁abo	-10701
▁ada	-10702
▁ais	-10703
▁ari	-10704
▁asw	-10705
▁azz	-10706
▁bpo	-10707
▁bun	-10708
▁cel	-10709
▁css	-10710
▁etf	-10711
▁kiy	-10712
▁lip	-10713
▁lka	-10714
▁maw	-10715
▁mih	-10716
▁naw	-10717
▁nvq	-10718
▁ocd	-10719
▁pax	-10720
▁pla	-10721
▁psa	-10722
▁row	-10723
▁sse	-10724
▁ucl	-10725
▁vig	-10726
▁vip	-10727
▁yor	-10728
asses	-10729
athil	-10730
etics	-10731
iries	-10732
licit	-10733
urred	-10734
uthan	-10735
▁1080	-10736
▁1994	-10737
▁acca	-10738
▁blow	-10739
▁boil	-10740
▁cher	-10741
▁deed	-10742
▁dept	-10743
▁devi	-10744
▁drag	-10745
▁fold	-10746
▁gest	-10747
▁hari	-10748
▁inex	-10749
▁jana	-10750
▁logo	-10751
▁nind	-10752
▁pled	-10753
▁poly	-10754
▁sooo	-10755
▁susp	-10756
▁tens	-10757
▁thro	-10758
▁tong	-10759
▁unac	-10760
acious	-10761
boards	-10762
stairs	-10763
thouse	-10764
▁appli	-10765
▁beats	-10766
▁bonds	-10767
▁bride	-10768
▁burnt	-10769
▁caste	-10770
▁circu	-10771
▁david	-10772
▁deeds	-10773
▁eaten	-10774
▁fleet	-10775
▁globe	-10776
▁krish	-10777
▁litre	-10778
▁males	-10779
▁malls	-10780
▁naive	-10781
▁noisy	-10782
▁perch	-10783
▁physi	-10784
▁prest	-10785
▁prize	-10786
▁rathn	-10787
▁slots	-10788
▁steel	-10789
▁timet	-10790
▁wasnt	-10791
hakaran	-10792
uration	-10793
▁airbus	-10794
▁ampara	-10795
▁angelo	-10796
▁blamed	-10797
▁blocks	-10798
▁combat	-10799
▁guided	-10800
▁heated	-10801
▁homest	-10802
▁loaded	-10803
▁outage	-10804
▁outing	-10805
▁poster	-10806
▁rabies	-10807
▁sooner	-10808
▁spouse	-10809
▁struck	-10810
▁stuffs	-10811
▁tablet	-10812
▁transm	-10813
▁wholes	-10814
▁writer	-10815
▁bailout	-10816
▁begging	-10817
▁binance	-10818
▁biotech	-10819
▁broader	-10820
▁cabraal	-10821
▁chilled	-10822
▁crossed	-10823
▁divided	-10824
▁empathy	-10825
▁exorbit	-10826
▁exploit	-10827
▁horizon	-10828
▁leather	-10829
▁loosing	-10830
▁mocking	-10831
▁outlook	-10832
▁penalty	-10833
▁readily	-10834
▁scolded	-10835
▁stepped	-10836
▁surpass	-10837
▁tension	-10838
▁thieves	-10839
▁touring	-10840
▁tragedy	-10841
▁whatnot	-10842
anagement	-10843
▁activist	-10844
▁adopting	-10845
▁arrivals	-10846
▁believes	-10847
▁cardinal	-10848
▁churches	-10849
▁clubbing	-10850
▁councils	-10851
▁cricinfo	-10852
▁decrease	-10853
▁demanded	-10854
▁disgrace	-10855
▁disheart	-10856
▁embedded	-10857
▁equipped	-10858
▁explicit	-10859
▁indirect	-10860
▁nissanka	-10861
▁pleasure	-10862
▁podujana	-10863
▁rational	-10864
▁reminded	-10865
▁securing	-10866
▁societal	-10867
▁taxation	-10868
▁threaten	-10869
▁timeline	-10870
▁treasure	-10871
▁achieving	-10872
▁aesthetic	-10873
▁aftermath	-10874
▁allergies	-10875
▁ambitious	-10876
▁attacking	-10877
▁carefully	-10878
▁communist	-10879
▁determine	-10880
▁disregard	-10881
▁exchanges	-10882
▁exemption	-10883
▁existence	-10884
▁extremist	-10885
▁impressed	-10886
▁incorrect	-10887
▁legendary	-10888
▁predicted	-10889
▁proposals	-10890
▁repeating	-10891
▁satellite	-10892
▁throttled	-10893
▁advantages	-10894
▁atrocities	-10895
▁confirming	-10896
▁consulting	-10897
▁containing	-10898
▁experiment	-10899
▁innovative	-10900
▁instructed	-10901
▁perception	-10902
▁preventing	-10903
▁supplement	-10904
▁backpackers	-10905
▁credentials	-10906
▁friendships	-10907
▁instability	-10908
▁medications	-10909
▁politically	-10910
▁prabhakaran	-10911
▁recruitment	-10912
▁seneviratne	-10913
▁championship	-10914
▁overthinking	-10915
▁reservations	-10916
▁inconvenience	-10917
▁cryptocurrency	-10918
▁discriminatory	-10919
42	-10920
fy	-10921
jee	-10922
▁fc	-10923
▁fx	-10924
▁hh	-10925
▁pp	-10926
▁rh	-10927
▁tn	-10928
abul	-10929
amic	-10930
anag	-10931
esto	-10932
illa	-10933
mini	-10934
part	-10935
peed	-10936
rish	-10937
test	-10938
upun	-10939
verr	-10940
yard	-10941
▁230	-10942
▁260	-10943
▁280	-10944
▁850	-10945
▁aes	-10946
▁bcs	-10947
▁bcz	-10948
▁cpc	-10949
▁cpu	-10950
▁dip	-10951
▁ell	-10952
▁evs	-10953
▁fif	-10954
▁gel	-10955
▁haz	-10956
▁kov	-10957
▁mrp	-10958
▁msg	-10959
▁nss	-10960
▁siy	-10961
▁tvs	-10962
▁unm	-10963
▁vom	-10964
▁wes	-10965
▁wid	-10966
▁wre	-10967
▁wtc	-10968
▁zip	-10969
antry	-10970
inger	-10971
llion	-10972
ormal	-10973
secut	-10974
umber	-10975
uthor	-10976
▁1960	-10977
▁2011	-10978
▁bald	-10979
▁benz	-10980
▁buds	-10981
▁clou	-10982
▁dand	-10983
▁evil	-10984
▁irre	-10985
▁keys	-10986
▁kitt	-10987
▁lakh	-10988
▁mega	-10989
▁mong	-10990
▁mull	-10991
▁mush	-10992
▁pork	-10993
▁pupp	-10994
▁rear	-10995
▁sham	-10996
▁smth	-10997
▁vitz	-10998
▁vlog	-10999
abling	-11000
enders	-11001
esthub	-11002
gamuwa	-11003
gender	-11004
ggered	-11005
orship	-11006
uccess	-11007
▁10000	-11008
▁accus	-11009
▁acted	-11010
▁begun	-11011
▁bmich	-11012
▁dated	-11013
▁divis	-11014
▁fined	-11015
▁hindi	-11016
▁igcse	-11017
▁irrit	-11018
▁knife	-11019
▁linen	-11020
▁lions	-11021
▁masks	-11022
▁miles	-11023
▁moves	-11024
▁nawal	-11025
▁notor	-11026
▁nyour	-11027
▁redmi	-11028
▁rings	-11029
▁tryna	-11030
▁unmar	-11031
▁urged	-11032
▁wears	-11033
aramaya	-11034
attered	-11035
ndering	-11036
▁absent	-11037
▁affair	-11038
▁anurad	-11039
▁betray	-11040
▁cooler	-11041
▁corona	-11042
▁crocod	-11043
▁cutoff	-11044
▁devops	-11045
▁dubbed	-11046
▁garage	-11047
▁harmon	-11048
▁hypocr	-11049
▁injust	-11050
▁lyceum	-11051
▁milest	-11052
▁nvidia	-11053
▁samagi	-11054
▁spring	-11055
▁stitch	-11056
▁surfer	-11057
▁tackle	-11058
▁theirs	-11059
▁unfold	-11060
▁abolish	-11061
▁acquire	-11062
▁anticip	-11063
▁approve	-11064
▁bandara	-11065
▁bribery	-11066
▁buffets	-11067
▁buggers	-11068
▁chronic	-11069
▁compete	-11070
▁contrad	-11071
▁dismiss	-11072
▁dragged	-11073
▁feeding	-11074
▁handful	-11075
▁handing	-11076
▁invoice	-11077
▁jetwing	-11078
▁jobless	-11079
▁lifting	-11080
▁mandate	-11081
▁migrant	-11082
▁onboard	-11083
▁oneplus	-11084
▁peanuts	-11085
▁perches	-11086
▁placing	-11087
▁prepaid	-11088
▁procure	-11089
▁ramadan	-11090
▁ramboda	-11091
▁revenge	-11092
▁seating	-11093
▁shifted	-11094
▁signing	-11095
▁tactics	-11096
▁variant	-11097
▁asbestos	-11098
▁cartoons	-11099
▁catching	-11100
▁charitha	-11101
▁civilian	-11102
▁concerts	-11103
▁damaging	-11104
▁dispatch	-11105
▁dressing	-11106
▁escalate	-11107
▁generous	-11108
▁harassed	-11109
▁homemade	-11110
▁inferior	-11111
▁interven	-11112
▁notified	-11113
▁patience	-11114
▁playlist	-11115
▁postpone	-11116
▁rainfall	-11117
▁redditor	-11118
▁replying	-11119
▁stickers	-11120
▁sticking	-11121
▁tensions	-11122
▁thankful	-11123
▁tortured	-11124
▁trillion	-11125
▁backwards	-11126
▁balancing	-11127
▁botanical	-11128
▁dictators	-11129
▁dismissed	-11130
▁electoral	-11131
▁exceeding	-11132
▁extensive	-11133
▁inclusive	-11134
▁inquiries	-11135
▁investhub	-11136
▁newsfirst	-11137
▁offensive	-11138
▁privilege	-11139
▁probation	-11140
▁schedules	-11141
▁triggered	-11142
▁attempting	-11143
▁creativity	-11144
▁dedication	-11145
▁encouraged	-11146
▁exhausting	-11147
▁households	-11148
▁immigrants	-11149
▁instructor	-11150
▁liberation	-11151
▁normalized	-11152
▁possession	-11153
▁programmes	-11154
▁remembered	-11155
▁suspension	-11156
▁thoroughly	-11157
▁transcript	-11158
▁undergrads	-11159
▁underworld	-11160
▁violations	-11161
▁yourselves	-11162
▁cooperation	-11163
▁counselling	-11164
▁dailymirror	-11165
▁intelligent	-11166
▁nationalist	-11167
▁operational	-11168
▁outstanding	-11169
▁photographs	-11170
▁developments	-11171
▁satisfaction	-11172
▁surroundings	-11173
▁unbelievable	-11174
▁mismanagement	-11175
▁possibilities	-11176
▁identification	-11177
▁misinformation	-11178
▁unprofessional	-11179
86	-11180
89	-11181
ao	-11182
di	-11183
jo	-11184
uu	-11185
yn	-11186
alp	-11187
asm	-11188
ema	-11189
gam	-11190
iju	-11191
jab	-11192
kin	-11193
kok	-11194
lec	-11195
llo	-11196
ris	-11197
uit	-11198
war	-11199
▁db	-11200
▁ei	-11201
▁ew	-11202
▁iv	-11203
ader	-11204
araj	-11205
arre	-11206
aunt	-11207
awns	-11208
fish	-11209
gota	-11210
icts	-11211
lear	-11212
park	-11213
pted	-11214
pton	-11215
stop	-11216
teen	-11217
wind	-11218
▁512	-11219
▁bah	-11220
▁bba	-11221
▁blu	-11222
▁btu	-11223
▁dew	-11224
▁dul	-11225
▁edm	-11226
▁fds	-11227
▁fox	-11228
▁goa	-11229
▁hir	-11230
▁ial	-11231
▁idp	-11232
▁ifs	-11233
▁kol	-11234
▁luc	-11235
▁nah	-11236
▁nby	-11237
▁nuc	-11238
▁pel	-11239
▁sob	-11240
▁vfs	-11241
▁wra	-11242
aning	-11243
backs	-11244
domin	-11245
imity	-11246
istol	-11247
otted	-11248
store	-11249
tered	-11250
unity	-11251
urric	-11252
▁1956	-11253
▁1980	-11254
▁9000	-11255
▁amen	-11256
▁basl	-11257
▁begg	-11258
▁bone	-11259
▁brow	-11260
▁fond	-11261
▁font	-11262
▁fuss	-11263
▁gree	-11264
▁horn	-11265
▁lect	-11266
▁lore	-11267
▁modi	-11268
▁node	-11269
▁nper	-11270
▁offs	-11271
▁pond	-11272
▁prox	-11273
▁ramb	-11274
▁robe	-11275
▁saas	-11276
▁shes	-11277
▁ster	-11278
▁tees	-11279
▁tops	-11280
▁toys	-11281
▁vint	-11282
erated	-11283
ijuana	-11284
imosis	-11285
itudes	-11286
lihood	-11287
redict	-11288
taking	-11289
yaluma	-11290
▁aired	-11291
▁arpic	-11292
▁aunty	-11293
▁blank	-11294
▁bliss	-11295
▁chili	-11296
▁ditch	-11297
▁downt	-11298
▁dried	-11299
▁exped	-11300
▁fryer	-11301
▁grant	-11302
▁grows	-11303
▁hacks	-11304
▁harin	-11305
▁honor	-11306
▁ichem	-11307
▁inexp	-11308
▁kamal	-11309
▁kovil	-11310
▁lodge	-11311
▁nthis	-11312
▁pause	-11313
▁potat	-11314
▁reads	-11315
▁reimb	-11316
▁retri	-11317
▁sands	-11318
▁somed	-11319
▁traps	-11320
▁warns	-11321
abulary	-11322
awegaya	-11323
naments	-11324
rection	-11325
▁aboard	-11326
▁accord	-11327
▁appreh	-11328
▁attire	-11329
▁bitter	-11330
▁breast	-11331
▁colors	-11332
▁compat	-11333
▁errors	-11334
▁euthan	-11335
▁fiverr	-11336
▁flavor	-11337
▁gemini	-11338
▁hiding	-11339
▁landsl	-11340
▁lively	-11341
▁pardon	-11342
▁quotes	-11343
▁refurb	-11344
▁revers	-11345
▁sanath	-11346
▁steady	-11347
▁uncles	-11348
▁unrest	-11349
ceptable	-11350
otherapy	-11351
▁breakup	-11352
▁categor	-11353
▁cleaned	-11354
▁courage	-11355
▁crashed	-11356
▁crushed	-11357
▁damages	-11358
▁disturb	-11359
▁dynamic	-11360
▁earbuds	-11361
▁engines	-11362
▁fingers	-11363
▁flooded	-11364
▁gallery	-11365
▁harbour	-11366
▁hustles	-11367
▁inquire	-11368
▁kittens	-11369
▁mineral	-11370
▁murders	-11371
▁mystery	-11372
▁pilgrim	-11373
▁pretend	-11374
▁ranting	-11375
▁regrets	-11376
▁rewards	-11377
▁snorkel	-11378
▁unclear	-11379
▁upfront	-11380
▁utterly	-11381
▁vintage	-11382
▁acquired	-11383
▁addicted	-11384
▁attested	-11385
▁audacity	-11386
▁billions	-11387
▁campuses	-11388
▁chatting	-11389
▁consists	-11390
▁contempl	-11391
▁diyaluma	-11392
▁enforced	-11393
▁exporter	-11394
▁fixtures	-11395
▁incorpor	-11396
▁irrespon	-11397
▁israelis	-11398
▁killings	-11399
▁monopoly	-11400
▁moreover	-11401
▁murdered	-11402
▁organize	-11403
▁pronunci	-11404
▁punished	-11405
▁situated	-11406
▁suppress	-11407
▁theaters	-11408
▁unusable	-11409
▁arbitrary	-11410
▁classroom	-11411
▁competent	-11412
▁container	-11413
▁criticize	-11414
▁defending	-11415
▁discourse	-11416
▁exporters	-11417
▁launching	-11418
▁marijuana	-11419
▁merchants	-11420
▁notorious	-11421
▁oversized	-11422
▁powercuts	-11423
▁recurring	-11424
▁remembers	-11425
▁retailers	-11426
▁seemingly	-11427
▁shoulders	-11428
▁similarly	-11429
▁unmarried	-11430
▁unpredict	-11431
▁valuation	-11432
▁abeysinghe	-11433
▁balawegaya	-11434
▁downloaded	-11435
▁exorbitant	-11436
▁expressing	-11437
▁frameworks	-11438
▁ideologies	-11439
▁mosquitoes	-11440
▁principles	-11441
▁television	-11442
▁vocabulary	-11443
▁amarasuriya	-11444
▁competitors	-11445
▁destruction	-11446
▁eligibility	-11447
▁identifying	-11448
▁kilinochchi	-11449
▁overcrowded	-11450
▁researchers	-11451
▁authenticity	-11452
▁dictatorship	-11453
▁questionable	-11454
▁unacceptable	-11455
▁contributions	-11456
▁strengthening	-11457
▁wickramasinghe	-11458
88	-11459
99	-11460
cp	-11461
qo	-11462
sm	-11463
zu	-11464
ald	-11465
bac	-11466
bro	-11467
esy	-11468
fty	-11469
lor	-11470
oph	-11471
ria	-11472
▁dl	-11473
▁ih	-11474
▁io	-11475
▁oi	-11476
▁wy	-11477
▁yy	-11478
abad	-11479
eter	-11480
ignt	-11481
keep	-11482
leum	-11483
ocre	-11484
ople	-11485
zech	-11486
▁alb	-11487
▁ama	-11488
▁caa	-11489
▁dna	-11490
▁ect	-11491
▁eur	-11492
▁gif	-11493
▁git	-11494
▁gum	-11495
▁haw	-11496
▁hyd	-11497
▁jes	-11498
▁kan	-11499
▁lun	-11500
▁mam	-11501
▁nod	-11502
▁nso	-11503
▁pip	-11504
▁rag	-11505
▁sel	-11506
▁ted	-11507
▁tht	-11508
▁tue	-11509
▁umb	-11510
acent	-11511
aceut	-11512
after	-11513
akuru	-11514
alled	-11515
andra	-11516
annow	-11517
arity	-11518
awick	-11519
berry	-11520
eding	-11521
endra	-11522
erate	-11523
erent	-11524
iased	-11525
ommer	-11526
owned	-11527
riger	-11528
urudu	-11529
▁0777	-11530
▁1970	-11531
▁1971	-11532
▁1978	-11533
▁8000	-11534
▁amdt	-11535
▁belt	-11536
▁chef	-11537
▁chik	-11538
▁cycl	-11539
▁devs	-11540
▁diam	-11541
▁dine	-11542
▁dire	-11543
▁dirt	-11544
▁flew	-11545
▁koth	-11546
▁lesb	-11547
▁lump	-11548
▁mens	-11549
▁muth	-11550
▁neat	-11551
▁neph	-11552
▁nlkr	-11553
▁pile	-11554
▁pubs	-11555
▁puzz	-11556
▁rack	-11557
▁rome	-11558
▁slot	-11559
▁sung	-11560
▁toss	-11561
▁trib	-11562
▁tune	-11563
▁vand	-11564
▁vene	-11565
▁vets	-11566
▁wera	-11567
▁whey	-11568
▁wrap	-11569
aching	-11570
avirus	-11571
brance	-11572
nowned	-11573
orance	-11574
rising	-11575
roleum	-11576
▁amate	-11577
▁angel	-11578
▁azzam	-11579
▁backl	-11580
▁beast	-11581
▁blend	-11582
▁bloom	-11583
▁boast	-11584
▁brack	-11585
▁cheer	-11586
▁czech	-11587
▁demol	-11588
▁dharm	-11589
▁euros	-11590
▁haunt	-11591
▁indie	-11592
▁invas	-11593
▁kites	-11594
▁leech	-11595
▁magaz	-11596
▁mexic	-11597
▁naked	-11598
▁payed	-11599
▁probe	-11600
▁query	-11601
▁recom	-11602
▁sends	-11603
▁sneak	-11604
▁sworn	-11605
▁taboo	-11606
▁texts	-11607
▁titan	-11608
▁trous	-11609
▁vigil	-11610
▁vouch	-11611
▁wound	-11612
autions	-11613
avahini	-11614
earable	-11615
forward	-11616
ipitiya	-11617
ruption	-11618
▁alevel	-11619
▁arpico	-11620
▁browse	-11621
▁copied	-11622
▁crappy	-11623
▁desire	-11624
▁dilith	-11625
▁gohome	-11626
▁hosted	-11627
▁jumped	-11628
▁merely	-11629
▁misuse	-11630
▁parade	-11631
▁pedest	-11632
▁pegged	-11633
▁qualif	-11634
▁robbed	-11635
▁sthuth	-11636
▁stones	-11637
▁summar	-11638
▁themed	-11639
▁triple	-11640
▁yearly	-11641
aneously	-11642
▁arrests	-11643
▁capture	-11644
▁chapter	-11645
▁circuit	-11646
▁confron	-11647
▁dignity	-11648
▁expects	-11649
▁fantasy	-11650
▁focuses	-11651
▁genetic	-11652
▁googled	-11653
▁hobbies	-11654
▁interim	-11655
▁kidding	-11656
▁laughed	-11657
▁mohamed	-11658
▁oppress	-11659
▁queries	-11660
▁quietly	-11661
▁restart	-11662
▁skipped	-11663
▁studios	-11664
▁sundays	-11665
▁teenage	-11666
▁trainer	-11667
▁wonders	-11668
aceutical	-11669
▁adjusted	-11670
▁controls	-11671
▁counters	-11672
▁decently	-11673
▁dehiwela	-11674
▁diseases	-11675
▁exercise	-11676
▁exported	-11677
▁featured	-11678
▁helakuru	-11679
▁imprison	-11680
▁insisted	-11681
▁journeys	-11682
▁literary	-11683
▁mediocre	-11684
▁mobility	-11685
▁operates	-11686
▁outcomes	-11687
▁patterns	-11688
▁pointing	-11689
▁quitting	-11690
▁refriger	-11691
▁restored	-11692
▁scolding	-11693
▁servants	-11694
▁settling	-11695
▁shipment	-11696
▁suicidal	-11697
▁trending	-11698
▁unauthor	-11699
▁unbiased	-11700
▁ventures	-11701
▁wheelers	-11702
▁amenities	-11703
▁ancestors	-11704
▁assurance	-11705
▁backpacks	-11706
▁confusion	-11707
▁deposited	-11708
▁detention	-11709
▁diagnosis	-11710
▁discovery	-11711
▁eliminate	-11712
▁europeans	-11713
▁exception	-11714
▁extending	-11715
▁ignorance	-11716
▁immigrant	-11717
▁instances	-11718
▁manifesto	-11719
▁movements	-11720
▁palestine	-11721
▁petroleum	-11722
▁producers	-11723
▁residency	-11724
▁sentenced	-11725
▁socialize	-11726
▁spokesman	-11727
▁suspicion	-11728
▁teenagers	-11729
▁amendments	-11730
▁committing	-11731
▁containers	-11732
▁cricketers	-11733
▁nationwide	-11734
▁noticeable	-11735
▁practicing	-11736
▁pradeshiya	-11737
▁ranasinghe	-11738
▁reflection	-11739
▁researched	-11740
▁strengthen	-11741
▁unbearable	-11742
▁undergoing	-11743
▁unofficial	-11744
▁vocational	-11745
▁waterproof	-11746
▁worthwhile	-11747
▁commitments	-11748
▁coronavirus	-11749
▁encouraging	-11750
▁fortunately	-11751
▁integration	-11752
▁jayawardena	-11753
▁precautions	-11754
▁stereotypes	-11755
▁deliberately	-11756
▁headquarters	-11757
▁interactions	-11758
▁representing	-11759
▁subsequently	-11760
▁complications	-11761
▁heartbreaking	-11762
▁manufacturers	-11763
▁neighbourhood	-11764
▁subscriptions	-11765
▁unpredictable	-11766
▁administrative	-11767
▁implementation	-11768
▁pharmaceutical	-11769
▁representation	-11770
32	-11771
46	-11772
53	-11773
72	-11774
fi	-11775
oj	-11776
qe	-11777
ua	-11778
alk	-11779
asl	-11780
bel	-11781
bid	-11782
buy	-11783
cam	-11784
ggy	-11785
ken	-11786
lif	-11787
ova	-11788
rey	-11789
rot	-11790
tim	-11791
tte	-11792
ugg	-11793
ukk	-11794
zab	-11795
▁df	-11796
▁pg	-11797
▁rd	-11798
▁uy	-11799
adam	-11800
alid	-11801
avan	-11802
emed	-11803
icop	-11804
isit	-11805
mend	-11806
ocop	-11807
offs	-11808
owed	-11809
unya	-11810
zens	-11811
▁102	-11812
▁135	-11813
▁acs	-11814
▁aia	-11815
▁arj	-11816
▁aws	-11817
▁cme	-11818
▁ems	-11819
▁hip	-11820
▁kir	-11821
▁nap	-11822
▁nbo	-11823
▁nle	-11824
▁nne	-11825
▁nol	-11826
▁oat	-11827
▁oic	-11828
▁ole	-11829
▁oli	-11830
▁pcs	-11831
▁php	-11832
▁ply	-11833
▁riy	-11834
▁sas	-11835
▁sie	-11836
▁sos	-11837
▁sql	-11838
▁tes	-11839
▁upv	-11840
▁uva	-11841
▁wan	-11842
▁zoo	-11843
arded	-11844
awath	-11845
cedes	-11846
erals	-11847
ignty	-11848
liest	-11849
omark	-11850
overs	-11851
stone	-11852
uwawa	-11853
▁1300	-11854
▁acbt	-11855
▁appe	-11856
▁bcas	-11857
▁bold	-11858
▁bush	-11859
▁carb	-11860
▁clim	-11861
▁crem	-11862
▁deri	-11863
▁dhar	-11864
▁foss	-11865
▁gene	-11866
▁geop	-11867
▁hint	-11868
▁html	-11869
▁inev	-11870
▁ipad	-11871
▁lush	-11872
▁mate	-11873
▁merc	-11874
▁nair	-11875
▁nasa	-11876
▁npro	-11877
▁oily	-11878
▁onei	-11879
▁patt	-11880
▁pras	-11881
▁pura	-11882
▁raja	-11883
▁shak	-11884
▁shri	-11885
▁slee	-11886
▁soup	-11887
▁stap	-11888
▁tert	-11889
▁whit	-11890
▁writ	-11891
atures	-11892
awella	-11893
azeera	-11894
ective	-11895
herent	-11896
ivated	-11897
kwella	-11898
nology	-11899
places	-11900
weight	-11901
▁arche	-11902
▁bases	-11903
▁cemet	-11904
▁chunk	-11905
▁creep	-11906
▁drast	-11907
▁earns	-11908
▁enact	-11909
▁enemy	-11910
▁etiqu	-11911
▁exagg	-11912
▁expat	-11913
▁gains	-11914
▁goons	-11915
▁irrig	-11916
▁jeans	-11917
▁macro	-11918
▁malli	-11919
▁nelum	-11920
▁nwith	-11921
▁promo	-11922
▁shell	-11923
▁shits	-11924
▁straw	-11925
▁swarn	-11926
▁tanks	-11927
▁tears	-11928
▁tends	-11929
▁thero	-11930
▁tiger	-11931
▁vijay	-11932
▁waist	-11933
acurric	-11934
atively	-11935
ifiable	-11936
▁abeyse	-11937
▁acquis	-11938
▁amazed	-11939
▁barber	-11940
▁belief	-11941
▁convey	-11942
▁cruise	-11943
▁cycles	-11944
▁dhamma	-11945
▁doomed	-11946
▁dozens	-11947
▁embark	-11948
▁eyeing	-11949
▁fellas	-11950
▁finals	-11951
▁formed	-11952
▁ginger	-11953
▁kerala	-11954
▁nlanka	-11955
▁nomads	-11956
▁poruwa	-11957
▁resale	-11958
▁retain	-11959
▁retake	-11960
▁riders	-11961
▁ritual	-11962
▁sample	-11963
▁scales	-11964
▁sealed	-11965
▁seated	-11966
▁stamps	-11967
▁tasted	-11968
▁thesis	-11969
▁towers	-11970
▁venezu	-11971
aratunga	-11972
iciently	-11973
ployment	-11974
▁aligned	-11975
▁authors	-11976
▁ceiling	-11977
▁charith	-11978
▁clinics	-11979
▁congrat	-11980
▁cruelty	-11981
▁drawing	-11982
▁estates	-11983
▁existed	-11984
▁fathers	-11985
▁forests	-11986
▁glomark	-11987
▁helicop	-11988
▁itenary	-11989
▁janatha	-11990
▁martial	-11991
▁messing	-11992
▁millenn	-11993
▁nightcl	-11994
▁nuclear	-11995
▁perpetr	-11996
▁possess	-11997
▁reaches	-11998
▁remarks	-11999
▁roaming	-12000
▁romance	-12001
▁scandal	-12002
▁shelter	-12003
▁singers	-12004
▁skinned	-12005
▁someday	-12006
▁teaches	-12007
▁touched	-12008
▁traders	-12009
▁trigger	-12010
▁vacancy	-12011
ructuring	-12012
▁adventur	-12013
▁alarming	-12014
▁bungalow	-12015
▁clicking	-12016
▁coconuts	-12017
▁comeback	-12018
▁corporal	-12019
▁deserved	-12020
▁enabling	-12021
▁extraord	-12022
▁findings	-12023
▁fluently	-12024
▁frontend	-12025
▁geopolit	-12026
▁homeland	-12027
▁importer	-12028
▁injuries	-12029
▁lighting	-12030
▁manually	-12031
▁marathon	-12032
▁marrying	-12033
▁mercedes	-12034
▁murderer	-12035
▁ncolombo	-12036
▁photocop	-12037
▁redirect	-12038
▁renowned	-12039
▁robotics	-12040
▁scooters	-12041
▁seamless	-12042
▁secretly	-12043
▁shifting	-12044
▁showcase	-12045
▁showroom	-12046
▁survival	-12047
▁tertiary	-12048
▁tolerate	-12049
▁updating	-12050
▁uploaded	-12051
▁werahera	-12052
▁attitudes	-12053
▁commuting	-12054
▁crocodile	-12055
▁insisting	-12056
▁isolation	-12057
▁lecturing	-12058
▁lucrative	-12059
▁monastery	-12060
▁necessity	-12061
▁nishantha	-12062
▁nostalgia	-12063
▁orthodont	-12064
▁parenting	-12065
▁perceived	-12066
▁pointless	-12067
▁proceeded	-12068
▁proximity	-12069
▁registrar	-12070
▁saturated	-12071
▁subscribe	-12072
▁unrelated	-12073
▁utilities	-12074
acurricular	-12075
▁appliances	-12076
▁definition	-12077
▁durability	-12078
▁gohomegota	-12079
▁mastercard	-12080
▁newswirelk	-12081
▁overlooked	-12082
▁rajapakshe	-12083
▁recordings	-12084
▁remarkable	-12085
▁scientists	-12086
▁volunteers	-12087
▁wellawatta	-12088
▁attestation	-12089
▁businessman	-12090
▁drastically	-12091
▁fascinating	-12092
▁festivities	-12093
▁functioning	-12094
▁guesthouses	-12095
▁preparation	-12096
▁remembrance	-12097
▁sovereignty	-12098
▁supplements	-12099
▁temperature	-12100
▁trafficking	-12101
▁underground	-12102
▁withdrawals	-12103
▁capabilities	-12104
▁hospitalized	-12105
▁implementing	-12106
▁presentation	-12107
▁stakeholders	-12108
▁disheartening	-12109
▁psychologists	-12110
▁restructuring	-12111
▁technological	-12112
▁extracurricular	-12113
▁straightforward	-12114
05	-12115
58	-12116
94	-12117
bi	-12118
ju	-12119
ki	-12120
eek	-12121
eli	-12122
nat	-12123
ony	-12124
oor	-12125
orq	-12126
▁ci	-12127
▁kw	-12128
▁mg	-12129
▁vc	-12130
aven	-12131
berg	-12132
chik	-12133
cker	-12134
face	-12135
fire	-12136
help	-12137
mavo	-12138
mond	-12139
nity	-12140
oped	-12141
oric	-12142
pher	-12143
reet	-12144
stan	-12145
tech	-12146
year	-12147
zone	-12148
▁144	-12149
▁222	-12150
▁ars	-12151
▁biz	-12152
▁coe	-12153
▁ctb	-12154
▁dsi	-12155
▁dyn	-12156
▁eae	-12157
▁esp	-12158
▁fdi	-12159
▁gmt	-12160
▁gop	-12161
▁hil	-12162
▁hoo	-12163
▁lob	-12164
▁mrs	-12165
▁nce	-12166
▁nfc	-12167
▁nhi	-12168
▁nwh	-12169
▁ona	-12170
▁pte	-12171
▁tie	-12172
▁tir	-12173
▁vas	-12174
agiri	-12175
apaks	-12176
apola	-12177
aving	-12178
being	-12179
ncies	-12180
shire	-12181
ugoda	-12182
verts	-12183
watch	-12184
▁2001	-12185
▁2002	-12186
▁7000	-12187
▁aint	-12188
▁atms	-12189
▁bass	-12190
▁belo	-12191
▁butt	-12192
▁carp	-12193
▁cliq	-12194
▁coal	-12195
▁cola	-12196
▁coup	-12197
▁curs	-12198
▁dfcc	-12199
▁esim	-12200
▁flip	-12201
▁goss	-12202
▁grat	-12203
▁gunp	-12204
▁itak	-12205
▁kann	-12206
▁kara	-12207
▁mock	-12208
▁musk	-12209
▁nike	-12210
▁peas	-12211
▁phen	-12212
▁plea	-12213
▁reop	-12214
▁rlly	-12215
▁sequ	-12216
▁sigh	-12217
▁sits	-12218
▁slmc	-12219
▁snap	-12220
▁sums	-12221
▁trim	-12222
▁vine	-12223
▁weli	-12224
▁york	-12225
adhari	-12226
iciary	-12227
illing	-12228
levant	-12229
oftext	-12230
ounced	-12231
potism	-12232
urdans	-12233
zabeth	-12234
▁15000	-12235
▁alien	-12236
▁anten	-12237
▁beard	-12238
▁beers	-12239
▁blown	-12240
▁brace	-12241
▁breat	-12242
▁cater	-12243
▁cheat	-12244
▁fears	-12245
▁fines	-12246
▁hasar	-12247
▁infos	-12248
▁karma	-12249
▁laser	-12250
▁lasts	-12251
▁liver	-12252
▁lorry	-12253
▁marit	-12254
▁moors	-12255
▁nanay	-12256
▁noooo	-12257
▁notch	-12258
▁obser	-12259
▁pills	-12260
▁resid	-12261
▁sabha	-12262
▁saves	-12263
▁scrut	-12264
▁theft	-12265
▁tissa	-12266
▁unlaw	-12267
aderana	-12268
asewana	-12269
bellion	-12270
commend	-12271
portion	-12272
▁admins	-12273
▁alerts	-12274
▁babies	-12275
▁bumble	-12276
▁cambod	-12277
▁cement	-12278
▁chrome	-12279
▁cleans	-12280
▁commod	-12281
▁commut	-12282
▁counts	-12283
▁dalada	-12284
▁deport	-12285
▁drones	-12286
▁elders	-12287
▁firing	-12288
▁flower	-12289
▁forens	-12290
▁fusion	-12291
▁genius	-12292
▁grants	-12293
▁helmet	-12294
▁honors	-12295
▁interp	-12296
▁killer	-12297
▁labels	-12298
▁latter	-12299
▁locate	-12300
▁lodged	-12301
▁mature	-12302
▁murali	-12303
▁novels	-12304
▁oppose	-12305
▁ottawa	-12306
▁pathum	-12307
▁piracy	-12308
▁prints	-12309
▁raises	-12310
▁reader	-12311
▁rebels	-12312
▁scored	-12313
▁simult	-12314
▁sirasa	-12315
▁slower	-12316
▁suburb	-12317
▁throat	-12318
▁timely	-12319
▁twenty	-12320
▁unwind	-12321
▁uphold	-12322
▁weapon	-12323
▁wheels	-12324
▁winner	-12325
▁wishes	-12326
▁wooden	-12327
culation	-12328
ulations	-12329
▁amateur	-12330
▁asshole	-12331
▁bearing	-12332
▁boycott	-12333
▁chaotic	-12334
▁coaches	-12335
▁compass	-12336
▁daytime	-12337
▁diamond	-12338
▁dislike	-12339
▁filters	-12340
▁happily	-12341
▁harmony	-12342
▁harvest	-12343
▁invalid	-12344
▁lesbian	-12345
▁mindful	-12346
▁miracle	-12347
▁nplease	-12348
▁outages	-12349
▁paralym	-12350
▁posters	-12351
▁quieter	-12352
▁resched	-12353
▁restore	-12354
▁staring	-12355
▁telecom	-12356
▁thermal	-12357
▁tipping	-12358
▁traumat	-12359
▁vitamin	-12360
▁voltage	-12361
▁worries	-12362
ilitation	-12363
▁allergic	-12364
▁cemetery	-12365
▁circular	-12366
▁coloured	-12367
▁contents	-12368
▁daylight	-12369
▁debating	-12370
▁delivers	-12371
▁dikwella	-12372
▁disputes	-12373
▁founders	-12374
▁imagined	-12375
▁inclined	-12376
▁indicate	-12377
▁initiate	-12378
▁lamprais	-12379
▁launches	-12380
▁monitors	-12381
▁nepotism	-12382
▁partying	-12383
▁precious	-12384
▁relating	-12385
▁releases	-12386
▁scotland	-12387
▁striking	-12388
▁surgical	-12389
▁survived	-12390
▁tempered	-12391
▁uniforms	-12392
▁visually	-12393
▁wasantha	-12394
▁washroom	-12395
▁wimaladh	-12396
▁workouts	-12397
▁addiction	-12398
▁applicant	-12399
▁bollywood	-12400
▁concluded	-12401
▁constrain	-12402
▁convicted	-12403
▁deadlines	-12404
▁detailing	-12405
▁elizabeth	-12406
▁endoftext	-12407
▁etiquette	-12408
▁hardships	-12409
▁healthier	-12410
▁inaugural	-12411
▁intellect	-12412
▁intrigued	-12413
▁malaysian	-12414
▁niladhari	-12415
▁policemen	-12416
▁practiced	-12417
▁prevalent	-12418
▁principle	-12419
▁projector	-12420
▁rebellion	-12421
▁screening	-12422
▁sentences	-12423
▁societies	-12424
▁sovereign	-12425
▁ticketing	-12426
▁ukrainian	-12427
▁upgrading	-12428
▁villagers	-12429
▁wellbeing	-12430
▁wholesale	-12431
▁accredited	-12432
▁ambuluwawa	-12433
▁capability	-12434
▁currencies	-12435
▁deliveries	-12436
▁disposable	-12437
▁indirectly	-12438
▁irrelevant	-12439
▁pilgrimage	-12440
▁sangakkara	-12441
▁securities	-12442
▁thoughtful	-12443
▁adventurous	-12444
▁circulating	-12445
▁constructed	-12446
▁distributed	-12447
▁ethnicities	-12448
▁orientation	-12449
▁playstation	-12450
▁populations	-12451
▁predictions	-12452
▁refurbished	-12453
▁remittances	-12454
▁withdrawing	-12455
▁christianity	-12456
▁collectively	-12457
▁inconsistent	-12458
▁insurrection	-12459
▁partnerships	-12460
▁transmission	-12461
▁unregistered	-12462
▁irresponsible	-12463
▁pronunciation	-12464
▁communications	-12465
▁specifications	-12466
06	-12467
73	-12468
74	-12469
iu	-12470
jj	-12471
qd	-12472
vs	-12473
400	-12474
500	-12475
aga	-12476
aik	-12477
dec	-12478
gen	-12479
hen	-12480
iah	-12481
ida	-12482
igo	-12483
iye	-12484
lan	-12485
lat	-12486
mhz	-12487
oni	-12488
osc	-12489
pse	-12490
ths	-12491
udd	-12492
vas	-12493
▁dc	-12494
▁ez	-12495
▁hb	-12496
▁ij	-12497
▁mw	-12498
▁sg	-12499
aine	-12500
appy	-12501
aray	-12502
asun	-12503
atur	-12504
ayer	-12505
code	-12506
etha	-12507
haya	-12508
hell	-12509
iris	-12510
isms	-12511
leys	-12512
name	-12513
onel	-12514
onic	-12515
page	-12516
pila	-12517
post	-12518
ucks	-12519
wich	-12520
ylum	-12521
▁076	-12522
▁103	-12523
▁187	-12524
▁265	-12525
▁ase	-12526
▁bbs	-12527
▁bos	-12528
▁daw	-12529
▁dum	-12530
▁dys	-12531
▁gbp	-12532
▁gos	-12533
▁gul	-12534
▁han	-12535
▁hap	-12536
▁hen	-12537
▁hii	-12538
▁hoc	-12539
▁isa	-12540
▁itc	-12541
▁itn	-12542
▁jaz	-12543
▁jur	-12544
▁lee	-12545
▁maz	-12546
▁moh	-12547
▁nir	-12548
▁nup	-12549
▁ore	-12550
▁pim	-12551
▁rhy	-12552
▁rod	-12553
▁sss	-12554
▁tha	-12555
▁thx	-12556
▁tid	-12557
▁tus	-12558
▁zah	-12559
amaha	-12560
anawa	-12561
azing	-12562
bacco	-12563
bitel	-12564
field	-12565
icket	-12566
ithub	-12567
oming	-12568
plant	-12569
rious	-12570
rists	-12571
utors	-12572
uwara	-12573
watte	-12574
▁anne	-12575
▁bugs	-12576
▁deaf	-12577
▁desc	-12578
▁drum	-12579
▁dull	-12580
▁flaw	-12581
▁gale	-12582
▁gras	-12583
▁grey	-12584
▁hith	-12585
▁jose	-12586
▁junk	-12587
▁knee	-12588
▁mere	-12589
▁milo	-12590
▁mirr	-12591
▁narc	-12592
▁ncom	-12593
▁nnpp	-12594
▁paan	-12595
▁para	-12596
▁peel	-12597
▁pier	-12598
▁pion	-12599
▁pour	-12600
▁powd	-12601
▁ramp	-12602
▁rash	-12603
▁sach	-12604
▁sara	-12605
▁sath	-12606
▁soap	-12607
▁swit	-12608
▁wore	-12609
▁yard	-12610
amperi	-12611
contin	-12612
course	-12613
mental	-12614
tering	-12615
umbura	-12616
▁accum	-12617
▁amman	-12618
▁bites	-12619
▁boots	-12620
▁buddy	-12621
▁clips	-12622
▁cripp	-12623
▁debts	-12624
▁denim	-12625
▁depri	-12626
▁disgu	-12627
▁displ	-12628
▁eater	-12629
▁etern	-12630
▁grace	-12631
▁hefty	-12632
▁hinge	-12633
▁holes	-12634
▁hoped	-12635
▁intol	-12636
▁jayas	-12637
▁kotel	-12638
▁lakes	-12639
▁lingu	-12640
▁looph	-12641
▁marsh	-12642
▁merry	-12643
▁molec	-12644
▁nicer	-12645
▁overp	-12646
▁param	-12647
▁petty	-12648
▁procl	-12649
▁reass	-12650
▁recyc	-12651
▁reels	-12652
▁rents	-12653
▁retro	-12654
▁rolls	-12655
▁ryzen	-12656
▁santa	-12657
▁scars	-12658
▁seeks	-12659
▁shani	-12660
▁slave	-12661
▁steep	-12662
▁thief	-12663
▁tiles	-12664
▁ubers	-12665
▁usern	-12666
ulative	-12667
wardena	-12668
▁addict	-12669
▁alumni	-12670
▁ananda	-12671
▁arjuna	-12672
▁arrack	-12673
▁astron	-12674
▁beings	-12675
▁brainw	-12676
▁builds	-12677
▁casino	-12678
▁census	-12679
▁cerave	-12680
▁colomb	-12681
▁contam	-12682
▁county	-12683
▁dimuth	-12684
▁elites	-12685
▁elliya	-12686
▁equity	-12687
▁expiry	-12688
▁fourth	-12689
▁frozen	-12690
▁github	-12691
▁hazard	-12692
▁hearts	-12693
▁infant	-12694
▁injury	-12695
▁insert	-12696
▁liable	-12697
▁lowkey	-12698
▁nthank	-12699
▁overhe	-12700
▁pickle	-12701
▁proved	-12702
▁reinst	-12703
▁sarong	-12704
▁subpar	-12705
▁sweden	-12706
▁taxpay	-12707
▁thrive	-12708
▁tongue	-12709
▁tweets	-12710
▁washed	-12711
▁wicket	-12712
▁wisely	-12713
▁yohani	-12714
izations	-12715
▁artwork	-12716
▁bangkok	-12717
▁barista	-12718
▁beloved	-12719
▁betting	-12720
▁bidding	-12721
▁borders	-12722
▁chikung	-12723
▁dispose	-12724
▁essence	-12725
▁expires	-12726
▁halfway	-12727
▁insider	-12728
▁jazeera	-12729
▁leftist	-12730
▁newborn	-12731
▁portray	-12732
▁preserv	-12733
▁prevail	-12734
▁prosper	-12735
▁reveals	-12736
▁scoring	-12737
▁spotted	-12738
▁substit	-12739
▁tobacco	-12740
▁accusing	-12741
▁adjacent	-12742
▁allocate	-12743
▁ancestry	-12744
▁blasting	-12745
▁branding	-12746
▁bureaucr	-12747
▁champion	-12748
▁coaching	-12749
▁dragging	-12750
▁gambling	-12751
▁grounded	-12752
▁homagama	-12753
▁horrific	-12754
▁humanity	-12755
▁impacted	-12756
▁imperial	-12757
▁intimate	-12758
▁leverage	-12759
▁maritime	-12760
▁massacre	-12761
▁momentum	-12762
▁occupied	-12763
▁phimosis	-12764
▁predomin	-12765
▁preserve	-12766
▁reflects	-12767
▁remained	-12768
▁sirimavo	-12769
▁slippers	-12770
▁speeding	-12771
▁titanium	-12772
▁torrents	-12773
▁valorant	-12774
▁adaderana	-12775
▁affection	-12776
▁afterward	-12777
▁arunannow	-12778
▁breathing	-12779
▁complains	-12780
▁displayed	-12781
▁factories	-12782
▁fragrance	-12783
▁gunpowder	-12784
▁hasaranga	-12785
▁indicator	-12786
▁manamperi	-12787
▁molecular	-12788
▁obsession	-12789
▁separated	-12790
▁speedtest	-12791
▁strangers	-12792
▁sunscreen	-12793
▁troubling	-12794
▁udawalawa	-12795
▁whitening	-12796
▁allocation	-12797
▁automobile	-12798
▁brainstorm	-12799
▁compatible	-12800
▁compliance	-12801
▁compromise	-12802
▁convention	-12803
▁counsellor	-12804
▁curricular	-12805
▁diplomatic	-12806
▁encounters	-12807
▁excursions	-12808
▁explicitly	-12809
▁indonesian	-12810
▁laundering	-12811
▁lighthouse	-12812
▁mistakenly	-12813
▁negotiable	-12814
▁occurrence	-12815
▁organising	-12816
▁practicals	-12817
▁protective	-12818
▁provisions	-12819
▁repetitive	-12820
▁resilience	-12821
▁rupavahini	-12822
▁terminated	-12823
▁thereafter	-12824
▁variations	-12825
▁wijesuriya	-12826
▁yahapalana	-12827
▁acquisition	-12828
▁bandarawela	-12829
▁calculation	-12830
▁chathuranga	-12831
▁conferences	-12832
▁gangaramaya	-12833
▁instruction	-12834
▁instructors	-12835
▁nanayakkara	-12836
▁problematic	-12837
▁proceedings	-12838
▁procurement	-12839
▁represented	-12840
▁shortlisted	-12841
▁breathtaking	-12842
▁generational	-12843
▁improvements	-12844
▁ntransaction	-12845
▁participated	-12846
▁recommending	-12847
▁wimaladharma	-12848
▁independently	-12849
▁professionally	-12850
▁rehabilitation	-12851
▁simultaneously	-12852
▁jayewardenepura	-12853
▁parliamentarian	-12854
57	-12855
92	-12856
uy	-12857
aba	-12858
aby	-12859
adv	-12860
amn	-12861
ava	-12862
igs	-12863
ipe	-12864
ips	-12865
mac	-12866
oli	-12867
ona	-12868
otv	-12869
tek	-12870
wis	-12871
yak	-12872
zzy	-12873
▁cf	-12874
▁ck	-12875
▁ff	-12876
▁gq	-12877
▁ib	-12878
▁jp	-12879
▁oz	-12880
▁tp	-12881
▁um	-12882
▁wu	-12883
anas	-12884
azil	-12885
cher	-12886
dict	-12887
educ	-12888
ishi	-12889
obia	-12890
omas	-12891
oust	-12892
rika	-12893
sett	-12894
ucky	-12895
uled	-12896
with	-12897
▁113	-12898
▁190	-12899
▁420	-12900
▁atp	-12901
▁awe	-12902
▁bbq	-12903
▁bla	-12904
▁dab	-12905
▁dah	-12906
▁geo	-12907
▁gta	-12908
▁hew	-12909
▁hod	-12910
▁irl	-12911
▁kav	-12912
▁ket	-12913
▁kud	-12914
▁loq	-12915
▁mfs	-12916
▁ndf	-12917
▁nia	-12918
▁nif	-12919
▁nma	-12920
▁nno	-12921
▁nro	-12922
▁nsh	-12923
▁phi	-12924
▁roy	-12925
▁sae	-12926
▁sip	-12927
▁sue	-12928
▁wax	-12929
▁wth	-12930
▁xxx	-12931
aract	-12932
awila	-12933
enger	-12934
ghter	-12935
icate	-12936
icked	-12937
latox	-12938
names	-12939
ramas	-12940
ramid	-12941
reced	-12942
shore	-12943
uwela	-12944
waram	-12945
▁1977	-12946
▁1996	-12947
▁agro	-12948
▁ayya	-12949
▁bash	-12950
▁bowl	-12951
▁coco	-12952
▁cows	-12953
▁curt	-12954
▁dhal	-12955
▁dhan	-12956
▁diab	-12957
▁dose	-12958
▁fate	-12959
▁fran	-12960
▁geor	-12961
▁hier	-12962
▁horm	-12963
▁jewe	-12964
▁jkcg	-12965
▁kath	-12966
▁nare	-12967
▁ncan	-12968
▁nerd	-12969
▁ngos	-12970
▁nvme	-12971
▁pops	-12972
▁puls	-12973
▁quot	-12974
▁radi	-12975
▁rage	-12976
▁riot	-12977
▁rose	-12978
▁serb	-12979
▁smok	-12980
▁spit	-12981
▁tata	-12982
▁worn	-12983
▁yosh	-12984
alling	-12985
anging	-12986
etooth	-12987
iently	-12988
igious	-12989
iments	-12990
liable	-12991
ospace	-12992
urable	-12993
▁absor	-12994
▁afaik	-12995
▁alike	-12996
▁ameen	-12997
▁blogs	-12998
▁brake	-12999
▁brill	-13000
▁burgh	-13001
▁cakes	-13002
▁caret	-13003
▁empow	-13004
▁fakes	-13005
▁fares	-13006
▁fatal	-13007
▁fedex	-13008
▁feeds	-13009
▁folkl	-13010
▁freak	-13011
▁frimi	-13012
▁gopro	-13013
▁handy	-13014
▁infam	-13015
▁latin	-13016
▁matri	-13017
▁moham	-13018
▁nfrom	-13019
▁ntorq	-13020
▁pedro	-13021
▁peotv	-13022
▁pione	-13023
▁poson	-13024
▁rants	-13025
▁rooft	-13026
▁salad	-13027
▁scalp	-13028
▁serge	-13029
▁shore	-13030
▁showc	-13031
▁singh	-13032
▁sltda	-13033
▁socks	-13034
▁spell	-13035
▁swing	-13036
▁thugs	-13037
▁timer	-13038
▁tomat	-13039
▁vapes	-13040
▁voter	-13041
▁wijey	-13042
▁wrest	-13043
ificent	-13044
usiness	-13045
zerland	-13046
▁acupun	-13047
▁avenue	-13048
▁beside	-13049
▁brazil	-13050
▁bugger	-13051
▁capped	-13052
▁cashew	-13053
▁coping	-13054
▁covent	-13055
▁deadly	-13056
▁dilmah	-13057
▁fiance	-13058
▁fiscal	-13059
▁forbid	-13060
▁gamini	-13061
▁hindus	-13062
▁hypoth	-13063
▁insurg	-13064
▁joking	-13065
▁lasith	-13066
▁laying	-13067
▁machan	-13068
▁mahind	-13069
▁majors	-13070
▁masses	-13071
▁megath	-13072
▁misogy	-13073
▁nephew	-13074
▁partly	-13075
▁phrase	-13076
▁prayer	-13077
▁refere	-13078
▁revive	-13079
▁rounds	-13080
▁smells	-13081
▁snakes	-13082
▁staple	-13083
▁stored	-13084
▁struct	-13085
▁suited	-13086
▁texted	-13087
▁tricky	-13088
▁troops	-13089
▁turkey	-13090
▁tution	-13091
▁usable	-13092
▁vijaya	-13093
▁wander	-13094
▁wished	-13095
▁worshi	-13096
erential	-13097
▁accepts	-13098
▁aflatox	-13099
▁antenna	-13100
▁bombing	-13101
▁borella	-13102
▁carving	-13103
▁cheated	-13104
▁cloudfl	-13105
▁congest	-13106
▁coordin	-13107
▁dansala	-13108
▁durdans	-13109
▁esports	-13110
▁exhaust	-13111
▁fabrics	-13112
▁furious	-13113
▁geforce	-13114
▁indoors	-13115
▁magnite	-13116
▁mattala	-13117
▁nonstop	-13118
▁phrases	-13119
▁polling	-13120
▁pursued	-13121
▁pyramid	-13122
▁refresh	-13123
▁refuses	-13124
▁secrets	-13125
▁smiling	-13126
▁socials	-13127
▁sounded	-13128
▁tasting	-13129
▁vinegar	-13130
▁weekday	-13131
continent	-13132
▁assembly	-13133
▁athletes	-13134
▁backlash	-13135
▁bicycles	-13136
▁bookshop	-13137
▁collabor	-13138
▁deterior	-13139
▁distingu	-13140
▁dramatic	-13141
▁feminism	-13142
▁greenery	-13143
▁humidity	-13144
▁lakshman	-13145
▁limiting	-13146
▁majestic	-13147
▁marginal	-13148
▁meantime	-13149
▁memorial	-13150
▁migrants	-13151
▁minerals	-13152
▁mourning	-13153
▁needless	-13154
▁ofcourse	-13155
▁offshore	-13156
▁olympics	-13157
▁outdoors	-13158
▁pensions	-13159
▁refugees	-13160
▁sandwich	-13161
▁seasoned	-13162
▁spacious	-13163
▁spectrum	-13164
▁unpreced	-13165
▁upstairs	-13166
▁vanished	-13167
▁vicinity	-13168
▁violated	-13169
▁yoshitha	-13170
▁aerospace	-13171
▁beachside	-13172
▁bluetooth	-13173
▁chemicals	-13174
▁cigarette	-13175
▁contracts	-13176
▁coworking	-13177
▁creatures	-13178
▁cricketer	-13179
▁disturbed	-13180
▁economies	-13181
▁fishermen	-13182
▁frequency	-13183
▁gentleman	-13184
▁gotabhaya	-13185
▁injustice	-13186
▁interrupt	-13187
▁judgement	-13188
▁milestone	-13189
▁partially	-13190
▁pregnancy	-13191
▁repairing	-13192
▁requiring	-13193
▁scientist	-13194
▁sincerely	-13195
▁socialism	-13196
▁technique	-13197
▁timetable	-13198
▁christians	-13199
▁commentary	-13200
▁conductors	-13201
▁destroying	-13202
▁excellence	-13203
▁exhibition	-13204
▁expression	-13205
▁guesthouse	-13206
▁irrigation	-13207
▁kotelawala	-13208
▁megathread	-13209
▁negligence	-13210
▁privileges	-13211
▁procession	-13212
▁professors	-13213
▁rathmalana	-13214
▁recruiters	-13215
▁submission	-13216
▁unreliable	-13217
▁validation	-13218
▁washington	-13219
▁accusations	-13220
▁chikungunya	-13221
▁consultants	-13222
▁counterpart	-13223
▁devastating	-13224
▁efficiently	-13225
▁emergencies	-13226
▁expectation	-13227
▁incompetent	-13228
▁magnificent	-13229
▁negotiating	-13230
▁prestigious	-13231
▁progression	-13232
▁recondition	-13233
▁restructure	-13234
▁specializes	-13235
▁switzerland	-13236
▁transgender	-13237
▁combinations	-13238
▁highlighting	-13239
▁historically	-13240
▁neighbouring	-13241
▁orthodontist	-13242
▁preferential	-13243
▁productivity	-13244
▁assassination	-13245
▁contemplating	-13246
▁extraordinary	-13247
▁functionality	-13248
▁intentionally	-13249
▁interestingly	-13250
▁psychiatrists	-13251
▁unprecedented	-13252
▁specialization	-13253
93	-13254
cb	-13255
aco	-13256
agr	-13257
bly	-13258
gha	-13259
hes	-13260
hin	-13261
iam	-13262
jud	-13263
nts	-13264
oll	-13265
oto	-13266
pie	-13267
see	-13268
tag	-13269
yyy	-13270
▁eb	-13271
▁fk	-13272
▁jr	-13273
▁pw	-13274
▁td	-13275
▁vf	-13276
abah	-13277
alal	-13278
angi	-13279
anni	-13280
aths	-13281
ayan	-13282
bert	-13283
daya	-13284
erie	-13285
hoot	-13286
inch	-13287
inco	-13288
mind	-13289
olla	-13290
oose	-13291
orse	-13292
ovex	-13293
pots	-13294
roph	-13295
uber	-13296
▁070	-13297
▁109	-13298
▁114	-13299
▁137	-13300
▁155	-13301
▁380	-13302
▁999	-13303
▁aed	-13304
▁afp	-13305
▁asc	-13306
▁avg	-13307
▁coc	-13308
▁cyl	-13309
▁dar	-13310
▁ees	-13311
▁ely	-13312
▁ffs	-13313
▁gpt	-13314
▁gur	-13315
▁hav	-13316
▁keh	-13317
▁kin	-13318
▁lse	-13319
▁mys	-13320
▁nig	-13321
▁nli	-13322
▁nmy	-13323
▁nok	-13324
▁nop	-13325
▁nqo	-13326
▁osh	-13327
▁phy	-13328
▁piv	-13329
▁pmd	-13330
▁poh	-13331
▁pts	-13332
▁quo	-13333
▁rek	-13334
▁shr	-13335
▁soy	-13336
▁tai	-13337
▁tee	-13338
▁wso	-13339
alage	-13340
alawa	-13341
apple	-13342
aruwa	-13343
aways	-13344
barak	-13345
chair	-13346
edies	-13347
eness	-13348
epala	-13349
ested	-13350
eties	-13351
ikkal	-13352
iyana	-13353
mouth	-13354
otine	-13355
ulent	-13356
uster	-13357
weera	-13358
▁1950	-13359
▁1972	-13360
▁1982	-13361
▁1988	-13362
▁anch	-13363
▁aspi	-13364
▁bday	-13365
▁bits	-13366
▁blur	-13367
▁bree	-13368
▁chol	-13369
▁clip	-13370
▁clut	-13371
▁coca	-13372
▁ctid	-13373
▁deme	-13374
▁deny	-13375
▁drew	-13376
▁entr	-13377
▁fres	-13378
▁gpus	-13379
▁iesl	-13380
▁kite	-13381
▁leap	-13382
▁lent	-13383
▁marx	-13384
▁nano	-13385
▁noob	-13386
▁noon	-13387
▁obli	-13388
▁odis	-13389
▁oral	-13390
▁otps	-13391
▁sama	-13392
▁silk	-13393
▁slit	-13394
▁smog	-13395
▁soil	-13396
▁styl	-13397
▁tarn	-13398
▁thil	-13399
▁tint	-13400
▁tyre	-13401
▁uduw	-13402
▁wije	-13403
▁wiki	-13404
▁zion	-13405
aneous	-13406
endent	-13407
ensity	-13408
ervice	-13409
geries	-13410
icious	-13411
pelled	-13412
undant	-13413
▁baila	-13414
▁beans	-13415
▁belts	-13416
▁bitch	-13417
▁bland	-13418
▁brave	-13419
▁burst	-13420
▁calif	-13421
▁chola	-13422
▁clash	-13423
▁contr	-13424
▁convo	-13425
▁curse	-13426
▁datas	-13427
▁deval	-13428
▁gates	-13429
▁glory	-13430
▁grain	-13431
▁greed	-13432
▁halls	-13433
▁inade	-13434
▁indul	-13435
▁jeeps	-13436
▁loses	-13437
▁mazda	-13438
▁menus	-13439
▁moist	-13440
▁murug	-13441
▁niece	-13442
▁novel	-13443
▁ohiya	-13444
▁palle	-13445
▁poker	-13446
▁polls	-13447
▁posit	-13448
▁raves	-13449
▁rhyth	-13450
▁savvy	-13451
▁scrap	-13452
▁shade	-13453
▁shake	-13454
▁squat	-13455
▁stagn	-13456
▁versa	-13457
▁vocal	-13458
anathan	-13459
borough	-13460
haramah	-13461
manpila	-13462
mobitel	-13463
ommerce	-13464
reshing	-13465
respond	-13466
working	-13467
▁abuses	-13468
▁allies	-13469
▁andare	-13470
▁anthem	-13471
▁arcade	-13472
▁asylum	-13473
▁brains	-13474
▁buffer	-13475
▁cathol	-13476
▁cloudy	-13477
▁desert	-13478
▁detour	-13479
▁differ	-13480
▁edited	-13481
▁endors	-13482
▁ethics	-13483
▁excise	-13484
▁facial	-13485
▁gossip	-13486
▁guysss	-13487
▁handun	-13488
▁hugely	-13489
▁inches	-13490
▁joseph	-13491
▁judged	-13492
▁lipton	-13493
▁mahela	-13494
▁medals	-13495
▁miscon	-13496
▁moones	-13497
▁newest	-13498
▁peiris	-13499
▁polish	-13500
▁pulsar	-13501
▁recomm	-13502
▁reload	-13503
▁salons	-13504
▁sarath	-13505
▁seater	-13506
▁segreg	-13507
▁sticks	-13508
▁techno	-13509
▁tunnel	-13510
▁unsett	-13511
▁utmost	-13512
▁whites	-13513
▁womens	-13514
▁worlds	-13515
▁wounds	-13516
arations	-13517
▁absence	-13518
▁accompl	-13519
▁advises	-13520
▁apology	-13521
▁avurudu	-13522
▁backing	-13523
▁baffled	-13524
▁bargain	-13525
▁blindly	-13526
▁bloated	-13527
▁bothers	-13528
▁caption	-13529
▁cardiff	-13530
▁chamika	-13531
▁cleanup	-13532
▁compact	-13533
▁debates	-13534
▁delight	-13535
▁descent	-13536
▁disclos	-13537
▁drastic	-13538
▁embrace	-13539
▁entitle	-13540
▁evident	-13541
▁falsely	-13542
▁formats	-13543
▁innovex	-13544
▁intoler	-13545
▁intrest	-13546
▁learner	-13547
▁leeches	-13548
▁lobster	-13549
▁lottery	-13550
▁margins	-13551
▁mintpay	-13552
▁mubarak	-13553
▁musical	-13554
▁observe	-13555
▁partial	-13556
▁patriot	-13557
▁pension	-13558
▁proudly	-13559
▁refunds	-13560
▁rumours	-13561
▁samples	-13562
▁seasons	-13563
▁separat	-13564
▁shaping	-13565
▁sparked	-13566
▁statues	-13567
▁strings	-13568
▁talents	-13569
▁veggies	-13570
▁advisory	-13571
▁aspiring	-13572
▁beverage	-13573
▁borrowed	-13574
▁bracelet	-13575
▁coventry	-13576
▁dynamics	-13577
▁earliest	-13578
▁emerging	-13579
▁entities	-13580
▁filtered	-13581
▁floating	-13582
▁folklore	-13583
▁garments	-13584
▁infamous	-13585
▁jayawick	-13586
▁keheliya	-13587
▁kitesurf	-13588
▁maligawa	-13589
▁nicotine	-13590
▁organise	-13591
▁outright	-13592
▁paycheck	-13593
▁pedestri	-13594
▁phenomen	-13595
▁pilgrims	-13596
▁praising	-13597
▁prefects	-13598
▁presents	-13599
▁prospect	-13600
▁recharge	-13601
▁recomend	-13602
▁renewing	-13603
▁searches	-13604
▁suitcase	-13605
▁thanking	-13606
▁toastmas	-13607
▁traction	-13608
▁trekking	-13609
▁upgraded	-13610
▁username	-13611
▁wijeward	-13612
▁youtuber	-13613
▁arresting	-13614
▁buffering	-13615
▁celebrity	-13616
▁chandrika	-13617
▁consulted	-13618
▁crackdown	-13619
▁describes	-13620
▁diplomacy	-13621
▁downright	-13622
▁downsouth	-13623
▁ecommerce	-13624
▁escalated	-13625
▁execution	-13626
▁exploited	-13627
▁goverment	-13628
▁indicated	-13629
▁informing	-13630
▁massively	-13631
▁musicians	-13632
▁nostalgic	-13633
▁objective	-13634
▁observing	-13635
▁prescribe	-13636
▁reactions	-13637
▁rejection	-13638
▁releasing	-13639
▁revealing	-13640
▁shipments	-13641
▁simplytek	-13642
▁substance	-13643
▁surgeries	-13644
▁unsuccess	-13645
▁uploading	-13646
▁wandering	-13647
▁warehouse	-13648
▁allowances	-13649
▁backpacker	-13650
▁beachfront	-13651
▁cancelling	-13652
▁cloudflare	-13653
▁convincing	-13654
▁correction	-13655
▁coursework	-13656
▁deductions	-13657
▁distracted	-13658
▁divisional	-13659
▁documented	-13660
▁exemptions	-13661
▁exploiting	-13662
▁gammanpila	-13663
▁indicating	-13664
▁indicators	-13665
▁integrated	-13666
▁invitation	-13667
▁kilometers	-13668
▁motherland	-13669
▁occupation	-13670
▁refreshing	-13671
▁riyasewana	-13672
▁supervisor	-13673
▁teledramas	-13674
▁therapists	-13675
▁workplaces	-13676
▁anonymously	-13677
▁conditioned	-13678
▁confidently	-13679
▁consultancy	-13680
▁embarrassed	-13681
▁inspiration	-13682
▁introverted	-13683
▁kumaratunga	-13684
▁moonesinghe	-13685
▁necessities	-13686
▁overcharged	-13687
▁serendipity	-13688
▁tournaments	-13689
▁understands	-13690
▁unrealistic	-13691
▁establishing	-13692
▁exploitation	-13693
▁fingerprints	-13694
▁fundamentals	-13695
▁introduction	-13696
▁kiribathgoda	-13697
▁manipulation	-13698
▁negotiations	-13699
▁refrigerator	-13700
▁respectfully	-13701
▁affordability	-13702
▁discriminated	-13703
▁archaeological	-13704
▁transformation	-13705
39	-13706
67	-13707
82	-13708
83	-13709
mu	-13710
awl	-13711
boy	-13712
cey	-13713
cts	-13714
dog	-13715
ede	-13716
eem	-13717
eni	-13718
fin	-13719
jun	-13720
kwh	-13721
lab	-13722
osy	-13723
wed	-13724
yas	-13725
▁bp	-13726
▁ef	-13727
▁ln	-13728
▁uh	-13729
▁xi	-13730
0000	-13731
2022	-13732
adhe	-13733
andu	-13734
aral	-13735
arms	-13736
cuss	-13737
dspe	-13738
edia	-13739
ener	-13740
gian	-13741
heim	-13742
ingo	-13743
laim	-13744
plex	-13745
prot	-13746
quis	-13747
rape	-13748
rous	-13749
ruff	-13750
step	-13751
uvil	-13752
▁105	-13753
▁175	-13754
▁290	-13755
▁340	-13756
▁720	-13757
▁abn	-13758
▁ace	-13759
▁ado	-13760
▁ail	-13761
▁ats	-13762
▁avo	-13763
▁bog	-13764
▁cee	-13765
▁cub	-13766
▁dee	-13767
▁dex	-13768
▁ech	-13769
▁eom	-13770
▁ere	-13771
▁hbo	-13772
▁hed	-13773
▁ids	-13774
▁iii	-13775
▁inh	-13776
▁kah	-13777
▁kne	-13778
▁lok	-13779
▁lud	-13780
▁mma	-13781
▁mnc	-13782
▁mph	-13783
▁naa	-13784
▁neo	-13785
▁nus	-13786
▁plu	-13787
▁pok	-13788
▁seo	-13789
▁tan	-13790
▁ull	-13791
▁viv	-13792
▁voa	-13793
▁wah	-13794
▁wud	-13795
▁yat	-13796
▁zte	-13797
alapp	-13798
alley	-13799
amine	-13800
ander	-13801
asiri	-13802
attle	-13803
awaya	-13804
child	-13805
cover	-13806
hires	-13807
ialog	-13808
iesec	-13809
isons	-13810
iyaya	-13811
organ	-13812
ostic	-13813
pleas	-13814
ribly	-13815
roads	-13816
undai	-13817
watta	-13818
▁1997	-13819
▁2030	-13820
▁bhut	-13821
▁bust	-13822
▁cass	-13823
▁chai	-13824
▁chin	-13825
▁corn	-13826
▁cure	-13827
▁degr	-13828
▁duol	-13829
▁fame	-13830
▁fint	-13831
▁gand	-13832
▁herb	-13833
▁heyy	-13834
▁hipp	-13835
▁hows	-13836
▁impl	-13837
▁indu	-13838
▁inse	-13839
▁jazz	-13840
▁jews	-13841
▁kith	-13842
▁kits	-13843
▁lact	-13844
▁lame	-13845
▁levy	-13846
▁mage	-13847
▁mama	-13848
▁mics	-13849
▁mits	-13850
▁nter	-13851
▁nurs	-13852
▁oats	-13853
▁oman	-13854
▁omen	-13855
▁pann	-13856
▁peer	-13857
▁pert	-13858
▁pest	-13859
▁pots	-13860
▁ptsd	-13861
▁rave	-13862
▁sans	-13863
▁simp	-13864
▁soda	-13865
▁stip	-13866
▁thee	-13867
▁thir	-13868
▁toff	-13869
▁wade	-13870
adeepa	-13871
agraph	-13872
alanda	-13873
arence	-13874
erious	-13875
intale	-13876
ipriya	-13877
months	-13878
▁admir	-13879
▁alter	-13880
▁azure	-13881
▁binge	-13882
▁cardi	-13883
▁cited	-13884
▁cough	-13885
▁crops	-13886
▁deact	-13887
▁demod	-13888
▁disli	-13889
▁filth	-13890
▁fking	-13891
▁fries	-13892
▁genre	-13893
▁hella	-13894
▁herbs	-13895
▁irony	-13896
▁medit	-13897
▁miris	-13898
▁mitig	-13899
▁namib	-13900
▁neckl	-13901
▁onion	-13902
▁paris	-13903
▁purse	-13904
▁seper	-13905
▁shark	-13906
▁slang	-13907
▁sorta	-13908
▁swipe	-13909
▁thres	-13910
▁trace	-13911
▁unfam	-13912
▁usaid	-13913
▁wheat	-13914
angered	-13915
aunting	-13916
awahini	-13917
leyball	-13918
▁aiesec	-13919
▁arabia	-13920
▁assure	-13921
▁aswell	-13922
▁autism	-13923
▁bengal	-13924
▁chabad	-13925
▁charts	-13926
▁chased	-13927
▁cooker	-13928
▁cracks	-13929
▁crafts	-13930
▁creams	-13931
▁crispy	-13932
▁donald	-13933
▁expats	-13934
▁farmer	-13935
▁gladly	-13936
▁guards	-13937
▁hacker	-13938
▁harbor	-13939
▁invent	-13940
▁lalith	-13941
▁lankas	-13942
▁logged	-13943
▁marina	-13944
▁pistol	-13945
▁pixels	-13946
▁pohott	-13947
▁praise	-13948
▁radius	-13949
▁refers	-13950
▁reside	-13951
▁retali	-13952
▁robber	-13953
▁saloon	-13954
▁serbia	-13955
▁slaves	-13956
▁sugath	-13957
▁tomato	-13958
▁topped	-13959
▁trendy	-13960
▁unders	-13961
▁undert	-13962
▁uneduc	-13963
▁verbal	-13964
▁waiter	-13965
athilake	-13966
ilingual	-13967
rologist	-13968
srilanka	-13969
▁accents	-13970
▁auction	-13971
▁aunties	-13972
▁avoided	-13973
▁battles	-13974
▁biscuit	-13975
▁bizarre	-13976
▁bridges	-13977
▁briefly	-13978
▁buddies	-13979
▁burgers	-13980
▁canteen	-13981
▁caution	-13982
▁chained	-13983
▁coating	-13984
▁combine	-13985
▁corolla	-13986
▁creator	-13987
▁defined	-13988
▁dissent	-13989
▁doubled	-13990
▁envelop	-13991
▁escaped	-13992
▁federal	-13993
▁forgive	-13994
▁gesture	-13995
▁handles	-13996
▁honours	-13997
▁inequal	-13998
▁insults	-13999
▁legitim	-14000
▁longest	-14001
▁looming	-14002
▁loudspe	-14003
▁outfits	-14004
▁packing	-14005
▁paralle	-14006
▁planted	-14007
▁pressed	-14008
▁pumping	-14009
▁replica	-14010
▁secular	-14011
▁showers	-14012
▁tshirts	-14013
▁unlucky	-14014
▁wallets	-14015
▁winners	-14016
▁wouldnt	-14017
▁wrapped	-14018
▁yelling	-14019
▁academia	-14020
▁beruwala	-14021
▁canceled	-14022
▁ceylinco	-14023
▁congress	-14024
▁crafting	-14025
▁culinary	-14026
▁dandruff	-14027
▁departed	-14028
▁deployed	-14029
▁disclose	-14030
▁disorder	-14031
▁dolphins	-14032
▁dominant	-14033
▁downhill	-14034
▁dreaming	-14035
▁executed	-14036
▁existent	-14037
▁formally	-14038
▁grabbing	-14039
▁guardian	-14040
▁hardcore	-14041
▁hotspots	-14042
▁infected	-14043
▁interrog	-14044
▁invented	-14045
▁legality	-14046
▁modified	-14047
▁narrowed	-14048
▁portions	-14049
▁purifier	-14050
▁revision	-14051
▁rotaract	-14052
▁seasonal	-14053
▁sergeant	-14054
▁sounding	-14055
▁sporting	-14056
▁starving	-14057
▁summoned	-14058
▁undermin	-14059
▁universe	-14060
▁variable	-14061
▁vomiting	-14062
▁whopping	-14063
▁youngest	-14064
▁ambulance	-14065
▁approvals	-14066
▁audiences	-14067
▁beverages	-14068
▁brilliant	-14069
▁coalition	-14070
▁condemned	-14071
▁consulate	-14072
▁cooperate	-14073
▁corrected	-14074
▁crippling	-14075
▁earphones	-14076
▁favorites	-14077
▁fostering	-14078
▁inherited	-14079
▁isaipriya	-14080
▁jayaweera	-14081
▁kingsbury	-14082
▁licensing	-14083
▁lightning	-14084
▁malicious	-14085
▁mechanics	-14086
▁medicinal	-14087
▁mihintale	-14088
▁paragraph	-14089
▁poisoning	-14090
▁predictor	-14091
▁preschool	-14092
▁priyantha	-14093
▁pronounce	-14094
▁qualities	-14095
▁ranatunga	-14096
▁realizing	-14097
▁recession	-14098
▁recycling	-14099
▁regulated	-14100
▁sapphires	-14101
▁scenarios	-14102
▁servicing	-14103
▁shattered	-14104
▁someplace	-14105
▁stationed	-14106
▁succeeded	-14107
▁surprises	-14108
▁threshold	-14109
▁varieties	-14110
▁venezuela	-14111
▁washrooms	-14112
▁wrestling	-14113
▁belongings	-14114
▁capitalism	-14115
▁casualties	-14116
▁classified	-14117
▁comparable	-14118
▁compliment	-14119
▁conflicted	-14120
▁confronted	-14121
▁consisting	-14122
▁correspond	-14123
▁crossroads	-14124
▁designated	-14125
▁devastated	-14126
▁discourage	-14127
▁endangered	-14128
▁enterprise	-14129
▁euthanasia	-14130
▁exchanging	-14131
▁fascinated	-14132
▁generating	-14133
▁gunasekara	-14134
▁injections	-14135
▁introduces	-14136
▁islandwide	-14137
▁kilometres	-14138
▁motorbikes	-14139
▁nightclubs	-14140
▁organizers	-14141
▁outrageous	-14142
▁overcharge	-14143
▁programmer	-14144
▁regretting	-14145
▁sacrifices	-14146
▁settlement	-14147
▁sltmobitel	-14148
▁submitting	-14149
▁uneducated	-14150
▁unfamiliar	-14151
▁windscreen	-14152
▁arrangement	-14153
▁coincidence	-14154
▁constraints	-14155
▁foundations	-14156
▁proficiency	-14157
▁responsibly	-14158
▁sacrificing	-14159
▁weerasinghe	-14160
▁academically	-14161
▁appreciating	-14162
▁constructive	-14163
▁humanitarian	-14164
▁incompetence	-14165
▁manufactured	-14166
▁participants	-14167
▁respectively	-14168
▁samarasinghe	-14169
▁toastmasters	-14170
▁translations	-14171
▁unauthorized	-14172
▁accessibility	-14173
▁accomodations	-14174
▁authorization	-14175
▁predominantly	-14176
▁privatization	-14177
▁reconditioned	-14178
▁registrations	-14179
▁revolutionary	-14180
▁sustainability	-14181
▁congratulations	-14182
31	-14183
dg	-14184
rt	-14185
tv	-14186
zo	-14187
600	-14188
808	-14189
acu	-14190
amy	-14191
arc	-14192
bow	-14193
cab	-14194
cry	-14195
eda	-14196
iad	-14197
ipa	-14198
kar	-14199
lle	-14200
pit	-14201
son	-14202
tar	-14203
tes	-14204
via	-14205
vil	-14206
zes	-14207
▁dg	-14208
▁fp	-14209
▁gc	-14210
▁kd	-14211
▁ki	-14212
▁ky	-14213
▁sf	-14214
▁wc	-14215
▁xe	-14216
▁xt	-14217
▁yk	-14218
▁ze	-14219
▁zs	-14220
agam	-14221
airy	-14222
akku	-14223
amel	-14224
apur	-14225
arep	-14226
arus	-14227
asha	-14228
ccer	-14229
cond	-14230
edly	-14231
eved	-14232
ilao	-14233
ingy	-14234
itis	-14235
just	-14236
mpic	-14237
odes	-14238
otat	-14239
pita	-14240
pool	-14241
priv	-14242
rers	-14243
rill	-14244
root	-14245
urai	-14246
ylon	-14247
▁111	-14248
▁138	-14249
▁146	-14250
▁185	-14251
▁270	-14252
▁aan	-14253
▁ans	-14254
▁ary	-14255
▁bms	-14256
▁chi	-14257
▁cla	-14258
▁clo	-14259
▁dot	-14260
▁dud	-14261
▁eke	-14262
▁enr	-14263
▁err	-14264
▁ges	-14265
▁hae	-14266
▁ken	-14267
▁lur	-14268
▁myd	-14269
▁ney	-14270
▁ngl	-14271
▁nid	-14272
▁niv	-14273
▁nph	-14274
▁nqc	-14275
▁nsi	-14276
▁ode	-14277
▁ome	-14278
▁ond	-14279
▁ook	-14280
▁ooo	-14281
▁oud	-14282
▁paw	-14283
▁puc	-14284
▁qos	-14285
▁rig	-14286
▁roi	-14287
▁sev	-14288
▁sew	-14289
▁stf	-14290
▁toe	-14291
▁ump	-14292
▁unh	-14293
▁uop	-14294
abahu	-14295
acked	-14296
adevi	-14297
aliya	-14298
anmar	-14299
atile	-14300
atted	-14301
bound	-14302
ected	-14303
elong	-14304
faith	-14305
ggala	-14306
ifies	-14307
ornia	-14308
otion	-14309
petco	-14310
piece	-14311
ravel	-14312
thiya	-14313
▁0112	-14314
▁1700	-14315
▁1800	-14316
▁1900	-14317
▁1987	-14318
▁agar	-14319
▁alle	-14320
▁arth	-14321
▁avid	-14322
▁bans	-14323
▁bees	-14324
▁beet	-14325
▁bend	-14326
▁bise	-14327
▁brag	-14328
▁brig	-14329
▁bump	-14330
▁ccna	-14331
▁clan	-14332
▁cosm	-14333
▁dare	-14334
▁dawn	-14335
▁dock	-14336
▁flee	-14337
▁goin	-14338
▁gong	-14339
▁haul	-14340
▁helm	-14341
▁khan	-14342
▁knit	-14343
▁lamb	-14344
▁madh	-14345
▁magg	-14346
▁mait	-14347
▁mala	-14348
▁moms	-14349
▁nadd	-14350
▁nama	-14351
▁narr	-14352
▁nick	-14353
▁nmin	-14354
▁npar	-14355
▁numb	-14356
▁othm	-14357
▁pans	-14358
▁paye	-14359
▁pcos	-14360
▁pine	-14361
▁plum	-14362
▁pole	-14363
▁pott	-14364
▁prey	-14365
▁rall	-14366
▁rupa	-14367
▁slap	-14368
▁slog	-14369
▁sltc	-14370
▁snow	-14371
▁stal	-14372
▁tags	-14373
▁tide	-14374
▁vans	-14375
▁vert	-14376
acular	-14377
akrish	-14378
astics	-14379
atissa	-14380
entina	-14381
erness	-14382
ickers	-14383
ileged	-14384
istine	-14385
iudeen	-14386
ooking	-14387
ptions	-14388
ration	-14389
▁actor	-14390
▁ambal	-14391
▁annex	-14392
▁anudi	-14393
▁ashok	-14394
▁baked	-14395
▁basin	-14396
▁bears	-14397
▁burgl	-14398
▁caasl	-14399
▁carbs	-14400
▁cease	-14401
▁crabs	-14402
▁crore	-14403
▁curly	-14404
▁dairy	-14405
▁deple	-14406
▁devil	-14407
▁essay	-14408
▁excav	-14409
▁faded	-14410
▁fence	-14411
▁fixes	-14412
▁greek	-14413
▁hijab	-14414
▁hires	-14415
▁hoard	-14416
▁inhab	-14417
▁irish	-14418
▁leban	-14419
▁logan	-14420
▁mortg	-14421
▁nuwan	-14422
▁outta	-14423
▁picks	-14424
▁rigor	-14425
▁roses	-14426
▁seeds	-14427
▁semin	-14428
▁shash	-14429
▁smugg	-14430
▁souls	-14431
▁spill	-14432
▁stain	-14433
▁sungl	-14434
▁sweep	-14435
▁tense	-14436
▁unint	-14437
▁wires	-14438
▁yummy	-14439
adheera	-14440
amation	-14441
arathna	-14442
chandra	-14443
conomic	-14444
inction	-14445
osexual	-14446
osystem	-14447
theless	-14448
utenant	-14449
▁apples	-14450
▁arabic	-14451
▁argued	-14452
▁asians	-14453
▁bhutan	-14454
▁biomet	-14455
▁bitten	-14456
▁blasts	-14457
▁boiled	-14458
▁boomer	-14459
▁ceilao	-14460
▁chandr	-14461
▁crooks	-14462
▁darker	-14463
▁domest	-14464
▁endure	-14465
▁floods	-14466
▁fossil	-14467
▁heaven	-14468
▁homies	-14469
▁hookup	-14470
▁inclus	-14471
▁inflow	-14472
▁insuff	-14473
▁jewish	-14474
▁kuluna	-14475
▁lineup	-14476
▁marino	-14477
▁masala	-14478
▁melody	-14479
▁menike	-14480
▁mexico	-14481
▁minist	-14482
▁morons	-14483
▁naming	-14484
▁offend	-14485
▁orphan	-14486
▁pilots	-14487
▁planes	-14488
▁poorer	-14489
▁priest	-14490
▁rhythm	-14491
▁rolled	-14492
▁rooted	-14493
▁sanity	-14494
▁seized	-14495
▁sheets	-14496
▁sleeve	-14497
▁soccer	-14498
▁tailor	-14499
▁tenant	-14500
▁treaty	-14501
▁uganda	-14502
▁underp	-14503
▁vocals	-14504
▁waking	-14505
▁yamaha	-14506
ceptions	-14507
ivaikkal	-14508
▁bandula	-14509
▁belarus	-14510
▁blatant	-14511
▁breaker	-14512
▁budgets	-14513
▁carpent	-14514
▁carries	-14515
▁colonel	-14516
▁colored	-14517
▁costume	-14518
▁counted	-14519
▁critics	-14520
▁dreamed	-14521
▁dynasty	-14522
▁emerged	-14523
▁ensures	-14524
▁fearing	-14525
▁festive	-14526
▁fintech	-14527
▁getaway	-14528
▁hyundai	-14529
▁illustr	-14530
▁incomes	-14531
▁inherit	-14532
▁insists	-14533
▁judging	-14534
▁juniors	-14535
▁koggala	-14536
▁kosgoda	-14537
▁kumanan	-14538
▁lactose	-14539
▁logging	-14540
▁minimis	-14541
▁mobiles	-14542
▁museums	-14543
▁namibia	-14544
▁nanuoya	-14545
▁olympic	-14546
▁outline	-14547
▁payable	-14548
▁pouring	-14549
▁reimbur	-14550
▁revised	-14551
▁rushing	-14552
▁satisfy	-14553
▁sealion	-14554
▁segment	-14555
▁sincere	-14556
▁singles	-14557
▁spirits	-14558
▁surfers	-14559
▁surname	-14560
▁symbols	-14561
▁texting	-14562
▁toilets	-14563
▁urgency	-14564
▁vending	-14565
▁viewers	-14566
▁viewing	-14567
▁wording	-14568
akrishnan	-14569
mentation	-14570
▁agarwood	-14571
▁ambition	-14572
▁bedrooms	-14573
▁blessing	-14574
▁brutally	-14575
▁charming	-14576
▁commando	-14577
▁confirms	-14578
▁converse	-14579
▁crackers	-14580
▁crashing	-14581
▁cylinder	-14582
▁deceased	-14583
▁defeated	-14584
▁deforest	-14585
▁deniyaya	-14586
▁desserts	-14587
▁dividend	-14588
▁divorced	-14589
▁draining	-14590
▁feminist	-14591
▁geograph	-14592
▁grooming	-14593
▁highland	-14594
[...]
