{"[PAD]":0,"[CLS]":1,"[SEP]":2,"[MASK]":3,"[UNK]":4,"!":5,"\"":6,"#":7,"$":8,"%":9,"&":10,"'":11,"(":12,")":13,"*":14,"+":15,",":16,"-":17,".":18,"/":19,"0":20,"1":21,"2":22,"3":23,"4":24,"5":25,"6":26,"7":27,"8":28,"9":29,":":30,";":31,"<":32,"=":33,">":34,"?":35,"@":36,"A":37,"B":38,"C":39,"D":40,"E":41,"F":42,"G":43,"H":44,"I":45,"J":46,"K":47,"L":48,"M":49,"N":50,"O":51,"P":52,"Q":53,"R":54,"S":55,"T":56,"U":57,"V":58,"W":59,"X":60,"Y":61,"Z":62,"[":63,"\\":64,"]":65,"^":66,"_":67,"`":68,"a":69,"b":70,"c":71,"d":72,"e":73,"f":74,"g":75,"h":76,"i":77,"j":78,"k":79,"l":80,"m":81,"n":82,"o":83,"p":84,"q":85,"r":86,"s":87,"t":88,"u":89,"v":90,"w":91,"x":92,"y":93,"z":94,"{":95,"|":96,"}":97,"~":98,"¡":99,"¢":100,"£":101,"¤":102,"¥":103,"¦":104,"§":105,"¨":106,"©":107,"ª":108,"«":109,"¬":110,"®":111,"¯":112,"°":113,"±":114,"²":115,"³":116,"´":117,"µ":118,"¶":119,"·":120,"¸":121,"¹":122,"º":123,"»":124,"¼":125,"½":126,"¾":127,"¿":128,"À":129,"Á":130,"Â":131,"Ã":132,"Ä":133,"Å":134,"Æ":135,"Ç":136,"È":137,"É":138,"Ê":139,"Ë":140,"Ì":141,"Í":142,"Î":143,"Ï":144,"Ð":145,"Ñ":146,"Ò":147,"Ó":148,"Ô":149,"Õ":150,"Ö":151,"×":152,"Ø":153,"Ù":154,"Ú":155,"Û":156,"Ü":157,"Ý":158,"Þ":159,"ß":160,"à":161,"á":162,"â":163,"ã":164,"ä":165,"å":166,"æ":167,"ç":168,"è":169,"é":170,"ê":171,"ë":172,"ì":173,"í":174,"î":175,"ï":176,"ð":177,"ñ":178,"ò":179,"ó":180,"ô":181,"õ":182,"ö":183,"÷":184,"ø":185,"ù":186,"ú":187,"û":188,"ü":189,"ý":190,"þ":191,"ÿ":192,"Ā":193,"ā":194,"Ă":195,"ă":196,"Ą":197,"ą":198,"Ć":199,"ć":200,"Ĉ":201,"ĉ":202,"Ċ":203,"ċ":204,"Č":205,"č":206,"Ď":207,"ď":208,"Đ":209,"đ":210,"Ē":211,"ē":212,"Ĕ":213,"ĕ":214,"Ė":215,"ė":216,"Ę":217,"ę":218,"Ě":219,"ě":220,"Ĝ":221,"ĝ":222,"Ğ":223,"ğ":224,"Ġ":225,"ġ":226,"Ģ":227,"ģ":228,"Ĥ":229,"ĥ":230,"Ħ":231,"ħ":232,"Ĩ":233,"ĩ":234,"Ī":235,"ī":236,"Ĭ":237,"ĭ":238,"Į":239,"į":240,"İ":241,"ı":242,"Ĳ":243,"ĳ":244,"Ĵ":245,"ĵ":246,"Ķ":247,"ķ":248,"ĸ":249,"Ĺ":250,"ĺ":251,"Ļ":252,"ļ":253,"Ľ":254,"ľ":255,"Ŀ":256,"ŀ":257,"Ł":258,"ł":259,"Ń":260,"Ġt":261,"Ġa":262,"Ġi":263,"Ġs":264,"Ġth":265,"re":266,"in":267,"Ġw":268,"on":269,"Ġthe":270,"er":271,"Ġc":272,"an":273,"Ġm":274,"Ġb":275,"ou":276,"Ġf":277,"or":278,"at":279,"Ġp":280,"en":281,"Ġh":282,"ing":283,"Ġan":284,"Ġto":285,"Ġl":286,"Ġd":287,"es":288,"ed":289,"Ġin":290,"Ġn":291,"it":292,"al":293,"Ġo":294,"Ġand":295,"om":296,"ar":297,"is":298,"Ġg":299,"ri":300,"as":301,"Ġe":302,"Ġof":303,"ve":304,"ic":305,"le":306,"Ġre":307,"ion":308,"ly":309,"st":310,"ll":311,"Ġwh":312,"Ġy":313,"ow":314,"Ġbe":315,"Ġfor":316,"ot":317,"ent":318,"Ġis":319,"Ġu":320,"et":321,"ay":322,"Ġit":323,"Ġon":324,"Ġyou":325,"ank":326,"ac":327,"Ġst":328,"ld":329,"ut":330,"am":331,"ver":332,"Ġwe":333,"Ġha":334,"id":335,"čĊ":336,"se":337,"Ġthat":338,"Ġhe":339,"ro":340,"ol":341,"ith":342,"ct":343,"ce":344,"Ġk":345,"th":346,"ad":347,"Ġthis":348,"Ġsri":349,"Ġwith":350,"Ġlank":351,"ation":352,"Ġor":353,"gh":354,"Ġmy":355,"oo":356,"Ġare":357,"ch":358,"ke":359,"ir":360,"ur":361,"Ġany":362,"out":363,"Ġdo":364,"Ġas":365,"Ġj":366,"Ġli":367,"est":368,"one":369,"nt":370,"Ġr":371,"im":372,"pp":373,"Ġne":374,"Ġsh":375,"Ġ1":376,"Ġhave":377,"ould":378,"Ġse":379,"Ġ2":380,"il":381,"ome":382,"ter":383,"Ġde":384,"Ġbut":385,"Ġlanka":386,"Ġso":387,"Ġme":388,"op":389,"Ġfr":390,"Ġv":391,"Ġtr":392,"ill":393,"Ġex":394,"Ġcon":395,"and":396,"ate":397,"Ġnot":398,"Ġsu":399,"our":400,"nd":401,"Ġcom":402,"Ġfrom":403,"Ġat":404,"Ġch":405,"end":406,"ge":407,"Ġcan":408,"Ġwas":409,"Ġab":410,"ust":411,"ers":412,"Ġpl":413,"ant":414,"Ġal":415,"king":416,"Ġmo":417,"ally":418,"ment":419,"ul":420,"Ġif":421,"ght":422,"Ġpro":423,"ort":424,"ere":425,"Ġthey":426,"Ġgo":427,"ain":428,"Ġwhat":429,"Ġsome":430,"now":431,"Ġwor":432,"us":433,"ig":434,"Ġlike":435,"ab":436,"Ġthere":437,"ist":438,"00":439,"ity":440,"ies":441,"un":442,"el":443,"Ġget":444,"ess":445,"Ġknow":446,"ci":447,"are":448,"pe":449,"qu":450,"ood":451,"ount":452,"Ġabout":453,"Ġad":454,"ud":455,"em":456,"art":457,"Ġun":458,"Ġby":459,"Ġle":460,"bo":461,"Ġwould":462,"rou":463,"Ġhow":464,"ap":465,"Ġall":466,"Ġpe":467,"ard":468,"Ġus":469,"Ġcol":470,"Ġlo":471,"Ġac":472,"Ġam":473,"very":474,"ice":475,"Ġjust":476,"Ġyour":477,"res":478,"ff":479,"Ġfe":480,"Ġ3":481,"Ġwho":482,"Ġhas":483,"ind":484,"Ġexp":485,"ine":486,"os":487,"Ġwill":488,"ven":489,"ions":490,"ombo":491,"Ġapp":492,"ack":493,"ive":494,"ry":495,"ople":496,"ore":497,"li":498,"Ġpeople":499,"Ġday":500,"uy":501,"ake":502,"all":503,"ast":504,"Ġrec":505,"Ġtim":506,"Ġout":507,"Ġcolombo":508,"Ġen":509,"Ġve":510,"Ġhi":511,"Ġsa":512,"Ġup":513,"ear":514,"so":515,"ak":516,"um":517,"her":518,"Ġim":519,"pt":520,"Ġwant":521,"ag":522,"ans":523,"ree":524,"Ġcomp":525,"ure":526,"Ġgood":527,"ect":528,"Ġour":529,"Ġno":530,"Ġone":531,"Ġag":532,"age":533,"ck":534,"Ġco":535,"Ġdon":536,"Ġyear":537,"Ġte":538,"Ġdi":539,"ace":540,"Ġtime":541,"ther":542,"Ġqu":543,"Ġtheir":544,"Ġint":545,"Ġalso":546,"ase":547,"ence":548,"eri":549,"Ġanyone":550,"able":551,"Ġbeen":552,"Ġloo":553,"ame":554,"Ġ20":555,"Ġman":556,"Ġpri":557,"ich":558,"Ġ5":559,"ated":560,"Ġpo":561,"ia":562,"ous":563,"Ġcl":564,"ance":565,"Ġnew":566,"ave":567,"port":568,"Ġcount":569,"Ġ4":570,"Ġeven":571,"ight":572,"au":573,"Ġoff":574,"ations":575,"Ġwhich":576,"Ġevery":577,"Ġwhen":578,"Ġneed":579,"ue":580,"Ġnow":581,"Ġhel":582,"ach":583,"ong":584,"ving":585,"Ġthem":586,"Ġaf":587,"Ġhelp":588,"if":589,"Ġadv":590,"ide":591,"Ġcont":592,"ning":593,"wh":594,"ber":595,"Ġhere":596,"Ġacc":597,"Ġmore":598,"ip":599,"Ġother":600,"Ġbec":601,"Ġar":602,"round":603,"ass":604,"ink":605,"Ġsin":606,"Ġhad":607,"ult":608,"Ġthank":609,"act":610,"nder":611,"Ġri":612,"Ġvis":613,"Ġcomm":614,"ie":615,"Ġshould":616,"Ġwork":617,"Ġsp":618,"ary":619,"ite":620,"Ġres":621,"Ġind":622,"Ġafter":623,"Ġunder":624,"iv":625,"Ġmon":626,"Ġthese":627,"Ġlankan":628,"ail":629,"Ġsl":630,"ish":631,"Ġstud":632,"Ġpre":633,"Ġwhere":634,"Ġdoes":635,"Ġdid":636,"ause":637,"vers":638,"aw":639,"ble":640,"Ġpr":641,"Ġpol":642,"Ġwere":643,"ities":644,"Ġover":645,"Ġaround":646,"Ġonly":647,"Ġreally":648,"Ġpart":649,"Ġguy":650,"Ġcountry":651,"Ġact":652,"dit":653,"ical":654,"hing":655,"ces":656,"Ġmu":657,"ick":658,"ign":659,"Ġexperi":660,"omm":661,"Ġgot":662,"orm":663,"Ġdis":664,"ering":665,"Ġcould":666,"ays":667,"ile":668,"Ġuni":669,"Ġbr":670,"Ġsee":671,"Ġbecause":672,"ting":673,"Ġinter":674,"gg":675,"Ġcur":676,"Ġfri":677,"Ġinc":678,"fe":679,"Ġspe":680,"Ġro":681,"Ġplan":682,"Ġlooking":683,"Ġmuch":684,"Ġjo":685,"ya":686,"Ġback":687,"de":688,"Ġthing":689,"ub":690,"Ġph":691,"iz":692,"og":693,"Ġthink":694,"ond":695,"Ġsc":696,"pl":697,"Ġtri":698,"Ġtrave":699,"ala":700,"ks":701,"ath":702,"ang":703,"Ġmar":704,"Ġbet":705,"ose":706,"ep":707,"lease":708,"ommend":709,"Ġmost":710,"Ġ6":711,"Ġstart":712,"Ġbus":713,"omet":714,"ru":715,"Ġloc":716,"Ġtoo":717,"Ġmonth":718,"Ġper":719,"Ġhis":720,"Ġgr":721,"Ġfind":722,"Ġeng":723,"Ġpay":724,"av":725,"Ġcre":726,"Ġfriend":727,"Ġrecommend":728,"Ġsomet":729,"Ġplease":730,"Ġfir":731,"Ġplace":732,"Ġbuy":733,"Ġher":734,"ress":735,"day":736,"Ġop":737,"Ġma":738,"Ġvisit":739,"vern":740,"ily":741,"Ġyears":742,"erv":743,"Ġguys":744,"ens":745,"lect":746,"Ġinf":747,"Ġgovern":748,"Ġmin":749,"Ġshe":750,"Ġfirst":751,"Ġpers":752,"Ġgoing":753,"Ġsch":754,"Ġrel":755,"Ġcurre":756,"Ġfeel":757,"own":758,"Ġthanks":759,"Ġdec":760,"Ġway":761,"als":762,"Ġgovernment":763,"ade":764,"Ġtake":765,"Ġwell":766,"Ġ202":767,"Ġbest":768,"Ġdays":769,"iss":770,"Ġthou":771,"Ġinto":772,"other":773,"ational":774,"Ġpost":775,"Ġthan":776,"ire":777,"Ġ7":778,"Ġmake":779,"lla":780,"Ġthen":781,"led":782,"Ġta":783,"du":784,"ents":785,"Ġ8":786,"Ġhigh":787,"bs":788,"ying":789,"Ġfu":790,"fore":791,"Ġfo":792,"Ġcons":793,"Ġ0":794,"Ġtw":795,"000":796,"Ġvery":797,"Ġche":798,"Ġsaid":799,"Ġcar":800,"Ġaccount":801,"ild":802,"Ġmany":803,"aces":804,"Ġperson":805,"Ġreg":806,"ne":807,"Ġwee":808,"stand":809,"ful":810,"ors":811,"Ġinv":812,"Ġstill":813,"lic":814,"Ġed":815,"Ġem":816,"ments":817,"Ġsomething":818,"cial":819,"reat":820,"Ġgen":821,"Ġworld":822,"Ġsay":823,"int":824,"od":825,"Ġcurrent":826,"vel":827,"ft":828,"Ġmay":829,"Ġintern":830,"Ġtravel":831,"Ġunivers":832,"Ġsince":833,"thing":834,"Ġunderstand":835,"Ġfew":836,"Ġmed":837,"Ġdeg":838,"con":839,"Ġits":840,"Ġeveryone":841,"Ġexperience":842,"any":843,"ra":844,"rough":845,"xt":846,"Ġthrough":847,"Ġsupp":848,"Ġbeing":849,"oney":850,"Ġcommun":851,"ked":852,"Ġwhy":853,"Ġdri":854,"Ġtour":855,"Ġcall":856,"ound":857,"line":858,"Ġfam":859,"Ġbefore":860,"Ġtrans":861,"ert":862,"reci":863,"Ġke":864,"pect":865,"wn":866,"Ġsomeone":867,"Ġagain":868,"Ġ10":869,"Ġright":870,"Ġpres":871,"Ġfin":872,"ple":873,"atch":874,"Ġ9":875,"nect":876,"ually":877,"Ġplaces":878,"Ġinst":879,"ved":880,"Ġhapp":881,"Ġbas":882,"Ġappreci":883,"Ġuse":884,"lf":885,"ool":886,"si":887,"Ġair":888,"andy":889,"Ġiss":890,"Ġatt":891,"ident":892,"Ġwhile":893,"ggest":894,"ord":895,"na":896,"te":897,"Ġmoney":898,"ating":899,"Ġpos":900,"Ġbl":901,"Ġadvice":902,"get":903,"ddit":904,"Ġsm":905,"Ġsec":906,"Ġsame":907,"Ġconnect":908,"oth":909,"Ġlove":910,"Ġlet":911,"ial":912,"ara":913,"Ġserv":914,"Ġdiff":915,"Ġsuggest":916,"Ġsinh":917,"Ġkandy":918,"Ġhim":919,"Ġschool":920,"Ġdegree":921,"Ġbank":922,"Ġseem":923,"Ġlong":924,"ange":925,"ory":926,"sh":927,"Ġide":928,"Ġrem":929,"uw":930,"Ġlot":931,"Ġbetter":932,"Ġet":933,"Ġrecent":934,"Ġsit":935,"Ġquest":936,"Ġtwo":937,"Ġdown":938,"Ġtrain":939,"Ġbu":940,"Ġthings":941,"cess":942,"uring":943,"Ġlife":944,"we":945,"ian":946,"Ġdoing":947,"Ġfood":948,"Ġsim":949,"Ġthought":950,"Ġpar":951,"Ġcontin":952,"Ġthose":953,"Ġear":954,"ise":955,"Ġins":956,"Ġcr":957,"Ġra":958,"amil":959,"oy":960,"llow":961,"what":962,"Ġstay":963,"ered":964,"Ġfore":965,"read":966,"ual":967,"Ġopt":968,"ics":969,"Ġplanning":970,"Ġend":971,"Ġsub":972,"Ġbud":973,"Ġlocal":974,"ates":975,"ced":976,"Ġuniversity":977,"Ġlk":978,"Ġown":979,"be":980,"ious":981,"per":982,"ject":983,"Ġtax":984,"Ġboo":985,"Ġold":986,"Ġaw":987,"Ġdes":988,"Ġtamil":989,"Ġreddit":990,"ower":991,"Ġav":992,"les":993,"itt":994,"ale":995,"Ġonline":996,"Ġent":997,"Ġpass":998,"alle":999,"gr":1000,"arent":1001,"Ġused":1002,"Ġsur":1003,"ket":1004,"Ġtrip":1005,"Ġwithout":1006,"lo":1007,"Ġfamily":1008,"ater":1009,"Ġsuch":1010,"Ġgu":1011,"me":1012,"ason":1013,"Ġ000":1014,"ition":1015,"Ġ19":1016,"Ġgetting":1017,"Ġpriv":1018,"Ġlast":1019,"Ġella":1020,"ledge":1021,"ough":1022,"Ġwr":1023,"Ġll":1024,"ism":1025,"Ġinvest":1026,"iew":1027,"Ġduring":1028,"iness":1029,"Ġreal":1030,"Ġhop":1031,"Ġpub":1032,"Ġnight":1033,"conom":1034,"Ġetc":1035,"Ġkind":1036,"Ġadvance":1037,"Ġsy":1038,"Ġhome":1039,"Ġshare":1040,"Ġprov":1041,"ward":1042,"Ġdiffere":1043,"Ġelect":1044,"Ġeconom":1045,"Ġel":1046,"Ġhey":1047,"ues":1048,"Ġrep":1049,"Ġweek":1050,"Ġcost":1051,"lank":1052,"Ġcour":1053,"Ġnext":1054,"Ġdep":1055,"where":1056,"air":1057,"Ġjob":1058,"Ġsou":1059,"Ġhot":1060,"ern":1061,"Ġlear":1062,"Ġcare":1063,"Ġdr":1064,"Ġengine":1065,"Ġgener":1066,"ific":1067,"lish":1068,"duct":1069,"Ġmade":1070,"Ġsupport":1071,"Ġes":1072,"lling":1073,"Ġtrying":1074,"Ġanything":1075,"erest":1076,"up":1077,"Ġev":1078,"ically":1079,"fer":1080,"ather":1081,"Ġpolit":1082,"Ġfriends":1083,"Ġimport":1084,"aff":1085,"Ġgreat":1086,"Ġinterest":1087,"cy":1088,"ss":1089,"Ġcreate":1090,"Ġread":1091,"Ġrecently":1092,"Ġter":1093,"Ġgive":1094,"Ġbusiness":1095,"Ġ30":1096,"ug":1097,"Ġanother":1098,"Ġrest":1099,"Ġagree":1100,"Ġchar":1101,"red":1102,"ph":1103,"Ġhand":1104,"Ġrecommendations":1105,"ms":1106,"Ġexam":1107,"Ġhappen":1108,"Ġdidn":1109,"Ġwond":1110,"ever":1111,"uc":1112,"Ġpublic":1113,"Ġfollow":1114,"amp":1115,"urn":1116,"Ġcurrently":1117,"rect":1118,"Ġbeach":1119,"Ġext":1120,"ama":1121,"Ġprivate":1122,"Ġcle":1123,"Ġdisc":1124,"Ġbad":1125,"Ġforeign":1126,"uing":1127,"arch":1128,"Ġpur":1129,"ited":1130,"Ġcome":1131,"ips":1132,"Ġho":1133,"Ġconf":1134,"Ġimp":1135,"Ġsinhala":1136,"Ġ15":1137,"Ġdone":1138,"Ġadd":1139,"Ġsrilank":1140,"ways":1141,"Ġfound":1142,"Ġnever":1143,"Ġpresident":1144,"Ġpolice":1145,"sible":1146,"Ġworking":1147,"ists":1148,"Ġopen":1149,"Ġlkr":1150,"Ġtal":1151,"Ġshow":1152,"olog":1153,"land":1154,"Ġboth":1155,"Ġinform":1156,"Ġwar":1157,"Ġconsid":1158,"Ġmain":1159,"Ġbit":1160,"Ġcult":1161,"Ġsure":1162,"Ġprot":1163,"self":1164,"Ġfree":1165,"Ġass":1166,"ital":1167,"Ġleg":1168,"Ġpower":1169,"Ġ12":1170,"oc":1171,"ative":1172,"Ġparent":1173,"hic":1174,"Ġusing":1175,"Ġord":1176,"Ġcor":1177,"Ġprice":1178,"know":1179,"Ġtoday":1180,"ister":1181,"Ġmarket":1182,"inking":1183,"ries":1184,"Ġnum":1185,"Ġoffic":1186,"ty":1187,"Ġsol":1188,"Ġgir":1189,"Ġcheck":1190,"Ġcommunities":1191,"ys":1192,"Ġmight":1193,"Ġclass":1194,"Ġcomple":1195,"ata":1196,"Ġmonths":1197,"Ġkeep":1198,"Ġsitu":1199,"Ġgalle":1200,"Ġment":1201,"Ġap":1202,"Ġsal":1203,"Ġreason":1204,"Ġplay":1205,"ouse":1206,"roup":1207,"ric":1208,"Ġexpl":1209,"cially":1210,"Ġce":1211,"Ġcard":1212,"Ġnear":1213,"Ġactually":1214,"Ġexperien":1215,"Ġdifferent":1216,"Ġfl":1217,"Ġproble":1218,"velop":1219,"Ġgroup":1220,"Ġqual":1221,"lud":1222,"Ġservice":1223,"ets":1224,"Ġnational":1225,"Ġaff":1226,"Ġcou":1227,"ready":1228,"Ġhell":1229,"Ġtold":1230,"Ġalready":1231,"ices":1232,"Ġcri":1233,"Ġcompany":1234,"Ġhotel":1235,"Ġmat":1236,"Ġeduc":1237,"Ġacknow":1238,"Ġgi":1239,"alth":1240,"Ġparents":1241,"apt":1242,"Ġarea":1243,"Ġindia":1244,"how":1245,"ese":1246,"Ġwanted":1247,"Ġopp":1248,"Ġdevelop":1249,"Ġraj":1250,"ana":1251,"uk":1252,"Ġbo":1253,"Ġ201":1254,"Ġrequ":1255,"Ġret":1256,"ah":1257,"Ġstate":1258,"Ġsouth":1259,"Ġstu":1260,"Ġsuggestions":1261,"ular":1262,"uth":1263,"Ġx":1264,"Ġid":1265,"Ġcent":1266,"Ġacknowledge":1267,"Ġvehic":1268,"stem":1269,"road":1270,"ts":1271,"Ġsk":1272,"Ġappreciate":1273,"Ġcontinuing":1274,"Ġfar":1275,"Ġelse":1276,"Ġhard":1277,"he":1278,"ages":1279,"Ġhear":1280,"cept":1281,"sa":1282,"Ġwent":1283,"Ġdet":1284,"Ġpoint":1285,"Ġsmall":1286,"ves":1287,"ility":1288,"Ġdoesn":1289,"Ġhowever":1290,"Ġsto":1291,"ings":1292,"Ġeas":1293,"Ġalways":1294,"Ġsystem":1295,"form":1296,"Ġtech":1297,"Ġhour":1298,"Ġhaving":1299,"Ġlive":1300,"Ġseems":1301,"Ġmor":1302,"Ġbig":1303,"Ġpack":1304,"ix":1305,"Ġwom":1306,"iri":1307,"Ġsituation":1308,"Ġinclud":1309,"Ġhouse":1310,"min":1311,"ict":1312,"Ġthinking":1313,"Ġproduct":1314,"Ġstudents":1315,"Ġrs":1316,"Ġsw":1317,"Ġlankans":1318,"Ġtop":1319,"Ġstre":1320,"ween":1321,"Ġlaw":1322,"Ġbetween":1323,"Ġquestion":1324,"Ġland":1325,"ute":1326,"ash":1327,"Ġru":1328,"Ġagainst":1329,"Ġdue":1330,"Ġworth":1331,"Ġsci":1332,"ants":1333,"mo":1334,"Ġwatch":1335,"Ġpossible":1336,"Ġbi":1337,"illion":1338,"Ġnews":1339,"Ġlook":1340,"Ġenglish":1341,"Ġcert":1342,"iya":1343,"ably":1344,"ling":1345,"Ġvi":1346,"Ġidea":1347,"Ġlearn":1348,"Ġwebs":1349,"Ġseen":1350,"Ġcust":1351,"Ġcu":1352,"Ġchild":1353,"ral":1354,"ional":1355,"Ġphone":1356,"ied":1357,"Ġheard":1358,"Ġmus":1359,"Ġasked":1360,"ortun":1361,"amb":1362,"akes":1363,"Ġmod":1364,"Ġhon":1365,"bt":1366,"Ġz":1367,"Ġlead":1368,"Ġgirl":1369,"Ġinternational":1370,"Ġwondering":1371,"Ġset":1372,"Ġtry":1373,"Ġrun":1374,"Ġneg":1375,"its":1376,"ilar":1377,"ner":1378,"Ġdata":1379,"Ġval":1380,"Ġ11":1381,"Ġtried":1382,"ense":1383,"Ġform":1384,"Ġcame":1385,"ari":1386,"Ġinformation":1387,"ether":1388,"Ġfac":1389,"Ġhello":1390,"ote":1391,"Ġmaybe":1392,"Ġable":1393,"Ġbuild":1394,"Ġcustom":1395,"apak":1396,"Ġdist":1397,"Ġthoughts":1398,"ised":1399,"Ġlevel":1400,"Ġsimilar":1401,"Ġavail":1402,"Ġvisa":1403,"Ġissue":1404,"Ġstr":1405,"light":1406,"ware":1407,"Ġsocial":1408,"Ġstarted":1409,"Ġprof":1410,"Ġsrilanka":1411,"ember":1412,"Ġhead":1413,"Ġengineering":1414,"Ġsoft":1415,"com":1416,"Ġshort":1417,"Ġfull":1418,"Ġrajapak":1419,"Ġhope":1420,"Ġnumber":1421,"Ġmir":1422,"Ġoptions":1423,"Ġface":1424,"Ġmean":1425,"Ġprices":1426,"Ġdirect":1427,"ately":1428,"mb":1429,"Ġask":1430,"Ġvide":1431,"Ġty":1432,"ution":1433,"gram":1434,"Ġ25":1435,"att":1436,"Ġcalled":1437,"iting":1438,"Ġcountries":1439,"uwa":1440,"Ġsaw":1441,"Ġspend":1442,"Ġbudget":1443,"Ġroad":1444,"ither":1445,"Ġprocess":1446,"Ġsays":1447,"Ġenough":1448,"Ġmet":1449,"Ġresp":1450,"man":1451,"ons":1452,"Ġappreciated":1453,"ures":1454,"Ġhealth":1455,"ittle":1456,"Ġespe":1457,"Ġreport":1458,"Ġconc":1459,"Ġespecially":1460,"mber":1461,"Ġtell":1462,"lim":1463,"Ġshop":1464,"Ġput":1465,"Ġport":1466,"Ġstudent":1467,"ared":1468,"az":1469,"Ġtest":1470,"Ġrece":1471,"Ġappro":1472,"do":1473,"Ġfut":1474,"Ġkid":1475,"Ġwhether":1476,"Ġeducation":1477,"Ġproject":1478,"med":1479,"Ġabroad":1480,"lie":1481,"Ġissues":1482,"Ġlittle":1483,"Ġmom":1484,"ters":1485,"Ġscience":1486,"Ġsing":1487,"Ġopin":1488,"ura":1489,"cket":1490,"Ġsaying":1491,"Ġrout":1492,"Ġref":1493,"ament":1494,"Ġago":1495,"ives":1496,"issa":1497,"Ġtem":1498,"osed":1499,"Ġpast":1500,"ross":1501,"Ġsign":1502,"aptop":1503,"Ġexpect":1504,"used":1505,"Ġgam":1506,"Ġlist":1507,"ural":1508,"ng":1509,"dh":1510,"Ġresult":1511,"less":1512,"Ġca":1513,"view":1514,"Ġmind":1515,"Ġstuff":1516,"Ġavailable":1517,"Ġallow":1518,"Ġbased":1519,"Ġless":1520,"Ġminister":1521,"ized":1522,"ided":1523,"wor":1524,"Ġdef":1525,"Ġarri":1526,"Ġisland":1527,"Ġweeks":1528,"Ġlaptop":1529,"Ġwa":1530,"Ġfuture":1531,"Ġmaj":1532,"Ġquestions":1533,"ten":1534,"Ġname":1535,"Ġeither":1536,"Ġliving":1537,"Ġwon":1538,"Ġmid":1539,"Ġprogram":1540,"Ġairport":1541,"Ġquality":1542,"ety":1543,"Ġtimes":1544,"Ġtick":1545,"Ġrese":1546,"Ġtea":1547,"Ġ100":1548,"ctor":1549,"Ġoth":1550,"Ġregard":1551,"Ġgeneral":1552,"Ġsig":1553,"Ġchange":1554,"Ġdem":1555,"ines":1556,"Ġclear":1557,"Ġpret":1558,"Ġeff":1559,"ee":1560,"Ġothers":1561,"Ġchin":1562,"ove":1563,"Ġ18":1564,"hip":1565,"pped":1566,"Ġbeh":1567,"Ġwel":1568,"Ġproblem":1569,"Ġsecond":1570,"sri":1571,"Ġparty":1572,"Ġmajor":1573,"Ġpersonal":1574,"adu":1575,"Ġbelie":1576,"Ġaway":1577,"ruct":1578,"Ġsoftware":1579,"ats":1580,"tern":1581,"Ġran":1582,"Ġmedia":1583,"ield":1584,"Ġwebsite":1585,"ene":1586,"Ġest":1587,"Ġbre":1588,"Ġmaking":1589,"Ġresearch":1590,"Ġpick":1591,"Ġhist":1592,"Ġstudy":1593,"Ġspeci":1594,"vious":1595,"Ġstop":1596,"cri":1597,"way":1598,"Ġprom":1599,"Ġeverything":1600,"Ġspecif":1601,"Ġfre":1602,"ook":1603,"Ġculture":1604,"Ġtips":1605,"Ġwater":1606,"Ġfact":1607,"ired":1608,"Ġmeet":1609,"Ġexperiences":1610,"Ġhonest":1611,"Ġ00":1612,"pping":1613,"gan":1614,"Ġmirissa":1615,"Ġq":1616,"Ġleast":1617,"Ġleft":1618,"Ġnuw":1619,"iriya":1620,"Ġhours":1621,"ik":1622,"Ġbuddh":1623,"osp":1624,"ize":1625,"Ġeconomic":1626,"Ġunt":1627,"Ġstand":1628,"Ġmen":1629,"Ġ14":1630,"Ġmove":1631,"Ġmention":1632,"Ġamount":1633,"Ġphys":1634,"Ġwithin":1635,"Ġ2025":1636,"ib":1637,"Ġjoin":1638,"Ġbrand":1639,"Ġyet":1640,"uss":1641,"Ġtuk":1642,"Ġisn":1643,"cu":1644,"ps":1645,"Ġnorm":1646,"ology":1647,"Ġwomen":1648,"row":1649,"Ġmess":1650,"rict":1651,"Ġeli":1652,"Ġ200":1653,"Ġprefer":1654,"dy":1655,"ots":1656,"Ġ16":1657,"Ġapply":1658,"Ġprotest":1659,"ness":1660,"Ġmust":1661,"Ġpolitical":1662,"Ġ50":1663,"Ġview":1664,"most":1665,"Ġcoming":1666,"Ġwhole":1667,"Ġsafe":1668,"Ġbring":1669,"Ġmil":1670,"ails":1671,"Ġpretty":1672,"Ġhosp":1673,"Ġcomplete":1674,"ried":1675,"ead":1676,"ration":1677,"Ġauth":1678,"Ġside":1679,"Ġtook":1680,"Ġmillion":1681,"Ġthough":1682,"Ġeach":1683,"Ġinterested":1684,"uly":1685,"Ġmanage":1686,"aid":1687,"Ġgiven":1688,"Ġopportun":1689,"Ġasking":1690,"Ġcouple":1691,"Ġvehicle":1692,"Ġnuwara":1693,"ott":1694,"aut":1695,"Ġnothing":1696,"Ġrent":1697,"Ġtourist":1698,"Ġcricket":1699,"Ġscam":1700,"Ġdeal":1701,"aim":1702,"Ġpop":1703,"unch":1704,"Ġexpens":1705,"Ġ13":1706,"sw":1707,"Ġorder":1708,"Ġonce":1709,"Ġsell":1710,"Ġvisiting":1711,"Ġcity":1712,"Ġcut":1713,"aya":1714,"Ġeliya":1715,"Ġbook":1716,"Ġhu":1717,"Ġcompan":1718,"gle":1719,"nce":1720,"Ġincre":1721,"ploy":1722,"aur":1723,"affna":1724,"Ġuntil":1725,"eng":1726,"Ġwrong":1727,"Ġindust":1728,"Ġcommunity":1729,"Ġcourse":1730,"Ġcase":1731,"Ġps":1732,"Ġhum":1733,"Ġoption":1734,"cc":1735,"cing":1736,"Ġfield":1737,"Ġmob":1738,"Ġtechn":1739,"Ġsigiriya":1740,"Ġhar":1741,"wards":1742,"Ġnor":1743,"ased":1744,"Ġcuri":1745,"ici":1746,"sc":1747,"Ġser":1748,"Ġlow":1749,"Ġtre":1750,"Ġrelated":1751,"Ġfun":1752,"Ġprop":1753,"Ġmal":1754,"Ġactiv":1755,"Ġcompanies":1756,"Ġinternet":1757,"Ġthree":1758,"Ġgoo":1759,"Ġsaf":1760,"Ġpurch":1761,"Ġteach":1762,"Ġinstead":1763,"Ġincluding":1764,"Ġalmost":1765,"Ġteam":1766,"Ġquite":1767,"Ġcontact":1768,"Ġever":1769,"Ġcamp":1770,"Ġmiss":1771,"urity":1772,"Ġrestaur":1773,"Ġproper":1774,"ted":1775,"ars":1776,"Ġdriver":1777,"ota":1778,"Ġjaffna":1779,"liament":1780,"Ġfinan":1781,"Ġconst":1782,"Ġsalary":1783,"Ġlink":1784,"Ġcap":1785,"ency":1786,"Ġuk":1787,"Ġmorning":1788,"yl":1789,"Ġedit":1790,"une":1791,"erious":1792,"Ġart":1793,"Ġob":1794,"the":1795,"Ġsend":1796,"Ġansw":1797,"Ġsho":1798,"Ġvideo":1799,"Ġmyself":1800,"Ġbeaut":1801,"Ġclose":1802,"Ġacross":1803,"ren":1804,"Ġcharg":1805,"Ġok":1806,"Ġyoung":1807,"Ġdro":1808,"Ġlu":1809,"Ġtransport":1810,"Ġbel":1811,"Ġtaking":1812,"iner":1813,"Ġearly":1814,"Ġ24":1815,"Ġparliament":1816,"Ġhappened":1817,"Ġpract":1818,"Ġwest":1819,"Ġindian":1820,"Ġhaven":1821,"br":1822,"den":1823,"ills":1824,"gin":1825,"Ġaust":1826,"ought":1827,"Ġlater":1828,"Ġsuper":1829,"Ġcheap":1830,"side":1831,"Ġleave":1832,"Ġserious":1833,"iter":1834,"Ġdont":1835,"Ġdial":1836,"Ġfollowing":1837,"ooking":1838,"Ġinstit":1839,"ories":1840,"Ġann":1841,"aken":1842,"ned":1843,"Ġpolic":1844,"Ġcurious":1845,"iced":1846,"els":1847,"Ġwif":1848,"Ġdeli":1849,"Ġrajapaksa":1850,"Ġturn":1851,"Ġrelig":1852,"Ġphot":1853,"Ġconsidering":1854,"Ġsoon":1855,"ship":1856,"Ġnat":1857,"Ġjan":1858,"Ġbro":1859,"leg":1860,"Ġservices":1861,"not":1862,"Ġtit":1863,"Ġnet":1864,"ird":1865,"co":1866,"Ġupd":1867,"oid":1868,"rupt":1869,"Ġfund":1870,"ones":1871,"ont":1872,"Ġdepart":1873,"Ġreach":1874,"body":1875,"Ġclaim":1876,"anna":1877,"itch":1878,"ains":1879,"why":1880,"Ġslt":1881,"Ġnegombo":1882,"Ġorgan":1883,"Ġ22":1884,"Ġchang":1885,"Ġspeed":1886,"Ġnon":1887,"Ġprob":1888,"rest":1889,"Ġgre":1890,"ision":1891,"Ġemploy":1892,"Ġconcern":1893,"Ġgoogle":1894,"Ġpm":1895,"Ġ17":1896,"Ġcareer":1897,"ulla":1898,"Ġmah":1899,"Ġsour":1900,"Ġeconomy":1901,"Ġtalk":1902,"Ġoffer":1903,"go":1904,"Ġreturn":1905,"Ġones":1906,"ording":1907,"inerary":1908,"Ġrespon":1909,"Ġspeak":1910,"Ġbelieve":1911,"Ġaustral":1912,"Ġsinhal":1913,"Ġremember":1914,"Ġmother":1915,"Ġgrow":1916,"Ġwal":1917,"Ġmas":1918,"Ġtravelling":1919,"Ġhold":1920,"erg":1921,"Ġmath":1922,"Ġpath":1923,"Ġspecial":1924,"Ġkids":1925,"Ġnormal":1926,"Ġfail":1927,"Ġchoo":1928,"Ġoffice":1929,"Ġhigher":1930,"Ġevent":1931,"Ġrupe":1932,"Ġdrive":1933,"my":1934,"Ġcit":1935,"Ġmedical":1936,"Ġdialog":1937,"Ġlang":1938,"aring":1939,"Ġcris":1940,"Ġproducts":1941,"Ġbecome":1942,"Ġhospital":1943,"oint":1944,"val":1945,"Ġmanag":1946,"Ġareas":1947,"load":1948,"Ġnice":1949,"Ġlegal":1950,"Ġaccept":1951,"Ġlangu":1952,"Ġtot":1953,"Ġlim":1954,"Ġsinhalese":1955,"Ġitinerary":1956,"Ġsecurity":1957,"ding":1958,"ior":1959,"Ġ21":1960,"Ġfil":1961,"Ġ2024":1962,"Ġafford":1963,"Ġdetails":1964,"Ġhistory":1965,"aking":1966,"Ġvot":1967,"asing":1968,"Ġreli":1969,"ems":1970,"ror":1971,"ush":1972,"una":1973,"Ġdiscuss":1974,"Ġtrust":1975,"Ġdig":1976,"Ġsex":1977,"Ġselect":1978,"Ġprofess":1979,"Ġlar":1980,"ime":1981,"Ġresults":1982,"Ġcontro":1983,"rs":1984,"Ġstru":1985,"ds":1986,"ier":1987,"Ġpackage":1988,"Ġcertific":1989,"Ġpaid":1990,"Ġda":1991,"ability":1992,"Ġmot":1993,"Ġabs":1994,"Ġroom":1995,"iful":1996,"ret":1997,"Ġstory":1998,"Ġjour":1999,"Ġcitiz":2000,"sel":2001,"Ġlost":2002,"Ġaug":2003,"Ġranil":2004,"Ġns":2005,"Ġnam":2006,"ising":2007,"Ġstream":2008,"Ġnoticed":2009,"ained":2010,"Ġcoast":2011,"Ġcomes":2012,"Ġfoc":2013,"best":2014,"utes":2015,"Ġknows":2016,"Ġpassport":2017,"Ġregarding":2018,"Ġtitle":2019,"Ġpartic":2020,"Ġbuying":2021,"Ġinfl":2022,"ger":2023,"Ġprovide":2024,"Ġindustry":2025,"Ġcouldn":2026,"Ġincome":2027,"Ġlic":2028,"by":2029,"Ġtaken":2030,"era":2031,"Ġcrisis":2032,"Ġbeautiful":2033,"Ġstock":2034,"Ġflight":2035,"Ġele":2036,"Ġsubject":2037,"Ġboy":2038,"Ġls":2039,"ili":2040,"ived":2041,"Ġprobably":2042,"Ġalong":2043,"new":2044,"Ġavoid":2045,"ible":2046,"Ġmakes":2047,"Ġeat":2048,"Ġunf":2049,"Ġstarting":2050,"Ġtreat":2051,"Ġbri":2052,"Ġaccording":2053,"Ġmov":2054,"istry":2055,"Ġelection":2056,"Ġfur":2057,"Ġtrad":2058,"aining":2059,"Ġusually":2060,"Ġbreak":2061,"Ġstrugg":2062,"Ġhal":2063,"Ġsuc":2064,"pr":2065,"Ġforward":2066,"mor":2067,"Ġtrue":2068,"Ġexch":2069,"Ġattack":2070,"Ġauthor":2071,"Ġoften":2072,"Ġsever":2073,"Ġcomput":2074,"Ġinsight":2075,"Ġchina":2076,"Ġdocu":2077,"Ġuniversities":2078,"Ġelectric":2079,"ok":2080,"Ġciv":2081,"Ġplat":2082,"Ġchildren":2083,"Ġabove":2084,"Ġcompl":2085,"Ġbasically":2086,"Ġdevelopment":2087,"Ġjobs":2088,"ract":2089,"Ġwanna":2090,"dition":2091,"Ġcy":2092,"Ġliter":2093,"Ġexc":2094,"Ġusd":2095,"ming":2096,"uine":2097,"Ġneeds":2098,"Ġopinion":2099,"ylon":2100,"Ġpet":2101,"Ġself":2102,"Ġenj":2103,"fully":2104,"Ġfurther":2105,"Ġseveral":2106,"Ġmedic":2107,"Ġfix":2108,"Ġdecent":2109,"Ġ23":2110,"Ġtourists":2111,"Ġmuslim":2112,"Ġhonestly":2113,"ses":2114,"Ġaware":2115,"ai":2116,"app":2117,"Ġmatch":2118,"Ġcourt":2119,"hi":2120,"ann":2121,"Ġcannot":2122,"Ġcause":2123,"Ġexpensive":2124,"ides":2125,"ney":2126,"book":2127,"oice":2128,"por":2129,"Ġcommon":2130,"Ġrelations":2131,"Ġhuman":2132,"Ġsearch":2133,"Ġneeded":2134,"rap":2135,"Ġequ":2136,"verage":2137,"Ġgenuine":2138,"no":2139,"Ġdesign":2140,"Ġur":2141,"Ġdev":2142,"Ġcredit":2143,"Ġtourism":2144,"Ġfine":2145,"Ġlate":2146,"Ġrate":2147,"Ġcomments":2148,"igin":2149,"Ġdecided":2150,"Ġmatter":2151,"Ġbought":2152,"illed":2153,"Ġperi":2154,"Ġglo":2155,"Ġmult":2156,"Ġideas":2157,"Ġhoping":2158,"bal":2159,"Ġpark":2160,"Ġcharge":2161,"Ġreliable":2162,"Ġrepl":2163,"Ġ40":2164,"Ġimpro":2165,"Ġoutside":2166,"Ġsingle":2167,"Ġpot":2168,"Ġvia":2169,"ows":2170,"Ġsus":2171,"sib":2172,"Ġarrest":2173,"Ġoper":2174,"Ġsent":2175,"Ġdate":2176,"Ġperiod":2177,"Ġnpp":2178,"Ġorigin":2179,"Ġposts":2180,"Ġtransfer":2181,"Ġbal":2182,"acy":2183,"ada":2184,"Ġaccess":2185,"Ġgradu":2186,"ission":2187,"Ġdriving":2188,"Ġsurf":2189,"ma":2190,"Ġcas":2191,"Ġstudying":2192,"Ġmostly":2193,"Ġwed":2194,"orn":2195,"Ġstation":2196,"ivid":2197,"Ġseeing":2198,"Ġspecific":2199,"Ġtowards":2200,"ential":2201,"Ġknowledge":2202,"Ġaustralia":2203,"Ġplatform":2204,"looking":2205,"Ġpat":2206,"Ġdam":2207,"Ġvac":2208,"Ġgirls":2209,"ances":2210,"Ġdel":2211,"ung":2212,"ream":2213,"Ġcomment":2214,"Ġterm":2215,"Ġceylon":2216,"Ġage":2217,"Ġinit":2218,"Ġentire":2219,"Ġnp":2220,"ester":2221,"imes":2222,"Ġimportant":2223,"Ġdest":2224,"fort":2225,"Ġsen":2226,"Ġla":2227,"Ġshit":2228,"Ġtickets":2229,"cript":2230,"cle":2231,"lled":2232,"Ġlanguage":2233,"Ġdaily":2234,"can":2235,"Ġeu":2236,"Ġindivid":2237,"Ġcal":2238,"Ġtoget":2239,"ify":2240,"Ġtype":2241,"Ġexchange":2242,"Ġmass":2243,"Ġuber":2244,"Ġtogether":2245,"ially":2246,"need":2247,"Ġna":2248,"Ġpaying":2249,"Ġbegin":2250,"Ġdece":2251,"Ġschools":2252,"Ġsat":2253,"Ġsli":2254,"Ġstudies":2255,"Ġdesp":2256,"mes":2257,"Ġpap":2258,"ium":2259,"Ġdoctor":2260,"Ġjuly":2261,"ude":2262,"Ġtaxes":2263,"Ġfuel":2264,"Ġtraveling":2265,"dle":2266,"hap":2267,"work":2268,"Ġfinancial":2269,"Ġenjoy":2270,"Ġgame":2271,"Ġpayment":2272,"Ġofficial":2273,"ron":2274,"Ġsite":2275,"Ġhuge":2276,"ho":2277,"Ġopportunities":2278,"ades":2279,"50":2280,"Ġwick":2281,"ane":2282,"itive":2283,"Ġinvol":2284,"ril":2285,"Ġsometimes":2286,"Ġwife":2287,"come":2288,"reme":2289,"Ġbay":2290,"Ġyes":2291,"Ġident":2292,"nam":2293,"Ġfort":2294,"Ġclean":2295,"Ġsuccess":2296,"Ġfall":2297,"Ġfair":2298,"Ġtalking":2299,"Ġexplore":2300,"Ġaugust":2301,"ax":2302,"ination":2303,"Ġfig":2304,"Ġvehicles":2305,"Ġreceived":2306,"Ġai":2307,"ention":2308,"Ġapplic":2309,"Ġbill":2310,"Ġinfo":2311,"200":2312,"vid":2313,"Ġlearning":2314,"Ġsoci":2315,"Ġtrin":2316,"que":2317,"Ġrespect":2318,"Ġprevious":2319,"Ġmobile":2320,"icult":2321,"ified":2322,"Ġcorrupt":2323,"Ġcertain":2324,"Ġlt":2325,"Ġrather":2326,"Ġ26":2327,"ued":2328,"Ġig":2329,"Ġstat":2330,"Ġviol":2331,"Ġsn":2332,"Ġdespite":2333,"Ġsound":2334,"ctors":2335,"ites":2336,"rib":2337,"Ġcompet":2338,"ured":2339,"Ġshops":2340,"Ġmemb":2341,"utions":2342,"Ġconsider":2343,"mar":2344,"vir":2345,"Ġcash":2346,"Ġapril":2347,"back":2348,"gb":2349,"Ġwin":2350,"Ġnt":2351,"Ġoct":2352,"Ġmeans":2353,"Ġamaz":2354,"Ġlooks":2355,"Ġboard":2356,"Ġeffect":2357,"Ġmembers":2358,"Ġhit":2359,"Ġweather":2360,"Ġknown":2361,"elt":2362,"Ġdifficult":2363,"Ġbehind":2364,"Ġdecember":2365,"ell":2366,"Ġrice":2367,"Ġexample":2368,"Ġmanagement":2369,"Ġsort":2370,"Ġsun":2371,"Ġstrong":2372,"Ġtemple":2373,"rist":2374,"Ġmiddle":2375,"Ġcolle":2376,"Ġhappy":2377,"sing":2378,"Ġgone":2379,"Ġaren":2380,"Ġclub":2381,"Ġmentioned":2382,"Ġcomputer":2383,"Ġprotect":2384,"Ġant":2385,"Ġfeels":2386,"Ġrights":2387,"Ġhalf":2388,"Ġstep":2389,"Ġtyp":2390,"Ġdad":2391,"igama":2392,"Ġlocals":2393,"Ġtotal":2394,"par":2395,"owd":2396,"Ġjune":2397,"Ġmusic":2398,"Ġmoment":2399,"Ġroute":2400,"Ġrange":2401,"Ġhelpful":2402,"Ġproblems":2403,"Ġdemand":2404,"gs":2405,"Ġris":2406,"20":2407,"Ġcollect":2408,"Ġcontinue":2409,"Ġcivil":2410,"Ġcop":2411,"Ġaddress":2412,"ych":2413,"Ġrele":2414,"cel":2415,"Ġfeed":2416,"Ġimm":2417,"ugam":2418,"ha":2419,"Ġfather":2420,"selves":2421,"Ġeleph":2422,"oring":2423,"Ġgave":2424,"Ġexact":2425,"cked":2426,"Ġprem":2427,"anyone":2428,"Ġextra":2429,"Ġreview":2430,"Ġyala":2431,"Ġlight":2432,"Ġapart":2433,"Ġsept":2434,"ending":2435,"empt":2436,"Ġconnection":2437,"Ġearn":2438,"Ġstaying":2439,"Ġchecked":2440,"Ġcompletely":2441,"Ġey":2442,"Ġeth":2443,"ury":2444,"Ġ500":2445,"Ġworks":2446,"Ġfav":2447,"Ġfelt":2448,"vert":2449,"Ġcultural":2450,"Ġmajority":2451,"Ġbuddhist":2452,"Ġbene":2453,"atic":2454,"ction":2455,"Ġokay":2456,"ym":2457,"Ġdeep":2458,"Ġsuff":2459,"Ġbuilding":2460,"Ġbod":2461,"Ġnation":2462,"Ġgon":2463,"Ġtamils":2464,"Ġrequest":2465,"Ġchoose":2466,"Ġtown":2467,"Ġgl":2468,"igr":2469,"Ġlea":2470,"Ġamong":2471,"Ġfriendly":2472,"Ġmis":2473,"Ġbat":2474,"Ġbar":2475,"Ġcommer":2476,"ogn":2477,"Ġdepartment":2478,"Ġcertificate":2479,"Ġfocus":2480,"Ġdou":2481,"Ġbeaches":2482,"Ġvalue":2483,"ex":2484,"gress":2485,"Ġevents":2486,"Ġhost":2487,"ently":2488,"Ġgroups":2489,"Ġwait":2490,"Ġsam":2491,"Ġwhite":2492,"Ġcosts":2493,"Ġbelow":2494,"Ġbenef":2495,"cs":2496,"Ġfly":2497,"idence":2498,"Ġfinal":2499,"Ġinsur":2500,"Ġhappening":2501,"Ġocc":2502,"Ġrupees":2503,"Ġlarge":2504,"Ġfem":2505,"Ġstore":2506,"Ġgoes":2507,"Ġopinions":2508,"Ġphysical":2509,"Ġfinally":2510,"Ġhotels":2511,"Ġsil":2512,"Ġpain":2513,"Ġrecogn":2514,"Ġswitch":2515,"Ġactivities":2516,"Ġwestern":2517,"uary":2518,"Ġline":2519,"Ġitems":2520,"Ġrequire":2521,"Ġdrop":2522,"Ġeuro":2523,"Ġfast":2524,"Ġdamb":2525,"olute":2526,"Ġride":2527,"itted":2528,"Ġlack":2529,"Ġ27":2530,"ump":2531,"Ġrid":2532,"Ġaffect":2533,"ka":2534,"atives":2535,"Ġsomewhere":2536,"Ġnights":2537,"Ġlicense":2538,"igh":2539,"Ġwasn":2540,"Ġplans":2541,"Ġabsolute":2542,"Ġcitizens":2543,"morrow":2544,"bit":2545,"Ġdoll":2546,"Ġgov":2547,"Ġpsych":2548,"Ġsport":2549,"Ġbir":2550,"Ġinterview":2551,"Ġbuses":2552,"Ġpeak":2553,"Ġquick":2554,"Ġpurchase":2555,"Ġtomorrow":2556,"Ġgames":2557,"Ġenvir":2558,"Ġdigital":2559,"rd":2560,"Ġrain":2561,"Ġchem":2562,"awat":2563,"Ġinvestig":2564,"epend":2565,"Ġinvestment":2566,"Ġconfir":2567,"Ġcab":2568,"Ġnote":2569,"Ġcovid":2570,"Ġminutes":2571,"Ġbooks":2572,"Ġallowed":2573,"Ġenviron":2574,"Ġ28":2575,"Ġspots":2576,"Ġdecision":2577,"Ġcars":2578,"Ġcentral":2579,"ext":2580,"ery":2581,"ended":2582,"Ġdelivery":2583,"Ġcomplain":2584,"Ġtia":2585,"Ġjap":2586,"Ġarugam":2587,"ished":2588,"io":2589,"more":2590,"Ġer":2591,"Ġfront":2592,"Ġcomfort":2593,"Ġcover":2594,"Ġcorrect":2595,"does":2596,"Ġgonna":2597,"tr":2598,"Ġvill":2599,"Ġalone":2600,"Ġprior":2601,"Ġblo":2602,"Ġseptember":2603,"ram":2604,"ards":2605,"kes":2606,"Ġhy":2607,"pm":2608,"Ġcra":2609,"Ġdownload":2610,"Ġterms":2611,"over":2612,"Ġstaff":2613,"Ġ60":2614,"Ġexperienced":2615,"Ġticket":2616,"Ġrestaurants":2617,"put":2618,"Ġdin":2619,"Ġplant":2620,"Ġcompared":2621,"Ġclasses":2622,"Ġweligama":2623,"Ġnorth":2624,"Ġglobal":2625,"iy":2626,"Ġaltern":2627,"Ġindepend":2628,"Ġparties":2629,"Ġregist":2630,"Ġbasic":2631,"Ġdambulla":2632,"Ġste":2633,"Ġguess":2634,"medi":2635,"ging":2636,"Ġful":2637,"Ġpopular":2638,"Ġrul":2639,"Ġfeb":2640,"Ġgiving":2641,"Ġbirth":2642,"Ġsor":2643,"Ġpan":2644,"Ġsector":2645,"ilt":2646,"Ġappoint":2647,"Ġpurs":2648,"Ġanswer":2649,"ined":2650,"urd":2651,"Ġmarch":2652,"Ġeasy":2653,"Ġtechnology":2654,"Ġimprove":2655,"esterday":2656,"Ġeast":2657,"Ġchance":2658,"Ġprep":2659,"Ġmultip":2660,"inda":2661,"Ġupdate":2662,"ncy":2663,"Ġdut":2664,"Ġrock":2665,"Ġpress":2666,"Ġdoctors":2667,"ateg":2668,"Ġchall":2669,"Ġinsights":2670,"Ġliterally":2671,"Ġsliit":2672,"ply":2673,"Ġach":2674,"Ġlab":2675,"Ġsecret":2676,"Ġformer":2677,"Ġod":2678,"Ġexist":2679,"emic":2680,"Ġunp":2681,"Ġslow":2682,"Ġcrit":2683,"alee":2684,"Ġobvious":2685,"Ġver":2686,"Ġyesterday":2687,"Ġdeath":2688,"Ġworse":2689,"Ġexport":2690,"Ġprovin":2691,"Ġsad":2692,"Ġaction":2693,"ples":2694,"Ġwoman":2695,"ins":2696,"Ġyout":2697,"ec":2698,"Ġcin":2699,"Ġhol":2700,"Ġnd":2701,"ulation":2702,"Ġdipl":2703,"Ġparticular":2704,"riend":2705,"Ġvict":2706,"lied":2707,"Ġfoot":2708,"Ġgreatly":2709,"Ġdistrict":2710,"Ġsource":2711,"Ġsociety":2712,"ient":2713,"Ġee":2714,"Ġadm":2715,"awe":2716,"Ġmaths":2717,"Ġdiplom":2718,"Ġfi":2719,"Ġpeace":2720,"Ġreading":2721,"comalee":2722,"Ġpolicy":2723,"Ġjanuary":2724,"ault":2725,"Ġwish":2726,"Ġseason":2727,"Ġcontext":2728,"ube":2729,"Ġmedicine":2730,"Ġtv":2731,"limited":2732,"cking":2733,"Ġhair":2734,"ift":2735,"Ġenvironment":2736,"band":2737,"Ġbur":2738,"Ġdream":2739,"Ġdiv":2740,"ark":2741,"Ġcool":2742,"Ġmonthly":2743,"Ġcustoms":2744,"for":2745,"Ġlol":2746,"aries":2747,"ayake":2748,"Ġstories":2749,"Ġlives":2750,"Ġresour":2751,"Ġskills":2752,"Ġmilit":2753,"bers":2754,"Ġaverage":2755,"Ġwants":2756,"Ġfeeling":2757,"Ġsites":2758,"Ġdirectly":2759,"cent":2760,"Ġband":2761,"Ġwilling":2762,"Ġarmy":2763,"Ġbrother":2764,"Ġmount":2765,"Ġfit":2766,"Ġmental":2767,"Ġtrincomalee":2768,"zy":2769,"Ġjay":2770,"Ġ2022":2771,"Ġextreme":2772,"Ġcontrol":2773,"Ġye":2774,"ilities":2775,"Ġvs":2776,"Ġlocation":2777,"Ġ80":2778,"Ġwonder":2779,"Ġsignific":2780,"Ġpropert":2781,"Ġfacebook":2782,"ipping":2783,"to":2784,"Ġil":2785,"anth":2786,"imate":2787,"Ġnecess":2788,"Ġfees":2789,"avy":2790,"Ġbike":2791,"Ġeurope":2792,"Ġgets":2793,"Ġunlimited":2794,"Ġmainly":2795,"icians":2796,"Ġcollege":2797,"Ġjapan":2798,"thern":2799,"Ġinsurance":2800,"Ġmb":2801,"Ġmist":2802,"Ġanim":2803,"Ġchoice":2804,"Ġpoor":2805,"Ġkinda":2806,"Ġmultiple":2807,"Ġanur":2808,"Ġge":2809,"Ġloan":2810,"Ġfellow":2811,"Ġrecord":2812,"Ġsave":2813,"aged":2814,"Ġemail":2815,"Ġ2019":2816,"Ġsorry":2817,"igration":2818,"Ġfee":2819,"Ġfol":2820,"Ġprime":2821,"Ġactual":2822,"Ġpresent":2823,"Ġinside":2824,"Ġoppos":2825,"vent":2826,"Ġspot":2827,"Ġblack":2828,"Ġcenter":2829,"Ġrunning":2830,"Ġwelcome":2831,"Ġmotor":2832,"Ġyoutube":2833,"Ġthreat":2834,"Ġhate":2835,"Ġud":2836,"Ġexpress":2837,"Ġperform":2838,"Ġrepair":2839,"Ġcommit":2840,"Ġbooking":2841,"Ġsafari":2842,"phone":2843,"bed":2844,"Ġcir":2845,"Ġtraff":2846,"Ġchrist":2847,"Ġplus":2848,"Ġrich":2849,"Ġnature":2850,"Ġrisk":2851,"Ġsle":2852,"reddit":2853,"Ġstri":2854,"Ġvote":2855,"jith":2856,"Ġnc":2857,"antly":2858,"Ġmessage":2859,"lt":2860,"night":2861,"set":2862,"Ġak":2863,"ceed":2864,"Ġrates":2865,"aught":2866,"Ġpartner":2867,"oda":2868,"Ġattempt":2869,"Ġrestaurant":2870,"Ġachie":2871,"Ġmr":2872,"Ġfan":2873,"Ġ29":2874,"Ġcustomer":2875,"Ġgaming":2876,"Ġpaper":2877,"vp":2878,"Ġways":2879,"Ġrac":2880,"ials":2881,"Ġground":2882,"Ġstress":2883,"Ġsimply":2884,"Ġanurad":2885,"ground":2886,"eric":2887,"Ġban":2888,"Ġdom":2889,"Ġworked":2890,"Ġdrivers":2891,"Ġengineer":2892,"Ġbatt":2893,"ises":2894,"Ġpolitics":2895,"Ġredu":2896,"Ġchann":2897,"Ġacad":2898,"Ġintro":2899,"Ġarch":2900,"Ġpersonally":2901,"Ġshows":2902,"Ġwatching":2903,"Ġleaving":2904,"Ġcand":2905,"Ġexcept":2906,"Ġvisited":2907,"Ġkey":2908,"ification":2909,"Ġsolution":2910,"Ġunfortun":2911,"Ġsund":2912,"Ġimmedi":2913,"Ġmeth":2914,"Ġjourney":2915,"Ġpotential":2916,"use":2917,"Ġtill":2918,"Ġbanks":2919,"Ġtraffic":2920,"Ġlak":2921,"Ġapparent":2922,"Ġlooked":2923,"Ġministry":2924,"Ġartic":2925,"Ġreligious":2926,"dge":2927,"uals":2928,"Ġmoving":2929,"Ġgrand":2930,"itely":2931,"Ġparts":2932,"Ġdrink":2933,"Ġdefin":2934,"Ġ300":2935,"Ġposition":2936,"Ġspace":2937,"Ġcurrency":2938,"awatuna":2939,"Ġmilitary":2940,"Ġanybody":2941,"augh":2942,"Ġcharges":2943,"Ġarrested":2944,"Ġfemale":2945,"Ġtur":2946,"Ġmigr":2947,"ening":2948,"umb":2949,"Ġcontent":2950,"Ġtaxi":2951,"Ġguide":2952,"Ġlegit":2953,"Ġcoun":2954,"Ġpreferably":2955,"hapura":2956,"Ġhid":2957,"Ġlect":2958,"Ġoffers":2959,"Ġsupposed":2960,"Ġsurpr":2961,"nar":2962,"Ġsense":2963,"Ġbillion":2964,"Ġpict":2965,"Ġcomb":2966,"resh":2967,"Ġworkers":2968,"Ġfinding":2969,"Ġwaiting":2970,"Ġoriginal":2971,"ball":2972,"Ġpu":2973,"Ġdh":2974,"Ġasia":2975,"Ġrelax":2976,"Ġcarry":2977,"Ġsubreddit":2978,"Ġwickre":2979,"cies":2980,"awal":2981,"Ġincrease":2982,"Ġwedding":2983,"kk":2984,"va":2985,"inghe":2986,"Ġrand":2987,"imum":2988,"Ġsold":2989,"Ġworst":2990,"Ġfeedback":2991,"lines":2992,"Ġbag":2993,"Ġfight":2994,"Ġheld":2995,"istic":2996,"elan":2997,"ored":2998,"Ġsports":2999,"ober":3000,"Ġstar":3001,"ume":3002,"Ġpurp":3003,"Ġcele":3004,"Ġsafety":3005,"Ġprofessional":3006,"ator":3007,"aves":3008,"Ġsrilankan":3009,"Ġbrok":3010,"gest":3011,"Ġ31":3012,"Ġscen":3013,"Ġchinese":3014,"Ġamazing":3015,"Ġcandid":3016,"mas":3017,"unt":3018,"atuwa":3019,"Ġred":3020,"Ġje":3021,"ablish":3022,"ograp":3023,"Ġprovid":3024,"Ġconsidered":3025,"Ġlevels":3026,"Ġoctober":3027,"Ġweb":3028,"Ġjud":3029,"Ġbecom":3030,"Ġbrit":3031,"oke":3032,"und":3033,"Ġah":3034,"Ġwild":3035,"Ġanywhere":3036,"Ġjvp":3037,"Ġunawatuna":3038,"yle":3039,"rees":3040,"Ġstra":3041,"Ġnotice":3042,"Ġ2023":3043,"Ġexplain":3044,"Ġholid":3045,"Ġmethod":3046,"aduwa":3047,"Ġconvers":3048,"Ġals":3049,"Ġameric":3050,"ively":3051,"Ġpoliticians":3052,"Ġtu":3053,"Ġmine":3054,"Ġsea":3055,"ender":3056,"Ġpayments":3057,"Ġestablish":3058,"Ġmovie":3059,"Ġrail":3060,"Ġterror":3061,"Ġrequired":3062,"Ġtradition":3063,"Ġanuradhapura":3064,"Ġess":3065,"Ġcs":3066,"Ġfake":3067,"acking":3068,"Ġram":3069,"Ġremote":3070,"Ġexactly":3071,"Ġbott":3072,"aly":3073,"Ġtrade":3074,"Ġlikely":3075,"Ġadult":3076,"Ġapps":3077,"Ġinternship":3078,"Ġaffordable":3079,"Ġapparently":3080,"Ġaut":3081,"Ġcam":3082,"Ġdress":3083,"room":3084,"Ġthemselves":3085,"Ġperf":3086,"Ġenter":3087,"Ġprojects":3088,"Ġanti":3089,"hel":3090,"pri":3091,"Ġconduct":3092,"cks":3093,"Ġscre":3094,"Ġperm":3095,"Ġpickme":3096,"Ġluck":3097,"Ġselected":3098,"Ġcorruption":3099,"Ġresources":3100,"Ġsunday":3101,"Ġtast":3102,"Ġnove":3103,"ization":3104,"ged":3105,"Ġvers":3106,"Ġmix":3107,"oun":3108,"Ġchill":3109,"Ġbackground":3110,"Ġskin":3111,"Ġnovember":3112,"Ġdru":3113,"Ġdead":3114,"Ġcanada":3115,"Ġexams":3116,"Ġadded":3117,"Ġmoratuwa":3118,"Ġswim":3119,"Ġvideos":3120,"Ġseriously":3121,"Ġsenior":3122,"Ġhor":3123,"Ġworried":3124,"Ġdisapp":3125,"Ġpassed":3126,"Ġbody":3127,"60":3128,"sure":3129,"Ġitself":3130,"Ġ35":3131,"Ġreceive":3132,"ae":3133,"of":3134,"Ġtakes":3135,"Ġay":3136,"Ġwind":3137,"Ġdish":3138,"Ġheart":3139,"Ġanymore":3140,"Ġvir":3141,"Ġenc":3142,"ival":3143,"Ġguid":3144,"Ġstuck":3145,"Ġseries":3146,"Ġcampus":3147,"Ġinflu":3148,"Ġrelationship":3149,"Ġign":3150,"Ġdebt":3151,"Ġword":3152,"using":3153,"Ġadmin":3154,"soci":3155,"Ġmax":3156,"Ġcrowd":3157,"Ġreasons":3158,"coming":3159,"Ġmahinda":3160,"Ġhom":3161,"Ġforce":3162,"Ġvar":3163,"Ġsaving":3164,"Ġmarried":3165,"Ġbooked":3166,"ocr":3167,"Ġgreen":3168,"Ġelectricity":3169,"rant":3170,"olar":3171,"Ġdegrees":3172,"Ġrouter":3173,"Ġchanged":3174,"Ġfour":3175,"ators":3176,"Ġking":3177,"conut":3178,"Ġpossib":3179,"Ġhandle":3180,"ructure":3181,"Ġltte":3182,"Ġfully":3183,"Ġunfortunately":3184,"Ġtar":3185,"Ġthird":3186,"Ġgenuinely":3187,"Ġfolks":3188,"Ġpc":3189,"Ġjav":3190,"Ġgold":3191,"Ġcoconut":3192,"Ġevening":3193,"Ġsleep":3194,"nic":3195,"ena":3196,"Ġselling":3197,"Ġsud":3198,"alls":3199,"ships":3200,"Ġdifference":3201,"Ġfailed":3202,"ees":3203,"ani":3204,"ences":3205,"Ġrev":3206,"Ġassoci":3207,"Ġoverse":3208,"Ġconfused":3209,"Ġapproach":3210,"ighb":3211,"Ġbritish":3212,"dr":3213,"Ġsong":3214,"oud":3215,"Ġcondition":3216,"sapp":3217,"Ġspending":3218,"Ġnetwork":3219,"Ġhikk":3220,"Ġincident":3221,"Ġsched":3222,"Ġordered":3223,"Ġcompleted":3224,"Ġdocuments":3225,"Ġrandom":3226,"ends":3227,"Ġreply":3228,"Ġinvolved":3229,"Ġapplication":3230,"Ġabsolutely":3231,"ison":3232,"Ġcalls":3233,"Ġfinance":3234,"Ġlaws":3235,"Ġpromot":3236,"Ġspecifically":3237,"Ġopportunity":3238,"Ġlg":3239,"Ġwear":3240,"urs":3241,"Ġtele":3242,"Ġkept":3243,"Ġinteresting":3244,"Ġcards":3245,"Ġled":3246,"Ġneighb":3247,"tery":3248,"erence":3249,"action":3250,"Ġfoundation":3251,"Ġreviews":3252,"Ġmag":3253,"Ġmale":3254,"Ġtruly":3255,"Ġcontrib":3256,"Ġwebsites":3257,"Ġvalid":3258,"Ġlad":3259,"sec":3260,"Ġkill":3261,"Ġfrust":3262,"Ġcoll":3263,"Ġrepres":3264,"Ġleaders":3265,"Ġphysics":3266,"Ġlower":3267,"Ġwhatsapp":3268,"Ġ45":3269,"Ġreserv":3270,"Ġbrows":3271,"Ġsco":3272,"Ġ2021":3273,"Ġsimple":3274,"Ġlaunch":3275,"Ġwi":3276,"Ġsepar":3277,"Ġchat":3278,"Ġcommission":3279,"Ġsolo":3280,"Ġlimited":3281,"Ġfigure":3282,"pal":3283,"Ġik":3284,"Ġnm":3285,"Ġhighly":3286,"Ġrestrict":3287,"Ġreasonable":3288,"Ġpackages":3289,"Ġprotests":3290,"Ġcapital":3291,"Ġdocument":3292,"Ġhikkaduwa":3293,"itions":3294,"Ġsuit":3295,"Ġ2020":3296,"Ġmaint":3297,"Ġfaced":3298,"Ġclearly":3299,"Ġwalk":3300,"Ġchalleng":3301,"ca":3302,"Ġhous":3303,"Ġlat":3304,"Ġmoved":3305,"lier":3306,"Ġspeaking":3307,"Ġemb":3308,"Ġ90":3309,"Ġlonger":3310,"ergy":3311,"Ġproperty":3312,"Ġaud":3313,"Ġthread":3314,"Ġtrack":3315,"Ġarr":3316,"awa":3317,"Ġ01":3318,"Ġ07":3319,"Ġlux":3320,"Ġsexual":3321,"Ġilleg":3322,"Ġcli":3323,"Ġnf":3324,"Ġalleg":3325,"Ġcalling":3326,"Ġbuilt":3327,"Ġwriting":3328,"Ġnearby":3329,"Ġlawy":3330,"Ġdefinitely":3331,"Ġhidden":3332,"Ġstraight":3333,"cer":3334,"Ġbt":3335,"Ġpage":3336,"Ġimag":3337,"Ġarg":3338,"Ġstopped":3339,"Ġmodel":3340,"Ġextremely":3341,"Ġoverseas":3342,"Ġir":3343,"Ġfish":3344,"Ġwouldn":3345,"Ġreput":3346,"Ġvarious":3347,"agama":3348,"Ġteachers":3349,"Ġindividuals":3350,"rimin":3351,"Ġanyway":3352,"Ġnumbers":3353,"Ġarrive":3354,"Ġbehav":3355,"Ġstruggling":3356,"Ġborn":3357,"Ġfresh":3358,"ases":3359,"idents":3360,"Ġbecame":3361,"ditions":3362,"Ġpercent":3363,"Ġeffort":3364,"Ġdinner":3365,"Ġdiploma":3366,"ouch":3367,"Ġrank":3368,"Ġspent":3369,"Ġofficers":3370,"Ġviews":3371,"Ġcommercial":3372,"Ġhang":3373,"Ġprogress":3374,"Ġscholar":3375,"Ġregular":3376,"Ġinstitute":3377,"Ġprovince":3378,"Ġcelebr":3379,"ians":3380,"ners":3381,"anayake":3382,"Ġmap":3383,"Ġapplied":3384,"Ġoffered":3385,"Ġscore":3386,"Ġ70":3387,"lfriend":3388,"Ġstreet":3389,"Ġreligion":3390,"Ġethnic":3391,"hood":3392,"Ġreven":3393,"Ġvol":3394,"Ġunited":3395,"Ġmarri":3396,"Ġtrains":3397,"Ġended":3398,"Ġreported":3399,"Ġobviously":3400,"hs":3401,"Ġshipping":3402,"arely":3403,"apore":3404,"Ġque":3405,"Ġsudden":3406,"80":3407,"Ġgun":3408,"aced":3409,"Ġconsum":3410,"Ġassist":3411,"Ġgirlfriend":3412,"Ġresponse":3413,"Ġsubjects":3414,"itiya":3415,"Ġconditions":3416,"Ġmodern":3417,"Ġmovies":3418,"mesinghe":3419,"help":3420,"Ġgym":3421,"Ġweird":3422,"Ġkal":3423,"ommod":3424,"Ġattract":3425,"Ġsupported":3426,"Ġmissing":3427,"Ġnecessary":3428,"nal":3429,"Ġtable":3430,"ature":3431,"Ġflag":3432,"Ġstores":3433,"bing":3434,"yal":3435,"Ġhus":3436,"Ġgotab":3437,"time":3438,"Ġbed":3439,"Ġbent":3440,"asa":3441,"Ġprin":3442,"Ġletter":3443,"Ġwrite":3444,"Ġexpert":3445,"Ġaccommod":3446,"Ġundergr":3447,"Ġoverall":3448,"Ġminor":3449,"Ġeasily":3450,"Ġexpected":3451,"Ġwickremesinghe":3452,"Ġlgbt":3453,"Ġtang":3454,"ini":3455,"Ġnb":3456,"Ġtrou":3457,"Ġsum":3458,"Ġcode":3459,"Ġcourses":3460,"Ġsingapore":3461,"vant":3462,"Ġcant":3463,"Ġsuspect":3464,"Ġakd":3465,"Ġbase":3466,"atory":3467,"Ġobs":3468,"Ġger":3469,"Ġwhate":3470,"Ġpros":3471,"Ġloss":3472,"Ġ150":3473,"Ġcrazy":3474,"ike":3475,"uri":3476,"Ġnw":3477,"Ġchick":3478,"Ġplanned":3479,"Ġphones":3480,"Ġhappens":3481,"head":3482,"namon":3483,"Ġfebru":3484,"Ġtraditional":3485,"Ġae":3486,"Ġsister":3487,"Ġnu":3488,"Ġgod":3489,"Ġdiss":3490,"Ġrole":3491,"Ġposted":3492,"Ġinvesting":3493,"Ġwhatever":3494,"vere":3495,"Ġjun":3496,"Ġprodu":3497,"Ġtransl":3498,"Ġimpact":3499,"Ġpresidential":3500,"Ġmarketing":3501,"Ġmaster":3502,"Ġtarget":3503,"ns":3504,"Ġdm":3505,"Ġstup":3506,"Ġeverywhere":3507,"izing":3508,"Ġbusinesses":3509,"Ġdiscrimin":3510,"Ġtopic":3511,"Ġarrival":3512,"Ġpolicies":3513,"Ġvacc":3514,"Ġcirc":3515,"Ġfebruary":3516,"ta":3517,"Ġny":3518,"rought":3519,"Ġemerg":3520,"Ġfamil":3521,"Ġearlier":3522,"Ġofficer":3523,"Ġhistor":3524,"Ġpractice":3525,"Ġplatforms":3526,"Ġcry":3527,"Ġwaste":3528,"Ġclos":3529,"achel":3530,"Ġwarrant":3531,"Ġproperly":3532,"Ġelephant":3533,"Ġhusband":3534,"Ġsan":3535,"Ġng":3536,"Ġol":3537,"Ġkum":3538,"Ġcommunic":3539,"Ġairlines":3540,"Ġprovided":3541,"Ġidk":3542,"Ġarrived":3543,"Ġvotes":3544,"Ġcapt":3545,"Ġfest":3546,"Ġded":3547,"Ġbey":3548,"pper":3549,"ditional":3550,"Ġcurry":3551,"Ġmasters":3552,"Ġrules":3553,"Ġperfect":3554,"mon":3555,"Ġiit":3556,"Ġsharing":3557,"Ġsup":3558,"Ġjustice":3559,"Ġrecommended":3560,"Ġready":3561,"Ġcomfortable":3562,"pic":3563,"Ġnic":3564,"Ġrat":3565,"Ġrough":3566,"Ġcorpor":3567,"Ġstatement":3568,"Ġleader":3569,"Ġfacing":3570,"Ġstandard":3571,"Ġauthorities":3572,"tle":3573,"Ġbrought":3574,"Ġforeigners":3575,"Ġmeeting":3576,"Ġcinnamon":3577,"Ġfamilies":3578,"Ġmer":3579,"Ġden":3580,"isions":3581,"Ġgar":3582,"Ġaddition":3583,"Ġimage":3584,"Ġstrateg":3585,"Ġreplace":3586,"hy":3587,"Ġbachel":3588,"Ġobt":3589,"Ġstates":3590,"Ġsubm":3591,"Ġhands":3592,"ruction":3593,"anch":3594,"Ġapple":3595,"Ġblood":3596,"itten":3597,"Ġdepress":3598,"Ġmilk":3599,"Ġpopulation":3600,"Ġbalance":3601,"Ġalternative":3602,"Ġbentota":3603,"ef":3604,"lus":3605,"uses":3606,"Ġgrade":3607,"Ġdecl":3608,"Ġdecide":3609,"Ġunderstanding":3610,"Ġtrend":3611,"Ġanswers":3612,"Ġphoto":3613,"Ġnames":3614,"Ġbeyond":3615,"erve":3616,"Ġmurd":3617,"Ġnar":3618,"Ġinstall":3619,"Ġrespond":3620,"Ġsources":3621,"hold":3622,"Ġvictim":3623,"eal":3624,"Ġbang":3625,"ols":3626,"Ġship":3627,"Ġadam":3628,"Ġlog":3629,"Ġunique":3630,"place":3631,"Ġexpenses":3632,"Ġfrustr":3633,"Ġchicken":3634,"rast":3635,"uck":3636,"Ġiphone":3637,"vey":3638,"Ġko":3639,"Ġkott":3640,"Ġwords":3641,"Ġappear":3642,"Ġ199":3643,"Ġplaying":3644,"Ġimmigration":3645,"Ġrepresent":3646,"da":3647,"wala":3648,"ero":3649,"Ġfire":3650,"Ġadvert":3651,"Ġusual":3652,"Ġtext":3653,"Ġprint":3654,"Ġearning":3655,"Ġmatara":3656,"Ġseat":3657,"life":3658,"Ġpoints":3659,"Ġemployees":3660,"Ġoil":3661,"Ġgives":3662,"Ġrepe":3663,"acher":3664,"though":3665,"Ġsubs":3666,"Ġtraining":3667,"Ġgeneration":3668,"Ġmanager":3669,"Ġtreatment":3670,"Ġfixed":3671,"Ġbom":3672,"Ġhur":3673,"Ġ1000":3674,"Ġdehi":3675,"Ġmember":3676,"Ġalthough":3677,"Ġimf":3678,"Ġspread":3679,"Ġ08":3680,"Ġremo":3681,"Ġcheaper":3682,"Ġcases":3683,"Ġdollars":3684,"Ġintrodu":3685,"Ġguidance":3686,"Ġwarranty":3687,"Ġmad":3688,"Ġfle":3689,"Ġknew":3690,"Ġkilled":3691,"Ġdog":3692,"Ġlif":3693,"Ġentry":3694,"care":3695,"Ġswe":3696,"Ġsajith":3697,"Ġstartup":3698,"Ġcuz":3699,"Ġsignificant":3700,"Ġillegal":3701,"Ġstupid":3702,"Ġcatch":3703,"Ġcup":3704,"Ġmach":3705,"Ġbroad":3706,"Ġom":3707,"let":3708,"Ġadditional":3709,"Ġupon":3710,"Ġheading":3711,"Ġcaf":3712,"Ġphotos":3713,"Ġconcerns":3714,"Ġindividual":3715,"cl":3716,"Ġhind":3717,"Ġbrands":3718,"Ġgrowth":3719,"Ġimmediately":3720,"Ġill":3721,"Ġson":3722,"Ġcse":3723,"Ġfive":3724,"Ġpie":3725,"Ġaccounts":3726,"Ġcustomers":3727,"fs":3728,"Ġ36":3729,"Ġimple":3730,"Ġregul":3731,"Ġrule":3732,"Ġfacult":3733,"Ġcuts":3734,"Ġlimit":3735,"Ġjournal":3736,"Ġeye":3737,"Ġfavor":3738,"Ġbtw":3739,"Ġtangalle":3740,"fact":3741,"Ġlunch":3742,"Ġyall":3743,"Ġpls":3744,"Ġhiri":3745,"Ġcyber":3746,"Ġcloth":3747,"Ġconsult":3748,"Ġsmart":3749,"Ġbanking":3750,"Ġowner":3751,"Ġolder":3752,"Ġapproved":3753,"Ġbattery":3754,"Ġluxury":3755,"Ġgotabaya":3756,"Ġss":3757,"Ġconflic":3758,"aign":3759,"Ġtree":3760,"rif":3761,"Ġexec":3762,"Ġenergy":3763,"Ġteacher":3764,"Ġideally":3765,"Ġ2015":3766,"Ġdemocr":3767,"going":3768,"Ġten":3769,"Ġbsc":3770,"aster":3771,"ascript":3772,"Ġheavy":3773,"Ġshir":3774,"Ġconv":3775,"Ġtelling":3776,"Ġattend":3777,"Ġmateri":3778,"Ġopposition":3779,"Ġudawal":3780,"Ġachieve":3781,"rec":3782,"Ġpen":3783,"Ġpush":3784,"Ġnone":3785,"Ġ03":3786,"Ġshowing":3787,"Ġestate":3788,"Ġviolence":3789,"Ġconfirm":3790,"Ġchristmas":3791,"Ġjavascript":3792,"hips":3793,"iet":3794,"press":3795,"Ġdark":3796,"Ġfear":3797,"Ġ32":3798,"aging":3799,"Ġturned":3800,"Ġboys":3801,"Ġstatus":3802,"Ġchemistry":3803,"Ġarticle":3804,"ny":3805,"Ġtruth":3806,"Ġsystems":3807,"Ġfunds":3808,"Ġmuslims":3809,"Ġwide":3810,"rible":3811,"Ġkur":3812,"Ġperspect":3813,"Ġattention":3814,"Ġowners":3815,"airs":3816,"Ġimports":3817,"Ġinformed":3818,"Ġapplying":3819,"Ġconstit":3820,"Ġinflation":3821,"Ġimplement":3822,"cil":3823,"Ġtouch":3824,"Ġwise":3825,"itel":3826,"see":3827,"Ġasian":3828,"Ġmech":3829,"Ġloans":3830,"Ġaccident":3831,"Ġcrimin":3832,"Ġresponsib":3833,"Ġmarriage":3834,"inary":3835,"Ġpal":3836,"Ġrap":3837,"Ġsection":3838,"Ġslpp":3839,"Ġraised":3840,"Ġimported":3841,"Ġinclude":3842,"Ġdeliver":3843,"Ġholiday":3844,"Ġnan":3845,"agging":3846,"Ġshouldn":3847,"ological":3848,"Ġcampaign":3849,"Ġhut":3850,"Ġeating":3851,"ando":3852,"Ġamb":3853,"Ġclosed":3854,"Ġcounter":3855,"Ġresort":3856,"Ġstudied":3857,"Ġsouthern":3858,"Ġleading":3859,"Ġconcerned":3860,"Ġrupee":3861,"Ġmanaged":3862,"Ġparticip":3863,"Ġbecoming":3864,"Ġadminist":3865,"Ġsqu":3866,"Ġni":3867,"Ġloved":3868,"ague":3869,"Ġfacilities":3870,"Ġfreed":3871,"Ġattacks":3872,"has":3873,"lk":3874,"ring":3875,"Ġhamb":3876,"arana":3877,"Ġliber":3878,"anda":3879,"ously":3880,"Ġ198":3881,"Ġnearly":3882,"Ġtukt":3883,"Ġincreased":3884,"Ġmobitel":3885,"Ġmassive":3886,"ened":3887,"Ġlately":3888,"Ġnthe":3889,"entic":3890,"Ġlived":3891,"Ġ2000":3892,"antota":3893,"igence":3894,"Ġmanu":3895,"Ġovernight":3896,"anger":3897,"Ġbox":3898,"icient":3899,"Ġmalays":3900,"Ġchanges":3901,"Ġdiscussion":3902,"Ġdehiwala":3903,"Ġflo":3904,"Ġdating":3905,"Ġmonit":3906,"Ġofficials":3907,"Ġgrowing":3908,"trave":3909,"Ġparticularly":3910,"Ġlecture":3911,"Ġrevenue":3912,"Ġcross":3913,"Ġut":3914,"aka":3915,"Ġzero":3916,"Ġrecei":3917,"Ġcabin":3918,"Ġmanufact":3919,"Ġsize":3920,"arm":3921,"Ġreve":3922,"Ġrant":3923,"Ġintell":3924,"Ġseeking":3925,"Ġfinish":3926,"Ġevidence":3927,"Ġnegative":3928,"Ġteaching":3929,"Ġpressure":3930,"70":3931,"arant":3932,"Ġgas":3933,"Ġyouth":3934,"Ġdeb":3935,"Ġplayers":3936,"Ġprograms":3937,"Ġsatur":3938,"Ġoe":3939,"Ġmeas":3940,"Ġpositive":3941,"Ġassign":3942,"Ġhearing":3943,"Ġroads":3944,"Ġbroke":3945,"antha":3946,"just":3947,"xic":3948,"Ġlose":3949,"astic":3950,"Ġclar":3951,"Ġyounger":3952,"Ġiniti":3953,"Ġreleased":3954,"Ġinvestigation":3955,"Ġpursue":3956,"Ġpurpose":3957,"Ġhiriket":3958,"Ġclothes":3959,"got":3960,"Ġsix":3961,"Ġfern":3962,"rol":3963,"iring":3964,"Ġgoal":3965,"Ġregion":3966,"Ġpassion":3967,"Ġauthentic":3968,"ients":3969,"Ġsj":3970,"onnar":3971,"Ġcities":3972,"Ġfa":3973,"urch":3974,"Ġshy":3975,"Ġyourself":3976,"Ġ33":3977,"Ġ42":3978,"angama":3979,"Ġminimum":3980,"Ġelectron":3981,"Ġeventually":3982,"Ġrelevant":3983,"Ġtas":3984,"Ġcoo":3985,"Ġgard":3986,"Ġforced":3987,"Ġstick":3988,"imb":3989,"Ġunless":3990,"agram":3991,"Ġadvise":3992,"Ġissued":3993,"Ġsolutions":3994,"Ġpractical":3995,"Ġbenefits":3996,"itter":3997,"Ġgift":3998,"Ġstyle":3999,"Ġrelative":4000,"Ġemot":4001,"Ġlinked":4002,"Ġelephants":4003,"Ġindependence":4004,"ience":4005,"eniya":4006,"ali":4007,"Ġgoods":4008,"Ġhelped":4009,"Ġactive":4010,"Ġshared":4011,"Ġeasier":4012,"Ġvibe":4013,"Ġrental":4014,"han":4015,"nb":4016,"Ġcat":4017,"Ġpand":4018,"Ġpun":4019,"arian":4020,"eth":4021,"Ġrav":4022,"Ġproced":4023,"Ġupcoming":4024,"Ġdepos":4025,"Ġsurfing":4026,"Ġacademic":4027,"Ġversion":4028,"Ġlatest":4029,"10":4030,"dom":4031,"gala":4032,"orters":4033,"Ġnav":4034,"Ġtra":4035,"ands":4036,"Ġsolid":4037,"Ġbio":4038,"Ġreports":4039,"Ġflying":4040,"Ġtuition":4041,"Ġkottu":4042,"Ġfreedom":4043,"Ġhambantota":4044,"ler":4045,"wire":4046,"atne":4047,"Ġanx":4048,"acks":4049,"Ġscene":4050,"Ġlocations":4051,"Ġreality":4052,"Ġfollowed":4053,"Ġharass":4054,"Ġcharged":4055,"Ġinstitutions":4056,"Ġwifi":4057,"onnaruwa":4058,"ule":4059,"Ġice":4060,"Ġanura":4061,"olution":4062,"Ġkn":4063,"Ġmem":4064,"Ġcolon":4065,"Ġcreating":4066,"Ġposting":4067,"Ġsurvey":4068,"Ġwritten":4069,"Ġshowed":4070,"Ġ2018":4071,"Ġidentity":4072,"Ġdouble":4073,"nces":4074,"Ġmac":4075,"Ġlay":4076,"Ġreject":4077,"Ġrenew":4078,"Ġforces":4079,"othing":4080,"Ġwealth":4081,"Ġsem":4082,"board":4083,"Ġpoll":4084,"Ġcream":4085,"Ġmedium":4086,"Ġseemed":4087,"Ġsalaries":4088,"Ġmeaning":4089,"aduate":4090,"Ġtransportation":4091,"Ġprofession":4092,"cription":4093,"Ġtrouble":4094,"recommend":4095,"Ġsjb":4096,"oying":4097,"Ġfill":4098,"isation":4099,"Ġusa":4100,"Ġcoff":4101,"play":4102,"Ġredditors":4103,"Ġweekend":4104,"Ġphotograp":4105,"Ġexcited":4106,"Ġsecretary":4107,"Ġudawalawe":4108,"Ġhiriketiya":4109,"mat":4110,"wise":4111,"Ġaim":4112,"Ġahead":4113,"Ġgd":4114,"ession":4115,"Ġoffering":4116,"Ġdisp":4117,"Ġkeeping":4118,"Ġhopefully":4119,"Ġgovt":4120,"Ġcouncil":4121,"Ġrailway":4122,"cal":4123,"ires":4124,"anced":4125,"Ġbab":4126,"Ġbarely":4127,"Ġpak":4128,"Ġdub":4129,"Ġinput":4130,"Ġnur":4131,"Ġkar":4132,"Ġtherefore":4133,"actions":4134,"Ġbrain":4135,"Ġfriday":4136,"ifications":4137,"Ġcitizen":4138,"Ġsearching":4139,"aughter":4140,"Ġlawyer":4141,"ech":4142,"mary":4143,"Ġbul":4144,"rid":4145,"rop":4146,"Ġrom":4147,"Ġafric":4148,"Ġresign":4149,"Ġprevent":4150,"Ġrob":4151,"Ġinstagram":4152,"Ġpicture":4153,"Ġoh":4154,"Ġult":4155,"Ġchurch":4156,"Ġproceed":4157,"Ġfinished":4158,"Ġsurv":4159,"aha":4160,"Ġeaster":4161,"Ġsetting":4162,"Ġrefund":4163,"ika":4164,"Ġnatural":4165,"Ġstruggle":4166,"Ġconversation":4167,"Ġimagine":4168,"mer":4169,"rep":4170,"Ġbb":4171,"itals":4172,"Ġgain":4173,"Ġweight":4174,"Ġlibr":4175,"istan":4176,"Ġusers":4177,"Ġagent":4178,"Ġ400":4179,"ondon":4180,"Ġ02":4181,"Ġsecure":4182,"Ġsales":4183,"Ġnewswire":4184,"Ġruns":4185,"Ġdistance":4186,"Ġshoes":4187,"Ġfilm":4188,"Ġclubs":4189,"Ġregistered":4190,"Ġbroken":4191,"Ġsavings":4192,"Ġfernando":4193,"oon":4194,"Ġsens":4195,"Ġapprox":4196,"Ġfrequ":4197,"Ġsounds":4198,"Ġyeah":4199,"aa":4200,"goda":4201,"Ġsale":4202,"Ġanaly":4203,"Ġbyd":4204,"Ġclothing":4205,"Ġpolonnaruwa":4206,"Ġtrips":4207,"Ġahangama":4208,"Ġmalaysia":4209,"wa":4210,"Ġsir":4211,"Ġec":4212,"Ġvari":4213,"Ġsuic":4214,"ours":4215,"Ġchair":4216,"Ġcontract":4217,"Ġcreated":4218,"Ġhighest":4219,"Ġ06":4220,"Ġ09":4221,"Ġblue":4222,"Ġbuff":4223,"Ġelections":4224,"Ġspeeds":4225,"Ġswimming":4226,"Ġexecut":4227,"uct":4228,"Ġlondon":4229,"oti":4230,"acity":4231,"adeniya":4232,"ela":4233,"Ġpref":4234,"Ġactions":4235,"Ġgrate":4236,"Ġtwice":4237,"Ġchoosing":4238,"Ġcopy":4239,"Ġadults":4240,"Ġsight":4241,"Ġmic":4242,"Ġep":4243,"Ġabuse":4244,"Ġunit":4245,"Ġhire":4246,"Ġquiet":4247,"Ġgrap":4248,"Ġappointment":4249,"Ġfootball":4250,"Ġperformance":4251,"Ġchannel":4252,"Ġautom":4253,"Ġcook":4254,"Ġpure":4255,"Ġgamp":4256,"Ġwhe":4257,"etic":4258,"Ġstable":4259,"ading":4260,"Ġshot":4261,"Ġwhats":4262,"Ġwhenever":4263,"Ġspok":4264,"Ġ05":4265,"Ġfamous":4266,"Ġdeveloped":4267,"Ġduty":4268,"Ġanimals":4269,"Ġchallenges":4270,"Ġsuddenly":4271,"Ġsaturday":4272,"ape":4273,"Ġict":4274,"Ġthous":4275,"inations":4276,"Ġcru":4277,"Ġwithdr":4278,"Ġunable":4279,"like":4280,"Ġcentre":4281,"Ġreached":4282,"Ġinitially":4283,"Ġamerican":4284,"Ġmechan":4285,"30":4286,"Ġrefer":4287,"ads":4288,"Ġtreated":4289,"Ġfiber":4290,"Ġfaculty":4291,"Ġhr":4292,"Ġnh":4293,"Ġmeal":4294,"Ġsmo":4295,"Ġforest":4296,"Ġtypes":4297,"Ġapartment":4298,"Ġcommitte":4299,"Ġbunch":4300,"imal":4301,"ops":4302,"Ġatm":4303,"Ġfeat":4304,"Ġ55":4305,"Ġfuck":4306,"Ġbirthday":4307,"af":4308,"oa":4309,"Ġbow":4310,"Ġstage":4311,"ula":4312,"Ġhike":4313,"ension":4314,"Ġinfrast":4315,"Ġplayed":4316,"ariff":4317,"Ġfreelan":4318,"Ġbridge":4319,"Ġrequirements":4320,"Ġwij":4321,"Ġintelligence":4322,"cast":4323,"Ġsomehow":4324,"Ġhelping":4325,"Ġlocally":4326,"Ġvalu":4327,"Ġprofit":4328,"asinghe":4329,"Ġpett":4330,"Ġdollar":4331,"Ġcritic":4332,"Ġpossibly":4333,"Ġcabinet":4334,"lam":4335,"sl":4336,"Ġtaught":4337,"inated":4338,"Ġideal":4339,"Ġimpress":4340,"Ġbiggest":4341,"Ġ250":4342,"Ġlisten":4343,"Ġaccommodation":4344,"fast":4345,"Ġtariff":4346,"Ġpere":4347,"Ġoce":4348,"Ġitem":4349,"adv":4350,"Ġmodels":4351,"Ġincreasing":4352,"Ġsteps":4353,"Ġquickly":4354,"Ġcandidate":4355,"ja":4356,"oe":4357,"Ġdanger":4358,"Ġforget":4359,"Ġthats":4360,"Ġdogs":4361,"Ġrad":4362,"Ġven":4363,"Ġensure":4364,"ologies":4365,"Ġhospitals":4366,"Ġnetwor":4367,"Ġgraduate":4368,"Ġdestro":4369,"Ġgrateful":4370,"down":4371,"hd":4372,"Ġive":4373,"aragama":4374,"rier":4375,"Ġreci":4376,"Ġrise":4377,"Ġregister":4378,"Ġclaims":4379,"Ġsnor":4380,"Ġcomplaint":4381,"Ġindependent":4382,"force":4383,"Ġtaste":4384,"Ġinfrastructure":4385,"gar":4386,"km":4387,"Ġpil":4388,"Ġang":4389,"this":4390,"Ġcance":4391,"Ġhiking":4392,"Ġdied":4393,"Ġspecially":4394,"Ġscared":4395,"Ġdecisions":4396,"Ġsurger":4397,"Ġapproval":4398,"Ġbringing":4399,"Ġoccas":4400,"hol":4401,"sung":4402,"Ġmand":4403,"Ġnv":4404,"Ġgender":4405,"ller":4406,"Ġseats":4407,"Ġenro":4408,"which":4409,"Ġperadeniya":4410,"Ġsitting":4411,"Ġpasseng":4412,"ricult":4413,"Ġpurchased":4414,"Ġwalking":4415,"Ġurg":4416,"Ġperspective":4417,"xpress":4418,"ze":4419,"Ġbars":4420,"Ġdaughter":4421,"aram":4422,"Ġegg":4423,"sequ":4424,"thy":4425,"Ġmeant":4426,"abled":4427,"Ġmonday":4428,"Ġ75":4429,"Ġattach":4430,"Ġlots":4431,"ternal":4432,"Ġbeginning":4433,"Ġregistration":4434,"Ġemergency":4435,"Ġbachelor":4436,"Ġsamp":4437,"Ġslight":4438,"reg":4439,"Ġtow":4440,"Ġot":4441,"Ġgems":4442,"estic":4443,"Ġadop":4444,"Ġnov":4445,"Ġspoke":4446,"Ġ99":4447,"Ġblame":4448,"Ġbuddhism":4449,"Ġplantation":4450,"Ġlakhs":4451,"Ġhouses":4452,"ham":4453,"here":4454,"Ġsac":4455,"Ġnn":4456,"aled":4457,"Ġreform":4458,"Ġround":4459,"Ġsevere":4460,"Ġknowing":4461,"Ġagricult":4462,"ailand":4463,"others":4464,"Ġremove":4465,"Ġeta":4466,"Ġgenerally":4467,"Ġsuffering":4468,"Ġbehavior":4469,"Ġcriminal":4470,"Ġsnorke":4471,"12":4472,"col":4473,"Ġcous":4474,"Ġpic":4475,"Ġtoxic":4476,"Ġinqu":4477,"verse":4478,"Ġrus":4479,"Ġvan":4480,"ivity":4481,"atha":4482,"Ġbusy":4483,"raid":4484,"pects":4485,"Ġbasis":4486,"Ġconnections":4487,"Ġsurround":4488,"Ġtemples":4489,"Ġcaused":4490,"Ġannoun":4491,"Ġrooms":4492,"Ġdelive":4493,"Ġsuccessful":4494,"Ġikman":4495,"Ġfib":4496,"encies":4497,"Ġlav":4498,"Ġnin":4499,"adasa":4500,"Ġconven":4501,"oss":4502,"Ġ48":4503,"while":4504,"Ġrelatives":4505,"Ġhighlight":4506,"Ġfucking":4507,"Ġconsist":4508,"Ġopened":4509,"Ġassum":4510,"adesh":4511,"Ġreduce":4512,"Ġdrug":4513,"Ġseparate":4514,"Ġtuktuk":4515,"Ġwt":4516,"orter":4517,"Ġple":4518,"Ġppl":4519,"Ġupgr":4520,"iexpress":4521,"Ġgotten":4522,"Ġbackp":4523,"ertain":4524,"Ġsuggested":4525,"Ġexploring":4526,"Ġputting":4527,"Ġresponsible":4528,"nov":4529,"Ġvacation":4530,"Ġfavour":4531,"Ġbenefit":4532,"Ġschedule":4533,"Ġcoffee":4534,"Ġpettah":4535,"cers":4536,"cul":4537,"rance":4538,"rem":4539,"Ġder":4540,"Ġragging":4541,"Ġshown":4542,"Ġcolor":4543,"Ġpool":4544,"Ġafraid":4545,"Ġperman":4546,"Ġchecking":4547,"Ġlearned":4548,"Ġfocused":4549,"Ġequal":4550,"Ġdestination":4551,"Ġsuitable":4552,"Ġembass":4553,"Ġtend":4554,"Ġbills":4555,"itude":4556,"Ġcho":4557,"istics":4558,"Ġunion":4559,"Ġveget":4560,"award":4561,"Ġowned":4562,"Ġimpos":4563,"ocol":4564,"Ġstandards":4565,"Ġbelong":4566,"Ġbrowser":4567,"Ġalleged":4568,"Ġperera":4569,"dict":4570,"Ġton":4571,"Ġsick":4572,"Ġthailand":4573,"Ġwit":4574,"Ġcaught":4575,"Ġloud":4576,"Ġoo":4577,"Ġgp":4578,"Ġislam":4579,"Ġstrict":4580,"Ġkat":4581,"eless":4582,"Ġ39":4583,"Ġbranch":4584,"Ġuseful":4585,"Ġhimself":4586,"Ġengineers":4587,"Ġorders":4588,"Ġconstruction":4589,"unegala":4590,"Ġbreakfast":4591,"Ġsilva":4592,"Ġchannels":4593,"Ġcamera":4594,"Ġmaintain":4595,"Ġdelivered":4596,"bm":4597,"Ġinj":4598,"Ġdebit":4599,"Ġmos":4600,"Ġproof":4601,"Ġusage":4602,"Ġadvent":4603,"Ġgota":4604,"Ġmarks":4605,"Ġdetail":4606,"Ġleads":4607,"Ġaccepted":4608,"Ġrelationships":4609,"Ġsamsung":4610,"csl":4611,"Ġscholarship":4612,"Ġalot":4613,"Ġhelps":4614,"ief":4615,"Ġfoods":4616,"Ġestim":4617,"Ġshoot":4618,"Ġauthority":4619,"Ġmixed":4620,"Ġlady":4621,"Ġfavorite":4622,"Ġresponsibility":4623,"Ġtin":4624,"Ġtough":4625,"Ġdil":4626,"Ġnl":4627,"Ġgb":4628,"Ġongoing":4629,"Ġexternal":4630,"Ġwarning":4631,"Ġshopping":4632,"haps":4633,"Ġcompetitive":4634,"Ġstrike":4635,"Ġscoot":4636,"Ġlibrary":4637,"15":4638,"ban":4639,"bes":4640,"pet":4641,"Ġic":4642,"Ġtherap":4643,"Ġbatch":4644,"Ġdude":4645,"Ġnut":4646,"owers":4647,"Ġkm":4648,"Ġuser":4649,"Ġperhaps":4650,"Ġdirection":4651,"Ġlisted":4652,"Ġmigrate":4653,"Ġpandemic":4654,"Ġcooking":4655,"Ġbes":4656,"arily":4657,"least":4658,"Ġrural":4659,"Ġindic":4660,"Ġconserv":4661,"Ġbull":4662,"Ġcapacity":4663,"Ġupdates":4664,"Ġeyes":4665,"Ġvillage":4666,"Ġpursuing":4667,"Ġrestrictions":4668,"Ġsuicide":4669,"Ġocean":4670,"uted":4671,"ila":4672,"Ġvoice":4673,"Ġatleast":4674,"Ġrecommendation":4675,"raft":4676,"Ġthroughout":4677,"sha":4678,"Ġremain":4679,"Ġfields":4680,"Ġcitizenship":4681,"Ġcrowded":4682,"lkr":4683,"Ġbaby":4684,"Ġexecutive":4685,"Ġsampath":4686,"har":4687,"itation":4688,"Ġeats":4689,"Ġrelease":4690,"urved":4691,"Ġeveryday":4692,"Ġafterno":4693,"Ġroyal":4694,"Ġsupporting":4695,"Ġdiscount":4696,"Ġcomplex":4697,"Ġstreng":4698,"Ġgraduates":4699,"Ġeffective":4700,"Ġrecognized":4701,"Ġdishes":4702,"Ġkurunegala":4703,"Ġgampaha":4704,"Ġsurgery":4705,"Ġstrength":4706,"men":4707,"Ġtired":4708,"Ġba":4709,"Ġtoy":4710,"Ġgem":4711,"enty":4712,"cient":4713,"ublic":4714,"Ġgrant":4715,"Ġtwitter":4716,"Ġmatters":4717,"Ġjoined":4718,"Ġmald":4719,"Ġsending":4720,"Ġtotally":4721,"Ġcasual":4722,"Ġtypical":4723,"Ġconfirmed":4724,"Ġjapanese":4725,"Ġbangl":4726,"Ġfloor":4727,"good":4728,"Ġip":4729,"Ġthrow":4730,"ope":4731,"Ġaliexpress":4732,"cipl":4733,"roud":4734,"Ġappeal":4735,"Ġdecades":4736,"Ġairline":4737,"mbps":4738,"Ġpropos":4739,"Ġbeginner":4740,"Ġcommerce":4741,"Ġblock":4742,"Ġcorporate":4743,"Ġcommittee":4744,"Ġembassy":4745,"iat":4746,"vis":4747,"entially":4748,"Ġug":4749,"Ġlosing":4750,"agn":4751,"Ġagency":4752,"Ġemp":4753,"Ġassault":4754,"Ġkeeps":4755,"Ġmatches":4756,"Ġltd":4757,"Ġhutch":4758,"25":4759,"iety":4760,"mp":4761,"mers":4762,"oft":4763,"rit":4764,"reed":4765,"Ġfb":4766,"Ġrace":4767,"Ġotherwise":4768,"Ġspir":4769,"Ġscale":4770,"Ġfamili":4771,"Ġtempor":4772,"overed":4773,"Ġbuddha":4774,"Ġmill":4775,"icy":4776,"Ġcancel":4777,"Ġdisplay":4778,"Ġdescri":4779,"Ġagreement":4780,"Ġforeigner":4781,"Ġmarkets":4782,"Ġqualifications":4783,"Ġhealthy":4784,"Ġcafe":4785,"Ġcontacted":4786,"Ġmissed":4787,"Ġchanging":4788,"Ġholding":4789,"Ġdelay":4790,"Ġessential":4791,"Ġayurved":4792,"Ġremoved":4793,"Ġcafes":4794,"Ġadministration":4795,"Ġfibre":4796,"Ġwitness":4797,"Ġbon":4798,"Ġpin":4799,"Ġdur":4800,"Ġnand":4801,"right":4802,"Ġmeals":4803,"Ġvent":4804,"Ġsust":4805,"aps":4806,"Ġincred":4807,"Ġhero":4808,"Ġtransactions":4809,"Ġconstantly":4810,"Ġgrew":4811,"Ġpremium":4812,"Ġprepare":4813,"Ġacadem":4814,"Ġpiece":4815,"Ġafternoon":4816,"Ġfamiliar":4817,"rain":4818,"vt":4819,"Ġhnd":4820,"key":4821,"Ġchocol":4822,"Ġalco":4823,"Ġsomewhat":4824,"Ġunc":4825,"Ġ38":4826,"Ġcurric":4827,"Ġchildhood":4828,"ibility":4829,"Ġmessages":4830,"Ġcharging":4831,"Ġemployment":4832,"Ġdiscrimination":4833,"Ġfestival":4834,"Ġbomb":4835,"Ġconflict":4836,"Ġconstitution":4837,"Ġanxiety":4838,"Ġafrica":4839,"rom":4840,"Ġcart":4841,"Ġdumb":4842,"itage":4843,"aling":4844,"Ġgf":4845,"ables":4846,"Ġunlike":4847,"Ġdiscipl":4848,"Ġsupply":4849,"Ġpublish":4850,"lanka":4851,"Ġfinancially":4852,"Ġawareness":4853,"Ġpeaceful":4854,"Ġeuropean":4855,"Ġscreen":4856,"Ġencour":4857,"Ġundergraduate":4858,"Ġmurder":4859,"Ġprofessionals":4860,"Ġdubai":4861,"Ġthousands":4862,"Ġalcohol":4863,"24":4864,"ipped":4865,"ost":4866,"pro":4867,"sp":4868,"Ġfal":4869,"Ġhoney":4870,"Ġancient":4871,"Ġstated":4872,"Ġjump":4873,"Ġshame":4874,"Ġhasn":4875,"Ġwanting":4876,"Ġminute":4877,"Ġschem":4878,"araz":4879,"Ġopening":4880,"Ġcrimes":4881,"Ġdirector":4882,"Ġmindset":4883,"Ġlaptops":4884,"Ġregardless":4885,"Ġlinks":4886,"Ġvoted":4887,"Ġnamed":4888,"Ġpreviously":4889,"Ġblocked":4890,"Ġscenic":4891,"Ġcrypt":4892,"Ġfrustrating":4893,"Ġprocedure":4894,"nes":4895,"Ġtut":4896,"Ġcmb":4897,"Ġcateg":4898,"Ġmp":4899,"Ġbs":4900,"Ġproud":4901,"Ġtools":4902,"icul":4903,"aming":4904,"Ġpartners":4905,"Ġ600":4906,"Ġguest":4907,"Ġ197":4908,"Ġincluded":4909,"Ġjoining":4910,"Ġharm":4911,"Ġvoting":4912,"Ġcandidates":4913,"Ġwildlife":4914,"Ġsongs":4915,"Ġannounced":4916,"su":4917,"Ġfile":4918,"Ġhill":4919,"Ġlane":4920,"Ġdu":4921,"ales":4922,"ppers":4923,"Ġshall":4924,"Ġadvanced":4925,"Ġstarts":4926,"Ġinvestors":4927,"Ġ120":4928,"Ġsolar":4929,"Ġflu":4930,"Ġrespons":4931,"Ġdropped":4932,"Ġdamn":4933,"Ġdamage":4934,"Ġfancy":4935,"Ġdrugs":4936,"Ġdissanayake":4937,"rene":4938,"Ġbail":4939,"Ġfash":4940,"Ġoya":4941,"Ġeld":4942,"Ġwhale":4943,"Ġdidnt":4944,"ologist":4945,"Ġsettle":4946,"Ġtrading":4947,"Ġexisting":4948,"Ġdomestic":4949,"Ġassistance":4950,"Ġkumara":4951,"Ġvaluable":4952,"advice":4953,"Ġdestroy":4954,"iers":4955,"ob":4956,"Ġts":4957,"Ġtik":4958,"Ġfault":4959,"Ġhence":4960,"Ġgate":4961,"Ġwhom":4962,"Ġbeat":4963,"Ġwearing":4964,"cell":4965,"Ġconcept":4966,"Ġclin":4967,"rael":4968,"Ġcrime":4969,"Ġcuis":4970,"Ġministers":4971,"Ġfactory":4972,"Ġcommunication":4973,"xx":4974,"inia":4975,"Ġball":4976,"ounce":4977,"Ġhall":4978,"Ġund":4979,"gegoda":4980,"Ġ37":4981,"Ġcompens":4982,"Ġagreed":4983,"Ġprimary":4984,"Ġcommitted":4985,"Ġregret":4986,"Ġentrance":4987,"Ġprotesters":4988,"Ġnamal":4989,"Ġpakistan":4990,"Ġfashion":4991,"ga":4992,"ray":4993,"sas":4994,"zz":4995,"Ġdry":4996,"Ġnations":4997,"Ġos":4998,"iding":4999,"idency":5000,"ola":5001,"Ġscr":5002,"Ġeastern":5003,"Ġexpecting":5004,"Ġprogramme":5005,"Ġclearance":5006,"Ġinfluen":5007,"Ġregulations":5008,"Ġlavinia":5009,"40":5010,"Ġtues":5011,"Ġlines":5012,"oted":5013,"ette":5014,"quest":5015,"Ġunsure":5016,"Ġacqu":5017,"Ġupload":5018,"Ġweren":5019,"Ġdisg":5020,"anga":5021,"Ġ65":5022,"Ġairb":5023,"Ġinvestments":5024,"Ġsky":5025,"Ġtrees":5026,"Ġpapers":5027,"Ġdedic":5028,"Ġhindu":5029,"ws":5030,"Ġera":5031,"ining":5032,"Ġwall":5033,"Ġfilled":5034,"Ġhort":5035,"omed":5036,"Ġgather":5037,"uty":5038,"chi":5039,"Ġframe":5040,"Ġvat":5041,"Ġtrcsl":5042,"oses":5043,"Ġrecover":5044,"ensive":5045,"Ġ2026":5046,"Ġcheers":5047,"Ġadding":5048,"Ġdeveloper":5049,"Ġhealthcare":5050,"Ġreflect":5051,"Ġsigned":5052,"Ġpractices":5053,"Ġtrusted":5054,"Ġflights":5055,"Ġoccur":5056,"Ġaffected":5057,"Ġpictures":5058,"Ġproviding":5059,"Ġschedul":5060,"Ġnugegoda":5061,"eed":5062,"gn":5063,"ront":5064,"ina":5065,"icial":5066,"ician":5067,"itha":5068,"Ġkelan":5069,"Ġnotes":5070,"Ġchances":5071,"Ġwash":5072,"Ġworry":5073,"Ġuncle":5074,"Ġcold":5075,"Ġmark":5076,"Ġproduction":5077,"Ġwatched":5078,"Ġ2009":5079,"Ġdealing":5080,"Ġserve":5081,"Ġclaimed":5082,"Ġrecognition":5083,"Ġpermit":5084,"Ġhistorical":5085,"Ġmachine":5086,"Ġmicro":5087,"Ġfalse":5088,"egr":5089,"will":5090,"Ġthr":5091,"rent":5092,"inger":5093,"Ġinn":5094,"Ġeg":5095,"Ġeee":5096,"Ġheat":5097,"Ġkot":5098,"Ġleaves":5099,"awala":5100,"Ġbadulla":5101,"worthy":5102,"Ġinitial":5103,"Ġfalls":5104,"Ġmonitor":5105,"link":5106,"Ġcave":5107,"outh":5108,"Ġhes":5109,"Ġgaz":5110,"lying":5111,"Ġmeat":5112,"Ġchose":5113,"Ġwhose":5114,"Ġnobody":5115,"Ġinsane":5116,"Ġdesper":5117,"Ġrealize":5118,"Ġdraw":5119,"Ġimporting":5120,"Ġsituations":5121,"Ġaffairs":5122,"Ġequip":5123,"Ġmistake":5124,"Ġturning":5125,"Ġprinci":5126,"Ġbangladesh":5127,"kara":5128,"mal":5129,"Ġbath":5130,"Ġfat":5131,"Ġdaraz":5132,"ima":5133,"Ġchief":5134,"Ġuses":5135,"uma":5136,"Ġcove":5137,"Ġdeputy":5138,"Ġflav":5139,"Ġeducational":5140,"Ġdetect":5141,"Ġnegoti":5142,"Ġroutes":5143,"Ġdevice":5144,"Ġentirely":5145,"Ġsuccessfully":5146,"market":5147,"Ġdoubt":5148,"Ġridicul":5149,"Ġappointed":5150,"Ġhomes":5151,"Ġflex":5152,"Ġgarden":5153,"Ġwithdraw":5154,"Ġimpossible":5155,"Ġhs":5156,"Ġly":5157,"Ġinnov":5158,"Ġnr":5159,"Ġnre":5160,"Ġnil":5161,"Ġsugar":5162,"Ġjoke":5163,"Ġlocated":5164,"Ġheritage":5165,"Ġguarant":5166,"Ġprivacy":5167,"Ġtalent":5168,"Ġshortage":5169,"Ġfiled":5170,"owder":5171,"Ġcinem":5172,"Ġgerm":5173,"Ġvictims":5174,"ls":5175,"inting":5176,"Ġcake":5177,"Ġtooth":5178,"Ġlaugh":5179,"Ġnom":5180,"Ġisrael":5181,"Ġheav":5182,"Ġanytime":5183,"Ġdear":5184,"Ġplains":5185,"apura":5186,"Ġintegr":5187,"Ġ49":5188,"Ġadvis":5189,"Ġinsp":5190,"Ġrefused":5191,"Ġcycle":5192,"Ġcompetition":5193,"Ġpremadasa":5194,"Ġpriority":5195,"Ġdemocratic":5196,"Ġtuesday":5197,"cling":5198,"ein":5199,"ges":5200,"rated":5201,"Ġtho":5202,"Ġcro":5203,"Ġlas":5204,"Ġlion":5205,"iture":5206,"icing":5207,"Ġdoor":5208,"abor":5209,"Ġdie":5210,"Ġ41":5211,"Ġmonso":5212,"Ġinstruct":5213,"Ġpositions":5214,"Ġserved":5215,"Ġstayed":5216,"Ġassume":5217,"Ġincludes":5218,"moon":5219,"Ġorganiz":5220,"Ġfailure":5221,"ells":5222,"Ġracism":5223,"Ġestablished":5224,"Ġcircum":5225,"Ġadvertise":5226,"Ġtower":5227,"nament":5228,"off":5229,"Ġaunt":5230,"Ġfed":5231,"Ġpa":5232,"rial":5233,"Ġstability":5234,"char":5235,"Ġadvant":5236,"Ġaccom":5237,"Ġcarried":5238,"Ġwrote":5239,"Ġdepend":5240,"Ġdrinking":5241,"Ġapi":5242,"Ġskip":5243,"Ġbeauty":5244,"Ġfairly":5245,"Ġamazon":5246,"Ġsurprised":5247,"Ġmethods":5248,"Ġvirt":5249,"Ġinfluence":5250,"Ġlaunched":5251,"Ġscooter":5252,"Ġhorton":5253,"Ġheavily":5254,"iest":5255,"za":5256,"Ġsand":5257,"Ġovers":5258,"isf":5259,"Ġgang":5260,"roid":5261,"iles":5262,"usting":5263,"ulum":5264,"Ġcommand":5265,"Ġconnected":5266,"Ġbigger":5267,"Ġrajapaksas":5268,"Ġserver":5269,"Ġobject":5270,"Ġclaiming":5271,"Ġpsychology":5272,"Ġdisappoint":5273,"Ġkilling":5274,"Ġarrange":5275,"Ġlifest":5276,"Ġfeatures":5277,"Ġrussi":5278,"Ġresponses":5279,"ivers":5280,"overy":5281,"Ġcere":5282,"atics":5283,"Ġing":5284,"ster":5285,"Ġbear":5286,"aded":5287,"Ġrush":5288,"Ġsep":5289,"Ġcolour":5290,"Ġcoverage":5291,"Ġmannar":5292,"Ġ58":5293,"Ġengage":5294,"Ġ800":5295,"Ġinternships":5296,"Ġtournament":5297,"Ġelected":5298,"Ġterrible":5299,"Ġcharac":5300,"Ġeducated":5301,"Ġdeter":5302,"Ġbiology":5303,"Ġpreferred":5304,"Ġvilla":5305,"Ġmistakes":5306,"Ġmeasures":5307,"Ġsustain":5308,"rative":5309,"Ġtip":5310,"Ġast":5311,"Ġsar":5312,"Ġbid":5313,"Ġnine":5314,"rie":5315,"Ġhab":5316,"imately":5317,"iled":5318,"Ġresident":5319,"Ġprison":5320,"Ġgrab":5321,"Ġlets":5322,"Ġaward":5323,"Ġofficially":5324,"Ġtopics":5325,"Ġtests":5326,"Ġscammed":5327,"Ġtechnical":5328,"Ġpetrol":5329,"Ġpsychiat":5330,"Ġmba":5331,"Ġbags":5332,"Ġpurposes":5333,"Ġargu":5334,"Ġcloser":5335,"Ġobtain":5336,"Ġhurt":5337,"Ġattached":5338,"Ġmaldives":5339,"Ġthurs":5340,"esome":5341,"Ġnas":5342,"ita":5343,"Ġforgot":5344,"Ġkil":5345,"Ġmel":5346,"Ġunis":5347,"ums":5348,"erior":5349,"Ġclimb":5350,"icaloa":5351,"Ġdiscon":5352,"plan":5353,"Ġpersons":5354,"Ġremind":5355,"Ġguard":5356,"Ġceb":5357,"Ġbikes":5358,"Ġmeanwhile":5359,"Ġdefence":5360,"Ġarriving":5361,"Ġannoying":5362,"Ġdiscussions":5363,"Ġnsbm":5364,"Ġprotection":5365,"Ġmountain":5366,"Ġmaps":5367,"Ġdangerous":5368,"Ġagriculture":5369,"Ġcurriculum":5370,"cd":5371,"ino":5372,"Ġbor":5373,"aran":5374,"Ġlie":5375,"Ġrug":5376,"iling":5377,"Ġfell":5378,"Ġ56":5379,"Ġblind":5380,"well":5381,"Ġrealized":5382,"Ġ2017":5383,"Ġhousehold":5384,"Ġsignal":5385,"Ġturns":5386,"Ġcontrovers":5387,"Ġmotiv":5388,"Ġsuspic":5389,"Ġpatient":5390,"Ġcalcul":5391,"Ġprepared":5392,"Ġsurprise":5393,"Ġjudge":5394,"Ġterrorism":5395,"Ġconvin":5396,"Ġcolonial":5397,"reprene":5398,"Ġspoken":5399,"Ġicbt":5400,"16":5401,"Ġthri":5402,"Ġbond":5403,"Ġpad":5404,"Ġanal":5405,"Ġow":5406,"Ġuc":5407,"unk":5408,"Ġexplo":5409,"Ġteen":5410,"Ġindians":5411,"Ġdisabled":5412,"Ġtransit":5413,"Ġuseless":5414,"should":5415,"Ġmainten":5416,"Ġplayer":5417,"Ġlandsc":5418,"Ġvalues":5419,"Ġmovement":5420,"Ġnorthern":5421,"Ġteams":5422,"Ġalternatives":5423,"Ġracist":5424,"Ġrelatively":5425,"Ġpunish":5426,"Ġdeposit":5427,"Ġmaintenance":5428,"Ġwalle":5429,"Ġbc":5430,"Ġfans":5431,"itect":5432,"Ġgro":5433,"Ġkick":5434,"Ġclimate":5435,"erved":5436,"Ġkindly":5437,"Ġextent":5438,"Ġconfident":5439,"Ġpowerful":5440,"Ġdistrib":5441,"attu":5442,"Ġallows":5443,"Ġinstitutes":5444,"Ġidentify":5445,"Ġarchitect":5446,"Ġdepression":5447,"Ġmaterial":5448,"Ġangry":5449,"Ġslightly":5450,"Ġupgrade":5451,"Ġgermany":5452,"fall":5453,"Ġthus":5454,"Ġmsc":5455,"Ġpvt":5456,"esth":5457,"Ġnth":5458,"Ġog":5459,"Ġgay":5460,"Ġbegan":5461,"olen":5462,"Ġjer":5463,"Ġdeals":5464,"Ġads":5465,"Ġcompar":5466,"Ġourselves":5467,"Ġintention":5468,"ifts":5469,"Ġaccused":5470,"Ġroles":5471,"Ġpharm":5472,"Ġtransaction":5473,"Ġremains":5474,"Ġends":5475,"Ġentreprene":5476,"Ġretail":5477,"Ġactivity":5478,"Ġaustralian":5479,"Ġreplies":5480,"Ġerror":5481,"Ġanimal":5482,"Ġbatticaloa":5483,"Ġdrinks":5484,"Ġclients":5485,"mony":5486,"Ġchairman":5487,"Ġwtf":5488,"Ġkelaniya":5489,"Ġcovered":5490,"Ġmonsoon":5491,"bage":5492,"ey":5493,"fl":5494,"Ġtb":5495,"Ġsides":5496,"Ġwatt":5497,"Ġcos":5498,"Ġcast":5499,"Ġben":5500,"Ġpy":5501,"irst":5502,"Ġcond":5503,"Ġcha":5504,"udes":5505,"Ġexpand":5506,"Ġenable":5507,"Ġcomplic":5508,"Ġvision":5509,"Ġspons":5510,"Ġengland":5511,"Ġcontinued":5512,"Ġearth":5513,"Ġ194":5514,"ibly":5515,"Ġscams":5516,"Ġlugg":5517,"Ġorganization":5518,"Ġmaharagama":5519,"Ġreturned":5520,"Ġdevices":5521,"Ġpatients":5522,"Ġdeeply":5523,"Ġcarrying":5524,"Ġtemporary":5525,"hn":5526,"Ġwik":5527,"eral":5528,"Ġdan":5529,"Ġkore":5530,"iment":5531,"Ġves":5532,"Ġconsequ":5533,"Ġamend":5534,"Ġclick":5535,"Ġpaypal":5536,"Ġmaf":5537,"Ġkeen":5538,"Ġ195":5539,"Ġdrone":5540,"Ġextended":5541,"Ġexperiencing":5542,"Ġdeveloping":5543,"Ġmoder":5544,"Ġphysically":5545,"Ġannual":5546,"Ġupdated":5547,"Ġtrustworthy":5548,"Ġstocks":5549,"Ġsusp":5550,"Ġsteam":5551,"Ġmbps":5552,"Ġmaximum":5553,"Ġreputation":5554,"Ġgerman":5555,"Ġintroduced":5556,"Ġreceiving":5557,"Ġravana":5558,"Ġrejected":5559,"Ġwheel":5560,"Ġthursday":5561,"11":5562,"gi":5563,"rate":5564,"Ġwil":5565,"enge":5566,"Ġtok":5567,"Ġdy":5568,"Ġnavy":5569,"aratne":5570,"Ġonto":5571,"Ġkap":5572,"Ġanyways":5573,"Ġmemor":5574,"Ġfru":5575,"ndred":5576,"Ġhass":5577,"Ġrecon":5578,"Ġouts":5579,"aked":5580,"Ġfried":5581,"Ġpresidency":5582,"Ġprovides":5583,"Ġ2016":5584,"Ġrequires":5585,"Ġreference":5586,"Ġstanding":5587,"Ġnormally":5588,"Ġhundred":5589,"Ġlanguages":5590,"Ġcalm":5591,"Ġglass":5592,"Ġplantations":5593,"Ġencount":5594,"Ġminority":5595,"Ġroughly":5596,"Ġadditionally":5597,"Ġrapid":5598,"Ġpermanent":5599,"Ġtoyota":5600,"Ġsoo":5601,"Ġfare":5602,"Ġpi":5603,"Ġdates":5604,"ionally":5605,"Ġstor":5606,"Ġmini":5607,"Ġaccountability":5608,"Ġempt":5609,"Ġdriven":5610,"Ġremaining":5611,"Ġflood":5612,"Ġsetup":5613,"Ġwont":5614,"Ġpromises":5615,"Ġreaching":5616,"Ġmathem":5617,"Ġelectrical":5618,"Ġimmediate":5619,"Ġvolunt":5620,"colombo":5621,"Ġhoneymoon":5622,"Ġcuisine":5623,"Ġequipment":5624,"23":5625,"ton":5626,"Ġanc":5627,"oms":5628,"llab":5629,"acing":5630,"Ġstolen":5631,"Ġweak":5632,"Ġhaput":5633,"ider":5634,"Ġliked":5635,"Ġimages":5636,"Ġpricing":5637,"Ġbrothers":5638,"Ġmins":5639,"Ġ04":5640,"Ġraise":5641,"Ġelig":5642,"Ġprotein":5643,"Ġassets":5644,"ocking":5645,"Ġrenting":5646,"Ġunfair":5647,"Ġgarbage":5648,"uckles":5649,"Ġshirts":5650,"aranaike":5651,"Ġhaputale":5652,"lies":5653,"pass":5654,"oned":5655,"Ġgap":5656,"Ġreact":5657,"oles":5658,"olic":5659,"Ġorient":5660,"che":5661,"outs":5662,"Ġability":5663,"Ġmode":5664,"Ġdiving":5665,"Ġ46":5666,"Ġspl":5667,"Ġindex":5668,"Ġhighway":5669,"Ġedex":5670,"Ġ94":5671,"Ġdiscl":5672,"Ġcausing":5673,"Ġconstant":5674,"Ġcritical":5675,"Ġmotorcy":5676,"Ġleadership":5677,"Ġreserved":5678,"Ġrugby":5679,"Ġucsc":5680,"19":5681,"aud":5682,"bu":5683,"ded":5684,"fo":5685,"hib":5686,"ran":5687,"Ġath":5688,"onym":5689,"Ġcid":5690,"Ġandroid":5691,"ames":5692,"Ġkdu":5693,"Ġrum":5694,"Ġrude":5695,"Ġexcell":5696,"Ġrecru":5697,"who":5698,"Ġspeech":5699,"Ġpresence":5700,"Ġdesk":5701,"Ġpassing":5702,"Ġdrama":5703,"Ġhandling":5704,"iction":5705,"Ġstreets":5706,"Ġsupermarket":5707,"Ġcoastal":5708,"Ġsatisf":5709,"Ġarticles":5710,"Ġbottle":5711,"Ġconducted":5712,"Ġcontribute":5713,"Ġexperts":5714,"uriya":5715,"Ġfaith":5716,"Ġpassengers":5717,"Ġsnorkeling":5718,"Ġbackpack":5719,"mi":5720,"pay":5721,"vest":5722,"Ġwat":5723,"Ġpowder":5724,"Ġine":5725,"Ġnq":5726,"Ġya":5727,"Ġrw":5728,"ilty":5729,"Ġchand":5730,"Ġplastic":5731,"hera":5732,"ption":5733,"Ġcompare":5734,"Ġ43":5735,"Ġaccur":5736,"Ġbrown":5737,"onda":5738,"Ġfirm":5739,"Ġawesome":5740,"Ġsyllab":5741,"phones":5742,"Ġfactors":5743,"Ġmanaging":5744,"Ġlargest":5745,"Ġinvestigations":5746,"Ġdivision":5747,"Ġbecomes":5748,"priate":5749,"Ġhousing":5750,"Ġmaterials":5751,"Ġlinkedin":5752,"Ġgdp":5753,"Ġsmooth":5754,"Ġlifestyle":5755,"anage":5756,"Ġmn":5757,"Ġdent":5758,"rip":5759,"Ġvend":5760,"erences":5761,"Ġsaved":5762,"Ġpriced":5763,"Ġpera":5764,"issed":5765,"Ġ88":5766,"Ġparks":5767,"Ġrepublic":5768,"Ġpicked":5769,"Ġgraduated":5770,"Ġchallenge":5771,"Ġslowly":5772,"Ġbandaranaike":5773,"Ġfighting":5774,"Ġassociation":5775,"Ġefforts":5776,"Ġcompensation":5777,"nel":5778,"tok":5779,"wide":5780,"Ġale":5781,"Ġie":5782,"Ġsi":5783,"Ġbound":5784,"Ġpages":5785,"Ġlake":5786,"Ġgy":5787,"lets":5788,"Ġshut":5789,"Ġcham":5790,"Ġmoon":5791,"abet":5792,"Ġdiagn":5793,"Ġcontain":5794,"whel":5795,"Ġsupporters":5796,"Ġrealistic":5797,"Ġtermin":5798,"Ġhanded":5799,"Ġqualification":5800,"Ġsmaller":5801,"Ġzone":5802,"Ġports":5803,"Ġproposed":5804,"Ġbrief":5805,"Ġstarlink":5806,"Ġprovider":5807,"Ġsubmitted":5808,"Ġbroadband":5809,"Ġmanufacture":5810,"Ġedexcel":5811,"77":5812,"pes":5813,"under":5814,"Ġtor":5815,"Ġmut":5816,"Ġdual":5817,"Ġnative":5818,"Ġrang":5819,"Ġcann":5820,"Ġplenty":5821,"Ġalert":5822,"people":5823,"Ġunb":5824,"respect":5825,"Ġ5000":5826,"Ġincidents":5827,"Ġgrades":5828,"Ġcred":5829,"Ġregional":5830,"Ġcompleting":5831,"Ġaffili":5832,"Ġidi":5833,"Ġbreaking":5834,"Ġurban":5835,"Ġoperations":5836,"Ġeffects":5837,"Ġrequested":5838,"Ġsweet":5839,"Ġelectronics":5840,"Ġknuckles":5841,"Ġchoices":5842,"Ġdiscipline":5843,"Ġtiktok":5844,"Ġempty":5845,"eared":5846,"friend":5847,"pap":5848,"ancy":5849,"Ġpix":5850,"Ġles":5851,"ctions":5852,"Ġkr":5853,"Ġadhd":5854,"box":5855,"Ġamid":5856,"Ġcoach":5857,"Ġ44":5858,"Ġresol":5859,"Ġtransp":5860,"Ġcontinu":5861,"Ġguilty":5862,"Ġpolitician":5863,"Ġlegally":5864,"Ġformal":5865,"Ġopposite":5866,"Ġholidays":5867,"Ġproduce":5868,"seeking":5869,"Ġbbc":5870,"Ġgranted":5871,"Ġluggage":5872,"Ġstorage":5873,"Ġsyllabus":5874,"vi":5875,"Ġtort":5876,"Ġtap":5877,"Ġmall":5878,"edia":5879,"ridge":5880,"Ġstays":5881,"Ġstructure":5882,"urally":5883,"Ġliqu":5884,"Ġlift":5885,"Ġtracking":5886,"ager":5887,"Ġadvices":5888,"Ġgovernments":5889,"Ġ85":5890,"Ġgenoc":5891,"Ġsubst":5892,"Ġdeserve":5893,"Ġeconomics":5894,"Ġconfidence":5895,"Ġtouristy":5896,"Ġinstitution":5897,"Ġsearched":5898,"Ġdutch":5899,"Ġsignificantly":5900,"Ġsupreme":5901,"Ġratn":5902,"Ġchocolate":5903,"Ġwattala":5904,"point":5905,"Ġsab":5906,"Ġtheat":5907,"Ġcath":5908,"Ġmps":5909,"Ġfis":5910,"idas":5911,"thought":5912,"Ġaside":5913,"ques":5914,"Ġ34":5915,"Ġnewly":5916,"Ġ47":5917,"Ġacting":5918,"Ġphd":5919,"eps":5920,"araja":5921,"Ġextrem":5922,"Ġwarm":5923,"Ġcentury":5924,"Ġseller":5925,"Ġhunt":5926,"Ġexclus":5927,"unga":5928,"Ġviolent":5929,"Ġdoub":5930,"Ġexports":5931,"security":5932,"Ġscholarships":5933,"Ġcaptain":5934,"Ġbuffet":5935,"Ġurgent":5936,"Ġcousin":5937,"Ġspirit":5938,"Ġelder":5939,"Ġdedicated":5940,"Ġscheduled":5941,"di":5942,"Ġms":5943,"Ġmail":5944,"Ġfurn":5945,"ork":5946,"Ġpiz":5947,"Ġhrs":5948,"Ġhung":5949,"Ġstations":5950,"Ġkitch":5951,"Ġshift":5952,"Ġtrail":5953,"Ġuns":5954,"Ġuncom":5955,"Ġcoz":5956,"Ġspices":5957,"Ġpredict":5958,"gged":5959,"issions":5960,"Ġkeells":5961,"Ġlovely":5962,"Ġboat":5963,"ambal":5964,"Ġrajapakse":5965,"Ġfundament":5966,"Ġdeparture":5967,"Ġabsurd":5968,"Ġinterviews":5969,"Ġreduced":5970,"Ġscenari":5971,"Ġtelegram":5972,"Ġcelebrate":5973,"Ġtask":5974,"Ġsurvive":5975,"Ġcancelled":5976,"Ġadventure":5977,"Ġmafia":5978,"cut":5979,"hand":5980,"hus":5981,"mint":5982,"Ġtro":5983,"inal":5984,"Ġfy":5985,"Ġanonym":5986,"alaya":5987,"Ġeel":5988,"lls":5989,"amm":5990,"iru":5991,"Ġrn":5992,"Ġrare":5993,"Ġalive":5994,"apitiya":5995,"Ġarag":5996,"Ġseek":5997,"Ġinspect":5998,"Ġentered":5999,"Ġexplained":6000,"Ġdevelopers":6001,"Ġfunny":6002,"Ġfigures":6003,"Ġlights":6004,"Ġglad":6005,"Ġcomplaints":6006,"Ġjayaward":6007,"Ġlectures":6008,"Ġcombined":6009,"Ġallegations":6010,"Ġsubmit":6011,"Ġrevealed":6012,"Ġmemory":6013,"Ġadopt":6014,"Ġscheme":6015,"Ġmathematics":6016,"craft":6017,"first":6018,"iq":6019,"pattu":6020,"xy":6021,"Ġaid":6022,"Ġcore":6023,"llers":6024,"Ġneither":6025,"Ġali":6026,"Ġprove":6027,"Ġlean":6028,"Ġvet":6029,"agon":6030,"Ġintake":6031,"Ġarmed":6032,"Ġresidence":6033,"Ġprev":6034,"Ġpregn":6035,"Ġmuse":6036,"few":6037,"Ġgrown":6038,"Ġparking":6039,"Ġdepending":6040,"Ġdistur":6041,"Ġdefense":6042,"Ġmidnight":6043,"Ġpromised":6044,"ussia":6045,"Ġpurchasing":6046,"Ġparliamentary":6047,"Ġstreaming":6048,"Ġremotely":6049,"Ġlucky":6050,"Ġbehavi":6051,"Ġimplemented":6052,"Ġinitiative":6053,"Ġbesides":6054,"Ġwallet":6055,"thoughts":6056,"bb":6057,"dd":6058,"food":6059,"list":6060,"old":6061,"Ġbird":6062,"Ġhat":6063,"Ġhnb":6064,"arter":6065,"Ġweer":6066,"adura":6067,"Ġsole":6068,"Ġunre":6069,"Ġ54":6070,"Ġarts":6071,"Ġacts":6072,"Ġincom":6073,"places":6074,"Ġtravelled":6075,"anged":6076,"Ġmarry":6077,"Ġdecade":6078,"order":6079,"Ġweekends":6080,"Ġgenerations":6081,"Ġesoft":6082,"Ġscient":6083,"Ġlessons":6084,"Ġannounce":6085,"Ġreturns":6086,"Ġcycling":6087,"Ġcollection":6088,"Ġoccup":6089,"Ġadmission":6090,"Ġchristian":6091,"Ġwindows":6092,"Ġpossibility":6093,"Ġpromoting":6094,"Ġvaccine":6095,"Ġelectronic":6096,"Ġnavig":6097,"nesday":6098,"did":6099,"gu":6100,"ii":6101,"tin":6102,"Ġtig":6103,"Ġmum":6104,"Ġhonda":6105,"Ġtool":6106,"eds":6107,"Ġisol":6108,"Ġstruct":6109,"sey":6110,"ched":6111,"Ġlikes":6112,"Ġrising":6113,"Ġrussia":6114,"Ġconvert":6115,"antic":6116,"ushing":6117,"Ġfeet":6118,"Ġoutdo":6119,"Ġaggress":6120,"Ġagencies":6121,"Ġ53":6122,"Ġclue":6123,"Ġcloud":6124,"Ġmonks":6125,"Ġbrut":6126,"Ġbusses":6127,"Ġordinary":6128,"Ġpointed":6129,"ambridge":6130,"Ġhons":6131,"Ġtesting":6132,"Ġsigir":6133,"Ġfreel":6134,"Ġdesigned":6135,"fortable":6136,"Ġrequirement":6137,"Ġbanned":6138,"Ġneighbor":6139,"Ġreserves":6140,"Ġreplacement":6141,"Ġrepeated":6142,"Ġpenal":6143,"Ġnanu":6144,"Ġproposal":6145,"Ġpublished":6146,"Ġingred":6147,"Ġkitchen":6148,"22":6149,"bally":6150,"Ġtight":6151,"Ġsr":6152,"Ġwake":6153,"Ġbother":6154,"Ġpays":6155,"Ġtoward":6156,"alf":6157,"Ġuae":6158,"Ġdefe":6159,"Ġchain":6160,"ifying":6161,"Ġoverwhel":6162,"Ġcontinues":6163,"Ġearned":6164,"Ġforever":6165,"Ġsubur":6166,"Ġinterests":6167,"Ġvibes":6168,"Ġshorts":6169,"Ġexpectations":6170,"Ġ180":6171,"Ġpromote":6172,"Ġamounts":6173,"Ġtrinco":6174,"Ġfulf":6175,"Ġstressed":6176,"Ġamerica":6177,"Ġshirt":6178,"Ġmechanical":6179,"Ġestimated":6180,"Ġincredibly":6181,"Ġdisconnect":6182,"aj":6183,"log":6184,"ock":6185,"Ġwave":6186,"Ġcambridge":6187,"Ġfinger":6188,"Ġleng":6189,"Ġgear":6190,"Ġseven":6191,"Ġvo":6192,"Ġleague":6193,"Ġexposed":6194,"Ġrape":6195,"Ġenthus":6196,"Ġskill":6197,"Ġsocialist":6198,"Ġcontacts":6199,"Ġemployee":6200,"Ġwednesday":6201,"Ġdamaged":6202,"Ġdestinations":6203,"Ġhostel":6204,"Ġdreams":6205,"Ġcollabor":6206,"Ġprinted":6207,"Ġinnoc":6208,"Ġadvantage":6209,"planning":6210,"Ġgenocide":6211,"Ġuncomfortable":6212,"Ġeelam":6213,"Ġenthusi":6214,"hr":6215,"iance":6216,"Ġsession":6217,"Ġwaves":6218,"Ġbats":6219,"Ġfaster":6220,"Ġdele":6221,"geon":6222,"acked":6223,"Ġeverybody":6224,"Ġdism":6225,"Ġ66":6226,"Ġ700":6227,"Ġparcel":6228,"Ġsolve":6229,"Ġexplan":6230,"atton":6231,"Ġdefault":6232,"Ġindustries":6233,"Ġattacked":6234,"Ġinvolve":6235,"Ġtowns":6236,"Ġduties":6237,"Ġdivor":6238,"Ġwonderful":6239,"Ġrecorded":6240,"Ġrevolution":6241,"Ġmerch":6242,"Ġfrequently":6243,"Ġvolunte":6244,"ov":6245,"Ġcm":6246,"Ġmak":6247,"esh":6248,"Ġstating":6249,"uting":6250,"Ġtrash":6251,"cious":6252,"Ġcod":6253,"Ġinteract":6254,"Ġthinks":6255,"Ġ68":6256,"Ġgram":6257,"Ġtravelers":6258,"Ġtransform":6259,"Ġ196":6260,"Ġextend":6261,"Ġtalked":6262,"Ġavailability":6263,"Ġprofile":6264,"atta":6265,"aze":6266,"Ġdemon":6267,"iciency":6268,"Ġequival":6269,"Ġsunset":6270,"Ġterrorist":6271,"Ġreceipt":6272,"Ġsacrif":6273,"Ġtbh":6274,"18":6275,"26":6276,"buy":6277,"lig":6278,"Ġpair":6279,"Ġasks":6280,"Ġadjust":6281,"Ġexpos":6282,"Ġadvised":6283,"Ġindones":6284,"Ġpray":6285,"Ġtrial":6286,"Ġ900":6287,"wella":6288,"Ġprivile":6289,"Ġinvested":6290,"Ġbadly":6291,"Ġelsewhere":6292,"Ġselection":6293,"Ġlicens":6294,"oko":6295,"Ġhorrible":6296,"Ġassociate":6297,"Ġneighbour":6298,"Ġreputed":6299,"Ġjournalists":6300,"Ġgraph":6301,"Ġfavourite":6302,"Ġpsychiatrist":6303,"29":6304,"bre":6305,"yo":6306,"Ġcc":6307,"Ġcree":6308,"Ġfant":6309,"Ġfert":6310,"Ġhatton":6311,"Ġnib":6312,"Ġupper":6313,"Ġnoted":6314,"Ġchamp":6315,"abil":6316,"Ġunits":6317,"osity":6318,"Ġquit":6319,"Ġintel":6320,"Ġworksh":6321,"Ġdoesnt":6322,"Ġjohn":6323,"Ġmarine":6324,"forest":6325,"Ġattor":6326,"Ġattending":6327,"Ġsymb":6328,"Ġdifferences":6329,"Ġexamples":6330,"Ġtalks":6331,"ysis":6332,"Ġlanding":6333,"ashed":6334,"Ġviet":6335,"Ġtells":6336,"Ġfunded":6337,"Ġspeaker":6338,"Ġreplaced":6339,"Ġsadly":6340,"rooms":6341,"Ġcollap":6342,"Ġlawyers":6343,"Ġqueue":6344,"Ġdeclared":6345,"Ġcrypto":6346,"Ġdisgusting":6347,"Ġridiculous":6348,"Ġwilpattu":6349,"Ġkapru":6350,"Ġhassle":6351,"minton":6352,"Ġaragalaya":6353,"guy":6354,"Ġtag":6355,"atically":6356,"Ġnadu":6357,"isl":6358,"Ġrub":6359,"Ġshar":6360,"Ġconver":6361,"ulated":6362,"Ġgoals":6363,"Ġtheres":6364,"Ġlease":6365,"Ġalloc":6366,"Ġfeas":6367,"Ġens":6368,"Ġvisas":6369,"Ġspa":6370,"ivu":6371,"Ġvisitors":6372,"Ġfeelings":6373,"Ġboost":6374,"Ġexamination":6375,"Ġsett":6376,"Ġallowing":6377,"Ġbuddhists":6378,"Ġoperation":6379,"Ġpattern":6380,"Ġsnacks":6381,"Ġchemical":6382,"Ġverify":6383,"Ġrelaxing":6384,"Ġdeduct":6385,"Ġstrategy":6386,"Ġappears":6387,"Ġtenn":6388,"Ġmemories":6389,"Ġanalyst":6390,"Ġgraphic":6391,"Ġreforms":6392,"Ġassuming":6393,"Ġinjured":6394,"suggest":6395,"Ġvietnam":6396,"ij":6397,"mn":6398,"tt":6399,"uries":6400,"xual":6401,"Ġiron":6402,"Ġsiri":6403,"Ġboc":6404,"Ġnj":6405,"Ġkad":6406,"Ġrot":6407,"Ġshout":6408,"Ġtrump":6409,"Ġexha":6410,"Ġplaced":6411,"Ġenforce":6412,"Ġagents":6413,"Ġdivers":6414,"Ġmanner":6415,"Ġ57":6416,"Ġpoya":6417,"Ġspaces":6418,"Ġconsent":6419,"Ġaccountable":6420,"Ġregime":6421,"Ġkinds":6422,"ups":6423,"Ġcourier":6424,"Ġbehalf":6425,"Ġfunding":6426,"Ġpotentially":6427,"Ġoperating":6428,"Ġapplications":6429,"Ġsuffer":6430,"Ġhyb":6431,"Ġlabour":6432,"Ġadmitted":6433,"Ġproperties":6434,"Ġsoldiers":6435,"Ġconversations":6436,"Ġlgbtiq":6437,"Ġconvenient":6438,"Ġtherapy":6439,"Ġgazette":6440,"Ġcinema":6441,"Ġrussian":6442,"Ġconsequences":6443,"boo":6444,"ih":6445,"oes":6446,"erning":6447,"Ġfab":6448,"inge":6449,"Ġnge":6450,"Ġgal":6451,"Ġyo":6452,"entials":6453,"adays":6454,"Ġmyth":6455,"Ġraw":6456,"erson":6457,"usion":6458,"Ġadidas":6459,"Ġacne":6460,"Ġcoding":6461,"Ġdiet":6462,"Ġnowadays":6463,"Ġarm":6464,"Ġspare":6465,"izes":6466,"Ġgrad":6467,"Ġcreative":6468,"vels":6469,"Ġinternation":6470,"Ġtransition":6471,"Ġending":6472,"Ġentering":6473,"Ġentertain":6474,"lock":6475,"Ġshares":6476,"Ġsupports":6477,"Ġfollows":6478,"ception":6479,"Ġnewspap":6480,"Ġmirror":6481,"Ġtemu":6482,"Ġboyfriend":6483,"Ġidentified":6484,"Ġstatistics":6485,"Ġboarding":6486,"Ġswitching":6487,"Ġenvironmental":6488,"Ġrecords":6489,"Ġgrounds":6490,"Ġbattle":6491,"Ġpull":6492,"Ġproviders":6493,"Ġbottom":6494,"Ġregularly":6495,"Ġliberal":6496,"travelling":6497,"recommendations":6498,"Ġnetworks":6499,"Ġbonus":6500,"question":6501,"Ġdetected":6502,"Ġorganizations":6503,"Ġmotorcycle":6504,"Ġkapruka":6505,"days":6506,"ointing":6507,"slt":6508,"Ġpowers":6509,"Ġlen":6510,"Ġniss":6511,"aras":6512,"Ġwhil":6513,"ourse":6514,"Ġcancer":6515,"Ġplate":6516,"Ġalt":6517,"Ġlock":6518,"Ġupto":6519,"Ġintent":6520,"Ġworkplace":6521,"Ġwhereas":6522,"Ġdise":6523,"Ġdisrespect":6524,"gging":6525,"Ġcurfew":6526,"Ġjoint":6527,"izer":6528,"ody":6529,"Ġsms":6530,"Ġbadminton":6531,"lands":6532,"Ġdifferently":6533,"Ġ2010":6534,"Ġretire":6535,"Ġcauses":6536,"Ġmessed":6537,"Ġshocked":6538,"Ġcheapest":6539,"Ġpaths":6540,"Ġlgbtq":6541,"Ġsuspects":6542,"Ġemotional":6543,"Ġsurrounding":6544,"Ġeligible":6545,"Ġsigirya":6546,"guys":6547,"rad":6548,"Ġpas":6549,"Ġlan":6550,"Ġdies":6551,"icking":6552,"Ġbeer":6553,"tha":6554,"Ġaspects":6555,"Ġrt":6556,"Ġnepal":6557,"Ġshel":6558,"Ġvast":6559,"usted":6560,"Ġunus":6561,"Ġunions":6562,"Ġrecovery":6563,"Ġcoord":6564,"Ġmonet":6565,"Ġgrave":6566,"Ġ89":6567,"Ġinstance":6568,"Ġopenly":6569,"Ġflow":6570,"Ġconcert":6571,"Ġefficient":6572,"Ġmenu":6573,"Ġindustrial":6574,"Ġburden":6575,"Ġignor":6576,"Ġladies":6577,"Ġchallenging":6578,"Ġprinting":6579,"Ġcybersecurity":6580,"Ġlecturers":6581,"Ġcooked":6582,"Ġharassment":6583,"Ġultra":6584,"Ġmandatory":6585,"Ġdestroyed":6586,"Ġaccurate":6587,"Ġscenario":6588,"Ġingredients":6589,"Ġinnocent":6590,"Ġwhilst":6591,"13":6592,"bud":6593,"hot":6594,"oom":6595,"ux":6596,"Ġtank":6597,"Ġties":6598,"Ġtail":6599,"Ġcig":6600,"Ġfits":6601,"Ġped":6602,"enna":6603,"Ġlin":6604,"Ġnal":6605,"Ġgm":6606,"Ġrelie":6607,"Ġuom":6608,"ches":6609,"Ġash":6610,"Ġvoc":6611,"Ġaband":6612,"Ġ350":6613,"Ġmonk":6614,"uba":6615,"Ġ64":6616,"Ġ77":6617,"Ġ84":6618,"Ġremem":6619,"Ġtaxed":6620,"Ġrealised":6621,"Ġhopes":6622,"Ġflash":6623,"Ġshortages":6624,"Ġmeetings":6625,"Ġpanadura":6626,"Ġmountains":6627,"Ġbroker":6628,"Ġkingdom":6629,"seeing":6630,"Ġpassionate":6631,"Ġcriticism":6632,"Ġnetworking":6633,"Ġencourage":6634,"Ġdesperate":6635,"Ġsustainable":6636,"Ġnibm":6637,"ker":6638,"Ġsess":6639,"rew":6640,"Ġballs":6641,"Ġnst":6642,"Ġnbe":6643,"asc":6644,"acle":6645,"Ġstack":6646,"ami":6647,"rog":6648,"iry":6649,"Ġsectors":6650,"ils":6651,"Ġexists":6652,"about":6653,"asts":6654,"Ġquote":6655,"Ġquota":6656,"Ġmanip":6657,"Ġ59":6658,"ipedia":6659,"Ġriding":6660,"Ġtransf":6661,"Ġsinharaja":6662,"Ġdiscovered":6663,"Ġmentally":6664,"Ġprofits":6665,"attoo":6666,"Ġportug":6667,"cuse":6668,"Ġcutting":6669,"Ġorganized":6670,"Ġstruggles":6671,"Ġmembership":6672,"Ġsufficient":6673,"Ġfitness":6674,"priced":6675,"Ġgolden":6676,"cape":6677,"Ġclient":6678,"Ġduration":6679,"Ġcategory":6680,"Ġpixel":6681,"Ġattorney":6682,"uge":6683,"wood":6684,"Ġtl":6685,"Ġtel":6686,"Ġaus":6687,"Ġww":6688,"Ġburn":6689,"Ġpd":6690,"Ġpf":6691,"Ġpushing":6692,"enced":6693,"ality":6694,"ley":6695,"Ġkings":6696,"Ġexcuse":6697,"Ġplants":6698,"unic":6699,"Ġunne":6700,"Ġclim":6701,"Ġvisible":6702,"Ġtwe":6703,"shan":6704,"Ġhotline":6705,"Ġescape":6706,"Ġhoppers":6707,"Ġordering":6708,"Ġretrie":6709,"Ġconcerning":6710,"Ġfacts":6711,"Ġsells":6712,"Ġreligions":6713,"Ġwalked":6714,"Ġhospitality":6715,"Ġpermission":6716,"Ġpercentage":6717,"Ġprospects":6718,"Ġobtained":6719,"Ġfrustrated":6720,"Ġjournalist":6721,"Ġclarify":6722,"Ġcircumst":6723,"Ġdisappointed":6724,"Ġsuspicious":6725,"Ġpizza":6726,"Ġfreelance":6727,"bour":6728,"Ġaa":6729,"reh":6730,"Ġwood":6731,"Ġmd":6732,"oration":6733,"Ġdim":6734,"Ġnk":6735,"urning":6736,"Ġjail":6737,"Ġrit":6738,"Ġexceed":6739,"Ġups":6740,"Ġcontest":6741,"awatha":6742,"Ġactively":6743,"Ġtraveled":6744,"Ġinfect":6745,"Ġ76":6746,"Ġlotus":6747,"Ġpasses":6748,"Ġescal":6749,"rics":6750,"Ġmods":6751,"Ġheads":6752,"Ġappropriate":6753,"Ġdealers":6754,"Ġtreas":6755,"ilians":6756,"Ġtreatments":6757,"Ġsucceed":6758,"Ġcivilians":6759,"Ġoperate":6760,"Ġrides":6761,"Ġhyp":6762,"Ġyellow":6763,"Ġrisky":6764,"Ġachieved":6765,"Ġtranslation":6766,"Ġtranslate":6767,"Ġdenied":6768,"Ġdepressed":6769,"Ġassignments":6770,"visiting":6771,"Ġscratch":6772,"Ġhundreds":6773,"Ġhybrid":6774,"Ġinternationally":6775,"Ġunnecess":6776,"ode":6777,"Ġtab":6778,"Ġtattoo":6779,"Ġmc":6780,"Ġfer":6781,"Ġhiring":6782,"Ġlone":6783,"Ġonwards":6784,"utional":6785,"Ġheight":6786,"Ġorph":6787,"Ġfraud":6788,"Ġexcess":6789,"Ġexempt":6790,"Ġunknow":6791,"Ġindo":6792,"plic":6793,"Ġminimal":6794,"Ġfucked":6795,"Ġinvited":6796,"Ġtraveler":6797,"Ġtours":6798,"Ġaircraft":6799,"Ġsmile":6800,"ialog":6801,"duction":6802,"Ġlegisl":6803,"Ġcorner":6804,"Ġskilled":6805,"Ġzeal":6806,"Ġportion":6807,"Ġmulti":6808,"Ġrainy":6809,"Ġodd":6810,"Ġbottles":6811,"Ġscreens":6812,"travel":6813,"Ġvariety":6814,"Ġpleas":6815,"Ġdetailed":6816,"Ġairbnb":6817,"Ġcharacter":6818,"Ġfundamental":6819,"Ġfyi":6820,"Ġmuseum":6821,"Ġoutdoor":6822,"dialog":6823,"gpt":6824,"pitiya":6825,"yy":6826,"Ġske":6827,"Ġmigration":6828,"Ġanger":6829,"Ġgig":6830,"Ġrely":6831,"llo":6832,"Ġasp":6833,"Ġasap":6834,"Ġshitt":6835,"Ġsomebody":6836,"unge":6837,"apter":6838,"Ġimo":6839,"Ġcovers":6840,"Ġdias":6841,"Ġnowhere":6842,"Ġspecies":6843,"ensions":6844,"Ġbankrupt":6845,"Ġentit":6846,"Ġreplied":6847,"Ġflat":6848,"Ġstatements":6849,"icted":6850,"Ġcomputing":6851,"Ġoriginally":6852,"Ġleaf":6853,"Ġpriorit":6854,"Ġruling":6855,"Ġdeaths":6856,"Ġfootage":6857,"Ġrepairs":6858,"Ġcommitment":6859,"Ġbloody":6860,"Ġdemocracy":6861,"Ġromantic":6862,"Ġsightseeing":6863,"Ġimpression":6864,"Ġadvertisement":6865,"Ġwikipedia":6866,"Ġdemonst":6867,"Ġfertil":6868,"Ġzealand":6869,"14":6870,"bc":6871,"gment":6872,"ique":6873,"la":6874,"mm":6875,"py":6876,"wel":6877,"Ġsom":6878,"Ġsib":6879,"Ġml":6880,"Ġbm":6881,"Ġlit":6882,"Ġlag":6883,"Ġds":6884,"arr":6885,"Ġeo":6886,"Ġofc":6887,"anka":6888,"utara":6889,"olit":6890,"igning":6891,"Ġloyal":6892,"when":6893,"Ġreserve":6894,"Ġoverpriced":6895,"Ġincor":6896,"Ġ67":6897,"Ġ93":6898,"Ġletters":6899,"Ġsuggestion":6900,"Ġcareful":6901,"Ġsupportive":6902,"Ġconference":6903,"Ġ1500":6904,"Ġassess":6905,"Ġqualified":6906,"Ġmetal":6907,"Ġbelieved":6908,"Ġstops":6909,"Ġpurchases":6910,"Ġorganis":6911,"Ġwinning":6912,"Ġhitting":6913,"Ġimmigr":6914,"Ġhostels":6915,"Ġodi":6916,"Ġignored":6917,"Ġrandomly":6918,"Ġconsumer":6919,"Ġbachelors":6920,"Ġwidely":6921,"Ġmanufacturing":6922,"Ġconservative":6923,"Ġayurvedic":6924,"Ġceremony":6925,"Ġanalysis":6926,"fol":6927,"gender":6928,"pon":6929,"Ġtid":6930,"inate":6931,"Ġcow":6932,"Ġmt":6933,"Ġft":6934,"Ġfaces":6935,"Ġporn":6936,"Ġdance":6937,"Ġnoo":6938,"Ġgained":6939,"Ġgifts":6940,"oty":6941,"Ġish":6942,"Ġkoko":6943,"thi":6944,"Ġrarely":6945,"unning":6946,"soft":6947,"ureau":6948,"Ġ51":6949,"Ġroot":6950,"Ġphil":6951,"Ġmargin":6952,"standing":6953,"Ġ95":6954,"Ġinsist":6955,"Ġcourts":6956,"Ġextension":6957,"Ġharder":6958,"Ġlistening":6959,"Ġsellers":6960,"Ġpropag":6961,"Ġukrain":6962,"Ġfortun":6963,"Ġdemands":6964,"Ġcombination":6965,"Ġwindow":6966,"Ġbrowsers":6967,"Ġattractions":6968,"Ġcrucial":6969,"Ġenroll":6970,"Ġapiit":6971,"Ġkorea":6972,"Ġamendment":6973,"Ġequivalent":6974,"Ġsessions":6975,"33":6976,"cm":6977,"iation":6978,"iors":6979,"mpt":6980,"po":6981,"Ġau":6982,"Ġcima":6983,"stood":6984,"Ġforcing":6985,"ented":6986,"Ġstone":6987,"Ġshad":6988,"Ġcanad":6989,"Ġwasting":6990,"Ġabans":6991,"uls":6992,"inder":6993,"eria":6994,"Ġspice":6995,"Ġinternal":6996,"Ġprescri":6997,"Ġattitude":6998,"shit":6999,"Ġreturning":7000,"Ġbuildings":7001,"Ġrajapaksha":7002,"Ġartists":7003,"Ġfailing":7004,"Ġlarger":7005,"Ġcertificates":7006,"Ġimportantly":7007,"Ġfalling":7008,"Ġsilent":7009,"awatte":7010,"Ġsurprising":7011,"Ġconducting":7012,"Ġthreads":7013,"Ġproduced":7014,"Ġfestiv":7015,"Ġmacbook":7016,"Ġpurely":7017,"hamed":7018,"Ġpicking":7019,"Ġislamic":7020,"Ġborrow":7021,"Ġlandscape":7022,"Ġcollapse":7023,"Ġdiaspor":7024,"cles":7025,"gy":7026,"please":7027,"you":7028,"Ġthin":7029,"Ġcp":7030,"Ġboss":7031,"Ġbureau":7032,"Ġpir":7033,"rig":7034,"Ġitaly":7035,"amuwa":7036,"uru":7037,"Ġplot":7038,"elines":7039,"agala":7040,"Ġdiabet":7041,"Ġbrings":7042,"Ġ74":7043,"Ġtaxis":7044,"Ġdiscover":7045,"Ġapolog":7046,"Ġ2012":7047,"Ġpacked":7048,"Ġlands":7049,"Ġruh":7050,"Ġviable":7051,"Ġreporting":7052,"Ġminded":7053,"Ġacceptable":7054,"Ġwickets":7055,"Ġfocusing":7056,"Ġvictory":7057,"Ġassociated":7058,"Ġobserv":7059,"Ġhistoric":7060,"Ġspreading":7061,"Ġcooper":7062,"Ġnursing":7063,"Ġanalyt":7064,"Ġallegedly":7065,"Ġchaos":7066,"Ġlength":7067,"Ġfeasible":7068,"Ġrelief":7069,"28":7070,"cr":7071,"der":7072,"kg":7073,"pn":7074,"vals":7075,"inh":7076,"Ġtheory":7077,"Ġble":7078,"Ġbicy":7079,"Ġlap":7080,"Ġnag":7081,"Ġgs":7082,"Ġsovere":7083,"Ġplain":7084,"ulate":7085,"Ġune":7086,"Ġhikes":7087,"Ġpocket":7088,"Ġ450":7089,"Ġafterwards":7090,"Ġ69":7091,"Ġcheese":7092,"Ġemph":7093,"Ġcrush":7094,"Ġcleared":7095,"Ġstrange":7096,"Ġmeter":7097,"Ġbeliefs":7098,"Ġbreath":7099,"Ġserving":7100,"Ġtransferred":7101,"Ġaccessible":7102,"Ġdemanding":7103,"Ġhype":7104,"Ġdining":7105,"Ġauto":7106,"Ġignore":7107,"Ġconditioner":7108,"Ġflags":7109,"Ġapproximately":7110,"aramulla":7111,"Ġtiny":7112,"Ġguests":7113,"Ġarchitecture":7114,"Ġcondem":7115,"Ġcatholic":7116,"Ġbehaviour":7117,"Ġexposure":7118,"Ġentertainment":7119,"870":7120,"bby":7121,"dated":7122,"een":7123,"have":7124,"ties":7125,"vil":7126,"want":7127,"word":7128,"Ġtld":7129,"Ġwis":7130,"Ġbot":7131,"atunga":7132,"Ġtoler":7133,"Ġinland":7134,"isa":7135,"Ġgri":7136,"Ġstood":7137,"thon":7138,"Ġvague":7139,"Ġnoise":7140,"Ġspin":7141,"Ġovert":7142,"Ġinclus":7143,"Ġtraveller":7144,"Ġcrew":7145,"Ġsometime":7146,"Ġvisits":7147,"Ġregions":7148,"next":7149,"Ġedge":7150,"Ġ98":7151,"Ġsympt":7152,"Ġgenerated":7153,"Ġpublicly":7154,"Ġimposed":7155,"Ġexplaining":7156,"Ġstret":7157,"Ġrajapaksh":7158,"Ġregards":7159,"Ġtechnologies":7160,"Ġfunction":7161,"Ġlimits":7162,"Ġglobally":7163,"Ġverification":7164,"Ġattempted":7165,"Ġdisappear":7166,"Ġjava":7167,"Ġscold":7168,"Ġchatgpt":7169,"Ġarranged":7170,"Ġargue":7171,"Ġreputable":7172,"Ġqueues":7173,"Ġsummer":7174,"Ġintroduce":7175,"Ġkarun":7176,"Ġresignation":7177,"Ġsensitive":7178,"Ġfrequent":7179,"Ġoccurred":7180,"Ġhesit":7181,"Ġdetermin":7182,"Ġargument":7183,"Ġtoken":7184,"Ġfruit":7185,"Ġsplit":7186,"Ġtransfers":7187,"Ġtldr":7188,"eward":7189,"falls":7190,"nch":7191,"ole":7192,"Ġtear":7193,"Ġaqu":7194,"Ġii":7195,"Ġwage":7196,"erc":7197,"Ġcats":7198,"Ġdat":7199,"ald":7200,"icit":7201,"Ġrein":7202,"otic":7203,"Ġul":7204,"acc":7205,"Ġate":7206,"abe":7207,"Ġunity":7208,"Ġleop":7209,"Ġsav":7210,"Ġupset":7211,"agues":7212,"Ġnof":7213,"Ġcoin":7214,"Ġscan":7215,"Ġscream":7216,"Ġtravellers":7217,"Ġcarg":7218,"Ġforex":7219,"Ġdram":7220,"Ġprivately":7221,"Ġpersonality":7222,"Ġqa":7223,"Ġcuriosity":7224,"Ġartific":7225,"Ġorganic":7226,"Ġemployed":7227,"Ġcomplaining":7228,"Ġmedicines":7229,"Ġdesigner":7230,"Ġtypically":7231,"Ġdeeper":7232,"Ġrainforest":7233,"Ġthreatening":7234,"Ġthreatened":7235,"Ġmagist":7236,"Ġhangout":7237,"Ġethnicity":7238,"Ġkalutara":7239,"Ġundergrad":7240,"Ġminorities":7241,"Ġconfirmation":7242,"Ġtasks":7243,"Ġsemester":7244,"Ġatmos":7245,"Ġeggs":7246,"Ġvegetarian":7247,"Ġayurveda":7248,"Ġrecruit":7249,"Ġindonesia":7250,"Ġtennis":7251,"books":7252,"Ġdiabetes":7253,"Ġemphas":7254,"68":7255,"top":7256,"Ġaz":7257,"Ġwet":7258,"orough":7259,"Ġpid":7260,"Ġlau":7261,"Ġdns":7262,"Ġnse":7263,"Ġnad":7264,"Ġweap":7265,"Ġjet":7266,"Ġsections":7267,"Ġwasted":7268,"usive":7269,"Ġexpend":7270,"Ġpod":7271,"away":7272,"Ġdisrupt":7273,"Ġspect":7274,"Ġplane":7275,"Ġscope":7276,"angala":7277,"Ġmining":7278,"Ġboom":7279,"Ġ2014":7280,"Ġruined":7281,"Ġworthy":7282,"Ġportal":7283,"Ġdefend":7284,"Ġislands":7285,"Ġprogramming":7286,"Ġcapable":7287,"Ġgreet":7288,"Ġspeakers":7289,"Ġpathway":7290,"Ġfilms":7291,"Ġvoters":7292,"Ġlicence":7293,"Ġenjoyed":7294,"Ġinvolving":7295,"Ġstatue":7296,"Ġsuffered":7297,"Ġlabel":7298,"Ġburning":7299,"Ġattempts":7300,"Ġcounsel":7301,"Ġjungle":7302,"Ġstrategic":7303,"Ġstrategies":7304,"Ġstartups":7305,"Ġsettings":7306,"Ġfreelancing":7307,"Ġugc":7308,"Ġbombings":7309,"Ġinstructions":7310,"Ġhabarana":7311,"Ġpunishment":7312,"Ġcomparison":7313,"Ġexcellent":7314,"Ġgyms":7315,"Ġaffiliated":7316,"Ġcircumstances":7317,"Ġdiaspora":7318,"Ġsymptoms":7319,"mates":7320,"net":7321,"tel":7322,"Ġicc":7323,"inct":7324,"Ġbub":7325,"Ġhust":7326,"Ġdj":7327,"stream":7328,"Ġlies":7329,"Ġrating":7330,"Ġvice":7331,"Ġchart":7332,"apes":7333,"Ġalliance":7334,"Ġload":7335,"Ġfeature":7336,"Ġquant":7337,"ishing":7338,"Ġprec":7339,"Ġpron":7340,"Ġmarked":7341,"Ġ63":7342,"Ġ87":7343,"Ġcrab":7344,"Ġcrap":7345,"Ġelite":7346,"Ġhandled":7347,"Ġclassic":7348,"Ġapologies":7349,"Ġcouples":7350,"Ġlesser":7351,"Ġwelcom":7352,"Ġ2005":7353,"Ġ160":7354,"Ġconstruct":7355,"Ġanswered":7356,"print":7357,"Ġexclud":7358,"hob":7359,"Ġcops":7360,"Ġapartments":7361,"Ġcovering":7362,"Ġthreats":7363,"Ġconsumption":7364,"Ġnarrative":7365,"Ġrepeat":7366,"Ġpieces":7367,"Ġvenue":7368,"Ġequality":7369,"Ġmillions":7370,"Ġinnovation":7371,"Ġfurniture":7372,"ambalapitiya":7373,"Ġdivorce":7374,"ox":7375,"Ġtrop":7376,"redit":7377,"inating":7378,"inform":7379,"Ġbh":7380,"ora":7381,"Ġange":7382,"Ġdir":7383,"Ġeb":7384,"Ġeve":7385,"Ġbell":7386,"verty":7387,"Ġasus":7388,"Ġaspect":7389,"import":7390,"Ġvit":7391,"umes":7392,"Ġmulla":7393,"Ġgotta":7394,"Ġattended":7395,"Ġblaming":7396,"Ġparad":7397,"Ġraising":7398,"Ġsrilankans":7399,"Ġwarned":7400,"Ġsurely":7401,"Ġlanded":7402,"Ġtested":7403,"Ġmoments":7404,"Ġ2008":7405,"ployed":7406,"Ġnaturally":7407,"Ġliterature":7408,"Ġfurthermore":7409,"Ġnto":7410,"Ġcolleagues":7411,"Ġethical":7412,"Ġlargely":7413,"Ġpreparing":7414,"Ġadmit":7415,"Ġmotorb":7416,"Ġpulled":7417,"Ġdhamm":7418,"Ġpromotion":7419,"Ġaudience":7420,"Ġreportedly":7421,"Ġsuperior":7422,"Ġpushed":7423,"Ġmeaningful":7424,"Ġrecipe":7425,"Ġconsistent":7426,"Ġshooting":7427,"Ġtsun":7428,"Ġcontroversial":7429,"Ġcomplicated":7430,"Ġvendors":7431,"Ġperahera":7432,"Ġtheatre":7433,"Ġtigers":7434,"fa":7435,"front":7436,"jan":7437,"tour":7438,"Ġsake":7439,"Ġwire":7440,"Ġlying":7441,"Ġgala":7442,"asia":7443,"Ġyog":7444,"Ġforms":7445,"amuna":7446,"Ġhabit":7447,"ophob":7448,"usal":7449,"quit":7450,"aped":7451,"Ġpeeps":7452,"Ġamd":7453,"Ġoutdated":7454,"Ġagend":7455,"Ġdiverse":7456,"Ġpoverty":7457,"Ġarab":7458,"Ġphase":7459,"Ġscuba":7460,"Ġdeciding":7461,"rais":7462,"Ġletting":7463,"Ġbund":7464,"Ġinsult":7465,"Ġnightlife":7466,"Ġcoron":7467,"Ġoffices":7468,"Ġexplos":7469,"Ġcentres":7470,"Ġstray":7471,"Ġprocessing":7472,"Ġpromin":7473,"Ġmission":7474,"Ġpetition":7475,"Ġimproved":7476,"Ġapplicable":7477,"Ġpremier":7478,"Ġpaint":7479,"Ġpanel":7480,"Ġbattaramulla":7481,"Ġhanging":7482,"Ġ365":7483,"regard":7484,"Ġtutor":7485,"Ġbeaten":7486,"Ġguarantee":7487,"Ġaccomod":7488,"build":7489,"Ġdiagnosed":7490,"Ġpregnant":7491,"Ġexplanation":7492,"Ġunnecessary":7493,"Ġshitty":7494,"Ġruhuna":7495,"comm":7496,"mine":7497,"pan":7498,"Ġtall":7499,"Ġsq":7500,"Ġward":7501,"Ġcad":7502,"Ġcable":7503,"Ġbare":7504,"Ġping":7505,"Ġlamp":7506,"Ġnch":7507,"asy":7508,"Ġwhales":7509,"Ġrath":7510,"Ġvpn":7511,"Ġchos":7512,"eline":7513,"essed":7514,"Ġadapt":7515,"osis":7516,"Ġhired":7517,"erial":7518,"eriya":7519,"Ġpride":7520,"Ġmonkey":7521,"gger":7522,"Ġtrick":7523,"Ġfirms":7524,"Ġpersonnel":7525,"Ġemails":7526,"Ġinstru":7527,"Ġposs":7528,"Ġsmell":7529,"Ġcrack":7530,"uese":7531,"Ġconfusing":7532,"Ġstopping":7533,"Ġsciences":7534,"Ġportfol":7535,"Ġhumans":7536,"Ġharsh":7537,"Ġprofessor":7538,"Ġimproving":7539,"Ġgraduation":7540,"Ġstronger":7541,"Ġpsychological":7542,"Ġmigrating":7543,"Ġlegitimate":7544,"Ġterrorists":7545,"Ġsubscri":7546,"Ġassignment":7547,"Ġuncertain":7548,"Ġleaning":7549,"17":7550,"90":7551,"ek":7552,"kandy":7553,"wing":7554,"inance":7555,"Ġct":7556,"Ġbout":7557,"Ġdol":7558,"Ġnerv":7559,"Ġngo":7560,"itarian":7561,"omb":7562,"Ġstamp":7563,"amed":7564,"Ġshape":7565,"Ġsuv":7566,"lip":7567,"lix":7568,"aker":7569,"Ġquoted":7570,"Ġspicy":7571,"Ġresolution":7572,"athy":7573,"Ġperce":7574,"Ġgovernance":7575,"irect":7576,"Ġediting":7577,"Ġblog":7578,"Ġdescription":7579,"Ġdepends":7580,"Ġgreatest":7581,"Ġopposed":7582,"Ġretired":7583,"Ġquestioned":7584,"Ġruin":7585,"Ġzoom":7586,"Ġfactor":7587,"iliation":7588,"Ġalongside":7589,"Ġtraditions":7590,"Ġbreaks":7591,"Ġcomplained":7592,"Ġrequests":7593,"Ġbatter":7594,"Ġmentality":7595,"Ġmbbs":7596,"Ġexpressed":7597,"Ġtuks":7598,"Ġdisappointing":7599,"Ġjunior":7600,"Ġresponded":7601,"Ġtariffs":7602,"Ġkatun":7603,"Ġbullshit":7604,"Ġwitnessed":7605,"Ġentrepreneur":7606,"Ġhatred":7607,"ovo":7608,"buying":7609,"Ġsymbol":7610,"Ġportuguese":7611,"Ġunknown":7612,"Ġcanadian":7613,"Ġwelcomed":7614,"35":7615,"part":7616,"uber":7617,"Ġtiss":7618,"rend":7619,"ancing":7620,"Ġmm":7621,"Ġpta":7622,"Ġtoile":7623,"Ġlem":7624,"Ġlpl":7625,"Ġnons":7626,"isena":7627,"Ġyah":7628,"Ġstake":7629,"thinking":7630,"Ġvul":7631,"Ġabey":7632,"Ġalign":7633,"Ġunem":7634,"aph":7635,"Ġcolum":7636,"Ġquarant":7637,"bery":7638,"Ġaccidents":7639,"Ġbacked":7640,"Ġgovernor":7641,"Ġ72":7642,"Ġ78":7643,"ods":7644,"Ġtransgender":7645,"Ġsalt":7646,"Ġnationalism":7647,"Ġsigns":7648,"Ġlesson":7649,"Ġresearching":7650,"Ġpickup":7651,"Ġrented":7652,"Ġcamping":7653,"Ġcertification":7654,"Ġenjoying":7655,"Ġmedication":7656,"appro":7657,"Ġwickram":7658,"Ġeffectively":7659,"Ġcollected":7660,"Ġbodies":7661,"Ġswitched":7662,"Ġreducing":7663,"Ġarchae":7664,"Ġseafood":7665,"Ġcamer":7666,"Ġhorror":7667,"Ġdocumentary":7668,"Ġtroub":7669,"Ġnye":7670,"Ġnarrow":7671,"Ġownership":7672,"Ġparticipate":7673,"Ġemotionally":7674,"Ġphotography":7675,"Ġotp":7676,"Ġcousins":7677,"Ġawarded":7678,"Ġvessel":7679,"Ġtorture":7680,"Ġsuburbs":7681,"Ġcigare":7682,"Ġtsunami":7683,"Ġchosen":7684,"fc":7685,"gri":7686,"hum":7687,"Ġcd":7688,"Ġcv":7689,"Ġmouth":7690,"Ġbread":7691,"Ġpoo":7692,"Ġtom":7693,"Ġdump":7694,"itivu":7695,"alu":7696,"Ġea":7697,"uts":7698,"keys":7699,"Ġshorter":7700,"Ġexit":7701,"Ġexerc":7702,"Ġcongress":7703,"Ġalright":7704,"Ġproven":7705,"Ġpepper":7706,"Ġ360":7707,"akers":7708,"Ġquarter":7709,"Ġriver":7710,"Ġdisaster":7711,"Ġroof":7712,"Ġplanet":7713,"Ġmaith":7714,"Ġaccounting":7715,"Ġprescription":7716,"Ġ97":7717,"Ġaviation":7718,"Ġrepay":7719,"Ġweekly":7720,"Ġdrunk":7721,"phere":7722,"Ġmainstream":7723,"Ġfreely":7724,"Ġlegs":7725,"Ġrajag":7726,"hey":7727,"Ġcertified":7728,"works":7729,"Ġprompt":7730,"Ġmentioning":7731,"Ġprotestors":7732,"engue":7733,"Ġannivers":7734,"Ġelev":7735,"Ġauthorized":7736,"Ġcredits":7737,"Ġcleaning":7738,"Ġcircle":7739,"Ġkeyboard":7740,"Ġgrandma":7741,"Ġmagn":7742,"Ġmaintained":7743,"Ġexpertise":7744,"Ġconsultant":7745,"Ġfilling":7746,"Ġspokes":7747,"Ġpassenger":7748,"Ġsacred":7749,"Ġdescribed":7750,"Ġkrish":7751,"Ġmonetary":7752,"Ġpidur":7753,"Ġanniversary":7754,"hz":7755,"ios":7756,"jaya":7757,"met":7758,"rors":7759,"rise":7760,"uce":7761,"Ġsons":7762,"Ġbis":7763,"Ġhub":7764,"Ġlaz":7765,"Ġgor":7766,"Ġgaining":7767,"Ġeight":7768,"otal":7769,"Ġwelf":7770,"Ġjk":7771,"Ġjaze":7772,"Ġring":7773,"Ġshipped":7774,"Ġsucks":7775,"Ġplc":7776,"Ġlogin":7777,"Ġ3000":7778,"ags":7779,"Ġours":7780,"Ġresidents":7781,"Ġroll":7782,"Ġ83":7783,"bsl":7784,"raj":7785,"Ġairtel":7786,"Ġawa":7787,"Ġdrain":7788,"Ġfrench":7789,"Ġpopul":7790,"Ġgoog":7791,"Ġoblig":7792,"Ġdropping":7793,"Ġfigured":7794,"Ġsociet":7795,"Ġrisks":7796,"Ġrecognised":7797,"Ġcorrectly":7798,"Ġresource":7799,"Ġjayas":7800,"Ġbookings":7801,"Ġmigrated":7802,"ounge":7803,"Ġvirus":7804,"Ġsleeping":7805,"Ġarrack":7806,"Ġols":7807,"Ġcommunicate":7808,"Ġtrends":7809,"Ġadams":7810,"Ġlayover":7811,"Ġphotograph":7812,"Ġsirisena":7813,"Ġincreasingly":7814,"Ġenrolled":7815,"Ġconvenience":7816,"harama":7817,"Ġdelayed":7818,"Ġhsbc":7819,"Ġdoubts":7820,"Ġaggressive":7821,"Ġabandoned":7822,"Ġpdf":7823,"Ġpropaganda":7824,"ba":7825,"hana":7826,"pa":7827,"pol":7828,"tles":7829,"vy":7830,"Ġou":7831,"Ġtf":7832,"Ġtact":7833,"Ġicon":7834,"Ġird":7835,"Ġfd":7836,"Ġdying":7837,"Ġnood":7838,"Ġnsri":7839,"arn":7840,"arters":7841,"riers":7842,"ript":7843,"Ġease":7844,"stit":7845,"Ġkit":7846,"Ġkand":7847,"Ġkiri":7848,"Ġry":7849,"Ġnee":7850,"Ġneut":7851,"Ġfrag":7852,"Ġabusive":7853,"Ġworship":7854,"Ġade":7855,"Ġunif":7856,"Ġoutcome":7857,"Ġaccent":7858,"Ġarms":7859,"Ġunderstood":7860,"iva":7861,"Ġincon":7862,"Ġscript":7863,"Ġperamuna":7864,"Ġherself":7865,"getting":7866,"Ġcrow":7867,"Ġhardware":7868,"safe":7869,"Ġfacility":7870,"Ġsinger":7871,"Ġrefuse":7872,"Ġcaut":7873,"Ġsecondary":7874,"Ġprotesting":7875,"Ġscammers":7876,"Ġmanagers":7877,"Ġselfish":7878,"Ġfallen":7879,"Ġrespectful":7880,"marily":7881,"Ġpainting":7882,"Ġpainful":7883,"Ġturtle":7884,"Ġcounse":7885,"Ġessentials":7886,"priv":7887,"Ġattractive":7888,"Ġsisters":7889,"Ġvaccination":7890,"Ġclosest":7891,"Ġsquee":7892,"Ġdebate":7893,"Ġfreelancers":7894,"Ġinquiry":7895,"Ġhighlights":7896,"Ġmosquit":7897,"Ġfluent":7898,"charge":7899,"Ġconvince":7900,"Ġancest":7901,"Ġfisher":7902,"Ġanonymous":7903,"Ġretirement":7904,"Ġlonely":7905,"Ġanalytics":7906,"Ġartificial":7907,"Ġatmosphere":7908,"Ġtropical":7909,"Ġdhammika":7910,"Ġnonsense":7911,"Ġrajagiriya":7912,"Ġuniform":7913,"galle":7914,"ius":7915,"mir":7916,"mah":7917,"rama":7918,"ti":7919,"Ġtons":7920,"Ġios":7921,"erous":7922,"Ġcz":7923,"Ġfasc":7924,"Ġpill":7925,"Ġpump":7926,"Ġhits":7927,"ingly":7928,"Ġlord":7929,"Ġlounge":7930,"Ġinver":7931,"Ġnun":7932,"Ġnde":7933,"Ġga":7934,"otes":7935,"ams":7936,"Ġju":7937,"Ġsees":7938,"Ġchil":7939,"Ġplz":7940,"Ġprosec":7941,"ortion":7942,"abh":7943,"osh":7944,"Ġreck":7945,"agoda":7946,"Ġages":7947,"Ġaged":7948,"ckets":7949,"Ġindeed":7950,"Ġdecline":7951,"Ġpostp":7952,"Ġpostgr":7953,"Ġtravels":7954,"Ġ96":7955,"Ġconnecting":7956,"whats":7957,"Ġassass":7958,"Ġeducate":7959,"Ġfarmers":7960,"Ġhardly":7961,"Ġbiomed":7962,"Ġestimate":7963,"Ġpromise":7964,"Ġwaterfalls":7965,"Ġbranded":7966,"Ġsafely":7967,"Ġmanageable":7968,"Ġannoy":7969,"Ġ225":7970,"Ġemployer":7971,"Ġaccordingly":7972,"Ġpatri":7973,"Ġmisle":7974,"Ġfemin":7975,"Ġprovincial":7976,"ography":7977,"Ġscrew":7978,"Ġconsumers":7979,"Ġassistant":7980,"Ġsanct":7981,"Ġkumar":7982,"Ġutter":7983,"Ġpollution":7984,"Ġpreference":7985,"Ġderana":7986,"Ġflexible":7987,"Ġvirtual":7988,"Ġkilomet":7989,"Ġdisclaim":7990,"Ġratnapura":7991,"Ġworkshop":7992,"Ġlenovo":7993,"Ġdisease":7994,"Ġorphanage":7995,"arrass":7996,"Ġmagistrate":7997,"Ġprominent":7998,"Ġpidurangala":7999,"Ġwelfare":8000,"Ġcautious":8001,"father":8002,"iving":8003,"lord":8004,"math":8005,"neriya":8006,"ping":8007,"person":8008,"ras":8009,"yani":8010,"zen":8011,"reen":8012,"eries":8013,"Ġmi":8014,"Ġmend":8015,"Ġbf":8016,"Ġpour":8017,"Ġdines":8018,"Ġnit":8019,"Ġgce":8020,"Ġgrid":8021,"Ġforth":8022,"Ġstorm":8023,"Ġfrance":8024,"Ġva":8025,"Ġsuz":8026,"elts":8027,"apal":8028,"Ġpek":8029,"Ġwhoever":8030,"Ġapplies":8031,"Ġoutput":8032,"Ġtries":8033,"erves":8034,"Ġedition":8035,"Ġ92":8036,"Ġbasket":8037,"Ġsmoke":8038,"Ġsuggesting":8039,"Ġguides":8040,"Ġdepreci":8041,"Ġgreater":8042,"Ġterrit":8043,"Ġdiscord":8044,"Ġcultures":8045,"Ġ125":8046,"Ġreasonably":8047,"uki":8048,"Ġconclus":8049,"Ġwelcoming":8050,"Ġpromising":8051,"Ġharsha":8052,"Ġservers":8053,"Ġorganisation":8054,"Ġeconomynext":8055,"Ġstreams":8056,"Ġpassports":8057,"Ġfortress":8058,"Ġpremises":8059,"Ġdownloading":8060,"Ġprovinces":8061,"Ġrelaxed":8062,"Ġpromoted":8063,"Ġcorporation":8064,"Ġinstalled":8065,"Ġearnings":8066,"Ġfinishing":8067,"Ġprocedures":8068,"Ġnaval":8069,"Ġmechanism":8070,"Ġmosque":8071,"Ġacademics":8072,"Ġsuspended":8073,"Ġdental":8074,"Ġinvolvement":8075,"Ġfabric":8076,"Ġentitled":8077,"Ġpodcast":8078,"Ġkatunayake":8079,"Ġdisclaimer":8080,"Ġdinesh":8081,"36":8082,"city":8083,"case":8084,"cery":8085,"ew":8086,"gen":8087,"hrs":8088,"pot":8089,"rary":8090,"Ġipl":8091,"Ġmud":8092,"Ġbambalapitiya":8093,"Ġfon":8094,"Ġpissed":8095,"enn":8096,"itable":8097,"Ġox":8098,"Ġoly":8099,"stud":8100,"Ġbeg":8101,"Ġisp":8102,"Ġisnt":8103,"olved":8104,"Ġorg":8105,"chool":8106,"urren":8107,"Ġja":8108,"Ġraining":8109,"Ġdelic":8110,"Ġtrap":8111,"Ġabol":8112,"Ġalph":8113,"aint":8114,"bod":8115,"osop":8116,"Ġappeared":8117,"Ġcomparing":8118,"Ġcomprom":8119,"Ġintim":8120,"Ġprimarily":8121,"aug":8122,"assad":8123,"Ġresist":8124,"Ġmonkeys":8125,"Ġstudio":8126,"Ġinterior":8127,"Ġminneriya":8128,"Ġdecre":8129,"Ġ86":8130,"Ġworldwide":8131,"Ġsuggests":8132,"Ġparan":8133,"Ġoptim":8134,"Ġsyn":8135,"Ġlegend":8136,"Ġmarketplace":8137,"health":8138,"Ġlearners":8139,"Ġdistract":8140,"Ġroutine":8141,"Ġpaste":8142,"Ġ188":8143,"Ġseconds":8144,"srilanka":8145,"Ġ130":8146,"Ġlowest":8147,"Ġholders":8148,"Ġaccepting":8149,"Ġdiscussing":8150,"Ġsentiment":8151,"Ġdelays":8152,"Ġstrongly":8153,"Ġaddressed":8154,"Ġsamar":8155,"Ġexpressway":8156,"Ġneighbors":8157,"Ġrestricted":8158,"Ġembarrass":8159,"ceries":8160,"Ġambul":8161,"Ġsemi":8162,"Ġreferred":8163,"Ġradio":8164,"Ġrecipes":8165,"Ġpilgri":8166,"Ġkotte":8167,"Ġgroceries":8168,"Ġencountered":8169,"Ġsatisfied":8170,"Ġbrutal":8171,"Ġfulfill":8172,"Ġsettled":8173,"Ġstretch":8174,"Ġportfolio":8175,"Ġnervous":8176,"Ġcameras":8177,"Ġinconven":8178,"Ġpekoe":8179,"bn":8180,"gl":8181,"hal":8182,"lings":8183,"oons":8184,"sal":8185,"ull":8186,"wan":8187,"Ġsets":8188,"Ġsamb":8189,"Ġthar":8190,"Ġwing":8191,"oured":8192,"Ġfled":8193,"Ġpants":8194,"Ġdun":8195,"Ġdict":8196,"Ġnwe":8197,"alam":8198,"Ġoa":8199,"Ġoc":8200,"Ġeager":8201,"Ġreh":8202,"static":8203,"Ġbeef":8204,"Ġui":8205,"Ġstere":8206,"Ġka":8207,"Ġshif":8208,"Ġmee":8209,"istent":8210,"arency":8211,"Ġloving":8212,"Ġoutlets":8213,"Ġcoins":8214,"Ġworker":8215,"Ġspan":8216,"Ġmonu":8217,"Ġpra":8218,"Ġincons":8219,"athan":8220,"Ġ62":8221,"Ġcreation":8222,"Ġ73":8223,"Ġdrives":8224,"Ġhappiness":8225,"Ġconnectivity":8226,"Ġpassword":8227,"Ġsought":8228,"Ġcultiv":8229,"Ġsolved":8230,"Ġexploration":8231,"Ġflowers":8232,"Ġmora":8233,"Ġzones":8234,"Ġ110":8235,"Ġheaded":8236,"Ġwaited":8237,"ikud":8238,"Ġ2004":8239,"Ġactivists":8240,"Ġbreakdown":8241,"Ġaccessories":8242,"Ġntr":8243,"Ġsorted":8244,"Ġsilence":8245,"Ġlabor":8246,"Ġnecessarily":8247,"Ġstressful":8248,"Ġessentially":8249,"Ġpcr":8250,"Ġdocumentation":8251,"Ġadvertising":8252,"Ġillness":8253,"Ġcampaigns":8254,"Ġambassad":8255,"Ġparticipation":8256,"Ġgardens":8257,"Ġnurses":8258,"Ġultimate":8259,"Ġecstatic":8260,"Ġventure":8261,"Ġclinical":8262,"Ġprincipal":8263,"Ġtransparency":8264,"Ġsolely":8265,"Ġunusual":8266,"Ġignorant":8267,"Ġphilosop":8268,"Ġmullaitivu":8269,"Ġgalaxy":8270,"Ġyahapal":8271,"Ġinverter":8272,"Ġbiomedical":8273,"apped":8274,"bar":8275,"rition":8276,"some":8277,"water":8278,"zed":8279,"Ġsed":8280,"intern":8281,"Ġciting":8282,"Ġmile":8283,"Ġbum":8284,"Ġbeng":8285,"Ġpets":8286,"Ġlaid":8287,"Ġdust":8288,"edy":8289,"Ġnis":8290,"Ġstig":8291,"Ġjul":8292,"ested":8293,"Ġroti":8294,"Ġneck":8295,"ilit":8296,"Ġsuck":8297,"Ġwashing":8298,"Ġabt":8299,"Ġabused":8300,"Ġproc":8301,"abilities":8302,"quate":8303,"Ġrecall":8304,"Ġoutr":8305,"Ġimplic":8306,"Ġovercome":8307,"ubow":8308,"Ġengaged":8309,"Ġengaging":8310,"Ġwellawatte":8311,"Ġtrained":8312,"Ġhotsp":8313,"Ġcareers":8314,"Ġdrag":8315,"ugs":8316,"Ġnumerous":8317,"Ġbiological":8318,"Ġstands":8319,"Ġeditor":8320,"Ġfiles":8321,"Ġtreating":8322,"Ġequally":8323,"Ġsunrise":8324,"Ġverified":8325,"Ġvictor":8326,"Ġbrokers":8327,"Ġignoring":8328,"Ġkalpitiya":8329,"Ġbedroom":8330,"Ġcrying":8331,"Ġmachines":8332,"Ġliberation":8333,"Ġtrauma":8334,"Ġaiming":8335,"Ġconservation":8336,"Ġpinn":8337,"Ġconcepts":8338,"Ġclinic":8339,"Ġgathering":8340,"Ġcommander":8341,"Ġlifted":8342,"Ġisolated":8343,"Ġdisconnected":8344,"Ġpfca":8345,"Ġfestivals":8346,"Ġcargills":8347,"Ġbubble":8348,"Ġlazy":8349,"Ġsuzuki":8350,"45":8351,"55":8352,"ias":8353,"jo":8354,"ml":8355,"parent":8356,"uks":8357,"Ġaka":8358,"Ġsid":8359,"Ġsare":8360,"Ġthick":8361,"Ġthorough":8362,"Ġther":8363,"erable":8364,"Ġcul":8365,"Ġmort":8366,"Ġbol":8367,"Ġfou":8368,"Ġpace":8369,"Ġpink":8370,"Ġanime":8371,"Ġlah":8372,"Ġdick":8373,"Ġdraft":8374,"Ġdengue":8375,"Ġncon":8376,"oma":8377,"aris":8378,"Ġek":8379,"Ġstir":8380,"Ġjack":8381,"Ġrab":8382,"Ġshed":8383,"opular":8384,"Ġplays":8385,"Ġpear":8386,"agers":8387,"Ġcompon":8388,"Ġ52":8389,"achchi":8390,"Ġadvoc":8391,"Ġrip":8392,"awatta":8393,"Ġrelic":8394,"Ġcargo":8395,"Ġinvite":8396,"Ġembr":8397,"Ġsupple":8398,"Ġblocking":8399,"Ġsubsequ":8400,"Ġawful":8401,"Ġawards":8402,"Ġdeserves":8403,"Ġcheckout":8404,"Ġmentions":8405,"uka":8406,"Ġeasiest":8407,"Ġlandlord":8408,"Ġwatches":8409,"Ġstring":8410,"Ġefficiency":8411,"Ġmaha":8412,"Ġspecialist":8413,"Ġdiscussed":8414,"Ġbright":8415,"Ġforwarding":8416,"Ġexchang":8417,"Ġfixing":8418,"Ġdestruction":8419,"Ġsenanayake":8420,"Ġnae":8421,"Ġcertainly":8422,"Ġdownloads":8423,"Ġimprovement":8424,"Ġlabs":8425,"Ġpresented":8426,"Ġdomain":8427,"Ġestablishments":8428,"Ġguidelines":8429,"Ġvolume":8430,"Ġtargeted":8431,"Ġlogic":8432,"Ġdeposits":8433,"Ġwithdrawal":8434,"Ġreferring":8435,"after":8436,"Ġradical":8437,"Ġoccasions":8438,"Ġpartnership":8439,"Ġframework":8440,"malana":8441,"Ġinspired":8442,"Ġpython":8443,"Ġannouncement":8444,"Ġnavigate":8445,"Ġdiesel":8446,"Ġclimbing":8447,"Ġukraine":8448,"Ġquarantine":8449,"Ġmendis":8450,"Ġstereoty":8451,"ciliation":8452,"lers":8453,"match":8454,"rac":8455,"west":8456,"Ġsd":8457,"Ġses":8458,"Ġsene":8459,"Ġwages":8460,"Ġcer":8461,"Ġmism":8462,"Ġber":8463,"Ġhd":8464,"Ġham":8465,"Ġlens":8466,"Ġdul":8467,"Ġdive":8468,"Ġdans":8469,"Ġner":8470,"Ġov":8471,"owered":8472,"oting":8473,"Ġisps":8474,"ids":8475,"Ġasse":8476,"Ġrains":8477,"Ġdell":8478,"udi":8479,"Ġuncon":8480,"Ġleak":8481,"Ġlocked":8482,"akk":8483,"Ġintended":8484,"Ġclock":8485,"Ġnewb":8486,"Ġdisag":8487,"Ġinterf":8488,"Ġintermedi":8489,"Ġroots":8490,"Ġjokes":8491,"Ġperpet":8492,"Ġreluct":8493,"Ġ79":8494,"ounds":8495,"Ġbeforehand":8496,"Ġsubt":8497,"Ġsymp":8498,"Ġimporters":8499,"Ġnationalist":8500,"Ġcenters":8501,"Ġquestioning":8502,"Ġcustody":8503,"Ġconcent":8504,"Ġrefuge":8505,"Ġfreaking":8506,"Ġqr":8507,"Ġclosely":8508,"Ġdrove":8509,"Ġpractically":8510,"Ġavoiding":8511,"oka":8512,"Ġdesigns":8513,"criptions":8514,"Ġcollecting":8515,"exp":8516,"Ġdistricts":8517,"Ġburger":8518,"Ġturtles":8519,"Ġcombank":8520,"Ġjewell":8521,"Ġdresses":8522,"Ġconductor":8523,"Ġvirgin":8524,"Ġvalidity":8525,"Ġseparately":8526,"Ġfishing":8527,"Ġjunction":8528,"Ġlogistics":8529,"Ġlecturer":8530,"Ġmeasure":8531,"Ġbulk":8532,"Ġcruel":8533,"Ġdiscounts":8534,"Ġincredible":8535,"Ġgateway":8536,"Ġthrott":8537,"Ġforgotten":8538,"Ġpharmacy":8539,"Ġdynam":8540,"Ġenforcement":8541,"Ġnissan":8542,"Ġorganisations":8543,"Ġvulner":8544,"Ġjazeera":8545,"Ġcrowds":8546,"Ġchilaw":8547,"parents":8548,"fting":8549,"iar":8550,"iques":8551,"mil":8552,"pick":8553,"vable":8554,"wat":8555,"Ġax":8556,"iny":8557,"erving":8558,"Ġcus":8559,"Ġmit":8560,"Ġgall":8561,"Ġepic":8562,"Ġreward":8563,"Ġub":8564,"Ġstars":8565,"Ġkg":8566,"Ġker":8567,"Ġkam":8568,"Ġorange":8569,"Ġrally":8570,"ppy":8571,"Ġnex":8572,"Ġbutter":8573,"Ġmere":8574,"Ġprohib":8575,"eling":8576,"Ġjustify":8577,"indu":8578,"akkara":8579,"Ġintend":8580,"asekara":8581,"ache":8582,"Ġcontrast":8583,"Ġindies":8584,"Ġphy":8585,"Ġgrass":8586,"avun":8587,"Ġ71":8588,"Ġtwist":8589,"Ġkeels":8590,"Ġ91":8591,"Ġblow":8592,"Ġcrash":8593,"Ġrealise":8594,"Ġdepth":8595,"Ġimportance":8596,"Ġfollowers":8597,"Ġadds":8598,"Ġboot":8599,"Ġ2013":8600,"Ġswift":8601,"Ġresulted":8602,"Ġqo":8603,"Ġmalay":8604,"Ġwalks":8605,"Ġperiods":8606,"Ġslip":8607,"Ġcabs":8608,"Ġsteal":8609,"Ġguessing":8610,"Ġjudgment":8611,"Ġcontributed":8612,"Ġcelebrations":8613,"Ġsubscription":8614,"Ġfaculties":8615,"Ġperspectives":8616,"Ġtuktuks":8617,"Ġassigned":8618,"matologist":8619,"Ġresigned":8620,"Ġfreelancer":8621,"Ġconsistently":8622,"Ġgpu":8623,"Ġtherapist":8624,"Ġheroes":8625,"Ġacademy":8626,"Ġreconciliation":8627,"Ġmanufacturer":8628,"Ġresolve":8629,"logic":8630,"Ġdiversity":8631,"ennai":8632,"Ġexpenditure":8633,"Ġmotorbike":8634,"Ġintimid":8635,"bus":8636,"flix":8637,"mare":8638,"uh":8639,"van":8640,"was":8641,"Ġti":8642,"Ġsb":8643,"rets":8644,"Ġccc":8645,"Ġbored":8646,"Ġfiction":8647,"oral":8648,"Ġpending":8649,"Ġhills":8650,"ingu":8651,"Ġgent":8652,"stal":8653,"llion":8654,"Ġsty":8655,"Ġstunning":8656,"verted":8657,"Ġkul":8658,"urf":8659,"urg":8660,"Ġdod":8661,"Ġdoors":8662,"Ġassh":8663,"Ġras":8664,"Ġshocking":8665,"oples":8666,"Ġfranch":8667,"Ġvavun":8668,"Ġtrails":8669,"Ġwhatso":8670,"Ġpean":8671,"Ġyours":8672,"Ġfever":8673,"Ġime":8674,"Ġloose":8675,"nings":8676,"Ġhadn":8677,"Ġcommute":8678,"ubs":8679,"ogy":8680,"Ġscar":8681,"Ġscro":8682,"Ġconsens":8683,"Ġcarn":8684,"Ġblast":8685,"Ġguit":8686,"Ġelim":8687,"Ġsoul":8688,"Ġlearnt":8689,"Ġterrif":8690,"Ġmatale":8691,"moa":8692,"Ġheadqu":8693,"Ġdirected":8694,"Ġallowance":8695,"Ġactivist":8696,"Ġobst":8697,"Ġcharger":8698,"Ġholds":8699,"Ġfilter":8700,"high":8701,"Ġrespective":8702,"Ġcompetit":8703,"Ġcollective":8704,"Ġsilver":8705,"Ġfastest":8706,"Ġaffecting":8707,"Ġcraving":8708,"Ġpanic":8709,"Ġjewel":8710,"Ġversions":8711,"Ġskincare":8712,"Ġapproached":8713,"Ġaudio":8714,"Ġprogressive":8715,"Ġlosses":8716,"Ġperfectly":8717,"Ġmerit":8718,"Ġappearance":8719,"Ġremoval":8720,"Ġclarification":8721,"Ġrenewal":8722,"Ġautomatically":8723,"Ġsmoking":8724,"Ġoccasional":8725,"iversity":8726,"Ġrushed":8727,"Ġdistribution":8728,"Ġvesak":8729,"Ġliquor":8730,"Ġadoption":8731,"Ġdisturbing":8732,"Ġincompet":8733,"Ġoverwhelming":8734,"Ġgrammar":8735,"Ġngeo":8736,"Ġrtx":8737,"Ġsiblings":8738,"Ġbicycle":8739,"Ġwisdom":8740,"Ġagenda":8741,"Ġpostgraduate":8742,"Ġwhatsoever":8743,"cg":8744,"gage":8745,"liness":8746,"look":8747,"mother":8748,"ni":8749,"nan":8750,"sinh":8751,"talam":8752,"wind":8753,"zer":8754,"Ġtone":8755,"Ġain":8756,"Ġsap":8757,"Ġwand":8758,"Ġcine":8759,"Ġmothers":8760,"Ġbn":8761,"Ġboring":8762,"Ġlma":8763,"Ġdal":8764,"Ġnsh":8765,"iser":8766,"Ġgross":8767,"llup":8768,"Ġbeating":8769,"acies":8770,"Ġstad":8771,"urance":8772,"Ġdos":8773,"Ġrm":8774,"Ġrow":8775,"Ġships":8776,"Ġfrank":8777,"Ġcombo":8778,"Ġchennai":8779,"pex":8780,"Ġallergy":8781,"Ġpeoples":8782,"respon":8783,"Ġexper":8784,"Ġenh":8785,"Ġenlight":8786,"Ġsauce":8787,"Ġmanif":8788,"Ġoffence":8789,"aches":8790,"Ġspecs":8791,"Ġtricks":8792,"osexual":8793,"Ġ750":8794,"Ġpresidents":8795,"Ġinsta":8796,"Ġbless":8797,"Ġideology":8798,"Ġlasting":8799,"Ġnightmare":8800,"Ġgenerate":8801,"Ġesc":8802,"ocurren":8803,"Ġmatt":8804,"Ġfarm":8805,"Ġdetained":8806,"Ġdetention":8807,"Ġswear":8808,"Ġruins":8809,"Ġsoftlogic":8810,"Ġdealt":8811,"Ġincreases":8812,"Ġactivated":8813,"Ġcapita":8814,"Ġnetflix":8815,"Ġcontrolled":8816,"Ġdelhi":8817,"Ġseniors":8818,"Ġviolation":8819,"Ġsorts":8820,"Ġaddressing":8821,"Ġaffects":8822,"Ġodys":8823,"Ġmistaken":8824,"Ġstrikes":8825,"umbled":8826,"Ġwickremat":8827,"Ġrailways":8828,"Ġrevol":8829,"Ġrepresents":8830,"Ġscores":8831,"Ġinstallment":8832,"Ġflee":8833,"Ġaccidentally":8834,"Ġliberty":8835,"Ġanxious":8836,"Ġbullying":8837,"Ġepis":8838,"Ġpermanently":8839,"Ġbelongs":8840,"Ġdescribe":8841,"Ġthrown":8842,"Ġineff":8843,"Ġalevels":8844,"Ġextremist":8845,"Ġelderly":8846,"Ġhungry":8847,"Ġneighborhood":8848,"Ġpenalty":8849,"Ġnewspaper":8850,"Ġlockdown":8851,"Ġexceeding":8852,"Ġloyalty":8853,"Ġparadise":8854,"Ġbiscu":8855,"Ġnoodles":8856,"Ġpinnawala":8857,"Ġwickrematunge":8858,"27":8859,"bl":8860,"car":8861,"ella":8862,"field":8863,"jana":8864,"kers":8865,"Ġtier":8866,"Ġsang":8867,"Ġsne":8868,"educ":8869,"arath":8870,"Ġgath":8871,"lear":8872,"Ġreb":8873,"Ġreaction":8874,"ston":8875,"acles":8876,"Ġhect":8877,"Ġkong":8878,"ghan":8879,"Ġdoc":8880,"ppa":8881,"Ġvary":8882,"usd":8883,"istically":8884,"udu":8885,"emy":8886,"Ġallerg":8887,"venir":8888,"akaran":8889,"Ġcompreh":8890,"Ġcock":8891,"Ġmanual":8892,"Ġneeding":8893,"Ġcontains":8894,"Ġresc":8895,"Ġslim":8896,"Ġopens":8897,"Ġmeditation":8898,"Ġsupplies":8899,"Ġserves":8900,"Ġowns":8901,"Ġprivat":8902,"Ġprovisions":8903,"Ġsouvenir":8904,"Ġhole":8905,"Ġacknowled":8906,"Ġdevelopments":8907,"Ġfarming":8908,"Ġformat":8909,"Ġdistant":8910,"Ġconclud":8911,"aza":8912,"Ġrouters":8913,"Ġtemper":8914,"Ġpretending":8915,"Ġwaterfall":8916,"Ġartist":8917,"Ġmotion":8918,"Ġbrid":8919,"Ġexciting":8920,"Ġcommonly":8921,"Ġdevast":8922,"Ġsentence":8923,"Ġdifficulty":8924,"Ġcivilian":8925,"Ġcraft":8926,"Ġpanels":8927,"Ġsecretari":8928,"Ġadmir":8929,"aweera":8930,"Ġceleb":8931,"Ġdisappeared":8932,"Ġviral":8933,"Ġfrustration":8934,"Ġbrowsing":8935,"Ġcommissioner":8936,"Ġranks":8937,"Ġattendance":8938,"Ġconstitutional":8939,"Ġcriminals":8940,"Ġtraum":8941,"Ġpreferences":8942,"Ġnuts":8943,"Ġthrowing":8944,"Ġassaulted":8945,"Ġcryptocurren":8946,"Ġlasantha":8947,"Ġkicked":8948,"Ġliquid":8949,"Ġchampions":8950,"Ġensuring":8951,"Ġtweet":8952,"Ġfertilizer":8953,"Ġdolph":8954,"Ġtoilet":8955,"Ġenhance":8956,"21":8957,"ford":8958,"gd":8959,"kward":8960,"kera":8961,"mg":8962,"rison":8963,"taking":8964,"your":8965,"Ġous":8966,"Ġtun":8967,"Ġielts":8968,"Ġsate":8969,"ony":8970,"Ġcbsl":8971,"Ġmsi":8972,"Ġborder":8973,"Ġpac":8974,"Ġhong":8975,"Ġhide":8976,"Ġdaw":8977,"Ġinaug":8978,"Ġoy":8979,"Ġrear":8980,"Ġyrs":8981,"eter":8982,"ayan":8983,"Ġstead":8984,"ctional":8985,"Ġkne":8986,"Ġkno":8987,"Ġorth":8988,"ooked":8989,"ira":8990,"irus":8991,"Ġjam":8992,"Ġexhib":8993,"Ġatro":8994,"Ġabortion":8995,"unity":8996,"Ġunl":8997,"Ġcolleg":8998,"inding":8999,"Ġexpired":9000,"Ġsapp":9001,"sole":9002,"agamuwa":9003,"ansion":9004,"Ġarbit":9005,"Ġcurries":9006,"Ġphr":9007,"ogether":9008,"Ġscary":9009,"Ġcreat":9010,"Ġsheet":9011,"Ġfool":9012,"Ġconsp":9013,"Ġconscious":9014,"Ġdowns":9015,"Ġforecast":9016,"Ġawkward":9017,"Ġinvestor":9018,"lankan":9019,"Ġwondered":9020,"Ġdiscour":9021,"Ġholy":9022,"Ġflour":9023,"Ġ112":9024,"Ġshortly":9025,"world":9026,"Ġbehave":9027,"Ġmalabe":9028,"Ġfinances":9029,"Ġdrops":9030,"Ġdeliber":9031,"Ġmotherboard":9032,"ilipp":9033,"Ġprotected":9034,"Ġnationals":9035,"Ġrecognize":9036,"Ġpsychologist":9037,"trans":9038,"Ġvillages":9039,"Ġhyper":9040,"Ġhygi":9041,"Ġunpro":9042,"Ġpoorly":9043,"Ġfolk":9044,"Ġdomin":9045,"Ġlaks":9046,"Ġgrandparents":9047,"Ġjeep":9048,"Ġestablishment":9049,"Ġpermits":9050,"Ġmaintaining":9051,"Ġguns":9052,"Ġgunaward":9053,"Ġaccommodations":9054,"Ġsummary":9055,"Ġtargeting":9056,"Ġdeclined":9057,"Ġresorts":9058,"Ġsquad":9059,"Ġravi":9060,"Ġvenues":9061,"Ġpilot":9062,"Ġgpa":9063,"Ġguaranteed":9064,"Ġentrepreneurs":9065,"Ġrapidly":9066,"Ġexclusive":9067,"Ġinspector":9068,"Ġfantastic":9069,"Ġdeducted":9070,"Ġshelter":9071,"bourne":9072,"Ġprescribed":9073,"information":9074,"police":9075,"Ġsenevir":9076,"Ġgentle":9077,"Ġvavuniya":9078,"Ġguitar":9079,"Ġlmao":9080,"Ġstadium":9081,"Ġodyssey":9082,"Ġsecretariat":9083,"Ġcolleges":9084,"38":9085,"44":9086,"don":9087,"fp":9088,"jee":9089,"ped":9090,"ris":9091,"ueless":9092,"Ġtack":9093,"rer":9094,"Ġwoke":9095,"ancies":9096,"Ġpunch":9097,"Ġhook":9098,"esy":9099,"Ġinnings":9100,"Ġnac":9101,"Ġnich":9102,"Ġnme":9103,"Ġnether":9104,"Ġgh":9105,"Ġgad":9106,"Ġeh":9107,"stay":9108,"Ġdoable":9109,"Ġshower":9110,"andal":9111,"Ġchath":9112,"Ġchasing":9113,"ules":9114,"Ġloves":9115,"Ġacres":9116,"Ġambit":9117,"Ġveg":9118,"Ġ4000":9119,"Ġcontem":9120,"Ġvish":9121,"Ġspo":9122,"Ġspar":9123,"Ġspray":9124,"Ġpred":9125,"Ġprepar":9126,"ggers":9127,"Ġjoy":9128,"avid":9129,"Ġminim":9130,"Ġfup":9131,"Ġinterns":9132,"Ġbasics":9133,"Ġappreciation":9134,"Ġremand":9135,"Ġears":9136,"Ġoldest":9137,"Ġexaminations":9138,"Ġlegacy":9139,"Ġ119":9140,"arians":9141,"Ġdistress":9142,"Ġdirections":9143,"Ġ2500":9144,"Ġputtalam":9145,"Ġkidney":9146,"iciary":9147,"Ġtrek":9148,"Ġfunctional":9149,"Ġshock":9150,"Ġgreg":9151,"Ġcertifications":9152,"Ġcommented":9153,"host":9154,"mark":9155,"Ġcopies":9156,"Ġrider":9157,"Ġcomfortably":9158,"Ġpopularity":9159,"Ġcriteria":9160,"Ġemailed":9161,"Ġarches":9162,"Ġgrandfather":9163,"Ġtasty":9164,"Ġillegally":9165,"Ġranking":9166,"Ġsuspected":9167,"Ġdiscriminatory":9168,"Ġresponding":9169,"holders":9170,"Ġkoh":9171,"Ġmonitoring":9172,"Ġreveal":9173,"Ġemotions":9174,"Ġprofitable":9175,"Ġimpressive":9176,"Ġsurrounded":9177,"Ġassumed":9178,"Ġvegetables":9179,"Ġunlikely":9180,"Ġinfluencers":9181,"Ġcharacters":9182,"Ġresidential":9183,"cdon":9184,"Ġgrocery":9185,"Ġogf":9186,"Ġ1948":9187,"Ġwaters":9188,"Ġidiots":9189,"Ġsubstant":9190,"Ġhunting":9191,"Ġstructures":9192,"Ġoverwhelmed":9193,"Ġfingerprint":9194,"ttes":9195,"Ġexcessive":9196,"Ġskept":9197,"Ġdemonstr":9198,"Ġdatab":9199,"Ġexcluding":9200,"Ġtissama":9201,"Ġambassador":9202,"Ġoutrage":9203,"Ġmanifest":9204,"Ġcelebration":9205,"Ġnetherlands":9206,"66":9207,"aired":9208,"count":9209,"gama":9210,"home":9211,"sy":9212,"tion":9213,"wo":9214,"wal":9215,"zing":9216,"Ġtt":9217,"Ġtent":9218,"Ġtied":9219,"Ġist":9220,"Ġiam":9221,"Ġcct":9222,"another":9223,"Ġfif":9224,"Ġpit":9225,"Ġhack":9226,"Ġdess":9227,"Ġgut":9228,"Ġwhis":9229,"Ġforum":9230,"etime":9231,"Ġhaha":9232,"Ġrup":9233,"Ġrcs":9234,"Ġseal":9235,"Ġfry":9236,"Ġvous":9237,"Ġnoticing":9238,"Ġchip":9239,"ulating":9240,"Ġadapter":9241,"Ġunsafe":9242,"Ġusb":9243,"Ġloading":9244,"Ġrecording":9245,"Ġdonate":9246,"Ġintense":9247,"Ġpodu":9248,"Ġresume":9249,"awela":9250,"Ġbackup":9251,"Ġphilipp":9252,"avan":9253,"aved":9254,"Ġcreates":9255,"Ġherath":9256,"vernment":9257,"Ġcheating":9258,"Ġfewer":9259,"Ġsuppose":9260,"uwan":9261,"wealth":9262,"Ġcringe":9263,"Ġhobby":9264,"hello":9265,"Ġmoral":9266,"Ġvibr":9267,"Ġvalued":9268,"Ġrefusing":9269,"Ġsignature":9270,"Ġminds":9271,"Ġarrives":9272,"Ġqe":9273,"Ġ140":9274,"Ġviewed":9275,"Ġharini":9276,"Ġactivate":9277,"Ġteachings":9278,"Ġcamps":9279,"Ġpolicem":9280,"cost":9281,"Ġemployers":9282,"Ġspeaks":9283,"Ġreliability":9284,"Ġsexually":9285,"Ġcontrolling":9286,"Ġcycl":9287,"Ġdamro":9288,"Ġcompetitions":9289,"Ġconsideration":9290,"Ġearners":9291,"Ġbatting":9292,"Ġjapura":9293,"Ġregistr":9294,"Ġruled":9295,"Ġexistence":9296,"Ġdivide":9297,"Ġjayeward":9298,"Ġncol":9299,"Ġdeadline":9300,"Ġcelebrated":9301,"Ġcelebrating":9302,"Ġobserved":9303,"Ġvaccinated":9304,"Ġkollup":9305,"Ġrepresentatives":9306,"Ġbroadcast":9307,"Ġdelivering":9308,"Ġutil":9309,"Ġaimed":9310,"Ġdispos":9311,"Ġafrican":9312,"Ġultimately":9313,"Ġautomatic":9314,"Ġagricultural":9315,"Ġdermatologist":9316,"Ġugly":9317,"Ġcartoon":9318,"Ġmicrosoft":9319,"Ġnegotiate":9320,"Ġlyrics":9321,"Ġhabits":9322,"Ġmelbourne":9323,"Ġmotivated":9324,"Ġconvinced":9325,"Ġexploit":9326,"Ġglasses":9327,"Ġorientation":9328,"Ġdesktop":9329,"Ġmutual":9330,"Ġranges":9331,"Ġcontinuous":9332,"Ġtroops":9333,"Ġprevention":9334,"Ġrepeatedly":9335,"Ġdismissed":9336,"Ġgraphics":9337,"Ġcreepy":9338,"Ġshady":9339,"Ġcigarettes":9340,"Ġneutral":9341,"Ġconclusion":9342,"Ġdelicious":9343,"Ġimplications":9344,"Ġseneviratne":9345,"bath":9346,"dney":9347,"gaya":9348,"hab":9349,"kw":9350,"lly":9351,"mail":9352,"uff":9353,"Ġapt":9354,"Ġajith":9355,"Ġire":9356,"Ġsis":9357,"Ġthie":9358,"Ġcents":9359,"Ġmur":9360,"Ġbast":9361,"Ġpor":9362,"Ġpics":9363,"Ġnes":9364,"Ġgmoa":9365,"Ġbeij":9366,"Ġstabil":9367,"iders":9368,"Ġheck":9369,"Ġkusal":9370,"Ġmyst":9371,"chchi":9372,"Ġligh":9373,"oneer":9374,"Ġshots":9375,"Ġtrc":9376,"Ġtrag":9377,"Ġchron":9378,"Ġplates":9379,"istani":9380,"eliya":9381,"Ġunav":9382,"Ġleasing":9383,"alla":9384,"Ġenfor":9385,"Ġenabled":9386,"Ġpockets":9387,"Ġclueless":9388,"Ġafghan":9389,"ife":9390,"Ġarun":9391,"Ġarug":9392,"Ġarrog":9393,"Ġvisual":9394,"Ġreset":9395,"aws":9396,"athi":9397,"epura":9398,"avirus":9399,"ression":9400,"Ġdecor":9401,"adeep":9402,"Ġpostal":9403,"neys":9404,"Ġmedal":9405,"pected":9406,"Ġbasil":9407,"Ġissuing":9408,"ateral":9409,"Ġcared":9410,"Ġagreements":9411,"Ġpowercut":9412,"Ġ128":9413,"Ġsolving":9414,"Ġcell":9415,"Ġsouthe":9416,"Ġcenturies":9417,"heed":9418,"Ġnorms":9419,"Ġ2006":9420,"Ġtechnically":9421,"Ġpropose":9422,"Ġpathetic":9423,"Ġfailures":9424,"Ġcommonwealth":9425,"Ġoperators":9426,"Ġsurface":9427,"Ġcasually":9428,"Ġimmense":9429,"Ġbarrier":9430,"iyo":9431,"Ġracial":9432,"Ġintrovert":9433,"Ġdhan":9434,"Ġscenery":9435,"Ġmagic":9436,"Ġtracks":9437,"Ġtargets":9438,"Ġsuperv":9439,"Ġsquare":9440,"Ġwealthy":9441,"Ġphotographer":9442,"Ġroman":9443,"Ġtonight":9444,"Ġkataragama":9445,"Ġbranches":9446,"Ġadvisor":9447,"Ġcaste":9448,"Ġboundaries":9449,"Ġcontinuously":9450,"Ġbirds":9451,"Ġsharp":9452,"suggestions":9453,"Ġweapons":9454,"Ġyoga":9455,"Ġaccomodation":9456,"Ġperceived":9457,"Ġbatteries":9458,"Ġphilosophy":9459,"Ġpearl":9460,"Ġassemb":9461,"Ġcinec":9462,"Ġousl":9463,"Ġcctv":9464,"Ġbeijing":9465,"100":9466,"dri":9467,"mk":9468,"nn":9469,"power":9470,"pods":9471,"wela":9472,"Ġthai":9473,"Ġwides":9474,"eration":9475,"Ġmart":9476,"Ġmawatha":9477,"Ġlacking":9478,"Ġlitter":9479,"Ġdash":9480,"Ġinsec":9481,"Ġnest":9482,"Ġnall":9483,"Ġreverse":9484,"station":9485,"Ġyt":9486,"Ġstall":9487,"Ġstumbled":9488,"amy":9489,"aman":9490,"adana":9491,"Ġarent":9492,"Ġashamed":9493,"Ġjs":9494,"Ġvital":9495,"Ġwors":9496,"Ġacid":9497,"Ġaccel":9498,"Ġamp":9499,"rying":9500,"Ġtimeline":9501,"Ġcoal":9502,"Ġhelpless":9503,"Ġripped":9504,"Ġriots":9505,"Ġpreval":9506,"Ġprabh":9507,"Ġoverc":9508,"Ġroast":9509,"Ġfinds":9510,"Ġcrem":9511,"Ġbuyers":9512,"otherap":9513,"Ġmakeup":9514,"Ġ82":9515,"Ġbucks":9516,"Ġwars":9517,"Ġpricey":9518,"Ġchecks":9519,"Ġboats":9520,"Ġproductive":9521,"Ġmodi":9522,"Ġresearchers":9523,"ikk":9524,"Ġcricketers":9525,"Ġcontacting":9526,"Ġdepartments":9527,"Ġinflated":9528,"Ġreplacing":9529,"Ġoperated":9530,"Ġinvolves":9531,"Ġviolations":9532,"Ġdifficulties":9533,"Ġcope":9534,"Ġappointments":9535,"Ġbandw":9536,"Ġanimation":9537,"Ġspotify":9538,"Ġunfortunate":9539,"Ġgrandmother":9540,"Ġamericans":9541,"Ġpermitted":9542,"Ġhomophob":9543,"Ġpromotions":9544,"Ġtelephone":9545,"Ġtablet":9546,"Ġprosper":9547,"Ġnyou":9548,"Ġconsultation":9549,"Ġssd":9550,"Ġboxes":9551,"traveling":9552,"Ġbowler":9553,"Ġadopted":9554,"visa":9555,"Ġchocolates":9556,"Ġmotivation":9557,"Ġcalculated":9558,"Ġmoderate":9559,"Ġtransparent":9560,"Ġspiritual":9561,"Ġenthusiasts":9562,"Ġbatsman":9563,"Ġdeleted":9564,"Ġcodes":9565,"Ġrubber":9566,"Ġshouting":9567,"Ġtreasury":9568,"Ġbmw":9569,"Ġincorpor":9570,"8703":9571,"tourist":9572,"communic":9573,"private":9574,"Ġmisleading":9575,"Ġfonse":9576,"ubowan":9577,"Ġsatell":9578,"Ġtissamaharama":9579,"Ġdessert":9580,"Ġphilippines":9581,"Ġkollupitiya":9582,"Ġafghanistan":9583,"56":9584,"cse":9585,"dings":9586,"ews":9587,"ky":9588,"kin":9589,"nat":9590,"oly":9591,"pread":9592,"table":9593,"zel":9594,"Ġaesth":9595,"inity":9596,"Ġcis":9597,"Ġcott":9598,"Ġfought":9599,"Ġpitch":9600,"Ġpork":9601,"enepura":9602,"Ġhv":9603,"Ġlou":9604,"Ġdum":9605,"Ġdign":9606,"Ġdudes":9607,"Ġinher":9608,"Ġinject":9609,"Ġnz":9610,"Ġnli":9611,"omen":9612,"isc":9613,"isy":9614,"Ġgt":9615,"Ġged":9616,"Ġgee":9617,"riya":9618,"ica":9619,"Ġrebuild":9620,"otics":9621,"Ġuoc":9622,"Ġstom":9623,"Ġstance":9624,"Ġhavent":9625,"idth":9626,"olf":9627,"irts":9628,"Ġsel":9629,"Ġseam":9630,"Ġsocially":9631,"Ġtruck":9632,"Ġchips":9633,"Ġabe":9634,"Ġaluth":9635,"Ġunex":9636,"apa":9637,"Ġlod":9638,"resident":9639,"Ġexpose":9640,"Ġexpansion":9641,"osa":9642,"veness":9643,"Ġrecovered":9644,"Ġsafer":9645,"Ġdile":9646,"avel":9647,"ndering":9648,"Ġcommem":9649,"Ġspr":9650,"Ġincent":9651,"alai":9652,"Ġ61":9653,"Ġkandyan":9654,"Ġoptional":9655,"Ġsurve":9656,"Ġsurge":9657,"Ġela":9658,"Ġcharity":9659,"Ġbothered":9660,"Ġwarn":9661,"Ġassured":9662,"Ġceo":9663,"ambay":9664,"Ġheadphones":9665,"Ġprocessed":9666,"Ġdeficit":9667,"Ġranjith":9668,"Ġmeetups":9669,"Ġmiles":9670,"Ġtechniques":9671,"screen":9672,"Ġfuneral":9673,"Ġcaps":9674,"Ġshoe":9675,"Ġorganised":9676,"Ġholdings":9677,"Ġdigging":9678,"Ġsubjected":9679,"Ġstruggled":9680,"Ġliteracy":9681,"Ġcalend":9682,"Ġcalories":9683,"Ġigp":9684,"Ġprotecting":9685,"Ġglor":9686,"Ġamongst":9687,"Ġmisunder":9688,"Ġbeneficial":9689,"Ġstealing":9690,"Ġhorrif":9691,"Ġaudi":9692,"Ġranked":9693,"Ġdeclare":9694,"Ġinstallments":9695,"Ġlifetime":9696,"Ġresponsibilities":9697,"Ġraped":9698,"Ġboxing":9699,"ethical":9700,"Ġaims":9701,"Ġseverely":9702,"Ġhighlighted":9703,"Ġbullied":9704,"Ġtutors":9705,"Ġworrying":9706,"Ġbathroom":9707,"Ġcontroversy":9708,"Ġmemorable":9709,"Ġsupermarkets":9710,"ripala":9711,"Ġdefeat":9712,"Ġdelete":9713,"Ġexhausted":9714,"Ġaltogether":9715,"Ġscreenshot":9716,"Ġkarunaratne":9717,"Ġwireless":9718,"Ġcolumbo":9719,"Ġreckless":9720,"Ġsaree":9721,"Ġfounder":9722,"Ġdulith":9723,"Ġdisagree":9724,"Ġheadquarters":9725,"Ġenlighten":9726,"Ġgathered":9727,"Ġvishwa":9728,"Ġwidespread":9729,"Ġfonseka":9730,"78":9731,"hara":9732,"iff":9733,"iary":9734,"vision":9735,"with":9736,"Ġtil":9737,"Ġwalls":9738,"Ġwagon":9739,"Ġmou":9740,"Ġmood":9741,"Ġbil":9742,"Ġbite":9743,"Ġbung":9744,"Ġfired":9745,"atar":9746,"Ġpard":9747,"Ġhates":9748,"Ġhacked":9749,"inga":9750,"Ġnrs":9751,"omy":9752,"aroo":9753,"arks":9754,"Ġghost":9755,"Ġree":9756,"sters":9757,"owed":9758,"Ġital":9759,"Ġku":9760,"Ġkos":9761,"Ġkang":9762,"keep":9763,"iran":9764,"Ġexor":9765,"Ġconvent":9766,"Ġnotification":9767,"Ġchase":9768,"Ġalar":9769,"essional":9770,"Ġadj":9771,"Ġunst":9772,"Ġamaras":9773,"Ġexpense":9774,"Ġcompli":9775,"Ġcozy":9776,"Ġcountless":9777,"Ġtheme":9778,"Ġaccus":9779,"Ġspam":9780,"Ġacted":9781,"Ġdisregard":9782,"Ġcouldnt":9783,"Ġinterp":9784,"Ġ6000":9785,"Ġsheer":9786,"Ġfirstly":9787,"Ġwellness":9788,"Ġtwenty":9789,"Ġregulation":9790,"Ġembed":9791,"Ġmedi":9792,"Ġatto":9793,"Ġblank":9794,"Ġblah":9795,"Ġpassive":9796,"Ġrealistically":9797,"Ġdiscovery":9798,"Ġqualify":9799,"Ġskipping":9800,"Ġpacket":9801,"Ġneglect":9802,"Ġmeters":9803,"mani":9804,"Ġsignals":9805,"Ġlisting":9806,"Ġbelief":9807,"Ġmessy":9808,"Ġscamming":9809,"Ġsafaris":9810,"coin":9811,"Ġholder":9812,"Ġelements":9813,"Ġknowledgeable":9814,"Ġmassac":9815,"Ġbeginners":9816,"Ġwins":9817,"Ġmiserable":9818,"Ġbloom":9819,"Ġdressed":9820,"Ġenterpr":9821,"Ġhomosexual":9822,"Ġcontribution":9823,"Ġcontributing":9824,"Ġiran":9825,"Ġmarriages":9826,"Ġobtaining":9827,"Ġtextbooks":9828,"Ġregulatory":9829,"Ġ1983":9830,"Ġrenewed":9831,"Ġpakistani":9832,"Ġsights":9833,"Ġestimates":9834,"Ġflavors":9835,"Ġlyce":9836,"Ġlaughing":9837,"Ġdependent":9838,"Ġarrangements":9839,"Ġsponsored":9840,"Ġwheeler":9841,"Ġoutsour":9842,"Ġtorrent":9843,"Ġparcels":9844,"Ġvolunteer":9845,"Ġintellect":9846,"Ġconverting":9847,"Ġretrieved":9848,"Ġtidal":9849,"Ġfortunate":9850,"Ġdetermined":9851,"Ġgreetings":9852,"Ġhustle":9853,"Ġdirty":9854,"Ġcoronavirus":9855,"Ġlamprais":9856,"Ġsanctuary":9857,"Ġmonument":9858,"Ġintermediate":9859,"Ġjewellery":9860,"Ġimei":9861,"Ġconspir":9862,"Ġskeptical":9863,"Ġsoutheast":9864,"08":9865,"54":9866,"98":9867,"card":9868,"culation":9869,"hill":9870,"happ":9871,"made":9872,"oya":9873,"post":9874,"tail":9875,"uit":9876,"would":9877,"Ġtorn":9878,"Ġtables":9879,"Ġsket":9880,"rel":9881,"ince":9882,"Ġcens":9883,"Ġmouse":9884,"Ġfet":9885,"Ġfro":9886,"Ġpowered":9887,"Ġhiru":9888,"inging":9889,"Ġtodd":9890,"Ġlal":9891,"itudes":9892,"Ġyield":9893,"Ġont":9894,"acent":9895,"rocket":9896,"chem":9897,"nty":9898,"Ġseas":9899,"Ġvv":9900,"Ġvid":9901,"Ġtraged":9902,"Ġconsole":9903,"Ġplaza":9904,"Ġoutlet":9905,"Ġteas":9906,"Ġteeth":9907,"Ġcontrad":9908,"Ġaccredit":9909,"Ġrival":9910,"Ġworkload":9911,"Ġworkforce":9912,"aware":9913,"ggling":9914,"Ġpayoneer":9915,"Ġbuyer":9916,"Ġconsume":9917,"Ġinstances":9918,"tech":9919,"uwara":9920,"Ġguesth":9921,"Ġeconomically":9922,"Ġextract":9923,"Ġflower":9924,"Ġgiant":9925,"Ġpackets":9926,"otech":9927,"Ġdistinct":9928,"Ġputs":9929,"Ġresulting":9930,"otted":9931,"Ġmotors":9932,"Ġurge":9933,"Ġarrests":9934,"Ġgraduating":9935,"Ġrespected":9936,"Ġcompete":9937,"Ġcolleague":9938,"Ġbarg":9939,"Ġbarriers":9940,"Ġinvestigate":9941,"Ġdivided":9942,"Ġgeck":9943,"Ġdhl":9944,"Ġfights":9945,"Ġjudiciary":9946,"Ġtastes":9947,"Ġbackgrounds":9948,"Ġreservation":9949,"Ġaccommodate":9950,"Ġdepressing":9951,"Ġnarc":9952,"Ġadvertised":9953,"Ġhurts":9954,"Ġtrapped":9955,"Ġchurches":9956,"Ġapproximate":9957,"Ġthousand":9958,"Ġwijes":9959,"Ġdilshan":9960,"Ġwarnings":9961,"Ġskyrocket":9962,"Ġinnovative":9963,"Ġtalented":9964,"Ġintegrity":9965,"Ġengagement":9966,"Ġdancing":9967,"Ġkorean":9968,"Ġfruits":9969,"Ġrumors":9970,"Ġcredible":9971,"Ġfiscal":9972,"Ġscientific":9973,"Ġprivilege":9974,"Ġlicenses":9975,"Ġnewspapers":9976,"Ġintentions":9977,"Ġpasikud":9978,"Ġtaboo":9979,"Ġbotan":9980,"Ġunemployed":9981,"Ġmaithripala":9982,"Ġtactics":9983,"Ġolymp":9984,"experi":9985,"Ġvulnerable":9986,"stalg":9987,"Ġpodujana":9988,"Ġstomach":9989,"bor":9990,"bered":9991,"fh":9992,"fit":9993,"fessional":9994,"gge":9995,"oad":9996,"public":9997,"rising":9998,"tb":9999,"waram":10000,"yan":10001,"yrs":10002,"Ġtale":10003,"Ġaven":10004,"invest":10005,"Ġwimal":10006,"Ġthero":10007,"Ġpon":10008,"Ġht":10009,"Ġanth":10010,"Ġants":10011,"Ġtoll":10012,"Ġinappro":10013,"omi":10014,"arata":10015,"isure":10016,"Ġgroom":10017,"ashing":10018,"stop":10019,"Ġyr":10020,"Ġyork":10021,"search":10022,"Ġhealing":10023,"olve":10024,"adi":10025,"esty":10026,"Ġrated":10027,"ppu":10028,"Ġshan":10029,"Ġshang":10030,"Ġbutton":10031,"Ġvic":10032,"Ġsuits":10033,"Ġchains":10034,"Ġproph":10035,"ereats":10036,"arel":10037,"boards":10038,"aping":10039,"Ġcolours":10040,"Ġloads":10041,"asty":10042,"Ġrecur":10043,"Ġveter":10044,"Ġquiz":10045,"Ġquery":10046,"Ġpriest":10047,"Ġpoison":10048,"Ġnewer":10049,"Ġeverytime":10050,"aching":10051,"Ġrig":10052,"Ġslfp":10053,"Ġinfront":10054,"Ġ81":10055,"Ġcaring":10056,"Ġsupporter":10057,"Ġposh":10058,"Ġblat":10059,"Ġparked":10060,"Ġolds":10061,"Ġguilt":10062,"Ġ1960":10063,"Ġwrit":10064,"Ġwriter":10065,"Ġsydney":10066,"Ġrepost":10067,"Ġimprison":10068,"Ġlegends":10069,"ahini":10070,"Ġfarms":10071,"amba":10072,"Ġfacilit":10073,"Ġroadside":10074,"Ġgamage":10075,"Ġgamini":10076,"Ġranjan":10077,"Ġmeetup":10078,"Ġqs":10079,"Ġspecialize":10080,"Ġdigit":10081,"Ġbribe":10082,"Ġexcuses":10083,"Ġurged":10084,"Ġdevi":10085,"Ġbegins":10086,"Ġerrors":10087,"Ġvillas":10088,"Ġpriorities":10089,"Ġunpaid":10090,"Ġdiplomas":10091,"Ġbandar":10092,"ograph":10093,"Ġneighbours":10094,"Ġkillings":10095,"Ġdmt":10096,"Ġcircles":10097,"Ġgarment":10098,"Ġ1990":10099,"Ġintroducing":10100,"Ġsmartphone":10101,"Ġpalest":10102,"Ġclarity":10103,"Ġinitiated":10104,"Ġbowling":10105,"Ġcolorized":10106,"Ġdilmah":10107,"Ġempire":10108,"Ġinfluenced":10109,"Ġcircumc":10110,"Ġrussians":10111,"Ġlandscapes":10112,"check":10113,"Ġvendor":10114,"Ġidiot":10115,"Ġlesb":10116,"guard":10117,"Ġsacrifice":10118,"Ġgradually":10119,"Ġassessment":10120,"Ġhesitant":10121,"Ġscreaming":10122,"Ġgorge":10123,"Ġjayasuriya":10124,"Ġhotspot":10125,"Ġlahiru":10126,"Ġdickwella":10127,"Ġsubtit":10128,"Ġfranchise":10129,"Ġjewelry":10130,"Ġhectic":10131,"Ġdatabase":10132,"Ġvibrant":10133,"Ġprabhakaran":10134,"Ġbungal":10135,"48":10136,"cities":10137,"iries":10138,"trying":10139,"Ġsant":10140,"rete":10141,"Ġtheories":10142,"Ġmun":10143,"Ġmild":10144,"Ġbak":10145,"Ġbia":10146,"Ġfails":10147,"Ġpul":10148,"Ġhatch":10149,"Ġdb":10150,"Ġdd":10151,"eding":10152,"Ġnie":10153,"Ġnish":10154,"Ġnhe":10155,"ask":10156,"Ġecu":10157,"start":10158,"Ġons":10159,"acious":10160,"Ġstare":10161,"Ġstages":10162,"Ġstats":10163,"advant":10164,"chy":10165,"iris":10166,"uram":10167,"Ġasiri":10168,"Ġlil":10169,"Ġrational":10170,"Ġramb":10171,"Ġshifts":10172,"Ġmeme":10173,"opin":10174,"Ġexcel":10175,"Ġconce":10176,"andala":10177,"enders":10178,"Ġpled":10179,"Ġgods":10180,"ignty":10181,"abis":10182,"Ġleisure":10183,"lif":10184,"Ġnostalg":10185,"Ġdonation":10186,"ouses":10187,"aveli":10188,"Ġaftermath":10189,"Ġundermin":10190,"Ġoverly":10191,"Ġdisadvant":10192,"Ġcurtin":10193,"Ġbackend":10194,"athers":10195,"Ġbetray":10196,"Ġfindings":10197,"Ġherbal":10198,"Ġrelation":10199,"orship":10200,"Ġmayor":10201,"Ġmeds":10202,"Ġattacking":10203,"Ġremark":10204,"Ġbuck":10205,"Ġsurgeon":10206,"Ġlastly":10207,"Ġwrist":10208,"Ġkindness":10209,"Ġcarefully":10210,"ologists":10211,"Ġcompletion":10212,"Ġapr":10213,"Ġexplains":10214,"Ġflair":10215,"Ġnationality":10216,"Ġretreat":10217,"Ġpacks":10218,"Ġpackaging":10219,"Ġbiased":10220,"Ġformed":10221,"Ġdistances":10222,"Ġ256":10223,"Ġprocesses":10224,"Ġviewpoint":10225,"Ġrentals":10226,"Ġacceptance":10227,"Ġhalt":10228,"Ġdelft":10229,"Ġfiguring":10230,"Ġbillions":10231,"Ġdemanded":10232,"Ġexisted":10233,"Ġpeacefully":10234,"Ġbands":10235,"Ġbandara":10236,"anthi":10237,"Ġbanana":10238,"Ġhiding":10239,"Ġscenes":10240,"Ġjudicial":10241,"Ġhoriz":10242,"Ġayubowan":10243,"Ġrestriction":10244,"Ġirre":10245,"Ġvaccines":10246,"Ġalternatively":10247,"Ġkottawa":10248,"Ġpalm":10249,"Ġsticker":10250,"Ġharassing":10251,"Ġepf":10252,"Ġoccasionally":10253,"Ġstrictly":10254,"proof":10255,"Ġinfluencer":10256,"Ġdesperately":10257,"Ġdrawn":10258,"Ġarguments":10259,"Ġreminder":10260,"Ġjersey":10261,"Ġsponsor":10262,"Ġ1956":10263,"Ġencounter":10264,"Ġpigeon":10265,"Ġterminal":10266,"Ġamidst":10267,"Ġcollaboration":10268,"Ġlicensed":10269,"breaking":10270,"Ġgmail":10271,"Ġsovereign":10272,"Ġsovereignty":10273,"Ġdramas":10274,"Ġebay":10275,"Ġadequate":10276,"Ġbasketball":10277,"Ġntrans":10278,"Ġyahapalana":10279,"Ġvictoria":10280,"Ġreluctant":10281,"Ġsympath":10282,"sinhala":10283,"Ġrmv":10284,"Ġcomprehensive":10285,"Ġpacific":10286,"Ġgunawardena":10287,"Ġniche":10288,"Ġtragic":10289,"Ġarugambay":10290,"Ġovercrow":10291,"Ġitalian":10292,"34":10293,"fire":10294,"gath":10295,"kb":10296,"mma":10297,"tes":10298,"tips":10299,"yard":10300,"Ġtong":10301,"Ġtens":10302,"Ġtensions":10303,"Ġauss":10304,"Ġsized":10305,"Ġthal":10306,"Ġthier":10307,"rence":10308,"Ġwow":10309,"Ġwine":10310,"Ġcb":10311,"Ġmes":10312,"Ġmour":10313,"Ġmunic":10314,"Ġbd":10315,"Ġfm":10316,"Ġfing":10317,"Ġhated":10318,"Ġhomet":10319,"Ġlmk":10320,"Ġinr":10321,"Ġnss":10322,"alous":10323,"Ġgan":10324,"Ġreduction":10325,"llor":10326,"Ġux":10327,"Ġstalls":10328,"Ġweed":10329,"Ġweigh":10330,"ceylon":10331,"Ġkade":10332,"adh":10333,"ching":10334,"Ġjur":10335,"Ġjames":10336,"Ġrag":10337,"Ġnel":10338,"Ġshamp":10339,"Ġshaped":10340,"Ġseg":10341,"Ġvig":10342,"Ġcher":10343,"Ġchest":10344,"Ġpla":10345,"Ġalum":10346,"Ġmodu":10347,"igen":10348,"abwe":10349,"Ġunethical":10350,"Ġleaked":10351,"Ġlos":10352,"Ġamar":10353,"Ġfears":10354,"Ġexplic":10355,"Ġapparel":10356,"Ġtiming":10357,"Ġtimings":10358,"akoon":10359,"Ġimax":10360,"agi":10361,"agger":10362,"Ġteens":10363,"Ġmango":10364,"Ġpools":10365,"Ġcla":10366,"Ġoffense":10367,"Ġmoreover":10368,"Ġthankfully":10369,"Ġshoulder":10370,"Ġresiding":10371,"Ġmonop":10372,"Ġinteraction":10373,"Ġscrap":10374,"plus":10375,"Ġtrigge":10376,"angle":10377,"angers":10378,"Ġmarking":10379,"Ġcreators":10380,"Ġreloc":10381,"Ġtwent":10382,"odi":10383,"anybody":10384,"Ġtransm":10385,"Ġairpods":10386,"orders":10387,"Ġremained":10388,"Ġtrainee":10389,"Ġbug":10390,"Ġburied":10391,"Ġentity":10392,"Ġ1980":10393,"Ġ1970":10394,"Ġeconomical":10395,"Ġcares":10396,"Ġpolitically":10397,"Ġrestruct":10398,"Ġimpose":10399,"Ġswap":10400,"Ġmodules":10401,"Ġformats":10402,"Ġdirectors":10403,"Ġprocessor":10404,"Ġportable":10405,"Ġarrivals":10406,"Ġsecondly":10407,"Ġmessaging":10408,"Ġsafest":10409,"Ġanswering":10410,"Ġbelt":10411,"Ġ220":10412,"government":10413,"Ġfiling":10414,"Ġstruck":10415,"iliy":10416,"news":10417,"Ġoperator":10418,"Ġbalanced":10419,"Ġweddings":10420,"Ġnpro":10421,"Ġcalor":10422,"Ġmassage":10423,"ronics":10424,"Ġsnack":10425,"marks":10426,"Ġsunil":10427,"Ġaddresses":10428,"Ġhaircut":10429,"Ġsignificance":10430,"Ġthreaten":10431,"Ġuda":10432,"Ġperforming":10433,"Ġattempting":10434,"Ġlaksh":10435,"Ġsupposedly":10436,"Ġsoldier":10437,"Ġbaggage":10438,"Ġperfume":10439,"Ġtelecommunic":10440,"Ġluxuri":10441,"Ġarguing":10442,"Ġratio":10443,"Ġratmalana":10444,"Ġrepresented":10445,"Ġsubsid":10446,"Ġpalace":10447,"rolog":10448,"imbabwe":10449,"Ġmacro":10450,"Ġnurse":10451,"Ġmandate":10452,"Ġurgently":10453,"Ġsnorkelling":10454,"Ġinquired":10455,"Ġinquiries":10456,"Ġstrengthening":10457,"xxxx":10458,"Ġnilaveli":10459,"Ġadvisable":10460,"Ġobjects":10461,"inochchi":10462,"Ġbonds":10463,"Ġjerome":10464,"Ġsuspension":10465,"Ġmemorial":10466,"Ġathlet":10467,"Ġranging":10468,"Ġcannabis":10469,"Ġresolved":10470,"Ġsabar":10471,"listed":10472,"Ġmerchants":10473,"Ġgraphite":10474,"Ġconverted":10475,"Ġallocated":10476,"budget":10477,"Ġlinux":10478,"Ġinfection":10479,"Ġincorrect":10480,"Ġcooperation":10481,"Ġinclusive":10482,"Ġleopard":10483,"Ġleopards":10484,"Ġbundle":10485,"Ġentrepreneurship":10486,"Ġexercise":10487,"Ġsocietal":10488,"Ġkiribath":10489,"Ġannoyed":10490,"Ġterritory":10491,"Ġresistance":10492,"Ġpilgrim":10493,"Ġrehabil":10494,"Ġmileage":10495,"Ġscrolling":10496,"Ġcarnage":10497,"Ġexperiment":10498,"Ġepisode":10499,"Ġrescue":10500,"Ġatrocities":10501,"Ġgregory":10502,"cdonald":10503,"Ġchronic":10504,"Ġacceler":10505,"Ġsatellite":10506,"Ġabeys":10507,"Ġunexpected":10508,"Ġcalendar":10509,"Ġconspiracy":10510,"Ġtragedy":10511,"Ġlesbian":10512,"Ġgorgeous":10513,"Ġmunicip":10514,"Ġhometown":10515,"Ġmodule":10516,"Ġexplicit":10517,"Ġtriggered":10518,"58":10519,"ez":10520,"rome":10521,"rum":10522,"trip":10523,"wr":10524,"war":10525,"zens":10526,"Ġaq":10527,"Ġaaa":10528,"Ġiy":10529,"reced":10530,"inters":10531,"Ġcem":10532,"Ġmural":10533,"Ġbiri":10534,"enic":10535,"Ġhp":10536,"Ġhood":10537,"Ġane":10538,"Ġlite":10539,"Ġdow":10540,"Ġinch":10541,"Ġnfor":10542,"arachchi":10543,"Ġecon":10544,"Ġeco":10545,"Ġreception":10546,"lywood":10547,"storm":10548,"llation":10549,"Ġuva":10550,"ayaka":10551,"Ġstal":10552,"Ġhaunt":10553,"idal":10554,"Ġkfc":10555,"adan":10556,"irt":10557,"iration":10558,"Ġdozens":10559,"Ġserend":10560,"Ġsod":10561,"Ġmeets":10562,"Ġvy":10563,"Ġchal":10564,"ulf":10565,"unu":10566,"Ġleech":10567,"Ġpeiris":10568,"Ġlover":10569,"Ġexped":10570,"lihood":10571,"aks":10572,"akum":10573,"Ġcompuls":10574,"ects":10575,"Ġclay":10576,"ports":10577,"portion":10578,"Ġcounting":10579,"Ġunderrated":10580,"Ġmont":10581,"awaya":10582,"Ġpolitely":10583,"angoda":10584,"Ġmarit":10585,"Ġgrind":10586,"foreign":10587,"Ġfold":10588,"Ġemigration":10589,"Ġuniversal":10590,"things":10591,"rapped":10592,"Ġblamed":10593,"Ġsecuring":10594,"Ġremitt":10595,"Ġdesigning":10596,"Ġweekdays":10597,"Ġcourage":10598,"Ġevil":10599,"Ġextensive":10600,"Ġasset":10601,"Ġaffair":10602,"Ġsouthwest":10603,"Ġxbox":10604,"Ġstole":10605,"Ġswed":10606,"Ġmodified":10607,"Ġzimbabwe":10608,"comes":10609,"Ġhopeful":10610,"Ġmeta":10611,"Ġmetro":10612,"Ġconcrete":10613,"Ġtemp":10614,"Ġgamer":10615,"Ġbelieving":10616,"Ġbreach":10617,"Ġspecified":10618,"ikes":10619,"Ġhumid":10620,"Ġ240":10621,"onto":10622,"Ġmask":10623,"Ġselecting":10624,"Ġunfor":10625,"Ġunfold":10626,"Ġhalal":10627,"Ġcomputers":10628,"Ġliteral":10629,"Ġcourtesy":10630,"Ġbali":10631,"Ġpatience":10632,"udeen":10633,"Ġwinter":10634,"Ġboards":10635,"Ġrequesting":10636,"Ġinsurg":10637,"train":10638,"Ġunpreced":10639,"Ġdivis":10640,"Ġperformed":10641,"Ġpaperwork":10642,"Ġexceptional":10643,"Ġcombat":10644,"Ġdhar":10645,"Ġjealous":10646,"Ġapproaching":10647,"Ġ077":10648,"Ġrevenge":10649,"Ġbeds":10650,"Ġgodd":10651,"Ġhistorically":10652,"Ġcaptured":10653,"Ġmurdere":10654,"Ġrepresentation":10655,"Ġrepresentative":10656,"Ġhurry":10657,"Ġhindus":10658,"Ġconflicting":10659,"Ġconflicts":10660,"Ġ1989":10661,"Ġharassed":10662,"Ġoccasion":10663,"Ġenrolling":10664,"Ġbackpacking":10665,"Ġnutrition":10666,"Ġappealing":10667,"Ġproposals":10668,"Ġschemes":10669,"Ġcategories":10670,"Ġharmful":10671,"Ġacquired":10672,"Ġflavour":10673,"charged":10674,"Ġaccompan":10675,"Ġdisappointment":10676,"Ġnasheed":10677,"Ġcalculate":10678,"Ġsmoothly":10679,"Ġbatsmen":10680,"Ġmerchant":10681,"Ġindoor":10682,"Ġprioritize":10683,"Ġcoinc":10684,"Ġratings":10685,"Ġchartered":10686,"Ġtroubles":10687,"Ġjkcg":10688,"healthy":10689,"Ġinconsistent":10690,"Ġprohibited":10691,"Ġterrified":10692,"Ġdolphin":10693,"Ġncolombo":10694,"Ġaptitude":10695,"Ġthieves":10696,"Ġinsecure":10697,"Ġbandwidth":10698,"Ġdignity":10699,"Ġkangaroo":10700,"Ġsubtitles":10701,"Ġunprecedented":10702,"37":10703,"65":10704,"96":10705,"gers":10706,"ige":10707,"lined":10708,"mav":10709,"name":10710,"Ġtm":10711,"Ġaer":10712,"Ġaes":10713,"reet":10714,"info":10715,"Ġwfh":10716,"Ġcel":10717,"Ġcum":10718,"Ġcute":10719,"Ġcrop":10720,"Ġmumb":10721,"Ġbore":10722,"ati":10723,"Ġhara":10724,"Ġhilar":10725,"Ġlor":10726,"Ġlists":10727,"Ġdms":10728,"Ġinjust":10729,"Ġnle":10730,"Ġnview":10731,"Ġowe":10732,"Ġgop":10733,"Ġgand":10734,"Ġego":10735,"Ġrede":10736,"stone":10737,"stru":10738,"Ġsth":10739,"Ġstro":10740,"Ġstem":10741,"role":10742,"oli":10743,"olo":10744,"that":10745,"chol":10746,"uranga":10747,"Ġhavelock":10748,"Ġmemes":10749,"illa":10750,"Ġchapter":10751,"Ġmoves":10752,"Ġprobe":10753,"Ġgover":10754,"Ġgoons":10755,"elie":10756,"Ġunres":10757,"Ġpee":10758,"Ġpeers":10759,"Ġrecre":10760,"Ġvezel":10761,"Ġsaudi":10762,"Ġnose":10763,"Ġprize":10764,"Ġpointers":10765,"Ġclown":10766,"Ġaccord":10767,"Ġworkout":10768,"Ġslapped":10769,"Ġwherever":10770,"Ġpolite":10771,"Ġovertime":10772,"Ġgotag":10773,"Ġbrush":10774,"Ġinterven":10775,"Ġrocket":10776,"Ġtrib":10777,"Ġvisitor":10778,"Ġdecides":10779,"Ġ2027":10780,"Ġposter":10781,"Ġ850":10782,"Ġhighways":10783,"Ġsincere":10784,"Ġinstant":10785,"Ġinstability":10786,"uwala":10787,"lost":10788,"Ġelabor":10789,"Ġevalu":10790,"uccess":10791,"Ġconfusion":10792,"Ġclassmates":10793,"Ġsalon":10794,"Ġmuscle":10795,"Ġmodest":10796,"Ġhonor":10797,"Ġformula":10798,"Ġheadache":10799,"Ġ2007":10800,"Ġfinancing":10801,"Ġremembering":10802,"Ġmathews":10803,"Ġcivic":10804,"Ġtransferring":10805,"Ġcommenting":10806,"Ġbilling":10807,"married":10808,"Ġextraord":10809,"Ġhosts":10810,"Ġfemales":10811,"Ġchemmani":10812,"Ġadmissions":10813,"Ġdiplomatic":10814,"Ġcontrols":10815,"Ġexpression":10816,"Ġstressing":10817,"Ġirrig":10818,"Ġtablets":10819,"Ġproducers":10820,"Ġtranslated":10821,"Ġdiscriminated":10822,"Ġclosing":10823,"Ġmurdered":10824,"Ġoils":10825,"Ġjournalism":10826,"Ġachievements":10827,"Ġparticipating":10828,"Ġinitiatives":10829,"Ġbelonging":10830,"Ġinjuries":10831,"Ġempower":10832,"Ġtemporarily":10833,"Ġinstructed":10834,"official":10835,"Ġceremon":10836,"Ġteenager":10837,"Ġbench":10838,"ranil":10839,"anagement":10840,"Ġpredicted":10841,"Ġscientists":10842,"Ġvoices":10843,"Ġcollaborate":10844,"Ġprayers":10845,"Ġanalysts":10846,"Ġkadawatha":10847,"Ġdisrespectful":10848,"Ġremembered":10849,"Ġpleasant":10850,"Ġlagoon":10851,"Ġovertake":10852,"Ġcounselor":10853,"Ġlemme":10854,"Ġspokesperson":10855,"Ġawaiting":10856,"Ġiconic":10857,"Ġparanoid":10858,"Ġprocure":10859,"Ġcomponents":10860,"Ġsubsequently":10861,"Ġexchanges":10862,"pickme":10863,"Ġubereats":10864,"Ġphysi":10865,"Ġfrankly":10866,"Ġcryptocurrency":10867,"Ġhygiene":10868,"Ġireland":10869,"Ġunavail":10870,"Ġarrogant":10871,"Ġdilemma":10872,"happy":10873,"Ġshampoo":10874,"Ġcalorie":10875,"Ġluxurious":10876,"Ġmaritime":10877,"76":10878,"bury":10879,"core":10880,"cod":10881,"date":10882,"house":10883,"jp":10884,"mc":10885,"nered":10886,"rust":10887,"saw":10888,"tf":10889,"watch":10890,"Ġsizes":10891,"Ġthunder":10892,"Ġwo":10893,"Ġws":10894,"Ġmong":10895,"Ġmates":10896,"Ġfc":10897,"Ġfond":10898,"Ġfian":10899,"Ġpel":10900,"Ġdar":10901,"Ġnx":10902,"Ġnen":10903,"Ġnos":10904,"aru":10905,"Ġell":10906,"Ġeid":10907,"vehic":10908,"Ġreop":10909,"Ġrenov":10910,"stairs":10911,"Ġforums":10912,"acon":10913,"Ġstagn":10914,"seys":10915,"Ġhem":10916,"Ġkol":10917,"Ġkiss":10918,"urt":10919,"Ġjana":10920,"Ġraces":10921,"Ġseed":10922,"Ġmeh":10923,"opolit":10924,"Ġchairs":10925,"Ġabuses":10926,"Ġmohamed":10927,"emed":10928,"Ġuna":10929,"Ġallies":10930,"Ġpeo":10931,"Ġjustified":10932,"liest":10933,"liers":10934,"astically":10935,"Ġrecy":10936,"Ġreccom":10937,"Ġenact":10938,"ummy":10939,"pted":10940,"Ġnovel":10941,"Ġpov":10942,"Ġoffline":10943,"Ġoffended":10944,"active":10945,"Ġrivers":10946,"Ġcommod":10947,"Ġcommissions":10948,"Ġreson":10949,"Ġresili":10950,"Ġseeks":10951,"Ġinterim":10952,"Ġjose":10953,"athon":10954,"Ġmarissa":10955,"Ġgrama":10956,"Ġmines":10957,"Ġsuppress":10958,"Ġkegalle":10959,"araj":10960,"Ġremarks":10961,"Ġbucket":10962,"Ġearbud":10963,"Ġendless":10964,"Ġcostly":10965,"Ġesala":10966,"rection":10967,"archy":10968,"italin":10969,"Ġsituated":10970,"Ġquestionable":10971,"Ġlookout":10972,"Ġstranger":10973,"Ġhuawe":10974,"Ġhumble":10975,"Ġtitles":10976,"Ġorganizing":10977,"Ġcontroller":10978,"Ġcashe":10979,"Ġvacancies":10980,"Ġnplease":10981,"Ġcleaner":10982,"Ġexplored":10983,"Ġconsiderable":10984,"Ġntb":10985,"Ġtyping":10986,"Ġhosting":10987,"bitel":10988,"Ġalternate":10989,"Ġodel":10990,"Ġunpopular":10991,"Ġexporting":10992,"Ġgeo":10993,"Ġcommitments":10994,"Ġslee":10995,"Ġstripe":10996,"Ġconsuming":10997,"Ġnwith":10998,"Ġcircular":10999,"Ġcapture":11000,"Ġ1993":11001,"Ġsweat":11002,"Ġbroader":11003,"Ġachievement":11004,"Ġintellig":11005,"Ġdebut":11006,"Ġcatering":11007,"Ġpunished":11008,"Ġdispute":11009,"Ġproceedings":11010,"Ġforests":11011,"Ġimpressed":11012,"Ġmosques":11013,"Ġmillenn":11014,"Ġuncles":11015,"Ġ1971":11016,"Ġbailout":11017,"Ġacquire":11018,"Ġinsanely":11019,"Ġprinciples":11020,"Ġnomad":11021,"Ġpaddy":11022,"Ġexpanding":11023,"Ġunbelie":11024,"Ġexclusively":11025,"Ġjayawardena":11026,"Ġtailored":11027,"Ġlegislation":11028,"Ġpleasure":11029,"Ġgigs":11030,"Ġbankruptcy":11031,"Ġmarginal":11032,"Ġsurprisingly":11033,"Ġobservation":11034,"Ġrajapakshe":11035,"Ġlaundering":11036,"Ġgoogling":11037,"Ġsambol":11038,"Ġshifted":11039,"Ġstigma":11040,"Ġmismanagement":11041,"watte":11042,"country":11043,"Ġcommemor":11044,"Ġamarasuriya":11045,"Ġbotanical":11046,"Ġshangri":11047,"Ġaussie":11048,"Ġtwenties":11049,"Ġrestructuring":11050,"iliyandala":11051,"Ġmunicipal":11052,"Ġbiriyani":11053,"Ġmumbai":11054,"Ġhilarious":11055,"Ġfianc":11056,"500":11057,"bank":11058,"bro":11059,"ele":11060,"hire":11061,"iant":11062,"jay":11063,"md":11064,"pila":11065,"rr":11066,"ww":11067,"Ġtinder":11068,"Ġao":11069,"Ġiphones":11070,"Ġthrew":11071,"rey":11072,"Ġware":11073,"Ġwider":11074,"Ġcg":11075,"anan":11076,"Ġbaff":11077,"Ġfoss":11078,"oric":11079,"Ġpaw":11080,"Ġpiliyandala":11081,"Ġhay":11082,"Ġhoo":11083,"Ġhating":11084,"Ġhilt":11085,"Ġlump":11086,"Ġdated":11087,"Ġnind":11088,"Ġnso":11089,"Ġnik":11090,"Ġnthis":11091,"Ġnawala":11092,"Ġgest":11093,"Ġgel":11094,"Ġgolf":11095,"ria":11096,"icip":11097,"Ġrevers":11098,"owning":11099,"Ġbee":11100,"Ġbegging":11101,"amin":11102,"amma":11103,"verages":11104,"Ġkb":11105,"thouse":11106,"ooo":11107,"child":11108,"irates":11109,"urities":11110,"Ġjes":11111,"Ġrh":11112,"Ġrust":11113,"Ġruwan":11114,"Ġritalin":11115,"iments":11116,"Ġneu":11117,"Ġneat":11118,"Ġnepot":11119,"Ġsham":11120,"oph":11121,"Ġnotor":11122,"Ġchats":11123,"Ġprox":11124,"Ġthereafter":11125,"arest":11126,"Ġunaware":11127,"Ġunhealthy":11128,"Ġacre":11129,"Ġexpat":11130,"liable":11131,"Ġrecs":11132,"umber":11133,"Ġdiy":11134,"Ġpriy":11135,"Ġclash":11136,"Ġcontaining":11137,"Ġarc":11138,"asses":11139,"Ġresid":11140,"Ġindirect":11141,"Ġoverl":11142,"Ġoverview":11143,"ormal":11144,"Ġdisgr":11145,"Ġfridge":11146,"Ġrolling":11147,"Ġplaning":11148,"Ġscot":11149,"Ġtriangle":11150,"athil":11151,"Ġmaradana":11152,"Ġperception":11153,"Ġfriendship":11154,"Ġplacement":11155,"Ġinfant":11156,"Ġrelate":11157,"Ġwellawaya":11158,"Ġcarrier":11159,"Ġemirates":11160,"Ġunderstandable":11161,"Ġdried":11162,"Ġattitudes":11163,"Ġsme":11164,"Ġsecured":11165,"Ġdownv":11166,"Ġbuzz":11167,"Ġdesc":11168,"Ġllb":11169,"Ġelectoral":11170,"Ġgeneric":11171,"Ġgenerous":11172,"Ġevisa":11173,"Ġconfront":11174,"Ġimporter":11175,"Ġlegion":11176,"Ġxia":11177,"mobitel":11178,"Ġhonour":11179,"attered":11180,"Ġreferences":11181,"Ġgamers":11182,"working":11183,"Ġclearing":11184,"Ġbelieves":11185,"Ġharvest":11186,"arson":11187,"Ġpracticing":11188,"Ġannually":11189,"Ġsooner":11190,"Ġabsent":11191,"Ġboyc":11192,"Ġeaten":11193,"Ġpetrole":11194,"Ġmatching":11195,"Ġglobe":11196,"Ġsilly":11197,"Ġlacks":11198,"Ġeru":11199,"Ġblocks":11200,"iyam":11201,"Ġsteel":11202,"Ġstepping":11203,"Ġverbal":11204,"Ġfitting":11205,"Ġcircu":11206,"Ġpulling":11207,"Ġsubreddits":11208,"Ġjudges":11209,"Ġchilling":11210,"Ġlatter":11211,"Ġaudit":11212,"Ġrankings":11213,"Ġqueen":11214,"Ġflagship":11215,"Ġsanath":11216,"Ġlogical":11217,"Ġlimitations":11218,"Ġpenins":11219,"Ġmechat":11220,"Ġadministrative":11221,"Ġcrossing":11222,"Ġknife":11223,"Ġcancellation":11224,"regist":11225,"herent":11226,"Ġdurable":11227,"questions":11228,"Ġrecovering":11229,"Ġcinemas":11230,"Ġdetermine":11231,"Ġreminded":11232,"Ġowning":11233,"Ġjerseys":11234,"Ġcredibility":11235,"Ġdisturb":11236,"Ġweeraw":11237,"Ġprivileged":11238,"Ġrituals":11239,"Ġtattoos":11240,"Ġapologize":11241,"wanted":11242,"Ġscolded":11243,"Ġquantity":11244,"Ġuncertainty":11245,"Ġboutique":11246,"Ġspanish":11247,"Ġcompetitors":11248,"Ġbiscuits":11249,"Ġarbitrary":11250,"Ġunprofessional":11251,"Ġambitious":11252,"Ġsubstantial":11253,"Ġunstable":11254,"Ġoutsourcing":11255,"Ġtoddler":11256,"Ġpasikuda":11257,"Ġsabaragamuwa":11258,"Ġhuawei":11259,"Ġhilton":11260,"Ġnepotism":11261,"Ġpetroleum":11262,"94":11263,"95":11264,"ao":11265,"cos":11266,"course":11267,"eart":11268,"free":11269,"hh":11270,"hots":11271,"sli":11272,"uel":11273,"wear":11274,"Ġtam":11275,"Ġtsh":11276,"Ġtension":11277,"Ġape":11278,"Ġathe":11279,"Ġio":11280,"Ġsse":11281,"inter":11282,"Ġtheater":11283,"Ġci":11284,"Ġcyl":11285,"Ġcaves":11286,"Ġmrs":11287,"Ġbpo":11288,"atable":11289,"Ġpond":11290,"Ġpatch":11291,"Ġpada":11292,"Ġhari":11293,"edda":11294,"Ġnail":11295,"Ġnawal":11296,"Ġnudes":11297,"isor":11298,"Ġrelying":11299,"Ġumb":11300,"uten":11301,"Ġheated":11302,"thu":11303,"ado":11304,"chain":11305,"urb":11306,"uration":11307,"Ġdocs":11308,"imity":11309,"pport":11310,"Ġshr":11311,"Ġseated":11312,"Ġdeed":11313,"Ġdept":11314,"Ġchess":11315,"Ġabusing":11316,"Ġplug":11317,"Ġalto":11318,"Ġprostit":11319,"abling":11320,"Ġada":11321,"Ġunrest":11322,"Ġunmarried":11323,"Ġunwanted":11324,"Ġpearson":11325,"Ġlovers":11326,"Ġhash":11327,"Ġoutstanding":11328,"Ġenemy":11329,"pton":11330,"Ġdonations":11331,"Ġdire":11332,"Ġintrig":11333,"Ġpoly":11334,"Ġevenings":11335,"ifi":11336,"ultane":11337,"Ġthankyou":11338,"Ġspouse":11339,"Ġslc":11340,"Ġslave":11341,"Ġprest":11342,"awick":11343,"Ġoverstay":11344,"Ġbruh":11345,"Ġinterrupt":11346,"Ġspelling":11347,"Ġroam":11348,"Ġbackwards":11349,"Ġscare":11350,"Ġtrillion":11351,"Ġbush":11352,"Ġregrets":11353,"raal":11354,"Ġcommunist":11355,"Ġ1080":11356,"Ġfinals":11357,"gettable":11358,"Ġsmarter":11359,"Ġschooling":11360,"Ġseemingly":11361,"Ġparal":11362,"being":11363,"Ġtaxation":11364,"graph":11365,"local":11366,"Ġguided":11367,"Ġhopeless":11368,"Ġrepaired":11369,"update":11370,"Ġbusinessman":11371,"Ġrestore":11372,"Ġhandful":11373,"Ġreasoning":11374,"Ġcey":11375,"Ġcardinal":11376,"Ġswiss":11377,"Ġruining":11378,"Ġsimilarly":11379,"Ġportray":11380,"Ġsinging":11381,"Ġnuwaraeliya":11382,"ployment":11383,"Ġhumili":11384,"Ġcapabilities":11385,"Ġgreedy":11386,"Ġbribery":11387,"Ġhumanitarian":11388,"Ġmasses":11389,"Ġcashier":11390,"Ġmisinformation":11391,"Ġsamagi":11392,"Ġndb":11393,"Ġburgh":11394,"Ġburnt":11395,"Ġgeopolit":11396,"Ġopposing":11397,"Ġracing":11398,"Ġdominated":11399,"Ġrambo":11400,"Ġbottled":11401,"Ġluckily":11402,"Ġchilli":11403,"Ġdisheart":11404,"Ġladder":11405,"Ġinstallation":11406,"Ġremoving":11407,"Ġfleet":11408,"Ġ1981":11409,"domin":11410,"Ġdispatch":11411,"Ġinputs":11412,"Ġproceeds":11413,"Ġlibraries":11414,"Ġvariant":11415,"Ġcommittees":11416,"Ġscrut":11417,"Ġridiculously":11418,"Ġflexibility":11419,"Ġadvantages":11420,"Ġhouseholds":11421,"Ġsuspicion":11422,"flow":11423,"Ġdyn":11424,"Ġoriented":11425,"Ġinev":11426,"Ġnavigating":11427,"Ġstructured":11428,"Ġdismiss":11429,"Ġworkshops":11430,"Ġpatterns":11431,"Ġignorance":11432,"Ġteled":11433,"Ġescalate":11434,"Ġtreasure":11435,"Ġmcq":11436,"Ġscreenshots":11437,"Ġinsisted":11438,"Ġobservations":11439,"8702":11440,"Ġaqua":11441,"Ġrecruitment":11442,"Ġpossession":11443,"Ġstakeholders":11444,"Ġpaintings":11445,"Ġancestors":11446,"Ġdepreciation":11447,"Ġsupplement":11448,"Ġlenses":11449,"Ġdynamic":11450,"Ġmerely":11451,"Ġconsensual":11452,"Ġchampionship":11453,"Ġtackle":11454,"Ġcontempl":11455,"Ġcotton":11456,"Ġhomosexuality":11457,"Ġrecurring":11458,"Ġvigil":11459,"Ġrehabilitation":11460,"Ġserendip":11461,"Ġcompulsory":11462,"Ġunforgettable":11463,"Ġharappa":11464,"Ġelaborate":11465,"Ġextraordinary":11466,"Ġirrigation":11467,"vehicle":11468,"Ġjoseph":11469,"Ġnotorious":11470,"aving":11471,"bi":11472,"bly":11473,"cur":11474,"ev":11475,"elect":11476,"haya":11477,"iased":11478,"iveness":11479,"ji":11480,"jud":11481,"lan":11482,"ligence":11483,"million":11484,"sd":11485,"sm":11486,"wed":11487,"Ġais":11488,"Ġiq":11489,"Ġthu":11490,"Ġthir":11491,"Ġwre":11492,"Ġwip":11493,"Ġwound":11494,"Ġcric":11495,"aning":11496,"Ġmoo":11497,"Ġmuth":11498,"Ġbone":11499,"Ġfs":11500,"Ġpp":11501,"Ġpiss":11502,"Ġhorm":11503,"Ġtoss":11504,"Ġluc":11505,"Ġdna":11506,"Ġdavid":11507,"Ġned":11508,"Ġnay":11509,"Ġnuc":11510,"Ġnaz":11511,"Ġnvid":11512,"Ġnope":11513,"Ġnaked":11514,"Ġgale":11515,"Ġren":11516,"stic":11517,"state":11518,"Ġwholes":11519,"oween":11520,"Ġbeware":11521,"etics":11522,"Ġonboard":11523,"Ġster":11524,"utch":11525,"adam":11526,"Ġray":11527,"Ġragama":11528,"ille":11529,"Ġdeeds":11530,"Ġvip":11531,"Ġcongr":11532,"Ġsuite":11533,"Ġplacing":11534,"anting":11535,"mental":11536,"Ġworsh":11537,"university":11538,"Ġbypass":11539,"Ġlee":11540,"Ġleather":11541,"Ġwilli":11542,"alled":11543,"Ġvegg":11544,"Ġvegan":11545,"Ġupfront":11546,"Ġnoe":11547,"aceut":11548,"Ġtheirs":11549,"Ġarj":11550,"Ġthankful":11551,"ishali":11552,"Ġpradesh":11553,"Ġmull":11554,"Ġintercity":11555,"Ġincur":11556,"Ġbackl":11557,"Ġmarsh":11558,"Ġlocate":11559,"Ġperks":11560,"Ġgrants":11561,"Ġgrads":11562,"Ġfriendships":11563,"Ġinferior":11564,"Ġmint":11565,"Ġgenetic":11566,"intec":11567,"Ġinstantly":11568,"Ġattest":11569,"teen":11570,"Ġblur":11571,"Ġburial":11572,"Ġtaxing":11573,"Ġdesire":11574,"Ġredditor":11575,"Ġsurpass":11576,"Ġhomeland":11577,"Ġdepri":11578,"Ġesp":11579,"Ġrestart":11580,"Ġcharles":11581,"Ġhanding":11582,"Ġaddicted":11583,"Ġbitcoin":11584,"Ġ1200":11585,"Ġrajarata":11586,"Ġxx":11587,"Ġbias":11588,"Ġbiotech":11589,"Ġnegligence":11590,"Ġmetrop":11591,"manpila":11592,"Ġmidigama":11593,"Ġprogrammes":11594,"Ġsigning":11595,"Ġpretend":11596,"srilankan":11597,"Ġranasinghe":11598,"cricket":11599,"Ġqatar":11600,"autions":11601,"Ġharbour":11602,"Ġmales":11603,"Ġmalig":11604,"Ġmalinga":11605,"Ġjanatha":11606,"Ġbros":11607,"Ġdeparting":11608,"Ġ170":11609,"Ġspecialized":11610,"Ġexcurs":11611,"Ġequipped":11612,"Ġpotat":11613,"Ġoperational":11614,"Ġenjoyable":11615,"Ġidentification":11616,"Ġsnake":11617,"Ġcompetent":11618,"Ġconsiderations":11619,"Ġsunny":11620,"Ġmomentum":11621,"Ġfeeding":11622,"Ġcabraal":11623,"Ġstafford":11624,"Ġfixt":11625,"Ġperformances":11626,"Ġncomm":11627,"Ġtrafficking":11628,"Ġdefinition":11629,"Ġpupp":11630,"ographic":11631,"Ġseparat":11632,"Ġnmon":11633,"month":11634,"Ġ1994":11635,"Ġrepresenting":11636,"Ġrepeating":11637,"Ġbombing":11638,"Ġsony":11639,"Ġcounterpart":11640,"Ġadministr":11641,"Ġutility":11642,"Ġpreventing":11643,"Ġsurvival":11644,"Ġcontracts":11645,"Ġgampola":11646,"Ġfeatured":11647,"Ġott":11648,"Ġadventures":11649,"Ġstrengthen":11650,"Ġblockchain":11651,"Ġempathy":11652,"Ġencouraging":11653,"Ġjumping":11654,"Ġpartnerships":11655,"obile":11656,"Ġacquis":11657,"Ġprinciple":11658,"Ġisraeli":11659,"Ġsponsors":11660,"Ġflooding":11661,"cheap":11662,"Ġsatisfaction":11663,"Ġtoronto":11664,"Ġunbiased":11665,"Ġcoaches":11666,"Ġtortured":11667,"Ġprevail":11668,"bbies":11669,"Ġunreal":11670,"Ġoccupied":11671,"Ġchristianity":11672,"Ġsuburb":11673,"Ġhypocr":11674,"Ġferry":11675,"olitan":11676,"Ġimmigrants":11677,"Ġtolerate":11678,"Ġhesitate":11679,"Ġprecautions":11680,"Ġpronoun":11681,"Ġconstructed":11682,"Ġrathn":11683,"Ġcrackdown":11684,"Ġpopulations":11685,"Ġjuice":11686,"Ġscrewed":11687,"Ġdecrease":11688,"Ġlegendary":11689,"Ġinconvenience":11690,"Ġstereotypes":11691,"responsible":11692,"Ġtemperature":11693,"Ġsapphire":11694,"Ġenforced":11695,"Ġassembly":11696,"Ġadjacent":11697,"Ġembedded":11698,"Ġabeysinghe":11699,"Ġunavailable":11700,"Ġintelligent":11701,"Ġxiaomi":11702,"sliit":11703,"32":11704,"89":11705,"bon":11706,"bile":11707,"gam":11708,"gota":11709,"ju":11710,"jab":11711,"jaffna":11712,"mac":11713,"npp":11714,"oor":11715,"olla":11716,"rish":11717,"test":11718,"tamil":11719,"tered":11720,"wana":11721,"Ġtes":11722,"Ġtide":11723,"Ġtiles":11724,"Ġace":11725,"Ġsans":11726,"Ġthro":11727,"Ġthugs":11728,"Ġwan":11729,"Ġmf":11730,"Ġmate":11731,"Ġmih":11732,"Ġbun":11733,"Ġbiz":11734,"Ġbreat":11735,"Ġpiv":11736,"Ġhun":11737,"Ġhint":11738,"Ġhorn":11739,"Ġtoast":11740,"Ġdv":11741,"Ġddr":11742,"Ġnus":11743,"Ġnpe":11744,"Ġnap":11745,"Ġnno":11746,"alid":11747,"isdict":11748,"rious":11749,"rilanka":11750,"Ġethern":11751,"icts":11752,"Ġrenow":11753,"otor":11754,"eta":11755,"eto":11756,"Ġsticking":11757,"utors":11758,"Ġhaz":11759,"Ġheal":11760,"Ġkw":11761,"Ġky":11762,"Ġkav":11763,"Ġkitt":11764,"add":11765,"ghz":11766,"Ġdock":11767,"Ġnearest":11768,"Ġdeployed":11769,"Ġmega":11770,"Ġatl":11771,"Ġwasnt":11772,"Ġmoors":11773,"Ġproved":11774,"erent":11775,"Ġwhatnot":11776,"unci":11777,"qual":11778,"Ġadani":11779,"Ġbyob":11780,"apala":11781,"Ġamma":11782,"Ġexporters":11783,"Ġappli":11784,"Ġappreh":11785,"alling":11786,"Ġoutlook":11787,"Ġoutcomes":11788,"Ġtex":11789,"Ġdip":11790,"Ġdivid":11791,"iah":11792,"aunt":11793,"Ġoffs":11794,"Ġoffensive":11795,"Ġafp":11796,"Ġars":11797,"Ġindec":11798,"Ġslintec":11799,"Ġpras":11800,"Ġoverload":11801,"Ġtrigger":11802,"anging":11803,"Ġgrat":11804,"Ġgrace":11805,"daya":11806,"Ġfirsthand":11807,"Ġbeings":11808,"Ġtouring":11809,"Ġbases":11810,"ordable":11811,"Ġservants":11812,"Ġideologies":11813,"Ġdownfall":11814,"Ġtrainers":11815,"Ġsimultane":11816,"Ġelon":11817,"Ġdrained":11818,"Ġdrastically":11819,"Ġdrowning":11820,"Ġevident":11821,"Ġevolved":11822,"affordable":11823,"Ġpublication":11824,"Ġdiscourse":11825,"Ġhoc":11826,"Ġhopping":11827,"Ġconfig":11828,"Ġwarns":11829,"Ġculturally":11830,"Ġ2011":11831,"uthor":11832,"Ġxd":11833,"Ġsworn":11834,"Ġlandsl":11835,"Ġ114":11836,"otek":11837,"liment":11838,"Ġfutsal":11839,"Ġcaa":11840,"Ġstuffs":11841,"Ġdefending":11842,"Ġdemol":11843,"eee":11844,"Ġproblematic":11845,"aduates":11846,"Ġestates":11847,"Ġfreight":11848,"Ġmovements":11849,"Ġ2001":11850,"Ġ165":11851,"Ġauthors":11852,"Ġscammer":11853,"aimed":11854,"Ġ1300":11855,"ylan":11856,"Ġgrows":11857,"Ġpathways":11858,"Ġspecializing":11859,"Ġabsence":11860,"Ġtreats":11861,"Ġbrig":11862,"Ġbride":11863,"Ġmedications":11864,"Ġhumanity":11865,"Ġequity":11866,"Ġdesigners":11867,"Ġsentenced":11868,"Ġbalawe":11869,"Ġnaive":11870,"Ġidentifying":11871,"Ġcleanliness":11872,"Ġapplicants":11873,"Ġcorrupted":11874,"Ġsnap":11875,"backs":11876,"Ġntotal":11877,"Ġanticip":11878,"Ġvillagers":11879,"iyal":11880,"Ġstepped":11881,"Ġcritics":11882,"Ġwishing":11883,"Ġeuropeans":11884,"Ġachieving":11885,"Ġpurif":11886,"Ġrelaxation":11887,"Ġconversion":11888,"Ġestablishing":11889,"Ġmagical":11890,"Ġmagaz":11891,"Ġcapitalist":11892,"Ġargued":11893,"Ġsummar":11894,"Ġobsessed":11895,"Ġmurders":11896,"Ġkovil":11897,"Ġsweets":11898,"Ġcatching":11899,"Ġconvicted":11900,"Ġimplementing":11901,"Ġparticipants":11902,"Ġphotographs":11903,"Ġdubbed":11904,"Ġrobbed":11905,"Ġsurvived":11906,"aaaa":11907,"Ġquietly":11908,"Ġautomation":11909,"Ġwijey":11910,"Ġregistering":11911,"Ġvegetable":11912,"Ġventures":11913,"Ġencouraged":11914,"Ġjumped":11915,"Ġtutoring":11916,"Ġnreply":11917,"Ġbidding":11918,"Ġkilinochchi":11919,"Ġpharmacies":11920,"Ġsooo":11921,"Ġflooded":11922,"Ġratnayake":11923,"Ġextremism":11924,"Ġalien":11925,"Ġenthusiast":11926,"Ġinteractive":11927,"break":11928,"Ġexhausting":11929,"Ġfortunately":11930,"Ġauction":11931,"Ġcondemn":11932,"Ġdji":11933,"Ġwickramasinghe":11934,"Ġarchaeological":11935,"Ġspokesman":11936,"Ġmosquito":11937,"Ġutterly":11938,"Ġalpha":11939,"Ġembarrassing":11940,"Ġdictators":11941,"Ġstyles":11942,"urfing":11943,"Ġsouvenirs":11944,"Ġorthod":11945,"Ġpreparation":11946,"Ġmanifesto":11947,"Ġfifth":11948,"Ġhomophobic":11949,"Ġpardon":11950,"Ġexorbit":11951,"Ġcompliance":11952,"Ġaccusations":11953,"Ġmassacre":11954,"Ġsketchy":11955,"Ġinappropriate":11956,"Ġhorizon":11957,"Ġfingers":11958,"Ġunbelievable":11959,"Ġdisgrace":11960,"Ġcircuit":11961,"Ġmechatronics":11962,"Ġcylinder":11963,"aceutical":11964,"Ġmetropolitan":11965,"Ġethernet":11966,"Ġbalawegaya":11967,"42":11968,"88":11969,"could":11970,"cry":11971,"dis":11972,"econom":11973,"fun":11974,"found":11975,"from":11976,"gir":11977,"gamuwa":11978,"hen":11979,"hough":11980,"iently":11981,"kok":11982,"kka":11983,"lated":11984,"long":11985,"mit":11986,"mend":11987,"pos":11988,"president":11989,"rants":11990,"solo":11991,"tax":11992,"Ġaired":11993,"Ġiraj":11994,"Ġthru":11995,"inn":11996,"Ġwd":11997,"Ġwid":11998,"online":11999,"erb":12000,"Ġcakes":12001,"Ġcds":12002,"Ġcpex":12003,"Ġmh":12004,"orant":12005,"orous":12006,"Ġpist":12007,"Ġlions":12008,"Ġdrew":12009,"Ġnir":12010,"Ġnaw":12011,"Ġnby":12012,"itinerary":12013,"alal":12014,"alore":12015,"Ġoily":12016,"Ġoss":12017,"Ġocd":12018,"arugam":12019,"Ġgim":12020,"Ġgree":12021,"Ġgains":12022,"asl":12023,"Ġei":12024,"Ġect":12025,"Ġeur":12026,"star":12027,"Ġbeats":12028,"Ġbearing":12029,"Ġisis":12030,"accept":12031,"Ġstab":12032,"Ġstap":12033,"Ġkia":12034,"Ġkiy":12035,"ader":12036,"oogle":12037,"urudu":12038,"Ġasbest":12039,"Ġrome":12040,"Ġramp":12041,"Ġshi":12042,"Ġshore":12043,"Ġsoph":12044,"Ġvape":12045,"Ġtraps":12046,"andra":12047,"ateur":12048,"Ġcomic":12049,"Ġchass":12050,"Ġchili":12051,"Ġabo":12052,"Ġalg":12053,"ulent":12054,"Ġgoa":12055,"Ġgoss":12056,"abad":12057,"abah":12058,"ista":12059,"Ġleverage":12060,"Ġusable":12061,"Ġlogo":12062,"Ġamex":12063,"Ġyourselves":12064,"astics":12065,"Ġtimet":12066,"Ġtec":12067,"Ġquot":12068,"Ġloop":12069,"Ġpointing":12070,"Ġclou":12071,"Ġcounters":12072,"Ġaccum":12073,"Ġworkar":12074,"Ġspring":12075,"Ġslog":12076,"Ġoverth":12077,"Ġoverrated":12078,"Ġoverthinking":12079,"Ġrooft":12080,"dec":12081,"Ġscal":12082,"Ġperch":12083,"owned":12084,"Ġhighs":12085,"Ġchef":12086,"Ġinvalid":12087,"Ġsuppliers":12088,"Ġ101":12089,"Ġpresents":12090,"Ġfines":12091,"Ġfined":12092,"tec":12093,"Ġbugs":12094,"Ġbuggers":12095,"Ġraid":12096,"Ġendemic":12097,"bell":12098,"Ġhomemade":12099,"Ġeconomies":12100,"Ġrepet":12101,"Ġevs":12102,"Ġevolution":12103,"sss":12104,"redict":12105,"Ġhopper":12106,"Ġconferences":12107,"Ġshowroom":12108,"Ġbitter":12109,"ocre":12110,"atively":12111,"Ġparenting":12112,"Ġclassroom":12113,"Ġcease":12114,"Ġflaw":12115,"Ġoppose":12116,"ukk":12117,"Ġskipped":12118,"Ġhardships":12119,"Ġdistingu":12120,"Ġsocialism":12121,"Ġrefres":12122,"Ġgammanpila":12123,"Ġdefined":12124,"Ġbranding":12125,"Ġ2002":12126,"Ġmilest":12127,"Ġdealer":12128,"Ġteaches":12129,"Ġprobation":12130,"Ġmotherland":12131,"Ġeventhough":12132,"Ġtrusts":12133,"Ġexcav":12134,"Ġbalancing":12135,"Ġdamaging":12136,"Ġ260":12137,"Ġstatues":12138,"Ġcopied":12139,"Ġnationwide":12140,"Ġconfirming":12141,"Ġ280":12142,"Ġhyd":12143,"Ġexception":12144,"Ġlakh":12145,"Ġpuzz":12146,"Ġramadan":12147,"Ġcambod":12148,"Ġperfumes":12149,"Ġskinny":12150,"Ġdeadly":12151,"Ġcampuses":12152,"Ġreplying":12153,"Ġtelevision":12154,"Ġtelegraph":12155,"Ġcontributions":12156,"Ġchatting":12157,"Ġcapitalism":12158,"Ġ0777":12159,"Ġsexuality":12160,"Ġirrit":12161,"Ġvolt":12162,"Ġgotabhaya":12163,"Ġundergraduates":12164,"Ġrespondents":12165,"Ġbangalore":12166,"Ġ1996":12167,"Ġlifting":12168,"Ġniro":12169,"Ġcrossed":12170,"Ġdeposited":12171,"Ġcouncils":12172,"Ġrobbery":12173,"Ġsurviving":12174,"Ġbowl":12175,"Ġadopting":12176,"Ġinjury":12177,"Ġindicate":12178,"Ġindicated":12179,"Ġcategor":12180,"Ġcuisines":12181,"Ġhalloween":12182,"Ġdedication":12183,"Ġunclear":12184,"Ġnegotiations":12185,"Ġlaughed":12186,"Ġisraelis":12187,"Ġdistributed":12188,"Ġbenz":12189,"Ġmoderators":12190,"Ġoutsiders":12191,"Ġeligibility":12192,"Ġdentist":12193,"Ġmanufacturers":12194,"Ġcredentials":12195,"Ġscientist":12196,"Ġneighbourhood":12197,"Ġfantasy":12198,"Ġallocation":12199,"Ġnissanka":12200,"Ġdiseases":12201,"Ġexemption":12202,"Ġlitre":12203,"Ġrajapakshas":12204,"Ġscolding":12205,"Ġweapon":12206,"Ġjetwing":12207,"Ġangelo":12208,"Ġarchaeology":12209,"Ġdumping":12210,"Ġsqueeze":12211,"mirissa":12212,"mirror":12213,"Ġkilometres":12214,"Ġpodcasts":12215,"Ġalphabet":12216,"Ġthoroughly":12217,"Ġsangakkara":12218,"education":12219,"Ġallergies":12220,"Ġconcluded":12221,"Ġadmiral":12222,"Ġdeliberately":12223,"Ġremanded":12224,"Ġprevalent":12225,"natural":12226,"Ġseamless":12227,"Ġinterpret":12228,"Ġmediocre":12229,"Ġjurisdict":12230,"Ġmonopoly":12231,"Ġpilgrimage":12232,"Ġgandhi":12233,"Ġunreserved":12234,"Ġreccomend":12235,"registered":12236,"Ġramboda":12237,"Ġnuclear":12238,"Ġnvidia":12239,"Ġarjuna":12240,"Ġrenowned":12241,"Ġdictatorship":12242,"acceptable":12243,"Ġchassis":12244,"75":12245,"bid":12246,"cas":12247,"cular":12248,"des":12249,"fi":12250,"gone":12251,"give":12252,"iqu":12253,"nut":12254,"nesty":12255,"ores":12256,"oked":12257,"ua":12258,"ystem":12259,"Ġtn":12260,"Ġtie":12261,"Ġari":12262,"Ġazz":12263,"Ġiv":12264,"Ġial":12265,"Ġsie":12266,"Ġsath":12267,"inator":12268,"Ġwn":12269,"Ġwu":12270,"oning":12271,"erals":12272,"Ġcss":12273,"anaya":12274,"Ġmaw":12275,"Ġmalls":12276,"Ġbise":12277,"Ġbah":12278,"Ġfuss":12279,"Ġfathers":12280,"Ġpause":12281,"Ġpile":12282,"Ġpax":12283,"ener":12284,"Ġhh":12285,"Ġlush":12286,"Ġinability":12287,"Ġnare":12288,"Ġnne":12289,"Ġncom":12290,"Ġnnot":12291,"Ġnma":12292,"arre":12293,"Ġgif":12294,"Ġgamb":12295,"Ġginger":12296,"Ġeka":12297,"icop":12298,"Ġreimb":12299,"Ġbegg":12300,"Ġbelo":12301,"Ġudu":12302,"Ġstitch":12303,"amic":12304,"Ġhew":12305,"Ġkir":12306,"Ġkitten":12307,"urric":12308,"Ġdose":12309,"Ġasc":12310,"Ġrack":12311,"Ġseating":12312,"Ġsealed":12313,"Ġsob":12314,"Ġvom":12315,"Ġvans":12316,"Ġvene":12317,"Ġtrous":12318,"Ġsung":12319,"endra":12320,"Ġwasantha":12321,"Ġalike":12322,"Ġprocl":12323,"abul":12324,"eli":12325,"peed":12326,"Ġunacceptable":12327,"apan":12328,"Ġpegged":12329,"Ġloaded":12330,"Ġouting":12331,"Ġoutage":12332,"Ġenabling":12333,"Ġuphold":12334,"Ġcompat":12335,"Ġquotes":12336,"Ġqueries":12337,"asekera":12338,"Ġhelicop":12339,"ifies":12340,"berg":12341,"bert":12342,"Ġaccusing":12343,"Ġriot":12344,"Ġshoulders":12345,"Ġreside":12346,"Ġindef":12347,"Ġundert":12348,"Ġslots":12349,"Ġpredomin":12350,"Ġpartially":12351,"Ġdisorder":12352,"Ġinteractions":12353,"Ġrohana":12354,"ogama":12355,"Ġscored":12356,"Ġperches":12357,"ava":12358,"avi":12359,"Ġfiring":12360,"Ġmaid":12361,"Ġschol":12362,"Ġrelating":12363,"Ġinvas":12364,"Ġemo":12365,"Ġgene":12366,"intend":12367,"fty":12368,"cons":12369,"contin":12370,"Ġkeys":12371,"Ġblend":12372,"she":12373,"Ġetf":12374,"weather":12375,"Ġparade":12376,"Ġbuds":12377,"Ġlka":12378,"Ġ190":12379,"Ġreader":12380,"Ġreadily":12381,"Ġrestored":12382,"Ġwonders":12383,"Ġextending":12384,"Ġimperial":12385,"Ġassurance":12386,"ocop":12387,"Ġretain":12388,"uthan":12389,"Ġlively":12390,"mini":12391,"mins":12392,"Ġproductivity":12393,"Ġzip":12394,"Ġapprove":12395,"Ġrefere":12396,"Ġrefurb":12397,"Ġmindful":12398,"Ġfactories":12399,"Ġtechnological":12400,"Ġharin":12401,"brand":12402,"brance":12403,"Ġphotocop":12404,"Ġupdating":12405,"Ġsltb":12406,"Ġmasks":12407,"prot":12408,"Ġliterary":12409,"Ġoperates":12410,"Ġbald":12411,"Ġidentities":12412,"Ġcleaned":12413,"Ġsuccessive":12414,"Ġigcse":12415,"Ġsample":12416,"Ġinsurrection":12417,"raman":12418,"Ġdownloaded":12419,"iyana":12420,"Ġsteep":12421,"Ġimprovements":12422,"Ġsecretly":12423,"Ġunpredict":12424,"Ġverdict":12425,"Ġcooler":12426,"Ġnecessity":12427,"Ġgeor":12428,"Ġcommitting":12429,"Ġchristians":12430,"Ġsundays":12431,"Ġdharm":12432,"Ġnoticeable":12433,"Ġmaxim":12434,"Ġhomest":12435,"Ġfourth":12436,"Ġreservations":12437,"Ġseparated":12438,"Ġaudacity":12439,"Ġimagined":12440,"Ġrevenues":12441,"Ġattracted":12442,"Ġprospect":12443,"Ġnyour":12444,"Ġemerging":12445,"Ġcommunications":12446,"Ġgarage":12447,"Ġnarr":12448,"Ġfireworks":12449,"clubs":12450,"Ġhindi":12451,"Ġconsulting":12452,"Ġnanotek":12453,"Ġ1987":12454,"Ġdebts":12455,"Ġauthenticity":12456,"Ġkarma":12457,"Ġbullet":12458,"Ġbowlers":12459,"Ġvaluation":12460,"Ġcriticize":12461,"Ġnvq":12462,"aramaya":12463,"Ġinquire":12464,"Ġsurroundings":12465,"Ġindicating":12466,"Ġcasualties":12467,"Ġairbus":12468,"Ġreflection":12469,"Ġwashed":12470,"Ġdrawing":12471,"Ġintegrated":12472,"Ġlaser":12473,"Ġobjective":12474,"Ġsarath":12475,"Ġguardian":12476,"Ġpharmaceutical":12477,"foot":12478,"Ġexcellence":12479,"Ġbackpackers":12480,"Ġdiagnosis":12481,"Ġcontainer":12482,"Ġisolation":12483,"Ġdefeated":12484,"Ġvolunteering":12485,"Ġtransformation":12486,"Ġchampion":12487,"Ġremembers":12488,"Ġinsisting":12489,"Ġbureaucr":12490,"Ġcrushed":12491,"Ġdetermination":12492,"Ġcorona":12493,"Ġpossess":12494,"Ġabeyse":12495,"human":12496,"Ġsocieties":12497,"Ġfishermen":12498,"Ġfascinating":12499,"Ġpostpone":12500,"Ġvaishali":12501,"Ġabolish":12502,"Ġdragged":12503,"Ġrabies":12504,"Ġnewbie":12505,"Ġperpetr":12506,"Ġthrottled":12507,"Ġgallery":12508,"Ġkamal":12509,"urgent":12510,"Ġassholes":12511,"Ġeliminate":12512,"Ġsteady":12513,"Ġunlaw":12514,"Ġampara":12515,"Ġaesthetic":12516,"Ġlyceum":12517,"Ġpalestine":12518,"Ġcircumcision":12519,"Ġtransmission":12520,"Ġexplicitly":12521,"Ġdownt":12522,"Ġunauthor":12523,"eleph":12524,"Ġproximity":12525,"Ġcricinfo":12526,"Ġacquisition":12527,"Ġbreathing":12528,"39":12529,"72":12530,"cor":12531,"fits":12532,"full":12533,"finding":12534,"gas":12535,"gie":12536,"hop":12537,"hani":12538,"ken":12539,"lin":12540,"lat":12541,"laptop":12542,"nology":12543,"overs":12544,"sis":12545,"uu":12546,"Ġted":12547,"Ġtissa":12548,"Ġtune":12549,"Ġtends":12550,"Ġase":12551,"Ġaint":12552,"rers":12553,"Ġwes":12554,"onic":12555,"Ġtheft":12556,"Ġcows":12557,"anim":12558,"Ġmater":12559,"Ġmcdonald":12560,"Ġbacking":12561,"Ġbinance":12562,"Ġfx":12563,"Ġfont":12564,"Ġpv":12565,"Ġpip":12566,"Ġpills":12567,"enary":12568,"Ġhed":12569,"Ġhir":12570,"Ġtoys":12571,"Ġdand":12572,"Ġditch":12573,"Ġnim":12574,"Ġnour":12575,"Ġnte":12576,"Ġnper":12577,"Ġnah":12578,"Ġome":12579,"omic":12580,"arat":12581,"aration":12582,"riger":12583,"icious":12584,"Ġrend":12585,"Ġreass":12586,"Ġrewards":12587,"Ġyy":12588,"Ġbeard":12589,"Ġbeli":12590,"amous":12591,"verr":12592,"Ġwears":12593,"Ġhaw":12594,"roph":12595,"Ġjee":12596,"Ġrd":12597,"Ġrings":12598,"imag":12599,"Ġneph":12600,"Ġseet":12601,"Ġseylan":12602,"Ġvim":12603,"Ġvlog":12604,"Ġexagger":12605,"Ġcongest":12606,"Ġconvey":12607,"Ġnotably":12608,"Ġnotified":12609,"Ġsuited":12610,"Ġchol":12611,"Ġchau":12612,"Ġchilled":12613,"mented":12614,"ulations":12615,"Ġgohome":12616,"ema":12617,"Ġunlock":12618,"Ġpeas":12619,"Ġusern":12620,"Ġlore":12621,"Ġama":12622,"Ġamen":12623,"Ġamateur":12624,"Ġamnesty":12625,"osc":12626,"Ġappe":12627,"Ġhip":12628,"earable":12629,"reezy":12630,"Ġnode":12631,"Ġnovels":12632,"Ġcoe":12633,"Ġyearly":12634,"Ġtees":12635,"Ġdik":12636,"Ġintens":12637,"Ġlooph":12638,"Ġloosing":12639,"Ġmanually":12640,"Ġclust":12641,"Ġcounts":12642,"Ġoffences":12643,"Ġcontrary":12644,"Ġacca":12645,"Ġric":12646,"Ġundergoing":12647,"Ġunderworld":12648,"Ġmonas":12649,"Ġslot":12650,"Ġstudios":12651,"Ġprecious":12652,"Ġpartying":12653,"Ġbrow":12654,"Ġrose":12655,"Ġrobe":12656,"Ġrolled":12657,"Ġscandal":12658,"plant":12659,"Ġmarx":12660,"Ġpert":12661,"Ġshell":12662,"Ġsheets":12663,"Ġ7000":12664,"Ġ8000":12665,"Ġfox":12666,"Ġcheated":12667,"Ġinvoice":12668,"Ġinvesth":12669,"Ġgenius":12670,"intage":12671,"conf":12672,"Ġcommunal":12673,"Ġtranscript":12674,"erted":12675,"Ġhappily":12676,"Ġattire":12677,"Ġattested":12678,"Ġbla":12679,"Ġblown":12680,"Ġsmth":12681,"shire":12682,"Ġsits":12683,"Ġparalle":12684,"alley":12685,"Ġsurfer":12686,"Ġwrap":12687,"Ġhoped":12688,"wardena":12689,"upun":12690,"Ġreads":12691,"ugoda":12692,"Ġcharitha":12693,"Ġcomeback":12694,"Ġconfron":12695,"Ġconfession":12696,"Ġplaylist":12697,"Ġceyl":12698,"Ġboil":12699,"Ġlivelihood":12700,"moving":12701,"Ġnewsfirst":12702,"Ġmush":12703,"Ġzah":12704,"Ġstraw":12705,"attle":12706,"Ġ10000":12707,"Ġresearched":12708,"Ġrents":12709,"Ġcutoff":12710,"iciently":12711,"ylus":12712,"Ġsends":12713,"cover":12714,"Ġsltda":12715,"Ġorganize":12716,"Ġnormalized":12717,"Ġjourneys":12718,"Ġbrill":12719,"Ġtraders":12720,"Ġbreakup":12721,"Ġ230":12722,"aires":12723,"Ġdevops":12724,"Ġarresting":12725,"Ġbalas":12726,"Ġcasino":12727,"Ġdamages":12728,"Ġdailymirror":12729,"naments":12730,"park":12731,"Ġcollectively":12732,"Ġmisuse":12733,"Ġhosted":12734,"Ġsamples":12735,"Ġrainfall":12736,"Ġindependently":12737,"Ġexported":12738,"Ġwishes":12739,"forward":12740,"Ġexpressing":12741,"Ġmigrant":12742,"Ġredmi":12743,"Ġpossibilities":12744,"Ġinterestingly":12745,"Ġlaunching":12746,"Ġdocumented":12747,"Ġirresponsible":12748,"Ġundergrads":12749,"Ġobser":12750,"Ġobserve":12751,"Ġmerc":12752,"Ġdeny":12753,"Ġshipment":12754,"Ġkoomb":12755,"Ġtexts":12756,"Ġflew":12757,"Ġconsulted":12758,"Ġsquat":12759,"Ġreveals":12760,"Ġinitiate":12761,"Ġstickers":12762,"recommended":12763,"Ġrobotics":12764,"Ġproceeded":12765,"Ġsuicidal":12766,"Ġbuffets":12767,"Ġdestroying":12768,"Ġwtc":12769,"Ġdilith":12770,"Ġdull":12771,"Ġframeworks":12772,"Ġschedules":12773,"Ġflavor":12774,"Ġwithdrawals":12775,"Ġadvisory":12776,"Ġcrocod":12777,"Ġfederal":12778,"Ġthrive":12779,"Ġteenage":12780,"Ġbcz":12781,"Ġcomplications":12782,"Ġcontainers":12783,"Ġunbearable":12784,"Ġextremists":12785,"Ġmsg":12786,"Ġpregnancy":12787,"Ġtiger":12788,"Ġlinen":12789,"Ġvocabul":12790,"Ġwooden":12791,"Ġinfected":12792,"Ġhypoth":12793,"Ġbmich":12794,"Ġimmigrant":12795,"Ġcpc":12796,"Ġcpu":12797,"Ġtears":12798,"account":12799,"Ġangel":12800,"Ġdirt":12801,"importing":12802,"Ġvitz":12803,"regarding":12804,"Ġsql":12805,"Ġinstructor":12806,"Ġaligned":12807,"Ġobligations":12808,"Ġmosquitoes":12809,"Ġuniforms":12810,"Ġassassination":12811,"Ġbegun":12812,"Ġcompromise":12813,"Ġembrace":12814,"Ġpeanut":12815,"Ġpeanuts":12816,"Ġphrase":12817,"Ġcreativity":12818,"jeewa":12819,"Ġjayewardenepura":12820,"driving":12821,"Ġcoalition":12822,"otherapy":12823,"Ġprosperity":12824,"Ġlodged":12825,"Ġalarming":12826,"Ġintellectual":12827,"Ġnarciss":12828,"Ġprophet":12829,"Ġnishantha":12830,"Ġremarkable":12831,"Ġtongue":12832,"Ġclauses":12833,"Ġremittances":12834,"Ġinjustice":12835,"Ġprocurement":12836,"Ġoverlooked":12837,"Ġpeninsula":12838,"Ġbacklash":12839,"Ġappliances":12840,"Ġexorbitant":12841,"Ġasbestos":12842,"Ġbeloved":12843,"Ġindefin":12844,"Ġunpredictable":12845,"Ġinvesthub":12846,"Ġvocabulary":12847,"31":12848,"41":12849,"46":12850,"85":12851,"86":12852,"99":12853,"bur":12854,"dog":12855,"eks":12856,"fy":12857,"fin":12858,"fish":12859,"iate":12860,"ki":12861,"nity":12862,"ncies":12863,"nuwara":12864,"pi":12865,"rot":12866,"two":12867,"uan":12868,"vin":12869,"wis":12870,"wamy":12871,"yr":12872,"year":12873,"zab":12874,"Ġtert":12875,"Ġtna":12876,"Ġih":12877,"Ġichem":12878,"Ġsg":12879,"Ġsas":12880,"Ġsands":12881,"Ġsomed":12882,"real":12883,"inst":12884,"Ġwera":12885,"onies":12886,"Ġcater":12887,"Ġcme":12888,"Ġcough":12889,"annow":12890,"Ġbos":12891,"Ġbog":12892,"Ġfds":12893,"Ġfdi":12894,"atures":12895,"Ġpg":12896,"Ġpest":12897,"Ġpara":12898,"Ġpts":12899,"Ġpier":12900,"Ġpensions":12901,"Ġhors":12902,"Ġhms":12903,"Ġhacks":12904,"Ġanch":12905,"Ġdl":12906,"Ġnop":12907,"Ġnbo":12908,"Ġnous":12909,"Ġncan":12910,"Ġoi":12911,"oming":12912,"isit":12913,"asun":12914,"store":12915,"owering":12916,"Ġuy":12917,"aco":12918,"ros":12919,"Ġkan":12920,"Ġkoth":12921,"Ġkara":12922,"there":12923,"adic":12924,"cher":12925,"chik":12926,"urated":12927,"urous":12928,"Ġdoomed":12929,"Ġlip":12930,"Ġrave":12931,"Ġrlly":12932,"imosis":12933,"Ġshes":12934,"Ġdeleg":12935,"Ġdeval":12936,"Ġsos":12937,"Ġvintage":12938,"ander":12939,"Ġcompe":12940,"Ġchik":12941,"Ġchola":12942,"Ġchunk":12943,"Ġalb":12944,"Ġmoh":12945,"Ġmocking":12946,"Ġworries":12947,"cience":12948,"Ġunanim":12949,"rous":12950,"Ġcoloured":12951,"Ġlodge":12952,"Ġamman":12953,"resp":12954,"Ġhasar":12955,"indian":12956,"Ġexporter":12957,"Ġsaas":12958,"Ġuprising":12959,"umps":12960,"aga":12961,"ago":12962,"agar":12963,"agam":12964,"Ġcompass":12965,"ective":12966,"Ġnoisy":12967,"Ġdiam":12968,"Ġtimely":12969,"Ġ512":12970,"Ġoffsh":12971,"Ġcontents":12972,"berry":12973,"iph":12974,"ipitiya":12975,"Ġarpic":12976,"Ġspit":12977,"Ġspotted":12978,"Ġpremar":12979,"awath":12980,"Ġbrains":12981,"Ġphen":12982,"Ġscars":12983,"Ġtrim":12984,"Ġtrials":12985,"Ġtriple":12986,"Ġengines":12987,"Ġpayed":12988,"Ġmineral":12989,"Ġcurrencies":12990,"Ġwellbeing":12991,"Ġposters":12992,"Ġconsists":12993,"Ġcheer":12994,"Ġcheat":12995,"Ġpreserve":12996,"Ġ9000":12997,"Ġblu":12998,"Ġbliss":12999,"Ġblasts":13000,"Ġsmiles":13001,"shana":13002,"Ġraises":13003,"beware":13004,"Ġeconomist":13005,"Ġrepro":13006,"Ġjobless":13007,"Ġdrones":13008,"Ġhandun":13009,"Ġextrac":13010,"Ġcleans":13011,"Ġhoard":13012,"Ġshowcase":13013,"Ġceiling":13014,"Ġgiants":13015,"Ġbold":13016,"Ġxi":13017,"Ġidp":13018,"roads":13019,"Ġpointless":13020,"Ġswing":13021,"Ġswit":13022,"Ġtops":13023,"Ġtryna":13024,"Ġdistancing":13025,"Ġstrangers":13026,"Ġtestim":13027,"urai":13028,"Ġrefers":13029,"Ġrefriger":13030,"Ġranatunga":13031,"Ġmobility":13032,"Ġharmony":13033,"Ġharbor":13034,"Ġparliamentarian":13035,"Ġtitan":13036,"code":13037,"Ġnonstop":13038,"Ġgrey":13039,"Ġmahela":13040,"Ġnaming":13041,"Ġcomplains":13042,"Ġcycles":13043,"Ġexcise":13044,"Ġdecently":13045,"Ġwicket":13046,"Ġclubbing":13047,"Ġprotective":13048,"Ġethics":13049,"Ġfocuses":13050,"Ġpainted":13051,"Ġeuros":13052,"Ġenvironments":13053,"Ġbloated":13054,"Ġpursued":13055,"Ġprepaid":13056,"Ġverbally":13057,"Ġdiplomacy":13058,"Ġfiverr":13059,"Ġtvs":13060,"Ġmrp":13061,"Ġintroduction":13062,"Ġarche":13063,"Ġdhamma":13064,"isticated":13065,"Ġredirect":13066,"Ġdressing":13067,"Ġskinned":13068,"Ġheartbreaking":13069,"Ġhomagama":13070,"Ġclip":13071,"Ġstraightforward":13072,"Ġbtu":13073,"Ġqueer":13074,"Ġimpacted":13075,"Ġemerged":13076,"Ġcorporal":13077,"Ġtrending":13078,"Ġtouched":13079,"Ġfloating":13080,"Ġutilities":13081,"Ġrevealing":13082,"Ġranting":13083,"Ġlaying":13084,"Ġromance":13085,"Ġbba":13086,"Ġsirasa":13087,"Ġpreferent":13088,"Ġwijeward":13089,"Ġsnorkel":13090,"Ġhighlighting":13091,"Ġgemini":13092,"Ġmaldiv":13093,"Ġcartoons":13094,"Ġ1977":13095,"Ġ1978":13096,"Ġfluently":13097,"Ġelders":13098,"Ġoccurrence":13099,"Ġfatal":13100,"Ġintegration":13101,"Ġvirtually":13102,"Ġoversized":13103,"Ġastron":13104,"Ġintentionally":13105,"Ġretailers":13106,"passport":13107,"Ġcannon":13108,"Ġcannula":13109,"Ġtheaters":13110,"Ġweerasinghe":13111,"Ġoccupation":13112,"Ġneighbouring":13113,"Ġsettling":13114,"araswamy":13115,"Ġunusable":13116,"Ġconcerts":13117,"Ġtanks":13118,"Ġpedest":13119,"Ġremembrance":13120,"Ġretrieving":13121,"Ġritual":13122,"Ġescalated":13123,"Ġsucceeded":13124,"Ġcowork":13125,"Ġpiracy":13126,"Ġbicycles":13127,"Ġfunctioning":13128,"Ġhustles":13129,"Ġsubscribe":13130,"Ġgoogled":13131,"Ġcounselling":13132,"Ġrefugees":13133,"Ġkerala":13134,"Ġincompetent":13135,"Ġrebels":13136,"Ġdevastating":13137,"Ġtraumat":13138,"Ġfryer":13139,"Ġregistrar":13140,"Ġlighthouse":13141,"Ġpowercuts":13142,"Ġnliked":13143,"Ġolympics":13144,"Ġbungalow":13145,"Ġlakshman":13146,"Ġleeches":13147,"akumar":13148,"Ġsweden":13149,"Ġmurderer":13150,"struggling":13151,"Ġgotagogama":13152,"Ġearbuds":13153,"Ġindirectly":13154,"ifiable":13155,"Ġdisheartening":13156,"Ġlucrative":13157,"Ġwholesale":13158,"Ġcongrat":13159,"Ġfixtures":13160,"Ġcounterparts":13161,"Ġkittens":13162,"unciation":13163,"Ġaboard":13164,"abahu":13165,"Ġrefreshing":13166,"Ġbisexual":13167,"urricular":13168,"Ġvenez":13169,"continent":13170,"Ġgohomegota":13171,"Ġmonastery":13172,"Ġbrowse":13173,"Ġtertiary":13174,"Ġextracurricular":13175,"Ġpreferential":13176,"05":13177,"400":13178,"53":13179,"aven":13180,"bac":13181,"bel":13182,"cab":13183,"drop":13184,"ea":13185,"face":13186,"hu":13187,"hist":13188,"ipe":13189,"lor":13190,"och":13191,"pse":13192,"qo":13193,"rand":13194,"rists":13195,"uana":13196,"vation":13197,"zs":13198,"Ġtir":13199,"Ġtue":13200,"Ġaed":13201,"Ġsara":13202,"Ġsigh":13203,"Ġsiy":13204,"Ġtht":13205,"Ġthief":13206,"Ġwy":13207,"Ġwore":13208,"Ġwrest":13209,"Ġwished":13210,"Ġwounds":13211,"Ġmg":13212,"Ġmens":13213,"Ġbcs":13214,"Ġborders":13215,"organ":13216,"Ġpans":13217,"Ġpatt":13218,"Ġpcs":13219,"Ġanne":13220,"Ġdine":13221,"Ġderi":13222,"esl":13223,"Ġinade":13224,"Ġinches":13225,"Ġnce":13226,"Ġnasa":13227,"Ġnlkr":13228,"Ġnlanka":13229,"itary":13230,"Ġoat":13231,"Ġole":13232,"Ġoman":13233,"omas":13234,"omark":13235,"Ġew":13236,"Ġech":13237,"Ġeuthan":13238,"Ġrebe":13239,"Ġwhit":13240,"Ġyard":13241,"Ġforci":13242,"Ġisa":13243,"Ġucl":13244,"ayana":13245,"Ġona":13246,"Ġstones":13247,"uters":13248,"amn":13249,"ambo":13250,"verts":13251,"Ġweli":13252,"Ġken":13253,"Ġliver":13254,"Ġliable":13255,"Ġlipton":13256,"Ġrage":13257,"Ġshak":13258,"Ġshield":13259,"Ġseo":13260,"tering":13261,"Ġdeport":13262,"Ġsoap":13263,"Ġmexic":13264,"Ġvouch":13265,"Ġvfs":13266,"Ġconcess":13267,"Ġsue":13268,"Ġchased":13269,"Ġabduct":13270,"Ġabund":13271,"Ġmole":13272,"Ġmock":13273,"Ġmoham":13274,"ulative":13275,"igo":13276,"igs":13277,"igious":13278,"Ġcolors":13279,"Ġcolts":13280,"Ġacs":13281,"Ġexpats":13282,"osystem":13283,"Ġdaytime":13284,"Ġrecom":13285,"Ġoutages":13286,"Ġvets":13287,"akuru":13288,"Ġimbal":13289,"ptions":13290,"Ġdonald":13291,"Ġdiyal":13292,"Ġintol":13293,"Ġclicking":13294,"Ġcounty":13295,"Ġhelakuru":13296,"Ġthemed":13297,"activ":13298,"Ġspacious":13299,"Ġresum":13300,"Ġresidency":13301,"Ġindie":13302,"Ġunderground":13303,"awns":13304,"Ġpartly":13305,"Ġdislike":13306,"Ġuniverse":13307,"Ġbrack":13308,"Ġspec":13309,"Ġroaming":13310,"Ġscoring":13311,"placed":13312,"Ġmarij":13313,"Ġbetting":13314,"Ġgras":13315,"avahini":13316,"Ġinfamous":13317,"Ġedm":13318,"Ġkehel":13319,"Ġinstruction":13320,"Ġsecurities":13321,"uwawa":13322,"Ġtrainer":13323,"weight":13324,"Ġsimp":13325,"Ġparam":13326,"Ġearliest":13327,"Ġinsider":13328,"Ġcrashed":13329,"Ġendors":13330,"cedes":13331,"Ġdeserved":13332,"Ġavo":13333,"Ġ1950":13334,"Ġelites":13335,"Ġaddiction":13336,"Ġshowc":13337,"Ġinforming":13338,"Ġboast":13339,"Ġretali":13340,"Ġdeterior":13341,"Ġzion":13342,"Ġzoo":13343,"Ġsocialize":13344,"Ġkidding":13345,"Ġsingers":13346,"Ġrefresh":13347,"Ġexpects":13348,"dha":13349,"Ġwaist":13350,"Ġmessing":13351,"Ġmessaged":13352,"Ġelizab":13353,"ottu":13354,"Ġ134":13355,"Ġ135":13356,"Ġtechno":13357,"Ġmalli":13358,"Ġconstrain":13359,"Ġcapability":13360,"Ġparliamentarians":13361,"Ġpracticed":13362,"Ġdelivers":13363,"Ġreaches":13364,"Ġspeedtest":13365,"Ġgreed":13366,"Ġpmd":13367,"Ġhospitalized":13368,"Ġlimiting":13369,"Ġdevs":13370,"Ġsentences":13371,"Ġspecifications":13372,"Ġvacancy":13373,"Ġcalculation":13374,"ribly":13375,"Ġamazed":13376,"Ġhalfway":13377,"Ġcoping":13378,"Ġearns":13379,"Ġsaman":13380,"Ġriders":13381,"Ġcorrected":13382,"Ġcrappy":13383,"Ġlabels":13384,"Ġholes":13385,"Ġrecordings":13386,"Ġpresentation":13387,"Ġbattles":13388,"Ġjew":13389,"Ġjeans":13390,"Ġscreening":13391,"Ġtasted":13392,"Ġversa":13393,"Ġdeadlines":13394,"Ġhearts":13395,"ocratic":13396,"Ġcoconuts":13397,"Ġrevival":13398,"Ġtelecom":13399,"Ġembark":13400,"Ġsummon":13401,"heads":13402,"Ġcirculating":13403,"Ġngos":13404,"Ġsubmission":13405,"Ġ1999":13406,"Ġprints":13407,"Ġsubscriptions":13408,"Ġdehiwela":13409,"Ġillust":13410,"Ġeyeing":13411,"Ġimplementation":13412,"Ġdeliveries":13413,"Ġmalaysian":13414,"Ġdebating":13415,"Ġsaturated":13416,"Ġpolls":13417,"recommendation":13418,"Ġbabies":13419,"Ġnewswirelk":13420,"Ġwhey":13421,"Ġtowers":13422,"Ġplea":13423,"Ġscooters":13424,"Ġclinics":13425,"Ġuploaded":13426,"Ġinspiration":13427,"Ġoversight":13428,"Ġsarong":13429,"Ġblindly":13430,"Ġjudgement":13431,"Ġthriller":13432,"Ġexploiting":13433,"Ġteenagers":13434,"Ġamendments":13435,"Ġwheelers":13436,"Ġalevel":13437,"Ġbriefing":13438,"Ġmarrying":13439,"Ġaggression":13440,"Ġadjusted":13441,"Ġprayer":13442,"Ġprivileges":13443,"Ġcreep":13444,"Ġironically":13445,"Ġlanes":13446,"Ġpedro":13447,"Ġgmt":13448,"Ġvocational":13449,"Ġmanipulation":13450,"Ġburned":13451,"Ġofcourse":13452,"software":13453,"Ġborrowed":13454,"Ġcondemned":13455,"Ġspectac":13456,"Ġvitamin":13457,"Ġexplosions":13458,"Ġczech":13459,"Ġpatriot":13460,"Ġcompromised":13461,"internet":13462,"Ġbengal":13463,"Ġwashington":13464,"Ġculinary":13465,"Ġsupplements":13466,"Ġmitig":13467,"Ġasshole":13468,"Ġincompetence":13469,"zerland":13470,"Ġsneak":13471,"Ġinaugural":13472,"Ġknock":13473,"Ġfingerprints":13474,"Ġdisposable":13475,"adeepa":13476,"Ġaccredited":13477,"Ġhtml":13478,"Ġvicinity":13479,"opinion":13480,"Ġovercrowded":13481,"Ġcemet":13482,"mavo":13483,"Ġlorry":13484,"Ġsthuth":13485,"awickrama":13486,"Ġparalym":13487,"Ġdynasty":13488,"Ġcontemplating":13489,"Ġpradeshiya":13490,"Ġseparatist":13491,"Ġhazard":13492,"Ġsimultaneously":13493,"Ġstaple":13494,"Ġsophisticated":13495,"Ġgossip":13496,"Ġjurisdiction":13497,"Ġazzam":13498,"ramaniyam":13499,"Ġamenities":13500,"Ġbalasub":13501,"Ġkoombiyo":13502,"Ġwerahera":13503,"Ġptsd":13504,"Ġhasaranga":13505,"Ġarpico":13506,"Ġswitzerland":13507,"Ġdiyaluma":13508,"Ġmarijuana":13509,"Ġelizabeth":13510,"92":13511,"breezy":13512,"cb":13513,"cin":13514,"dies":13515,"fare":13516,"fcc":13517,"iad":13518,"je":13519,"mad":13520,"mus":13521,"mond":13522,"nig":13523,"page":13524,"race":13525,"tte":13526,"vide":13527,"wart":13528,"wich":13529,"yala":13530,"zone":13531,"Ġaia":13532,"Ġthres":13533,"inco":13534,"Ġwad":13535,"Ġcass":13536,"Ġcited":13537,"anas":13538,"anathan":13539,"Ġmw":13540,"Ġbust":13541,"Ġfate":13542,"Ġfame":13543,"Ġfigh":13544,"Ġflip":13545,"orq":13546,"Ġpion":13547,"Ġply":13548,"Ġpim":13549,"Ġpension":13550,"eni":13551,"Ġhan":13552,"Ġhen":13553,"Ġhith":13554,"Ġhil":13555,"Ġhinge":13556,"Ġheter":13557,"Ġtod":13558,"Ġtopped":13559,"Ġlun":13560,"Ġlingu":13561,"Ġdare":13562,"edic":13563,"Ġinner":13564,"Ġinherent":13565,"Ġnid":13566,"Ġnol":13567,"Ġnair":13568,"itance":13569,"aliya":13570,"Ġore":13571,"Ġoath":13572,"isons":13573,"Ġgn":13574,"Ġgit":13575,"Ġgur":13576,"Ġgates":13577,"Ġgrie":13578,"Ġgnan":13579,"Ġeae":13580,"stan":13581,"eties":13582,"ayo":13583,"Ġstaring":13584,"Ġkin":13585,"Ġkann":13586,"those":13587,"oos":13588,"irations":13589,"Ġasw":13590,"Ġjp":13591,"Ġjon":13592,"onel":13593,"Ġrash":13594,"Ġshake":13595,"Ġshani":13596,"Ġsemin":13597,"Ġdew":13598,"Ġdelight":13599,"Ġdeemed":13600,"Ġbutt":13601,"Ġsoil":13602,"Ġsocks":13603,"Ġfran":13604,"Ġvc":13605,"Ġvine":13606,"Ġvag":13607,"Ġexac":13608,"Ġnotch":13609,"Ġsums":13610,"Ġabst":13611,"ustom":13612,"antry":13613,"aba":13614,"aby":13615,"unya":13616,"elawala":13617,"Ġunregistered":13618,"Ġleban":13619,"Ġpeer":13620,"Ġlob":13621,"Ġlobby":13622,"Ġlooting":13623,"Ġamended":13624,"india":13625,"Ġdaylight":13626,"Ġrecomm":13627,"Ġoutright":13628,"Ġenorm":13629,"Ġsae":13630,"Ġsaves":13631,"Ġupv":13632,"Ġnod":13633,"Ġoneplus":13634,"Ġcoc":13635,"Ġquo":13636,"Ġcontam":13637,"Ġriy":13638,"Ġresale":13639,"Ġresched":13640,"Ġslmc":13641,"Ġbrace":13642,"Ġbraz":13643,"Ġinterrog":13644,"Ġintercourse":13645,"ggy":13646,"Ġcurs":13647,"Ġspell":13648,"Ġphp":13649,"Ġscales":13650,"pled":13651,"Ġmarathon":13652,"Ġherbs":13653,"Ġwellawatta":13654,"duwa":13655,"Ġcarp":13656,"Ġems":13657,"odes":13658,"Ġdegr":13659,"rape":13660,"Ġ102":13661,"pleas":13662,"Ġbasl":13663,"Ġattrib":13664,"Ġposon":13665,"Ġlongest":13666,"Ġetiqu":13667,"Ġforens":13668,"Ġguards":13669,"Ġ1900":13670,"Ġpubs":13671,"Ġsoup":13672,"Ġcaret":13673,"ugan":13674,"Ġcharith":13675,"amaha":13676,"Ġpura":13677,"Ġhobbies":13678,"ologically":13679,"Ġbits":13680,"Ġsolicit":13681,"Ġclassified":13682,"Ġoppress":13683,"Ġraja":13684,"Ġboots":13685,"Ġretake":13686,"Ġdetain":13687,"Ġswarn":13688,"Ġworthwhile":13689,"mobile":13690,"Ġmusk":13691,"Ġvalorant":13692,"Ġmiracle":13693,"Ġprocession":13694,"Ġhealthier":13695,"Ġapprovals":13696,"Ġrefuses":13697,"Ġcapped":13698,"Ġ187":13699,"Ġresearcher":13700,"Ġpromo":13701,"Ġwaterproof":13702,"Ġ144":13703,"Ġ2003":13704,"Ġcricketer":13705,"Ġlowkey":13706,"Ġobli":13707,"theast":13708,"legal":13709,"Ġorganise":13710,"Ġpathir":13711,"Ġvoter":13712,"Ġprofessors":13713,"Ġauthoritarian":13714,"Ġpetty":13715,"apple":13716,"Ġdesignated":13717,"Ġorigins":13718,"Ġpatron":13719,"Ġslippers":13720,"Ġrespectfully":13721,"Ġrespectively":13722,"Ġbodhi":13723,"Ġglory":13724,"Ġglomark":13725,"Ġpsychologists":13726,"Ġfrontend":13727,"Ġticketing":13728,"iyan":13729,"awella":13730,"Ġdivisions":13731,"umbura":13732,"Ġlegitim":13733,"Ġlecturing":13734,"Ġdhal":13735,"masters":13736,"Ġjews":13737,"Ġjudged":13738,"Ġrames":13739,"Ġramayana":13740,"Ġtasting":13741,"Ġinfluences":13742,"Ġrevive":13743,"Ġkiller":13744,"Ġlaunches":13745,"Ġnfrom":13746,"Ġethnicities":13747,"Ġconsumed":13748,"Ġattracting":13749,"Ġobsession":13750,"Ġobserving":13751,"Ġdissent":13752,"Ġjunk":13753,"Ġmastercard":13754,"Ġdiscriminate":13755,"Ġcaption":13756,"Ġnicer":13757,"Ġmercedes":13758,"Ġbangkok":13759,"Ġshipments":13760,"Ġsweep":13761,"Ġregulate":13762,"Ġtenure":13763,"Ġconvention":13764,"Ġdarkness":13765,"Ġwisely":13766,"Ġparticipated":13767,"Ġ1988":13768,"Ġmonitors":13769,"Ġmanufactured":13770,"Ġrejection":13771,"Ġrenewable":13772,"Ġprofessionally":13773,"Ġdisputes":13774,"Ġecosystem":13775,"Ġvariations":13776,"Ġquieter":13777,"Ġwheels":13778,"Ġrecie":13779,"Ġmeantime":13780,"Ġbackpacks":13781,"Ġbelongings":13782,"Ġdetailing":13783,"Ġbeside":13784,"Ġindicator":13785,"harma":13786,"Ġipad":13787,"Ġdescribes":13788,"Ġdurability":13789,
[...]
