[PAD]
[CLS]
[SEP]
[MASK]
[UNK]
0
1
2
3
4
5
6
7
8
9
a
b
c
d
e
f
g
h
i
j
k
l
m
n
o
p
q
r
s
t
u
v
w
x
y
z
##6
##0
##e
##o
##g
##r
##a
##p
##h
##i
##c
##l
##y
##s
##t
##d
##b
##n
##v
##4
##7
##2
##f
##u
##m
##k
##3
##5
##8
##1
##9
##j
##w
##z
##x
##q
th
##er
##in
the
##an
##on
##at
##en
##ing
##ou
an
##es
##or
to
##ed
in
##it
##al
##ar
and
##om
##is
##re
##ic
##as
of
##el
##ri
##ion
##le
wh
##ent
for
##ow
##et
##ly
##ot
is
##st
##ec
##ut
##ve
##il
##ay
it
on
you
##ank
be
##ac
##ol
st
##ur
##am
##id
ha
##ere
that
##ver
re
##ith
##ld
##ig
##se
sri
pr
##th
this
##ad
al
with
lank
##oo
##ir
##est
my
##ation
any
are
or
we
do
##ke
##ter
##op
##ce
as
##ch
##im
##one
ne
sh
##oun
have
##ould
li
##pp
##ome
tr
fr
but
lanka
so
ex
me
##ill
con
##and
su
not
un
##ul
com
can
from
ch
at
##ers
##ate
ab
was
##ust
he
##ge
pl
what
##ts
##ess
##king
if
##out
##ally
##ment
##end
ac
##igh
they
se
##un
go
##ain
de
some
##ant
wor
##now
##us
##ab
there
##ort
like
pro
en
##ity
##ies
##ice
get
know
how
##em
##ost
##ore
ad
##ear
##os
##ell
about
##ood
##ud
##ist
ar
by
##ect
##ap
col
would
##bo
##gh
all
us
##ount
exp
pe
##art
##our
##ard
am
sp
##if
just
your
##der
rec
##oc
has
who
##ct
##ough
##00
##av
will
##ions
##ombo
##ven
##ind
app
##ack
fe
##ight
##ry
##ine
peop
le
people
day
##uy
##ound
##ake
##all
colombo
tim
out
##ive
##ast
##ci
up
##her
ve
im
##ak
##um
##ag
good
##ans
af
comp
##pt
##ence
##ree
##so
sa
our
one
no
want
anyone
ag
##iv
loo
##age
don
year
ever
qu
##ich
time
##ace
##ther
their
cl
also
##ase
##ip
##are
##eri
hel
##able
been
need
##ue
20
##ure
man
##ame
new
##ia
##ated
##ous
##ance
res
which
even
##ide
inter
off
help
when
##ations
every
##au
now
count
##ro
adv
sl
##ach
##ong
them
gr
acc
cont
##ning
here
more
##ber
where
other
sin
bec
##ks
##ely
##ass
had
thin
thank
vis
does
##ick
should
comm
##ff
##ie
mo
ind
##ary
after
##port
under
pol
##act
these
mon
did
cr
el
stud
lankan
##ail
##ish
##ause
lo
int
rel
over
##aw
##ble
##ite
##dit
##ents
##ities
##uc
pre
looking
br
guy
work
around
were
##ical
hi
##ently
##ult
only
really
country
##hing
##ial
##ign
##vers
##ting
experi
got
see
par
##omm
mu
##fer
##ile
##for
dis
uni
plan
could
act
##ays
##ving
trav
because
cur
##gg
##ings
inc
part
fri
co
jo
much
ph
##iz
back
##ya
##og
sc
##ub
##ked
##ep
##ang
##ala
mar
loc
dec
bet
id
think
per
##ath
##day
##enc
##ose
bus
tri
ple
recomm
best
most
recommend
##omet
##ery
too
##fe
##qu
fir
month
his
find
te
start
eng
pay
please
buy
friend
place
visit
somet
op
ma
guys
her
curr
##ru
why
##ens
gover
##ily
years
govern
min
##erv
##oss
##reat
first
pri
pers
##ire
she
##pl
going
##own
sch
##la
feel
though
thanks
government
way
##led
take
##ade
##other
well
##ational
202
##od
car
days
##iss
into
post
its
ta
than
high
make
try
thr
then
##gr
travel
cons
tw
##bs
dr
very
reg
said
person
many
inv
##aces
ro
red
##form
##vel
wee
##ful
##ild
still
##stand
em
##ors
gen
##ments
something
world
intern
##fore
say
##lic
univers
may
few
##ool
understand
med
since
##ft
##thing
##als
experience
everyone
tour
deg
dri
supp
account
through
won
##oll
commun
##oney
##ific
trans
call
being
fam
##line
before
##ices
places
##xt
advice
fin
##ering
someone
ke
10
##wn
pres
##reci
again
##ple
##lect
air
##atch
happ
inst
##ually
bas
##nect
appreci
kand
att
iss
while
sugg
suggest
money
##ident
sec
##duc
let
##up
sm
##na
kandy
sinh
same
##ian
quest
dif
connect
serv
##ved
##int
use
bl
##get
##ara
bank
##sp
school
degree
him
##oth
##uw
rem
seem
long
##oy
##ory
ide
cre
down
et
train
two
lot
better
things
##ert
love
fl
sit
##ange
##con
##uring
life
po
food
compan
doing
str
##elf
##ket
##itt
##hip
##ating
rep
planning
##ible
sim
those
##ics
ear
contin
bud
##amil
stay
##ual
##ower
local
opt
university
##ise
##read
##cial
aw
end
tax
lk
sub
##ious
own
##ond
boo
tamil
##iya
old
ra
##ict
des
right
av
reddit
online
##ates
pass
##ale
sur
hop
ins
used
trip
##alle
getting
fi
##ons
priv
wr
spec
without
##ater
ella
family
##icket
such
000
sol
bu
19
gu
invest
##li
##be
ll
##les
ass
##ledge
last
##ism
pub
real
during
##iew
hey
##iness
fore
econ
differ
etc
elect
sy
##ition
advance
kind
imp
prov
##ward
cost
econom
##ech
##we
hot
##ues
lear
week
dep
##ress
home
job
didn
cour
next
spe
##air
##ially
friends
trying
##cess
gener
engine
polit
##ather
##lank
##ights
##lish
made
bel
sou
ev
recommendations
anything
##ms
##ister
char
##ave
another
##ra
great
interest
##te
##ug
##ne
ter
##ding
business
create
give
recently
nor
##aff
read
rest
hand
30
inf
agree
chec
support
prop
police
care
##wh
public
##urn
##ember
##amp
exam
##ollow
happen
foreign
beach
srilank
disc
follow
ext
##ever
bad
currently
cle
poss
sinhala
##ited
pur
wonder
##uing
##olog
##ama
come
president
15
found
resp
private
never
done
expl
open
working
power
##ason
lkr
##me
##ways
tal
##ists
inform
war
show
share
consid
bit
main
cult
prot
##ty
thing
cor
ful
leg
import
sure
##ds
##ital
ap
using
12
##anc
fun
##hic
today
##irl
both
##ys
price
##land
##ants
##elling
##oup
market
num
##orts
girl
##know
##ries
conf
free
study
galle
##ern
class
comple
might
communities
national
sal
keep
##ata
months
del
##ib
near
situ
hell
ment
play
##ied
##ph
##ouse
card
##du
experienc
proble
actually
night
qual
hotel
group
##velop
service
offic
##lud
##ject
##ically
mat
##ready
educ
doesn
told
already
india
company
add
parents
suggestions
acknow
raj
area
##alth
##apt
opp
ret
##ock
##ese
requ
wanted
develop
##yp
vehic
201
sk
##uk
south
##ana
state
far
cent
##ular
hear
##uth
different
acknowledge
question
bo
##stem
appreciate
continuing
##aks
##road
hard
else
##ee
##ages
##ash
went
det
##lo
eas
mor
small
tech
##ility
thinking
ent
sw
always
system
having
however
##az
big
##ah
##iri
hour
wom
seems
##gin
pack
##red
students
top
stop
learn
situation
house
progr
includ
##ves
lankans
rs
##ene
land
##ween
law
between
##min
due
shop
against
watch
live
worth
set
sci
possible
fac
look
thoughts
##spec
##its
english
##ric
cust
##illion
webs
bi
child
##ably
che
100
cert
seen
idea
phone
##ative
heard
mus
##ional
##ral
order
##ner
##ency
asked
##man
##amb
international
##ortun
cu
##akes
##cept
run
hello
lead
wondering
##bt
data
neg
##ilar
##irect
##per
form
##ately
11
visa
information
came
##ream
tried
##ters
current
custom
val
##ether
build
news
##uck
maybe
srilanka
reason
able
dist
##ense
social
##self
##ised
level
issue
mir
soft
##where
similar
avail
rajap
##he
##ars
started
prof
budget
##ared
saw
full
engineering
head
##ware
hope
number
options
##uwa
vide
##ling
mean
face
prices
direct
ask
##old
##ips
hon
25
##ution
road
met
mem
called
countries
process
200
spend
rece
conc
##ither
##uff
health
enough
says
tell
opin
vi
appreciated
##ures
espec
##ittle
point
especially
##ected
ce
student
education
put
fut
kid
##med
test
whether
little
sing
abroad
issues
science
mom
tem
##ives
##osed
##lim
##wor
##ura
##duct
##att
saying
cou
gam
##ament
##app
##uss
ago
##issa
past
sign
short
lin
lapt
##com
##ten
laptop
list
##iver
##ural
thought
questions
stuff
rajapaks
mind
minister
allow
based
available
##view
island
##ects
def
##used
less
typ
vot
##dh
##ized
arri
##ided
weeks
prefer
future
mid
##sc
maj
regard
living
wa
ca
either
tea
name
quality
sig
program
wel
dem
check
times
##ety
offer
airport
change
general
oth
##bers
party
clear
chin
##ari
appro
port
ran
##eng
18
pret
eff
ticket
##ruct
second
##iting
others
problem
personal
major
##ute
beh
isn
belie
software
pick
##ats
doct
##ces
meet
tips
away
##ought
resear
research
website
gi
hist
media
bre
##ik
##adu
mirissa
phys
making
est
nuw
edit
prom
everything
##way
culture
honest
fre
water
##ook
##vious
experiences
join
buddh
visiting
left
##gan
least
##osp
##iriya
stand
hours
men
##ize
economic
brand
14
tuk
00
unt
2025
move
mention
within
##tern
##ology
yet
##de
sun
##ults
apply
women
must
ref
activ
arr
protest
16
##res
##dy
report
tourist
mess
political
pop
##ots
##cri
coming
vehicle
stor
mil
view
##ried
50
bring
specific
##less
hosp
took
saf
nuwara
whole
side
##ails
pretty
##ired
auth
ser
cricket
##ration
##cu
million
##ead
##mal
interested
ns
ps
asking
each
contr
scam
##uly
##aid
manage
opportun
given
couple
nothing
##aut
##iced
##ott
deal
fact
##most
##els
mob
consider
13
##ng
sell
##unch
expens
##ines
produc
book
cut
rent
##ploy
pos
once
city
##aur
eliya
##aya
complet
deliver
sigiriya
internet
incre
##gle
##ced
community
until
##affna
indust
wrong
course
hum
##ove
case
##ees
safe
goo
option
fiel
techn
curi
##wards
jaffna
##ife
restaur
##pr
three
##rem
companies
purch
dial
low
##ici
##ased
related
camp
sect
##sw
teach
miss
amount
instead
uk
##oot
##ps
##cc
salary
including
almost
mal
quite
slt
team
cap
##yl
driver
proper
##urity
send
##ulla
##liament
video
const
##ota
beaut
art
##ross
morning
transport
ob
##erious
answ
indian
taking
young
myself
##une
charg
cheap
travelling
ok
across
aff
##ipp
parliament
##den
exc
early
24
aust
west
haven
pract
happened
serious
##nd
official
##ills
expect
upd
mod
cla
##ption
later
project
following
##ont
##iter
leave
##iving
dont
instit
curious
suc
phot
dialog
ann
##ness
considering
##ix
remember
##aken
##side
##uge
relig
rajapaksa
net
##iner
turn
super
rup
nat
soon
tit
jan
##par
##ret
services
google
##over
##ann
##ord
gre
close
pm
##oid
##augh
concern
##ones
reach
chang
negombo
claim
##body
non
organ
drop
22
##itch
##ford
career
employ
sel
##anna
prob
speed
##ains
cann
depart
##row
itiner
17
mas
mah
##ision
contact
buying
austral
bro
sour
rout
har
finan
economy
talk
return
fail
polic
sinhal
lim
ones
cred
mother
cover
itinerary
math
special
ori
believe
wal
##ship
##br
choo
grow
path
higher
event
##esh
medical
kids
##arch
normal
legal
office
##ording
cit
##uel
hospital
##leg
drive
products
lang
##era
afford
ranil
bar
become
cris
couldn
manag
##ential
##load
sinhalese
areas
sex
di
dig
lost
tot
##erg
##ides
trust
##ify
langu
21
da
nam
pet
fil
security
history
hol
2024
discuss
##ior
##jects
details
regarding
##ror
sever
##asing
profess
lar
nice
##una
##ems
##ush
results
mot
##ird
field
##ren
paid
ele
certific
##rict
##iful
reli
##rugg
package
repl
abs
##ime
##ability
##ote
accept
room
jour
story
aug
coun
##ril
##ived
rele
speak
citiz
##ss
stream
noticed
##ier
##ising
starting
beautiful
title
il
##ained
##aking
strugg
foc
comes
infl
##utes
knows
lic
income
partic
industry
provide
boy
taken
##oint
product
crisis
coast
##val
according
ls
avoid
probably
eat
treat
along
match
election
hal
makes
trad
enter
mov
opinion
fur
##fic
exch
civ
ur
##istry
usually
comput
china
##ming
##aining
universities
forward
recent
attack
##ha
author
##by
often
docu
plat
usd
self
cy
jobs
wanna
compl
above
basically
true
development
ceyl
liter
##joy
search
passport
children
##ets
genu
condit
needs
medic
several
la
##ope
enjoy
fix
muslim
further
23
##fully
tourists
tourism
bor
honestly
##ok
npp
unf
court
cannot
bought
rate
expensive
cause
uber
relations
##ney
human
late
sat
##oice
##ivid
500
##mb
##ows
##aving
common
driving
##go
##aring
needed
transfer
bri
ru
##por
design
equ
fine
dev
matter
decided
ideas
surf
reliable
ceylon
##book
pot
##ested
comments
##ped
##sel
traveling
hoping
##ances
##illed
decent
mult
##ele
earn
studying
cri
##ili
park
40
peri
##bal
##ung
wed
charge
vac
##dle
outside
single
via
works
gradu
impro
date
pat
girls
origin
##ada
oper
glo
sent
access
period
seeing
australia
posts
dam
##acy
##ission
##que
##ified
mostly
platform
bal
towards
station
whats
knowledge
important
na
age
soci
sen
comment
tickets
init
term
respons
daily
##ma
entire
break
dest
##ester
##imes
exchange
cal
mass
paying
language
toget
individ
type
shit
together
fuel
begin
pap
schools
doctor
##ium
##cle
studies
taxes
cash
july
##hap
##ases
payment
desp
game
##ink
##fort
star
financial
##iit
##co
learning
sn
##ses
opportunities
site
fair
tom
wife
##ai
fort
weather
sometimes
invol
success
##elt
clean
mobile
yes
##50
##ude
##work
bay
##rect
ident
##ences
talking
fall
trin
info
vehicles
august
ai
fig
corru
received
bill
tre
##ron
##ination
##ention
stat
addit
applic
electric
26
fell
huge
lt
##200
##vert
ig
previous
shops
##come
amaz
happy
certain
nt
rather
##itive
stock
viol
sound
##ued
despite
##ping
##my
aren
arug
compet
##rib
looks
hit
oct
win
##utions
december
diffic
april
members
credit
eleph
np
##gb
##nam
board
difficult
rice
means
colle
temple
tar
known
##ective
middle
behind
computer
##ites
feed
club
example
management
bir
##gs
ant
prem
strong
yala
problems
half
dad
##rist
##ured
imm
flight
mentioned
gone
rights
##vir
step
##ending
locals
feels
music
total
relationship
##ax
helpful
apart
june
##oon
##igama
civil
##back
moment
demand
answer
route
range
##vid
father
ris
##und
address
##ane
continue
staying
fav
##ych
bod
eur
##ury
review
exact
collect
eth
##ecess
extra
##selves
building
bat
ey
gave
connection
cultural
buddhist
sept
##ively
checked
wasn
completely
felt
majority
tamils
okay
bene
gl
##ym
##atic
white
deep
internship
explore
gon
creat
mis
commer
final
insur
opinions
dou
##ned
##mar
suff
choose
sam
town
among
friendly
beaches
department
##oud
##igr
finally
hotels
host
certificate
##20
##ogn
value
focus
fem
events
wait
rid
gov
costs
groups
arugam
cin
fly
##ift
physical
x200
##rs
##agg
below
happening
fast
sil
##orrow
##idence
western
rupees
x200b
occ
cop
damb
goes
psych
pain
ride
##io
##verage
recogn
quick
require
activities
lack
items
switch
nights
##uary
absol
27
lik
interview
buses
##itted
digital
doll
line
nd
sort
##iy
investment
1st
somewhere
covid
license
chem
plans
##ended
north
citizens
cab
jap
lu
purchase
ak
##atives
hold
##hi
games
rain
sliit
aware
books
central
update
tomorrow
28
##rd
envir
investig
control
altern
##awat
confir
##epend
note
decision
minutes
allowed
environ
spots
dip
front
susp
prior
cars
complain
gonna
tia
vill
##aph
##ished
delivery
restaurants
store
sav
##dge
alone
peak
correct
standard
september
weligama
wick
independ
popular
din
download
##ibility
giving
staff
terms
classes
experienced
60
nc
##ram
##more
##ilt
unp
link
comfort
canc
guess
global
dambulla
od
##oring
stre
plant
compared
parties
appar
basic
purs
former
birth
nation
ste
##medi
##ger
##pm
##bit
slow
poor
rul
sor
##ext
feb
easy
doctors
300
##lom
march
technology
sector
improve
dut
foot
press
hik
##esterday
east
lab
crit
literally
multip
benef
##inda
secret
protect
ach
chall
appoint
er
##put
##ateg
death
feeling
insights
sad
yesterday
action
repair
respect
woman
##ply
exist
worse
##emic
##alee
obvious
pan
vict
provin
yout
##ounts
##ples
wish
moder
extrem
tv
ud
##ulation
##ipping
maths
particular
diplom
2nd
peace
cool
greatly
source
society
average
##ined
adm
monthly
policy
medicine
ee
##fri
chance
##ube
reading
january
trincom
div
##ape
resour
fund
customs
fol
##ract
hair
army
ver
sites
environment
band
dream
lol
##sh
complete
##limited
milit
fit
stories
mb
wants
##ins
##aries
##ayake
lives
unlimited
brother
mental
skills
center
japan
trincomalee
##af
directly
rock
##band
willing
jay
location
80
hor
mount
vs
anur
context
2022
facebook
signific
insurance
coc
##ilities
anybody
heav
##ends
result
propert
bike
##ault
##imate
hom
mist
necess
##cs
anim
fees
running
large
college
europe
##ka
##anth
choice
gets
mainly
##icians
motor
express
##thern
prime
booking
rac
##ark
spot
crow
partner
email
kinda
2019
sorry
multiple
##urs
christ
##aged
loan
register
hate
n1
season
moving
actual
black
oppos
##igration
traff
fee
perform
present
inside
welcome
coo
##awe
gaming
restaurant
fellow
youtube
nth
save
threat
safari
cand
light
mr
##umb
finding
cir
ways
##ient
plus
attem
engineer
nature
risk
rou
sle
##ender
vote
##friend
29
bur
##jith
##antly
srilankan
request
message
paper
achie
anurad
rates
ther
##ceed
##oda
stress
watching
customer
dom
##set
##vent
stri
chann
drivers
simply
rand
ground
worked
##ogr
##ground
politics
traffic
bul
##vp
##eric
acad
intro
banks
journey
##ises
visited
personally
solution
potential
except
arch
leaving
##ification
meth
pickme
religious
##aught
unfortun
feedback
rich
##ival
key
shows
hid
till
##bed
##use
immedi
currency
taxi
artic
refer
worst
grand
ministry
##reddit
defin
wedding
migr
looked
female
tur
##cent
##uals
batt
comb
parts
legit
military
##oes
space
guide
position
asia
arrested
charges
##awatuna
dh
pict
##ints
sports
original
##night
content
surpr
preferably
safety
##hapura
lect
##oor
offers
supposed
district
affordable
holid
billion
##lines
workers
minim
subreddit
waiting
fake
##nar
anywhere
relax
carry
##lied
chinese
wickrem
apparently
ah
sense
##ball
##inghe
##ories
##awal
subject
increase
cele
unawatuna
brit
brok
professional
amazing
31
##istic
americ
held
becom
##azy
jvp
##ober
##rant
##fs
##asons
web
##ume
purp
morat
swim
cs
je
##ob
##ov
scen
sold
explain
october
##oke
##onse
prep
candid
##ablish
provid
levels
considered
jud
##gest
##dr
##kad
als
convers
notice
method
##mber
##ades
##000
##aves
anuradhapura
rail
perf
2023
dress
ay
##ients
##yle
##rees
politicians
movie
moratuwa
bott
nav
##istration
payments
terror
required
skin
establish
tradition
corruption
ign
anti
exactly
resources
ess
var
vir
##ex
##ians
ram
##acking
apps
scre
electricity
aut
ge
##mas
##ena
worried
nove
seriously
selected
likely
stuck
rev
trade
projects
themselves
disapp
perm
senior
november
luck
##inely
dead
##room
solo
sunday
random
jav
pc
tast
canada
chill
seeking
##ization
stra
passed
guid
body
35
cam
mix
vers
background
exams
ethn
king
wind
##ored
uns
##ibly
added
videos
##cript
mahinda
dru
##ae
anal
conduct
campus
failed
mine
##60
debt
enc
##oci
max
itself
confused
receive
dish
selling
tu
takes
anymore
admin
clos
married
booked
##phone
series
green
influ
wild
##itely
reasons
word
##ocr
schol
difference
genuinely
crowd
four
gold
##ator
force
ltte
router
##kaduwa
##onut
##ening
sud
degrees
fully
changed
folks
sleep
unfortunately
british
handle
##ructure
##ani
coconut
lg
evening
overse
select
struggling
batter
song
neigh
associ
ordered
approach
completed
lad
lower
##uri
wouldn
condition
##va
##utely
incident
sched
calls
spending
network
documents
neighb
bt
appear
reply
interesting
male
wear
##action
finance
foundation
specifically
involved
application
absolutely
##ison
##alls
emb
laws
websites
promot
opportunity
hikkaduwa
ord
##using
imag
reserv
kept
cards
launch
whatsapp
reviews
fight
led
truly
frust
export
physics
hidden
nm
chat
contrib
valid
45
ik
kill
lat
##ll
separ
repres
leaders
limited
sexual
illeg
aud
suit
brows
2021
simple
reasonable
protests
walk
90
hous
ir
mur
##ij
commission
highly
calling
figure
fear
packages
capital
document
lux
attempt
mer
##eless
alleg
heart
2020
speaking
maint
lawy
faced
##coming
clearly
challeng
##itions
moved
longer
reput
##ergy
property
overseas
07
01
rat
thread
track
##elled
writing
built
##new
model
extremely
definitely
nb
third
##aps
##ump
nearby
street
straight
fish
page
vol
##rimin
fresh
arg
que
##awa
##lier
stopped
teachers
commercial
bag
hang
anyway
##agama
dinner
various
##esinghe
record
individuals
scholars
pi
rank
weird
coll
investing
numbers
arrive
behav
born
diploma
celebr
kal
##idents
united
became
marri
percent
progress
views
akd
gym
mag
##pal
##to
##ted
##ouch
##ork
spent
trains
officers
institute
70
##ocked
applied
regular
freel
reported
religion
province
ethnic
##lt
##ners
##anayake
reven
shipping
gotab
offered
missing
sudden
gun
table
##eal
##hood
##time
sup
consum
ended
elephant
obviously
modern
tang
##ying
##apore
assist
restrict
response
lgbt
3rd
##aced
subjects
movies
bent
cas
##yal
##80
##itiya
crazy
diss
supported
stores
conditions
##ators
##icul
master
necessary
hus
prin
overall
##ommod
minor
es
ger
trou
bed
ny
##nal
##asa
expected
accommod
undergr
score
recommended
letter
singapore
vacc
scholarship
nw
obs
sum
ens
write
courses
girlfriend
easily
histor
genuine
wickremesinghe
cry
ed
nf
##lus
##ini
##oof
##imb
cant
attract
presidential
loss
ye
##ta
##vant
whate
150
announ
base
iit
jun
nic
sister
##atory
inn
planned
role
transl
traditional
whatever
dm
fuc
kn
god
code
phones
idk
happens
discrimin
##namon
febru
circ
##ike
##uct
recover
posted
ae
capt
##ilies
stup
foreigners
marketing
##head
arrival
masters
target
bach
ng
chick
everywhere
##izing
emerg
earlier
businesses
topic
practice
policies
platforms
cinnamon
february
nar
##omb
warrant
officer
perfect
husband
ban
ol
##ature
##ionally
waste
curry
airlines
corpor
arrived
properly
bachel
fest
kum
obt
san
##oa
adam
communic
provided
statement
votes
ded
iphone
##rop
bey
facing
meeting
comfortable
rules
rough
##mon
sharing
sea
justice
flag
ready
matara
leader
urg
lak
apple
brought
families
depress
milk
authorities
bentota
gar
##tle
##ards
image
understanding
##ancy
replace
den
##isions
##aster
strateg
hands
affect
sources
hur
states
sajith
grade
blood
subm
surve
##ruction
population
n2
##hs
##anch
decl
##itten
answers
names
balance
immigration
kott
pul
##oe
ang
ship
lif
decide
install
199
victim
frustr
beyond
bang
log
drin
respond
playing
##ength
om
##ero
##erve
expenses
photo
guidance
chicken
cse
fire
##hol
seat
words
earning
treatment
represent
illegal
bsc
ep
oil
##ef
##wala
tool
##though
subs
advert
usual
spread
caf
photos
concerns
##ograph
nn
##ifi
training
points
impact
1000
employees
fixed
gives
##acher
although
##ires
dog
dehi
##uses
remo
generation
cheaper
manager
warranty
08
cases
killed
mad
##light
imf
entry
member
dollars
fle
knew
nh
russ
startup
additional
favor
significant
stupid
mach
##kes
pls
unique
cuz
heading
broad
catch
cup
lunch
nan
##rol
##da
##ecut
upon
accounts
individual
gotabaya
son
##itel
shouldn
hiri
regul
brands
growth
eye
christmas
immediately
german
five
ten
##ns
banking
customers
udawal
luxury
tangalle
36
yall
##edom
imple
##ief
##anger
older
facult
applying
cuts
limit
journal
rule
holiday
btw
kur
##bre
conflic
hut
tree
##life
##sing
cloth
teacher
consult
smart
owner
approved
campa
boys
heavy
battery
asp
scr
mobitel
opposition
insp
conv
energy
persp
attend
ideally
materi
2015
democr
counter
chemistry
32
dark
##ascript
shir
remote
showing
status
violence
confirm
achieve
03
gift
mech
none
push
swe
telling
##uce
drink
estate
article
javascript
marriage
rant
##icing
asian
attention
turned
inflation
##agging
##uf
truth
##aging
clar
imports
imported
funds
systems
muslims
crimin
becoming
##rible
chair
slpp
accident
owners
infr
informed
constit
implement
pow
ss
touch
##eth
print
loans
tukt
campaign
4g
eating
##inary
raised
##ological
include
leading
section
rupee
concerned
discussion
rap
##care
##ler
##ession
closed
southern
effect
malays
murder
##han
studied
text
nearly
box
2000
managed
particip
satur
massive
cabin
alternative
piec
dating
hamb
pen
##orn
##reme
loved
overnight
facilities
attacks
hind
pal
##how
liber
##ando
##ellig
colon
amb
advise
198
increased
changes
dehiwala
lately
zero
##ny
##well
##arana
##entic
lived
##antota
##ously
##icient
teaching
growing
nthe
revenue
##ring
##itter
youth
##oles
manuf
polon
monit
##ipped
officials
surfing
particularly
gas
hy
rav
ut
##iet
##anda
##aka
cross
intellig
descri
##ancing
manufact
esc
fan
size
ult
finish
assign
evidence
searching
pressure
minimum
hiriket
##arant
meas
deb
##osing
##ague
##anced
players
hearing
programs
counc
ill
oe
six
##ged
##ience
##unt
roads
initi
elephants
independence
##antha
gard
rene
sj
##press
##xic
##astic
lose
authentic
younger
released
investigation
pursue
essential
survey
clothes
fern
oh
##70
anura
forced
##iring
goal
passion
solutions
electron
transportation
broke
govt
latest
33
cities
tel
##ered
##arm
shy
##ands
yourself
##angama
region
emot
arrest
eventually
relevant
42
cat
mac
pun
tas
##vere
unless
byd
upcoming
##agram
issued
linked
practical
benefits
tuition
##lk
##mes
style
shared
proced
helped
academic
swimming
imagine
hyp
goods
active
##encies
redditors
solid
easier
vibe
rental
double
flying
kottu
udawalawe
ec
pand
##ened
anx
##orters
##arian
coff
locations
reality
depos
freedom
harass
creating
version
hambantota
renew
der
fa
kar
wise
##nb
##acks
poll
posting
repe
reports
discover
followed
positive
charged
polonnar
lay
ni
pool
wifi
##atne
##atively
##eniya
clot
scene
instagram
excited
institutions
##going
purpose
trouble
hiriketiya
sjb
bab
fill
gd
##urch
wealth
sem
##ocks
written
weekend
showed
salaries
keeping
2018
bio
meaning
identity
dub
rom
forces
reve
medium
seemed
cream
negative
aim
ice
pak
##gala
##wire
##isation
##olution
##board
usa
##ocket
rob
hopefully
##aduate
##aughter
secretary
ahead
bb
##ule
##wise
##place
easter
football
railway
lawyer
council
##eed
input
##ali
##oti
##oph
therefore
##actions
brain
friday
##ifications
finished
surv
insight
##ika
natural
barely
film
citizen
picture
polonnaruwa
clothing
tin
##mary
inj
afric
resign
prevent
clubs
savings
registered
02
400
lond
sir
sens
church
proceed
##rupt
created
setting
choosing
struggle
sounds
american
conversation
gain
ho
##itals
shoes
libr
unable
##istan
users
agent
##play
secure
surr
sales
runs
newswire
distance
ahangama
broken
analy
malaysia
fernando
mic
##cy
suic
##ght
highest
buff
##aha
approx
frequ
yeah
sale
adults
blue
trips
performance
06
09
##aa
reject
execut
##ateful
##ours
elections
speeds
appointment
gamp
ic
ict
##acity
##adeniya
actions
twice
##airs
apartment
copy
channel
autom
##rid
stick
unit
abuse
spok
quiet
hire
famous
pett
duty
mechan
05
cook
thous
##erts
whe
##etic
stable
##adesh
withdr
shot
helping
whenever
developed
animals
challenges
suddenly
saturday
hr
##lam
##down
##ze
##inations
meal
fiber
centre
reached
initially
birthday
cabinet
pic
##goda
##pts
##ads
climb
committ
eta
annoy
treated
faculty
##cel
##mer
atm
##oses
commit
disp
smo
possibly
types
dollar
intelligence
55
bunch
fuck
pure
samp
wt
##acts
##ading
somehow
feat
ideal
biggest
bow
mos
tele
wij
forest
stage
dogs
grateful
hike
locally
##ension
played
cyc
bridge
requirements
critic
infrast
london
bomb
rad
ven
##30
##eck
offering
hiking
##duce
valu
profit
250
##resp
##asinghe
profession
snork
steps
accommodation
loud
taught
vari
##inated
weight
shar
##istr
recommendation
impress
listen
increasing
tarif
danger
gather
oce
##bing
##ela
item
##tered
pros
backp
peradeniya
surg
bringing
models
graduate
corrupt
quickly
candidate
bachelor
rise
##cing
##dom
forget
thats
##pper
##ction
##ologies
buddhism
hospitals
networ
destro
ensure
gender
ive
lav
mand
nv
pil
##hd
toxic
##aragama
##rier
##ells
resort
##force
approval
claims
walking
complaint
independent
taste
perspective
infrastructure
bars
died
daughter
n4
##har
##eness
##ula
##ocol
slight
scared
decisions
registration
reduc
sitting
passeng
specially
effort
occas
egg
##gar
##km
inqu
seats
monday
exploring
##ricult
##ternal
refund
purchased
sams
introduc
emergency
tuktuk
75
99
cous
nin
ot
##xpress
tow
##icious
meant
##abled
spoke
attach
lots
beginning
favour
ikman
criminal
gems
##ham
##ja
##aram
##sequ
##estic
adop
veget
nov
agricult
blame
generally
successful
plantation
drug
houses
lakhs
reveal
dur
round
ragging
sac
##itation
reform
knowing
##ailand
##others
remove
vacation
behavior
coffee
surround
48
caught
nl
ppl
##orter
alie
conven
##ivity
relatives
##atha
busy
basis
connections
opened
##spects
temples
caused
rooms
separate
fucking
pettah
##fast
##wa
##adasa
color
perera
consist
reduce
assum
##raid
checking
##what
putting
responsible
suitable
sampath
kat
##men
##let
trend
upgr
gotten
suggested
learned
destination
benefit
schedule
alleged
favorite
samsung
thailand
##eling
##enty
shown
unc
outd
afraid
perman
useful
shopping
focused
equal
suffering
embass
aliexpress
bills
dumb
oo
sick
ton
##rance
##mp
##itude
union
##istics
##agn
gota
scoot
owned
belong
construction
standards
therap
browser
hutch
39
wit
islam
tra
advent
##award
branch
himself
engineers
warning
delivered
sending
##unegala
silva
cooking
channels
camera
orders
maintain
nre
squ
tired
van
pred
debit
usage
marks
detail
leads
accepted
breakfast
relationships
pursuing
lady
dil
dude
gp
gb
nut
tend
##hold
alot
shoot
external
##cially
helps
##olling
foods
supporting
estim
authority
responsibility
citizenship
japanese
##csl
mixed
kurunegala
map
tough
##ette
ongoing
user
norm
release
##haps
strike
migrate
library
suicide
bes
batch
km
##ging
##icy
expert
perhaps
foreigner
##ologist
direction
listed
updates
competitive
pandemic
rural
voice
##arily
##least
proof
indic
conserv
royal
importing
capacity
village
restrictions
corporate
ocean
ba
gem
ip
##bm
##asts
##ila
atleast
aftern
throughout
remain
typical
fields
mald
graduates
eyes
crowded
cafes
baby
executive
eats
uc
##ladesh
toy
##rif
##urved
everyday
grant
twitter
floor
strength
complex
effective
photograph
changing
recognized
cancel
ayurved
dishes
casual
gampaha
surgery
honey
kel
wer
##iat
##str
##thy
appeal
##cient
airline
matters
joined
contract
totally
beginner
confirmed
committee
losing
pin
##ban
##ented
##cipl
decades
block
qualifications
tempor
##mbps
commerce
embassy
fb
mill
ug
vib
##entially
forg
spir
recip
##ocking
hasn
agency
emp
instruct
awar
##iction
solar
##while
keeps
healthy
matches
cyber
ltd
crypt
bangladesh
ms
vent
##iety
##mers
colour
otherwise
display
scale
famili
fibre
delay
cafe
buddha
missed
discrimination
nand
sight
##pers
whale
##ops
dear
wanting
##gress
agreement
opening
markets
childhood
grew
contacted
holding
peaceful
administration
removed
anxiety
dubai
witness
afternoon
awareness
ko
##oices
ancient
beat
alco
meals
sust
somewhat
incred
transactions
constantly
charging
namal
damn
premium
academ
piece
##lkr
familiar
38
bon
hnd
os
wide
##rit
shall
chocol
##araz
laptops
messages
employment
calc
identify
undergraduate
festival
conflict
constitution
procedure
africa
thousands
professionals
alcohol
bs
##10
##zz
##itage
##reed
##key
unli
##ables
discipl
travell
supply
guest
publish
##apped
voting
regardless
joining
financially
crimes
european
scenic
screen
encour
wildlife
songs
gf
mp
nr
##rain
##ivers
##ca
whom
stated
proud
shame
advanced
schem
throw
blocked
strict
197
director
links
mindset
voted
named
previously
frustrating
600
cmb
categ
daraz
fash
hill
pv
race
ts
tut
##ales
trcsl
partners
minute
assault
120
included
harm
domestic
candidates
announced
tools
ath
bail
file
fancy
hs
lane
tik
flow
investors
dropped
trading
damage
initial
starts
prepare
drugs
maxim
assistance
dissanayake
ball
cart
eld
hall
oya
wil
wid
wall
##nes
wearing
clin
coz
primary
didnt
settle
ministers
factory
crime
existing
kumara
pakistan
valuable
destroy
fashion
37
dry
gate
hence
n3
vet
##under
regret
##rael
propos
cuis
trusted
communication
##ropri
hort
n8
nations
nuge
vat
##ew
##inia
compens
agreed
committed
investments
eastern
entrance
protesters
##egr
##gn
##ores
##ola
##iding
##idency
chances
adj
adding
upload
2026
prescri
airb
healthcare
programme
clearance
dealing
expecting
pictures
lectur
historical
regulations
hindu
lavinia
65
bother
tues
##oted
##usting
acqu
enr
##izz
##anga
desper
badulla
ceb
lines
papers
trees
addition
ridicul
schedul
dedic
weren
nugegoda
eg
era
filled
fault
pod
t20
##omed
##isf
frame
##ulated
wash
worry
adult
flights
developer
cheers
signed
affected
practices
occur
recognition
suspect
providing
unsure
machine
41
gaz
kot
##yr
##ician
##uty
##aming
##itha
convert
notes
uncle
heat
disg
mark
##ensive
imposs
watched
2009
serve
claimed
production
homes
turning
permit
monitor
garden
eee
fat
sand
##iers
##xx
##inger
israel
##ima
shift
leaves
##awala
draw
educational
##worthy
signal
nsbm
falls
absolute
princi
bath
cave
las
##24
##eld
##uted
meat
chose
whose
nobody
privacy
realize
situations
affairs
routes
equip
doubt
mistake
racism
virt
withdraw
wtf
telegr
mc
##ray
##kara
chief
uses
##uma
cru
heritage
flav
deputy
negoti
device
entirely
successfully
amazon
psychology
appointed
influenc
victims
flex
impossible
fed
gm
laugh
nil
##ges
sugar
unre
severe
advis
joke
located
flu
guarant
entre
shortage
##anned
filed
cycle
competition
##market
cinem
priority
innov
scooter
horton
49
cake
lion
nom
##ein
##ords
tooth
anytime
##chi
plains
integr
##ublic
terrible
refused
organiz
premadasa
democratic
tuesday
die
hes
msc
##oom
##iest
##link
##vely
##ina
##inting
##iture
##iles
bear
door
##abor
ads
##aphic
##apura
monso
curricul
lets
served
stayed
wrote
assume
skip
includes
100k
rajapaksas
positions
beauty
claiming
failure
mba
surprised
methods
established
launched
circum
urgent
advertise
tower
gang
##nament
##40
##25
##rial
stability
advant
accom
command
carried
depend
scammed
fairly
heavily
influence
drinking
58
mall
nine
sar
##ole
##pet
##aniya
##atics
sep
cold
##ums
compar
mannar
##roid
engage
tournament
connected
bigger
meanwhile
arrange
server
petrol
responses
internships
psychiat
alternatives
mountain
mistakes
disappoint
killing
lifest
icbt
features
800
ede
og
rush
tip
##iq
##lies
##uit
##ench
##right
##iled
resident
##rovers
discon
award
elected
charac
educated
deter
biology
bikes
arriving
preferred
technical
coverage
villa
measures
maldives
forgot
sustain
entrepr
bid
fal
hars
##ining
##rie
hab
reb
prison
##aded
##imately
##ull
20s
grab
controvers
transit
electr
officially
topics
tests
australian
protection
battical
purposes
closer
argu
bags
obtain
hurt
annoying
dangerous
attached
agriculture
51
bond
cere
kil
maps
nur
pad
rug
saving
##moon
tho
thurs
##ita
##icks
cond
unis
##unk
##erior
persons
guard
defence
renting
discussions
patient
racist
convin
colonial
56
bc
ow
##eing
##off
##hn
##aran
##iling
useless
overs
prepar
disabled
teen
blind
realized
northern
2017
turns
motiv
error
animal
surprise
prepared
judge
terrorism
ravana
spoken
slightly
honeymoon
entreprene
5g
diving
##ga
lie
climate
vision
indians
relatively
phil
powerful
mainten
player
landsc
values
movement
teams
updated
starlink
observ
depression
punish
deposit
maintenance
fans
gay
wat
walle
watt
##days
##eries
##esth
##aly
##aratne
accused
parent
pharm
195
kindly
extent
experiencing
distrib
##attu
allows
institutes
diagn
trustworthy
satisf
deeply
lugg
archit
disappear
angry
germany
material
upgrade
kelaniya
temporary
pvt
curriculum
batticaloa
5k
gh
jer
kdu
roles
tb
##ey
##fall
thus
began
##olen
##pped
deals
spons
##ifts
hass
ourselves
clients
intention
england
paypal
accountability
transaction
remains
earth
ends
194
retail
receiving
activity
organization
covered
replies
##mony
drinks
chairman
ucsc
monsoon
electrical
cos
cast
hung
mel
py
sides
##ox
##ett
pricing
enable
expand
complic
highway
continued
##icted
extended
developing
standing
scams
maharagama
returned
devices
patients
carrying
navy
knuck
powder
rejected
maximum
kore
kap
pocket
wik
##rom
##ls
##ded
##bage
##eral
anc
stocks
stolen
##amm
##iment
consequ
##ushing
amend
recon
maf
##ode
drone
keen
requires
physically
annual
reaching
languages
##undred
steam
mbps
encoun
reputation
minority
subscri
rapid
wheel
introduced
thursday
dy
hundred
pa
soo
##here
##fl
##ino
##inder
##enge
##outh
tok
onto
anyways
outs
##aked
fried
empt
presidency
provides
2016
memor
reflect
mathem
unfair
calm
additionally
glass
plantations
reference
reserved
roughly
snorkeling
permanent
normally
toyota
dates
rw
##rated
##pe
##lig
##ton
##15
haput
und
cha
images
mini
driven
wont
10k
remaining
flood
protein
setup
promises
motorcy
immediate
bottle
backpack
cuisine
equipment
edex
false
haputale
04
dual
n5
##ront
##ii
##oned
##outs
weak
liked
ability
##usted
##udes
spl
elig
brown
brothers
mins
##onda
raise
assets
syll
breaking
leadership
garbage
shirts
##aranaike
tariff
knuckles
46
94
burn
cid
gap
##ih
android
experts
recru
index
awes
explo
causing
constant
largest
critical
articles
housing
freelanc
passengers
rugby
dent
rum
##onym
##aling
##acing
##olic
##ulate
pera
drama
presence
desk
passing
speech
##lanka
handling
excell
supermarket
managing
coastal
streets
bandaranaike
conducted
contribute
materials
linkedin
faith
awesome
43
kick
nq
vend
##ker
ine
##ilty
cham
chand
plastic
##abus
adhd
##hera
accur
firm
factors
investigations
slowly
challenge
division
becomes
fighting
gdp
bbc
smooth
##ropriate
lifestyle
architect
88
eso
kr
mn
mut
pix
rely
##anage
priced
unb
groc
moon
parks
republic
realistic
termin
efforts
picked
graduated
saved
association
##uriya
supreme
compensation
ale
bound
ie
lake
ports
pages
sab
tor
zone
##hib
##tok
##wide
shut
##pping
##abet
resol
contain
idi
##issed
highlight
supporters
handed
proposed
##whel
qualification
smaller
urban
labour
provider
submitted
broadband
electronics
cycling
tiktok
luggage
empty
edexcel
47
4th
du
native
pu
ren
rang
##23
ingr
##oms
##ster
##urd
react
confer
choices
plenty
click
grades
overp
parking
incidents
phd
regional
keells
economics
legally
completing
requested
formal
effects
affili
5000
operations
glad
holidays
discipline
34
44
gy
hnb
honda
les
pizz
##ames
produce
amid
newly
coach
governments
continu
insane
guilty
politician
warm
rajapak
storage
purchasing
institution
dutch
opposite
vaccine
scholarships
sweet
buffet
granted
syllabus
85
cp
cath
rn
tort
tap
##nel
##mat
theat
##ridge
stays
structure
##urally
ali
liqu
tracking
exports
##ager
advices
genoc
remot
deserve
confidence
##phones
boat
touristy
seller
departure
searched
fundament
significantly
ratn
cousin
spirit
scheduled
wattala
ds
eel
fis
furn
mail
mps
ri
rare
##77
##ecurity
##idas
aside
acting
##unte
##iped
mode
##ques
##laim
##araja
subst
discount
century
exclus
##unga
violent
doub
captain
chocolate
elder
dedicated
telegram
rajapakse
cm
hrs
kitch
ya
##list
##dd
##mint
stations
##char
trail
unn
uncom
arag
##box
spices
compare
lovely
prev
##issions
funny
confident
lands
midnight
parliamentary
brief
interviews
cancelled
jayaward
scenari
allegations
celebrate
nanu
task
survive
reduced
revealed
mafia
mathematics
esoft
lights
yo
anonym
##alaya
alive
armed
##apitiya
##eps
hero
explained
developers
##ambal
distur
memory
absurd
streaming
entered
figures
collection
complaints
combined
lectures
windows
volunte
narr
submit
initiative
adopt
besides
unlike
scheme
aid
cc
core
gear
hat
pair
rude
##aj
##pattu
##hop
##mi
##lets
##iru
neither
##usi
prove
lean
##agon
residence
grown
intake
pregn
muse
travelled
marry
depending
promised
verify
bull
lucky
behavi
implemented
proposal
wallet
remotely
54
hons
nu
rising
sr
tig
uae
##mn
##arter
##adura
weer
acts
arts
cloud
monks
seek
incom
##anged
decade
busses
##few
weekends
generations
possibility
scient
lessons
sigir
sunset
returns
occup
admission
christian
navig
neighbor
promoting
announce
replacement
russia
penal
electronic
mechanical
##nesday
53
banned
camb
mum
pays
wake
wicket
##ield
##tain
isol
struct
##sey
##imal
##antic
sport
feet
agencies
clue
brut
transpar
pointed
testing
defense
cheapest
employee
designed
trinco
hostel
requirement
likes
stressed
ordinary
reserves
repeated
adventure
vibes
published
ingred
kitchen
uncomfort
5th
ast
boc
nib
##bally
##inal
toward
shorts
chain
seven
enth
amounts
manner
overwhel
continues
subur
forever
##raft
interests
fulf
180
promote
expectations
earned
divor
america
revolution
shirt
estimated
crypto
incredibly
wilpattu
eelam
cambridge
66
700
bats
fare
finger
hatt
laks
rape
tight
wis
wave
yell
##hand
##eds
##eted
##ami
lift
adidas
exposed
league
contacts
curfew
cod
john
extreme
explan
skill
socialist
availability
wednesday
damaged
destinations
duties
dreams
horrible
neighbour
merch
collabor
innoc
printed
advantage
genocide
uncomfortable
enthusi
68
fy
faster
session
waves
##aud
##ipt
##cut
##log
##xy
##atically
##verse
##ooks
trash
trump
defe
##acked
quit
everybody
indones
dism
travelers
solve
wonderful
industries
attacked
involve
suffer
towns
theres
jew
terrorist
recorded
tenn
frequently
favourite
ridiculous
psychiatrist
tbh
fant
mak
nj
##iance
##cast
##do
##16
stating
pray
doc
##ortion
##osity
interact
graph
thinks
marine
transform
196
extend
talked
sky
landing
profile
viet
temu
##atta
default
demon
##iciency
equival
associate
ladies
lawyers
hatton
900
aunt
cree
diver
length
roll
##22
##erc
##alf
##icking
asks
spa
20k
advised
intel
trial
attending
##hips
privile
invested
badly
talent
elsewhere
household
allowing
speaker
licens
##oko
potentially
analys
selection
reputed
queue
journalists
inspect
##wella
disconnect
kapru
vietnam
eu
fert
len
nurs
upper
##hana
##lying
exem
conce
noted
units
champ
##abil
attor
poya
differences
symb
examples
badmint
talks
doesnt
##ashed
mirror
tells
courier
object
replaced
chemical
sadly
funded
##rooms
lgbtq
declared
russian
disgusting
hassle
aragalaya
badminton
iron
nas
niss
nadu
rub
siri
##fers
##isl
shout
goals
arm
alloc
spaces
feas
lease
agents
##ivu
graphic
visas
visitors
feelings
transition
sinharaja
boost
examination
funding
sett
memories
buddhists
50k
pattern
operation
snacks
relaxing
appears
strategy
clarify
injured
analyst
reforms
convenient
assuming
therapy
gazette
motorcycle
nibm
57
9th
bla
fits
jump
kad
rt
rot
raw
##pay
##uries
##11
##inent
##uting
exha
unw
placed
acne
enforce
newsp
##gged
regime
accountable
sms
kinds
behalf
divers
entering
cybers
operating
statistics
applications
boarding
admitted
properties
battle
soldiers
conversations
lgbtiq
deduct
hyb
emotional
cinema
consequences
kapruka
buc
cig
fab
gal
##hr
##cl
##erning
##inge
##ams
##adays
myth
concept
records
20th
nowadays
grad
##forest
disresp
coding
##izes
##vels
supports
##ups
ending
follows
retire
detected
diet
entertain
identified
creative
switching
environmental
fitness
grounds
providers
bottom
regularly
pull
liberal
ultra
harassment
shares
networks
bonus
organizations
sigirya
newspap
89
ly
nge
oc
pas
uom
voc
vast
##ointing
##reg
whil
beer
ash
##ched
shocked
suspects
unus
aband
##ella
ups
upto
whereas
intent
workplace
dise
##izer
##ody
internation
remind
differently
2010
ordering
causes
efficient
messed
industrial
paths
boyfriend
cancer
panadura
printing
powers
mandatory
surrounding
eligible
pixel
overpric
pizza
dies
nal
pf
pear
tail
##aft
##po
##py
##ports
##orm
##aras
alert
nepal
unions
plate
##ags
monet
relative
coord
consent
instance
openly
menu
cooked
burden
ignor
challenging
recovery
aspects
criticism
destroyed
lecturers
accurate
scenario
ingredients
innocent
cybersecurity
whilst
350
64
77
84
fd
fer
kings
koko
lon
ped
tank
ties
##29
##asc
##ige
##tha
##ourse
impl
monk
##gging
##uba
twe
lotus
flash
taxed
hopes
realised
corner
shortages
meetings
cutting
membership
riding
mountains
broker
kingdom
golden
##lusion
frustrated
passionate
networking
duration
encourage
desperate
sustainable
59
balls
dim
hiring
migration
nst
si
sess
tatt
ww
wood
##ux
##enna
anger
##ils
##acle
stack
##iry
exists
excu
unl
##unge
spare
quota
quote
client
manip
mods
mentally
profits
heads
portug
sectors
organized
hospitality
counsel
struggles
treas
sufficient
suspicious
permission
freelance
depressed
discovered
romantic
category
disappointed
##ipedia
attorney
tattoo
excuse
76
jail
md
nk
pd
pushing
rit
tl
##pass
##craft
##bour
##xual
##rip
##ider
##unic
prospects
##osure
visible
plants
##enced
traveler
hoppers
hotline
retrie
facts
concerning
sells
religions
orient
walked
treatments
multi
collap
percentage
translation
translate
obtained
journalist
escape
assignments
macbook
circumst
bm
cima
ft
rides
ty
tab
##oration
##arely
##icial
excess
exceed
unknow
appropriate
leaf
##cious
grave
##awatha
pleas
visits
traveled
suggestion
passes
actively
dealers
succeed
civili
operate
rainy
odd
footage
risky
achieved
minimal
denied
scratch
escal
outdoor
airbnb
hundreds
fundamental
unnecess
fyi
hybrid
internationally
overpriced
civilians
aa
cow
gs
jaz
lit
zeal
##gu
##iors
##ique
##26
##33
##wood
##reh
##rew
##ley
##utional
onwards
##seeing
orph
fraud
canad
##essed
seaf
somebody
proc
imo
##umping
##rog
lock
trigg
invited
tours
smile
flat
legisl
##lands
retur
skilled
entit
receipt
portion
bottles
screens
embar
fucked
bachelors
variety
detailed
ayurvedic
sightseeing
character
museum
yellow
analysis
symbol
az
ben
eb
gig
hob
ml
mt
sib
tid
##pitiya
##yo
stone
asap
##ches
shitt
##unting
##apter
##agala
nowhere
covers
##ensions
root
10th
bankrupt
##ertain
surge
species
apiit
statements
stops
metal
22nd
dias
replied
computing
originally
priorit
ruling
deaths
repairs
lecture
consumer
historic
bloody
democracy
manufactur
commitment
impression
advertisement
wikipedia
fertil
zealand
67
bure
boss
gifts
##gment
##gpt
##yy
##19
ofc
##utara
##anka
##igning
reserve
loyal
incor
letters
supportive
careful
1500
qualified
believed
purchases
organis
failing
hitting
winning
immigr
hostels
odi
domin
ignored
randomly
##uction
manufacturing
widely
ceremony
conference
returning
3d
93
95
bh
dance
faces
gained
rarely
som
tear
##iation
##bc
##isa
##thi
joint
scope
margin
carg
insist
courts
propag
extension
harder
listening
sellers
ukrain
borrow
fortun
demands
silent
combination
window
browsers
reputable
attractions
festiv
spreading
analyt
vegetarian
enroll
crucial
korea
amendment
brutal
equivalent
disrespect
sessions
bureau
aus
bicy
noo
porn
##gi
##gender
##ros
##mpt
##elines
##rig
forcing
ish
##stood
shad
abans
wasting
spice
aggress
##eria
postp
internal
aircraft
attitude
deserv
buildings
meter
rajapaksha
reporting
produced
artists
larger
certificates
ruh
importantly
falling
##awatte
victory
surprising
conducting
threads
picking
purely
##hamed
islamic
conservative
landscape
tennis
nursing
collapse
diaspor
74
nad
pir
##mm
##ald
##otyp
italy
##amuwa
alt
plot
plain
enrol
##apes
##aped
##avel
noise
relief
brings
emph
taxis
apolog
2012
packed
200k
viable
minded
diabet
acceptable
focusing
dining
cooper
ignore
associated
chatgpt
attempted
queues
tiny
allegedly
ayurveda
chaos
wickets
demonstr
feasible
450
69
ble
bell
dat
wi
##point
##lights
##ties
theory
##urr
##uru
fruit
sovere
une
exposure
spin
leop
afterwards
crush
coin
transfers
forex
cleared
regards
beliefs
breath
arranged
serving
transferred
accessible
demanding
hikes
introduce
screw
auto
conditioner
hangout
flags
hype
approximately
##aramulla
sacrif
guests
hesit
condem
split
architecture
catholic
behaviour
entertainment
sovereign
8th
98
bot
ct
eo
edge
lap
n6
n0
tld
vp
##fol
##12
##atunga
toler
inland
##otic
stood
stret
##thon
shel
prosp
overt
sometime
regions
crew
stray
sympt
imposed
generated
publicly
explaining
coron
function
couples
voters
technologies
limits
complaining
globally
ethical
verification
dhamm
java
argue
summer
confirmation
karun
semester
resignation
sensitive
frequent
traveller
n870
occurred
determin
argument
token
recruit
indonesia
tldr
aqu
cats
nse
nag
qa
wage
##eward
##rass
##falls
##alu
##amed
rein
trop
unity
##ulations
ate
##usion
spect
upset
##agues
nof
gram
plane
scream
dram
airt
strange
privately
srilankans
classic
boom
islands
typically
personality
curiosity
artific
organic
employed
21st
medicines
designer
deeper
##agged
cops
rainforest
motorb
threatening
threatened
migrating
kalutara
magistr
ethnicity
minorities
nye
undergrad
jungle
startups
tasks
atmos
eggs
recipe
travellers
gyms
divorce
screensh
emphas
diabetes
63
bub
dns
fo
hers
ii
jet
lan
pid
wire
##een
##oft
##roc
##mo
##orough
##eliya
pron
weap
wasted
seal
##usive
##osh
expend
##away
prec
gotta
parad
scuba
mining
##standing
##next
##ibilities
nightlife
2014
worthy
cheese
2005
defend
programming
portal
sections
capable
exclud
pathway
petition
films
speakers
licence
enjoyed
ruined
involving
statue
suffered
mbbs
attempts
burning
freelancing
consumption
sanct
strategic
strategies
telec
settings
bombings
venue
ugc
instructions
comparison
habarana
preparing
punishment
excellent
affiliated
furniture
circumstances
diaspora
symptoms
86
87
dj
dir
hu
hust
icc
mulla
nch
nbe
ub
vit
vice
##cm
##mates
##erous
##icit
##otes
asus
lies
height
alliance
amd
feature
quant
contest
crab
crap
elite
load
marked
assess
weekly
handled
15k
apologies
centres
temper
lesser
welcom
14th
160
camping
construct
covering
improving
premier
apartments
answered
threats
disappointing
camer
pieces
repeat
equality
millions
innovation
controversial
perahera
theatre
##ambalapitiya
narrative
bullsh
canadian
ruhuna
dol
yog
##gely
##ran
##ius
##iber
##inate
##eline
##ete
##stream
##verty
trick
##unning
##abe
##umped
##angala
##ods
attended
blaming
raising
explos
warned
surely
landed
processing
2008
tested
moments
##ployed
naturally
largely
literature
furthermore
graduation
nto
colleagues
admit
31st
promotion
audience
hanging
reportedly
superior
pulled
aspect
pushed
meaningful
##ophob
consistent
shooting
tsun
complicated
vendors
tigers
explanation
seafood
bom
dan
eve
gor
gala
lying
rath
sake
tall
wet
zoom
##ras
##fa
##jan
whales
forms
##olit
##amuna
habit
##ador
##usal
arab
peeps
agend
offices
monkey
lob
phase
deciding
pride
letting
poverty
##rais
confusing
13th
mission
improved
applicable
paint
panel
battaramulla
##exp
365
assignment
uncertain
outdated
beaten
tutor
guarantee
accomod
diagnosed
pregnant
diverse
unnecessary
shitty
bun
cad
cable
hired
loun
lamp
nac
ping
sq
vess
vague
ward
##ez
##ios
##ders
##mine
##18
##inct
dos
suv
spicy
##erial
##eriya
resolution
##aug
crack
curt
firms
personnel
emails
smell
##uese
greatest
stopping
sciences
portfol
humans
professor
stronger
psychological
legitimate
terrorists
magn
troub
junior
tariffs
entrepreneur
leaning
cigar
unknown
vpn
72
bout
bare
gce
lpl
mm
n7
nerv
tiss
##vals
##fo
##fc
stamp
enh
adapt
##osen
##osis
##umes
quarant
quoted
##rove
accidents
perce
##athy
maith
governance
drunk
transgender
blog
depends
30s
opposed
retired
questioned
pickup
researching
breaks
editing
factor
alongside
traditions
complained
medication
ruin
##iliation
label
mentality
horror
expressed
requests
##ovo
tuks
adams
responded
description
filling
katun
witnessed
virtual
hatred
portuguese
dhammika
welcomed
bullshit
62
78
83
cd
cv
ea
lem
nons
pta
vul
yah
##east
##pan
##sl
##inating
toile
##itarian
##isena
##asy
##ece
stake
align
shape
french
unem
chosen
worship
colum
pepper
##bery
backed
##quit
governor
awa
aviation
funct
nationalism
salt
certified
concert
signs
lesson
scammers
rented
certification
enjoying
bodies
collected
switched
wickram
labor
introvert
archae
documentary
150k
narrow
ownership
effectively
participate
emotionally
derana
reducing
inquiry
cousins
otp
photography
adjust
prescription
awarded
torture
suburbs
lenovo
airtel
tsunami
360
96
97
bis
bread
deng
fool
gaining
ird
mouth
river
tf
##oons
##lings
##vest
##zen
##ora
inh
inher
##itivu
##arath
##verter
##keys
shorter
exit
exerc
congress
proven
##akers
##iva
quarter
##ishing
disaster
planet
travels
accounting
repay
mainstream
legs
##phere
rajag
biomed
11th
singer
##works
secondary
freely
mentioning
protestors
oblig
annivers
credits
elev
authorized
cleaning
ntr
circle
keyboard
grandma
pcr
administr
maintained
vaccination
angel
consultant
described
layover
spokes
passenger
sacred
expertise
delayed
hsbc
krish
abandoned
monetary
pidur
dengue
anniversary
7th
hub
jk
pour
ring
roof
sons
sque
tag
welf
##gri
##rors
##hone
##tr
##vy
##front
##90
##asia
##uts
prab
alright
shipped
trends
plc
plz
##aker
ours
residents
login
highlights
##bsl
drain
connecting
discord
mora
isnt
prompt
arrack
16th
goog
sucks
dropping
societ
figured
risks
misle
painting
painful
recognised
correctly
3000
resource
jayas
bookings
migrated
turtle
jewell
virus
closest
sleeping
ols
communicate
sirisena
climbing
mosquit
increasingly
##harama
convenience
convince
doubts
retirement
pdf
jaze
propaganda
aggressive
enrolled
dying
eight
ease
hd
icon
kit
kiri
nood
ry
tact
tons
##rise
##rama
##cal
##tles
##don
##bl
##books
thir
##onom
##enn
##arters
##riers
##rilanka
nee
neut
frag
unif
abusive
arms
##ection
outcome
ages
accent
understood
scar
scri
peramuna
optim
19th
syn
hardly
hardware
landl
facility
preference
caut
waterfalls
refuse
protesting
greet
employer
managers
selfish
fallen
##marily
femin
respectful
expressway
90s
attractive
sisters
debate
essentials
mosque
fluent
ancest
freelancers
fisher
anonymous
lonely
cargills
analytics
tropical
artificial
atmosphere
herself
nonsense
rajagiriya
92
cz
fasc
ga
hits
ios
ju
lag
nit
nir
nun
pill
raining
ske
va
##son
##uh
##wing
##inform
forth
isp
org
france
mee
suz
sees
pek
reck
##agoda
aged
##ipe
indeed
paran
incon
decline
postgr
assass
depreci
disclaim
12th
educate
farmers
easiest
estimate
promise
prominent
branded
activists
safely
ps5
manageable
225
accordingly
23rd
workshop
provincial
consumers
assistant
##ography
utter
pollution
radio
##ews
flexible
kilomet
dental
ratnapura
disease
orphanage
entitled
embarrass
magistrate
lounge
biomedical
pidurangala
welfare
cautious
73
71
91
bf
dines
grid
ipl
mi
mend
pissed
##pa
##iar
##cr
##yani
##ba
##bn
##neriya
##ky
##oral
##elts
##otal
stig
reh
alph
##ooked
##oops
##uls
abol
abey
##apal
##iff
justify
whoever
applies
output
interior
monkeys
studio
disrupt
decre
tries
basket
suggesting
smoke
passports
guides
greater
territ
cultures
125
##uki
moral
reasonably
welcoming
18th
edition
promising
servers
nsri
organisation
economynext
streams
fortress
premises
suspended
downloading
provinces
relaxed
naval
promoted
corporation
installed
earnings
ambul
finishing
procedures
mechanism
pilgri
predict
academics
harsha
##ettes
involvement
fabric
katunayake
disclaimer
dinesh
6th
bambalapitiya
dust
ek
koll
mud
nel
ox
oly
pants
rh
##hrs
##ias
##bes
##net
##vi
thril
##esak
##stit
##olved
##the
trap
chil
ade
comparing
comprom
resist
intim
overl
minneriya
primarily
worldwide
happiness
suggests
legend
marketplace
delays
learners
distract
25th
2004
paste
188
seconds
130
lowest
discussing
accepting
patri
sentiment
strongly
addressed
samar
fastest
holders
victor
referred
neighbors
appeared
restricted
kumar
ultimate
semi
recipes
clinical
kotte
principal
satisfied
encountered
groceries
fulfill
settled
unusual
stretch
mullaitivu
cameras
portfolio
nervous
pekoe
inconven
olymp
1k
52
dict
eager
fled
ja
jul
ncon
nwe
oa
pon
samb
sought
ul
wing
zones
##top
##35
##ingly
inverter
##alam
##static
beef
stere
pra
##aint
##osoph
##istent
##ectives
outlets
newb
interc
contem
monu
loving
worker
incons
coins
scan
##athan
cargo
drives
keels
connectivity
blocking
creation
passwor
solely
solved
15th
exploration
cultiv
sets
##ricts
biological
110
headed
waited
##ikud
accessories
breakdown
trek
silence
sorted
admir
necessarily
stressful
essentially
documentation
advertising
campaigns
participation
ambass
illness
gardens
ecstatic
dermat
pinn
venture
flowers
nurses
reconc
transparency
nissan
pfca
ignorant
festivals
bubble
galaxy
yahapal
suzuki
bol
bum
beng
citing
dul
dans
ka
kam
laid
lazy
mile
n9
ner
nis
neck
ov
rip
roti
sed
sare
ui
vo
##rition
##case
##jaya
thar
thick
##atunge
anime
##edy
##reen
beg
unh
uncon
##ulating
abt
abused
washing
##abilities
recall
outr
overcome
parcel
##ubow
##quate
engaged
engaging
##owned
wellawatte
trained
string
hotsp
##ugs
30k
careers
discl
numerous
checkout
editor
stands
sunrise
specialist
pets
files
treating
exchang
equally
verified
brokers
ignoring
##urious
kalpitiya
bedroom
crying
machines
liberation
aiming
micros
gathering
therapist
trauma
conservation
clinic
commander
harsh
philosoph
isolated
lifted
disconnected
exempt
concepts
motorbike
quarantine
4k
ber
cul
cbsl
dell
jack
lah
mort
ngo
pace
pink
qr
rab
sid
tt
##rest
##uks
##uild
##ml
thorough
##erable
##aris
shed
shower
butter
plays
pean
##agers
compon
clock
##rof
advoc
##achchi
hadn
crash
relic
overth
##awatta
invite
embr
supple
awful
awards
subsequ
mentions
##uka
questioning
watches
efficiency
##malana
maha
discussed
forwarding
fixing
nae
senanayake
destruction
certainly
downloads
improvement
labs
presented
burger
domain
referring
turtles
establishments
virgin
guidelines
fishing
volume
targeted
logic
inspired
deposits
withdrawal
radical
occasions
gpu
partnership
lecturer
framework
forgotten
python
navigate
announcement
diesel
ukraine
deserves
mendis
stereotyp
5m
79
bird
cer
dive
drove
eh
esp
gri
ker
lens
litter
mit
mism
rains
sd
ses
sene
til
wages
##gl
##afe
##lers
##fli
##father
thri
##itar
##oma
isps
beware
stir
asse
conver
##udi
span
##akk
intermedi
cruel
intended
reluct
disag
jokes
locked
perpet
tex
thrott
roots
beforehand
blow
remem
subt
symp
importers
discounts
importance
api
nationalist
centers
boot
custody
districts
concent
freaking
refuge
malay
practically
avoiding
##oka
designs
collecting
aka
crowds
##ograp
combank
dresses
##criptions
conductor
closely
validity
separately
##lusive
junction
logistics
clarification
2000s
measure
incredible
gateway
pharmacy
dynam
freelancer
wisdom
enforcement
organisations
bicycle
vulner
jazeera
chilaw
reconciliation
61
ax
bagg
cus
dick
gall
kg
rally
ros
sb
vesak
wound
##hal
##hire
##iques
##count
##cles
##28
##mah
##36
##wan
##zer
##erving
##iny
##ingu
##icin
##ashing
stars
reward
myst
orange
dod
nex
prohib
adds
##bod
exper
##avun
##asted
##akkara
##asekara
slip
grass
commute
indies
intend
heroes
carn
twist
draft
realise
depth
followers
matale
2013
swift
suck
routine
walks
##ficial
periods
26th
competit
silver
27th
cabs
guessing
steal
resulted
judgment
skincare
viral
contributed
audio
celebrations
progressive
epic
faculties
perspectives
tuktuks
assigned
telep
renewal
resigned
consistently
academy
t20i
subscription
resolve
liquid
disturbing
##logic
jewel
diversity
implic
##ennai
manufacturer
expenditure
paradise
intimid
dermatologist
ccc
dal
dun
fiction
gent
hect
hills
kul
n20
pending
rm
ric
row
sang
sne
vid
vavun
##eg
##fp
##uj
##war
##itable
##arn
##rets
sty
stunning
doors
shocking
##ounder
trails
franch
whatso
allergy
##ifting
yours
##indu
fever
peoples
##nings
elim
pref
##erved
consens
presidents
flo
specs
soul
##raj
respective
detained
learnt
softlogic
headqu
directed
allowance
activist
charger
netfli
filter
holds
couns
difficulty
addressing
collective
odys
panic
bulk
bullying
railways
revol
versions
approached
appearance
merit
losses
perfectly
affecting
removal
describe
automatically
smoking
occasional
rushed
distribution
grocery
alevels
liquor
adoption
incompet
penalty
overwhelming
fingerpr
rtx
ngeo
siblings
grammar
dolph
agenda
script
landlord
postgraduate
pinnawala
##ographer
whatsoever
netflix
750
ain
bn
lma
mothers
oy
pac
qo
ras
sap
sorts
tone
tier
wand
##hz
##talam
##math
##56
##zed
##eration
##iser
##eter
##acies
stad
##ira
orth
ships
tricks
frank
chennai
##usl
enlight
##ocurr
ime
compreh
sauce
manif
offence
gross
overst
scores
dece
##osexual
postal
thrown
consp
meditation
insta
bless
ideology
lasting
generate
delhi
matt
farm
detention
swear
refres
activated
dealt
increases
capita
artist
obst
affects
exciting
boring
border
brid
ruins
seniors
violation
controlled
extremist
mistaken
##umbled
strikes
wickrematunge
represents
installment
epis
attendance
accidentally
liberty
ravi
anxious
venues
250k
permanently
belongs
cryptocurr
lasantha
entrepreneurs
hungry
ineff
elderly
neighborhood
newspaper
exceeding
lockdown
loyalty
biscu
noodles
cock
fla
gt
hong
ielts
jam
kong
kusal
rig
vary
##ris
##bar
##van
##14
##west
##inance
##order
forec
##oting
##otism
##ecution
##ilit
##acles
reaction
##chool
exhib
chasing
abortion
##udu
##istically
##ghan
allerg
spar
##venir
##akaran
needing
manual
resc
slim
##ache
contains
scary
opens
supplies
##upitiya
serves
##uwan
owns
privat
bugg
guitar
provisions
souvenir
30am
extr
confront
acknowled
developments
farming
##aza
format
distant
conclud
preferences
pretending
waterfall
motherboard
##ifying
motion
bored
500k
commonly
devast
sentence
civilian
suspected
criteria
secretari
panels
##aweera
routers
grandm
celeb
frustration
browsing
irresp
commissioner
ranks
celebrating
summary
ensuring
criminals
constitutional
hole
holy
traum
nuts
msi
throwing
assaulted
ogf
disappeared
kicked
fantastic
champions
fertilizer
enhance
toilet
password
microsoft
daw
ht
hide
tun
woke
yrs
##66
##gy
##rison
##cg
##vable
##fir
##met
##kward
##kera
##38
inaug
##rel
stead
rear
##irus
trag
##ules
atroc
##enders
acid
##emy
arbit
colleg
expired
spray
recording
##avid
veg
##agamuwa
##ansion
##sole
sapp
resorts
vish
parc
curries
phr
sheet
conscious
finances
basil
appreciation
blo
remand
downs
flour
awkward
investor
terrif
30th
discour
wondered
protected
##ancies
nationals
deliber
##ception
112
kidney
shortly
behave
malabe
24th
##parents
greg
drops
bright
psychologist
recognize
japura
villages
popularity
poorly
folk
spotify
grandfather
grandparents
jeep
establishment
permits
maintaining
guns
gunaward
accommodations
targeting
obtaining
declined
hygi
pilot
vegetables
surrounded
squad
gpa
##person
koh
prescribed
guaranteed
1948
melbour
rapidly
exclusive
inspector
deducted
bmw
excessive
shelter
pronoun
tissama
senevir
gentle
vavuniya
odyssey
lmao
stadium
secretariat
colleges
4000
dess
fc
fif
fup
gad
hack
hook
hunting
lord
lyr
nost
nich
nme
nether
punch
rcs
tack
##gd
##yan
##field
##kely
##55
##water
thie
##esy
toll
innings
##rific
##ayan
##olombo
ree
doable
shock
##ppa
sus
noticing
chath
abe
acres
##unity
ambit
spo
##avan
loose
cluel
loves
intense
joy
##ogether
interns
fewer
basics
ears
oldest
insult
examinations
powercut
legacy
delicious
119
distress
directions
2500
puttalam
##arians
contrast
##iciary
certifications
damro
commented
batting
rider
copies
comfortably
homophob
racial
emailed
arches
tasty
illegally
ranking
discriminatory
responding
monitoring
emotions
hyper
profitable
impressive
assumed
kataragama
unlikely
influencers
residential
characters
waters
idiots
substant
structures
overwhelmed
creepy
datab
excluding
functional
skept
ambassador
outrage
manifest
celebration
melbourne
netherlands
clueless
cell
cct
cope
fu
gn
gut
iam
kne
nall
npr
por
pit
pige
sis
tent
tied
vous
yt
##ek
##gama
##ho
##hops
##ni
##uits
##erity
##riya
whis
forum
##etime
haha
##oos
##opular
trc
troops
fry
##andal
chip
adapter
usb
##aved
outl
donate
resume
##aches
grind
cringe
loading
overchar
##awela
backup
herath
registr
suppose
issuing
speaks
cheating
valued
conclusion
##duction
##appy
signature
minds
arrives
140
refusing
activate
viewed
controlling
consideration
delivering
camps
teachings
##ippines
remembering
employers
17th
harini
sexually
reliability
commonwe
earners
competitions
creates
##mark
cinec
ruled
existence
divide
jayeward
deadline
celebrated
vaccinated
representatives
boxing
util
ultimately
aimed
african
automatic
agricultural
##holders
ugly
cartoon
negotiate
habits
convinced
motivated
observed
caste
glasses
exploit
desktop
mutual
ranges
continuous
prevention
repeatedly
dismissed
graphics
orientation
hobby
shady
wireless
yoga
cigarettes
misleading
neutral
converting
implications
seneviratne
lyrics
1m
82
au
ajith
bast
cents
dash
fm
heck
ire
lm
ligh
ned
ousl
pics
pitch
roo
ripped
##gaya
##hes
##mare
##kers
##jee
thai
##atte
##inga
##ica
##lec
beij
stabil
stumbled
##urance
##iders
##chchi
##oneer
shots
soc
sole
unav
chron
plates
enfor
enabled
##istani
arun
arrog
spr
##avirus
leasing
##alla
afghan
query
visual
##epura
decor
##adeep
cared
medal
suppress
crem
solving
##neys
norms
30pm
agreements
propose
128
nightmare
centuries
hardship
25k
2006
cricketers
controll
technically
modi
photographer
contacting
failures
pathetic
barrier
satell
surface
operators
birds
unpopular
moderate
##shan
dhan
scenery
unsafe
batteries
audi
tracks
magic
superv
casually
targets
wealthy
roman
sharp
tonight
branches
gmoa
advisor
rebuild
pockets
memorial
boundaries
pupp
continuously
spiritual
volunteer
pearl
treasury
coronavirus
weapons
accomodation
perceived
jewellery
philosophy
assemb
telephone
tissamaharama
cctv
commonwealth
beijing
1d
81
apt
f1
fought
fonse
ham
hunt
js
lacking
mawatha
nest
qe
vital
wides
##oly
##pods
##has
##iven
##yc
##bath
##mail
##ony
##oning
##alg
ist
##ston
##station
ont
beating
##olding
stall
##aman
reverse
##adana
aluth
ashamed
combo
seam
wors
##osa
##aping
timeline
reset
interp
helpless
accel
lod
##aws
preval
##ommunic
coal
scold
##athi
finds
payoneer
buyers
##otherap
makeup
bloom
insec
##ateral
syd
checks
wars
funeral
pricey
deleted
boats
neglig
researchers
departments
digging
replacing
inflated
productive
operated
calories
involves
violations
difficulties
##iyo
appointments
bandw
animation
unfortunate
americans
ayubow
permitted
promotions
tablet
consultation
ssd
boxes
bowler
adopted
chocolates
calculated
worrying
flavour
controversy
motivation
philippines
riots
batsman
codes
enthusiasts
defeat
rubber
shouting
bucks
incorpor
n8703
vessel
maithrip
prabh
greetings
kollupitiya
saree
grandmother
arbitr
pigeon
afghanistan
ayubowan
aesth
cis
cott
dign
dile
dudes
founder
gee
hv
kang
nz
pork
ramb
uoc
wow
##pread
##yth
##dings
##uv
##wela
##zel
##enepura
##ality
##isy
wholes
##otics
ital
stom
stance
havent
alar
##irts
shoe
truck
convent
unst
chips
##anted
##usd
arent
##apa
expose
expense
expansion
spam
##asting
compli
safer
accred
commem
ela
overc
incent
##ubs
##alai
##licit
instru
kandyan
repost
optional
passive
assured
charity
proph
warn
delete
skipping
##ambay
headphones
processed
ceo
##world
deficit
##screen
ranjith
meetups
messy
miles
techniques
caps
organised
severely
struggled
enterpr
literacy
graduating
socially
responsibilities
calend
igp
beneficial
glor
misunder
amongst
holdings
stealing
300k
protecting
bullied
subjected
iran
ranked
beds
recovered
lifetime
installments
broadcast
regulatory
raped
aims
pakistani
micro
gathered
backpacking
introducing
square
empower
tutors
bothered
bathroom
laughing
memorable
supermarkets
highlighted
transparent
exhausted
bucket
##regard
altogether
karunaratne
screenshot
dirty
columbo
reckless
dulith
disagree
headquarters
enlighten
imei
vishwa
fonseka
widespread
##iveness
6000
bil
bite
bung
cb
cn
cens
dancing
ged
hates
hacked
kos
mou
mun
mood
nes
nli
nwh
nrs
pard
rocket
sights
torn
wagon
wimal
##68
##eem
##hum
##iary
##liness
##eding
##ille
##olf
shr
exor
notification
unfor
chase
amaras
countless
theme
accus
sinc
indo
disli
disregard
acted
fired
teeth
firstly
sheer
wellness
twenty
regulation
##veli
embed
medi
atto
blank
remar
strang
simpl
realistically
##ologists
qualify
southeast
##mani
distinct
meters
signals
listing
belief
giant
safaris
scamming
couldnt
holder
elements
launder
knowledgeable
massac
beginners
wins
miserable
28th
suspic
villas
homosexual
n10
requesting
dressed
reservation
contribution
contributing
marriages
nyou
dmt
textbooks
1983
renewed
discovery
dispos
estimates
cozy
veter
desperately
flavors
dependent
engagement
arrangements
ghost
sponsored
encounter
wheeler
outsour
torr
intellect
blah
lyce
pasikud
retrieved
tidal
fortunate
botan
determined
sanctuary
hustle
lamprais
##donald
monument
intermediate
conspir
flair
parcels
skeptical
maithripala
2k
aun
bench
fost
fights
groom
geck
hiru
kfc
lal
mart
mouse
nhe
nde
qs
rival
sket
tables
vv
##galle
##hill
##hara
##yn
##not
##44
##21
##atar
anth
todd
inject
##itudes
##rep
##eland
##owed
##otech
##acent
weed
nep
shang
traged
trapped
fruits
console
plaza
outlet
everytime
underrated
workload
workforce
##athers
teas
buyer
consume
instances
blat
reminder
raid
writ
guilt
guesth
economically
respected
powered
talented
12go
oppress
skyr
packets
neglect
puts
ranjan
contrad
##otted
credible
barg
barriers
motors
urge
40k
arugambay
compete
colleague
investigate
divided
resulting
dhl
judiciary
tastes
backgrounds
neighbours
accommodate
captured
narc
banana
depressing
garment
hurts
epf
advertised
arrests
churches
approximate
thousand
warnings
dilmah
dilshan
poduj
innovative
integrity
korean
rumors
fiscal
scientific
privilege
licenses
newspapers
intentions
hesitant
gorge
unemployed
tactics
victoria
vulnerable
tragic
nostalg
stomach
skyrocket
podujana
3k
a3
aven
auss
bak
bia
dd
db
eid
ecu
ku
lil
nim
rated
tale
wf
walls
yr
york
##oad
##iate
##yrs
##tb
##bor
##no
##mma
##waram
##ato
##enic
ants
inapp
##arata
##isure
##ereats
##tery
shan
button
suits
unexp
chains
healing
##essional
##endra
##abis
colours
##boards
leak
##asty
donation
newer
##ouses
slfp
monaster
crop
loads
reloc
parked
herbal
priest
caring
supporter
airpods
flower
poison
olds
wrist
writer
000lkr
1960
imprison
legends
farms
##ahini
packet
facilit
##amba
roadside
gamage
gamini
meetup
breach
posh
excel
excuses
mask
specialize
digit
bribe
begins
figuring
euro
misinform
priorities
unpaid
errors
diplomas
bandar
##obile
killings
circles
flagship
urged
kottawa
1990
russians
smartphone
clarity
infront
palest
initiated
bowling
colorized
vibrant
empire
influenced
nilavel
circumc
accompan
landscapes
vendor
sabar
idiot
lesb
gradually
##guard
ebay
surgeon
sacrifice
screaming
ubereats
assessment
jayasuriya
hotspot
lahiru
subtit
dickwella
jewelry
hectic
franchise
pacific
comprehensive
database
sydney
prabhakaran
italian
overcrow
bungal
shangri
unexpected
buck
cater
fet
fails
gan
hb
hatch
jur
nle
nish
rational
sant
xbox
##rising
##hman
##iries
##bud
##vision
##45
##27
##mg
##89
##erated
##inking
theories
##aroo
##around
##omi
##rete
##ioned
##sters
ons
##acious
##olve
stages
stalls
##uram
##urring
##amy
##adi
##advant
##iran
##iris
##esty
##keep
asiri
shifts
meg
meme
##andala
unaw
uneth
cher
pled
seas
goh
gods
##ellation
byob
leaked
leisure
counting
grav
shoulder
aftermath
undermin
craving
relation
overly
disadvant
backend
betray
findings
##odi
##orship
mayor
meds
attacking
##iants
remark
lastly
kindness
politically
carefully
explains
apr
nationality
delft
retreat
packs
packaging
biased
formed
distances
honour
256
processes
sunil
safest
rentals
completion
##proof
cannabis
acceptance
halt
transferring
billions
demanded
alternate
alternatively
apparel
existed
peacefully
verd
bands
bandara
##after
80s
horiz
##anthi
hiding
scenes
judicial
perfume
selecting
irre
restriction
vaccines
urgently
conflicting
palm
harassing
sticker
annoyed
occasionally
nutrition
strictly
drawn
influencer
gmail
advisable
arguments
bonds
nurse
1956
jersey
sponsor
terminal
amidst
collaboration
licensed
tweet
leopard
leopards
coinc
sovereignty
dramas
curtin
troubles
entrepreneurship
ntrans
basketball
pilgrim
adequate
yahapalana
reluctant
sympath
carnage
rmv
gregory
gunawardena
niche
thieves
satellite
gorgeous
unethical
8gb
bd
eco
fing
hp
hated
homet
james
los
mour
mild
mural
munic
nash
sized
tong
tens
tensions
ux
uva
vig
wine
yield
zimb
##col
##card
##sa
##table
##34
##37
##17
##zing
thier
##inging
##orms
inr
##alous
##omen
stats
##igen
prest
##adh
alum
##irt
weigh
##chol
neur
shamp
shaped
sod
##ulf
chest
hem
pla
seg
##abwe
explicit
amar
timing
timings
imax
##akoon
##ummy
##agi
mango
residing
interaction
offense
moreover
thankfully
modu
mont
monop
inclusive
marking
teens
##plus
cares
twent
reduction
emigration
transm
securing
remained
trainee
struck
insan
bug
buried
1980
1970
impose
economical
belt
restruct
infection
confusion
entity
swed
swap
formats
directors
processor
linux
arrivals
portable
secondly
messaging
serend
objects
answering
modules
##orders
220
filing
halal
##iliy
weddings
operator
balanced
calor
massage
snack
addresses
creators
chemmani
suspension
uda
haircut
significance
performing
threaten
thero
exceptional
supposedly
soldier
approaching
fears
attempting
ratio
ratmalana
arguing
represented
subsid
scrolling
palace
pools
snorkelling
mandate
inquired
inquiries
strengthening
appealing
athlet
converted
##xxxx
jerome
##flow
##inochchi
resolved
ranging
##listed
merchant
merchants
graphite
allocated
triggered
incorrect
cooperation
telecommunic
bundle
awaiting
exercise
societal
kiribath
paranoid
stigma
rehabil
territory
resistance
sambol
mileage
baggage
episode
rescue
atrocities
abeys
lmk
chronic
kangaroo
calendar
conspiracy
tragedy
nilaveli
lesbian
hometown
municip
zimbabwe
module
aq
aaa
biri
cem
hood
kade
lor
mes
nfor
nple
rating
ti
vy
##oya
##rome
##rum
##made
##85
##13
##wr
##zens
##inters
##ati
ane
inch
##isc
##reced
##elie
##lywood
##ayaka
stal
stole
##idal
##idth
##add
##adan
##iration
dozens
##chy
congr
chal
heal
##unu
##ellor
arc
exped
peiris
recre
reccom
##akum
##aga
compuls
saudi
clay
indoor
undert
craf
lover
##awaya
##ials
##angle
##angoda
marit
trib
visitor
highways
universal
attest
blamed
remitt
pov
designing
specified
asset
weekdays
courage
politely
evil
##istered
chartered
extract
extensive
salon
southwest
formula
##health
hopeful
meta
reception
concrete
gamer
##apping
believing
meets
##ikk
humid
affair
240
modified
computers
literal
courtesy
patience
bali
##coin
##ronics
winter
boards
insurg
ncolombo
unprof
unpreced
divis
performed
paperwork
##ographic
combat
jealous
077
ratings
queen
revenge
historically
godd
hurry
declare
##holds
representation
representative
conflicts
hindus
1989
harassed
cycl
occasion
calculate
schemes
categories
harmful
proposals
acquired
enrolling
disappointment
smoothly
batsmen
prioritize
jkcg
inconsistent
prohibited
dolphin
cryptocurrency
terrified
aptitude
interpret
insecure
bandwidth
dignity
dilemma
subtitles
nasheed
unprecedented
850
cum
cute
dms
ego
gop
gand
hara
hilar
iy
lists
mumb
nab
nview
owe
ruwan
voices
##pic
##hani
##hole
##sal
##bur
##bies
##fire
##mil
##mav
##86
##100
##za
thunder
##elet
sth
stem
##uranga
havel
prol
##ooo
##illa
chapter
goons
probe
peo
peers
leech
vezel
##ago
nose
quiz
clown
interven
slapped
accord
wherever
moves
underp
polite
elabor
overtime
brush
bruh
workout
disgr
scal
decides
prize
2027
financing
instant
instability
##ianc
##uwala
pointers
earbud
evisa
evalu
classmates
muscle
headache
honor
memes
2007
##comes
##ikes
165
producers
modest
##onto
remembered
mathews
diy
civic
bribery
vacancies
commenting
##udeen
billing
extraord
##marks
hosts
hosting
females
controls
odel
wishing
diplomatic
admissions
expression
29th
stressing
closing
exporting
irrig
luxurious
tablets
esala
translated
discriminated
oils
journalism
achievements
murdered
participating
initiatives
injust
injuries
microp
belonging
predicted
temporarily
millenn
instructed
1971
ceremon
teenager
observation
##anagement
unbelie
renov
scientists
collaborate
prayers
analysts
kadawatha
counselor
pleasant
procure
disrespectful
overtake
lemme
spokesperson
iconic
##onomic
lagoon
exchanges
components
subsequently
experiment
frankly
overstay
hygiene
ireland
unavail
arrogant
wfh
sabaragamuwa
calorie
maritime
havelock
6pm
bac
cg
cel
cyl
fond
fianc
gel
hay
jana
kiss
lite
mong
mates
nx
nail
nik
pt
pel
pump
races
rital
rolling
rivers
sizes
ws
##of
##oir
##rics
##pi
##para
##tech
##bon
##bury
##mc
##98
##jp
thal
##erate
##anan
##isd
##ask
forums
##owning
##eto
##stairs
stagn
##urt
reop
##seys
##irates
##opolit
##chem
meh
una
unmar
unhealth
abuses
seed
enact
allies
justified
##astically
##umber
novel
reson
resili
interim
offline
offended
grama
commissions
mohamed
seeks
paral
incl
jose
marissa
maradana
perception
##athon
mines
priy
poster
kegalle
stranger
endless
desc
##liest
llb
costly
explored
bitcoin
situated
questionable
swiss
lookout
gamers
rajapakshe
typing
clearing
popul
considerable
humble
malinga
titles
organizing
##archy
petro
cleaner
##rection
ntb
ndb
60k
##awei
stripe
geo
merc
consuming
nwith
circular
capture
1993
logical
broader
achievement
mechat
chairs
debut
catering
punished
proceedings
commitments
dispute
mosques
forests
impressed
uncles
bailout
acquire
ridiculously
shifted
principles
nomad
paddy
expanding
exclusively
jayawardena
tailored
tattoos
pleasure
legislation
gigs
bankruptcy
marginal
surprisingly
googling
mismanagement
spanish
controller
unstable
commemor
amarasuriya
remarks
laundering
pasikuda
botanical
aussie
twenties
insanely
restructuring
##iliyandala
municipal
biriyani
nplease
hilarious
mumbai
ritalin
6d
7k
8k
a8
astr
baff
dated
dire
dna
foss
gest
hating
hilt
iphones
jes
kb
kov
luc
nos
nind
nawala
nudes
ou
paw
piliyandala
rust
s24
wn
xia
##65
##08
##eks
##rence
##hh
##hu
##haya
##core
##lan
##48
##md
##kin
##ws
##watte
threw
##aru
##icip
##leum
##vey
begging
##olled
##urities
##amin
haz
##verages
revers
##thouse
##iments
neat
notor
unres
unoff
chess
chats
acre
thereafter
prox
prostit
expat
spouse
##ifies
recs
##allel
##agog
aggr
clash
resid
slc
containing
indirect
##active
overview
planing
fridge
scot
##athil
triangle
placement
mint
wellawaya
carrier
emirates
understandable
dried
1080
attitudes
secured
##iances
blocks
downv
hopeless
buzz
##liers
electoral
importer
friendship
generic
generous
infant
legion
cardinal
metro
believes
nuwaraeliya
nsh
practicing
annually
sooner
170
credibility
absent
boyc
eaten
matching
devi
globe
snake
silly
lacks
##iyam
cancellation
steel
stepping
verbal
fitting
80k
nthis
circu
references
subreddits
judges
chilling
ladder
latter
audit
heartbre
rankings
knife
recovering
sanath
pulling
installation
1994
removing
limitations
penins
crossing
teled
macro
tinder
durable
wider
podcast
cinemas
determine
owning
observations
jerseys
disturb
weeraw
privileged
reminded
pearson
rituals
taboo
apologize
recruitment
huawei
quantity
uncertainty
boutique
administrative
uniform
intercity
competitors
biscuits
forecast
ambitious
substantial
scolded
arbitrary
outsourcing
toddler
nepotism
misinformation
unaware
serendip
unprofessional
unmarried
unhealthy
petroleum
hilton
3as
ao
a4
aer
aes
ais
bpo
caves
david
golf
hari
iq
jumping
kol
mrs
nne
nawal
piss
patch
pada
ray
ragama
sse
tsh
tension
umb
ware
##eze
##oj
##gen
##rish
##pila
##ck
##can
##cse
##casts
##you
##mir
##ww
theater
##atable
##attered
##ormal
##isor
##ria
##etical
##stop
##uten
bee
##olla
##urb
##urf
##amma
##thu
##ado
alto
docs
##oped
##chain
suite
unch
unrest
atl
abusing
heated
plug
seated
deed
deploy
##abling
enemy
ada
##earten
arj
bypass
spelling
recurring
hash
outstanding
donations
evenings
slave
elon
lovers
intrig
relate
##awick
##ultane
backwards
trill
maid
##ruption
regrets
roam
genetic
touring
communist
finals
smarter
##gettable
schooling
seemingly
poly
taxing
taxation
guided
##raal
businessman
restore
handing
handful
inferior
possession
culturally
rajarata
households
reasoning
similarly
metrop
singing
portray
freight
storm
humili
capabilities
##ippers
greedy
departing
oriented
humanitarian
ruining
workshops
masses
cashier
samagi
cabraal
repaired
racing
opposing
burgh
dominated
definition
dhar
bottled
ramadan
geopolit
luckily
chilli
dishearten
merely
fleet
nanote
scrut
1981
manufacture
hypocr
inputs
proceeds
libraries
committees
dispatch
wijes
variant
prosecut
athe
israeli
mcq
flexibility
unreal
advantages
sponsors
dyn
burnt
inev
relying
navigating
structured
dismiss
patterns
unwanted
ignorance
ferry
escalate
insisted
n8702
aqua
screenshots
lobby
stakeholders
angelo
paintings
ancestors
depreciation
embarrassing
contempl
supplement
lenses
dynamic
##country
consensual
championship
tackle
cotton
unforgettable
suspicion
homosexuality
vigil
rehabilitation
compulsory
harappa
elaborate
extraordinary
irrigation
joseph
notorious
trillion
4pm
5pm
bund
ci
coup
fs
gale
hun
hip
io
i7
kitt
mf
muth
mih
nay
naw
nuc
naz
nope
nvid
naked
pp
puri
qatar
vip
wd
wan
wre
xd
xx
##oked
##rr
##aver
##house
##iased
##lin
##lly
##ystem
##bly
##best
##42
##face
##500
##96
##95
##jay
##jud
thu
##aning
##anas
##anim
toss
##edda
##omy
##oming
##icate
##oween
##etics
##stone
onboard
ster
##uration
pradesh
##ople
##ching
##check
sham
sug
unm
unac
##erson
placing
deeds
worsh
adani
##apala
exporters
pee
amma
willi
leather
##alled
outf
upfront
vegg
vegan
##umps
afp
##aceut
theirs
clim
resell
offensive
slint
grants
grads
thankful
thankyou
##icked
craft
##ishali
intr
overrated
bros
backl
marsh
locate
perks
drag
drained
drowning
drastically
instantly
downfall
desire
redditor
surpass
hopper
fixt
burial
depri
friendships
charles
1200
addicted
2011
bias
biotech
100gb
##manpila
futsal
midigama
signing
programmes
ranasinghe
pretend
sunny
populations
contracts
##autions
considerations
males
malig
excurs
janatha
harbour
credential
specialized
pathways
enjoyable
equipped
operational
snap
identification
competent
feeding
immense
momentum
miscon
ncomm
homeland
registering
performances
slee
achieving
trafficking
conversion
nmon
separat
magical
70k
gotabhaya
declar
##holes
representing
utility
intelligent
repeating
robbery
surviving
survival
preventing
##rupted
gampola
featured
bombing
corrupted
ott
uncover
adventures
strengthen
blockchain
empathy
koomb
encouraging
partnerships
halloween
adjacent
acquis
principle
unreg
pharmacies
satisfaction
flooding
backpackers
dentist
unbiased
toronto
coaches
tortured
prevail
occupied
christianity
suburb
interactive
##points
treasure
immigrants
screwed
hesitate
tolerate
precautions
temperature
constructed
rathn
##olitan
crackdown
juice
alpha
decrease
legendary
inconvenience
newbie
stereotypes
sangakkara
orthod
irrespons
sapphire
enforced
assembly
negligence
prophet
embedded
256gb
abeysinghe
reccomend
unbelievable
unavailable
cylinder
xiaomi
metropolitan
slintec
3x
4h
9pm
a2
ace
auction
bone
breat
dv
divid
ddr
ethern
hir
hoc
iraj
jumped
kw
kav
kia
mate
mater
mull
nce
nus
nap
nso
piv
ramp
sans
tn
tm
tes
tide
tiles
vape
##rate
##cd
##comm
##test
##76
##jab
##wear
##wana
thro
thugs
##inn
thes
##alid
##arachchi
##icts
##elle
begg
beings
sticking
pras
shi
fro
mega
##ulative
comic
whatnot
##unci
dew
deem
dept
deployed
##anting
proved
##boda
##ghz
amate
appreh
outcomes
##pton
noe
queries
clou
20m
##iah
interfer
slog
##aching
grat
grace
moors
indec
croc
overload
##ucks
##uccess
perch
##daya
firsthand
rohana
fines
fined
bases
servants
blur
##araj
##speed
ideologies
trainers
repeal
simultane
hopping
evolved
##teen
publication
discourse
warns
config
nearest
##uthor
sworn
114
2001
##liment
stuffs
defending
caa
demol
problematic
estates
movements
authors
nss
psa
scammer
1300
posit
sltb
excav
specializing
grows
eventh
absence
treats
medications
humanity
brig
bride
designers
equity
devs
sentenced
balawe
balancing
naive
cleanliness
applicants
ntotal
anticip
##backs
wasnt
villagers
nationwide
stepped
critics
extremism
europeans
n12
relaxation
perfumes
establishing
launching
irrit
murders
capitalist
argued
magaz
undergradu
obsessed
summar
bangal
omg
catching
sony
convicted
sweat
sweets
implementing
participants
dubbed
robbed
survived
##aaaa
automation
quietly
wijey
vegetable
nreply
photographs
ventures
identifying
encouraged
tutoring
discont
bidding
kilinochchi
preparation
sooo
flooded
cpex
alien
ratnayake
landsl
volunteering
enthusiast
fantasy
exhausting
trigger
fortunately
condemn
dji
wickramasinghe
archaeological
spokesman
mosquito
utterly
dictators
peanut
styles
cockt
souvenirs
##first
remanded
dessert
fifth
homophobic
manifesto
outlook
compliance
exorbit
accusations
massacre
sketchy
inappropriate
horizon
pilgrimage
fingers
disgrace
mechatronics
kovil
proxim
circuit
arjuna
nanotek
##aceutical
ethernet
balawegaya
cds
cakes
dw
dik
drew
dumping
ei
eka
gim
gains
hh
kan
kiy
kitten
lions
lump
mh
maw
nec
nper
nby
oily
oss
pist
pier
rome
soph
tec
tam
tissa
vag
wo
##gamuwa
##ao
##iently
##lip
##lated
##bid
##ugg
##kok
thru
##atural
##enary
##esco
##oric
##orant
##orous
toast
toys
inexp
##lear
isis
beats
bearing
stab
stap
stare
##urudu
predom
##ader
alg
dose
asw
asbest
lip
traps
sos
##illing
##andra
##ulent
chass
chili
abo
##uster
##mental
seyl
goa
goss
##abad
##osc
##ello
##ista
usable
amn
amex
spring
yourselves
##ocre
lev
leverage
timet
##astics
loop
quot
accum
##asses
logo
workaround
scolding
invalid
suppliers
101
presents
aired
flaw
##cont
pointing
repet
endemic
bugs
assholes
economies
homemade
evs
evident
evolution
restart
extending
showroom
bitter
classroom
oppose
skipped
chef
##ceptable
distingu
socialism
2002
cease
gammanpila
rajapakshas
mindful
defined
branding
16gb
milest
dealer
teaches
probation
harin
motherland
##erahera
trusts
counters
traders
damaging
successive
statues
260
copied
##iyal
280
confirming
##raman
apparent
moderators
expressing
exception
skinny
ramboda
deadly
cambod
campuses
replying
chatting
contributions
sexuality
capitalism
0777
##news
volt
lakh
lifting
1996
respondents
fireworks
nno
crossed
authenticity
deposited
councils
injury
bowl
television
adopting
adventur
indicate
indicated
categor
cuisines
dedication
podcasts
unclear
israelis
telegraph
mcdonald
negotiations
laughed
sarath
parenting
distributed
outsiders
eligibility
puzz
renowned
conferences
##laimed
##charge
scientist
neighbourhood
exemption
nissanka
allocation
diseases
litre
benz
manufacturers
corona
reinst
jetwing
weapon
archaeology
squeeze
kilometres
alphabet
admiral
thoroughly
overthinking
allergies
buggers
concluded
deliberately
rooft
hardships
seamless
prevalent
pardon
mediocre
jurisd
shampoo
monopoly
gandhi
unreserved
##mirror
nuclear
nvidia
unacceptable
credentials
koombiyo
eventhough
undergraduates
bangalore
dictatorship
chassis
seylan
3g
6k
ari
aint
azz
boun
bise
bah
binance
css
ect
fuss
fox
fathers
gamb
ginger
iv
ial
jee
kir
lush
malls
mocking
nen
nop
ncom
nma
ore
pause
pile
pax
rack
sie
sath
ted
tie
vom
vans
vene
wu
zip
##gone
##gers
##gota
##iqu
##75
##upp
##32
##88
##erb
##erce
##erals
##inator
##anaya
inability
##arre
##icop
stitch
##urric
##amic
haw
reimb
alike
##ooking
asc
lively
trous
sob
chilled
chola
wasantha
hew
seating
degr
##abul
##abah
enabling
##ema
pegged
ampara
##ocop
##ava
appl
lee
outing
outage
##agar
compat
##reez
noisy
loosing
quotes
##asekera
helicop
reside
interactions
offs
slots
acca
accusing
##berg
##bert
shoulders
indef
underworld
cricin
lok
loaded
relating
parade
disorder
partially
##ogy
scored
perches
firing
guysss
##places
##odes
dragged
invas
gene
##fty
wonders
keh
keys
10pm
##intend
blend
etf
buds
lka
190
assurance
imperial
belo
reader
readily
restored
possess
retain
##ukk
##uthan
boil
##eee
swing
##redict
##mini
##mins
mush
approve
physi
00am
sundays
refurb
factories
technological
updating
photocop
masks
##brance
productivity
literary
operates
bald
cleaned
identities
igcse
clubbing
insurrection
sample
##iyana
downloaded
unpredict
steep
improvements
secretly
tvs
cooler
homest
necessity
christians
bullet
dharm
##drop
noticeable
dressing
ramesh
geor
fourth
imagined
reservations
separated
audacity
queer
revenues
nyour
attracted
emerging
communications
garage
nnot
consulting
hindi
1987
debts
hypoth
karma
committing
bowlers
criticize
valuation
nvq
inquire
##aramaya
surroundings
indicating
casualties
120k
airbus
washed
drawing
laser
integrated
guardian
teenage
pharmaceutical
diagnosis
reflection
excellence
container
riot
tiger
isolation
defeated
transformation
objective
ocd
unlaw
insisting
bureaucr
postpone
crushed
determination
sealed
societies
mosquitoes
fishermen
fascinating
vaishali
abolish
abeyse
kamal
rabies
perpetr
throttled
remembers
gallery
eliminate
steady
aesthetic
alarming
lyceum
palestine
circumcision
verdict
explicitly
transmission
unauthor
##agogama
acquisition
breathing
amateur
proximity
predomin
amnesty
cricinfo
3s
7pm
7000
8000
ase
bril
bcs
backing
cows
dand
ditch
fx
fals
font
hed
hms
hacks
i5
lore
mg
melt
nour
nah
poo
pest
pills
rents
rings
rod
rolled
sas
tune
tends
vim
vint
vfs
vlog
xi
yy
zah
##ev
##pow
##hab
##iw
##sd
##46
##41
##72
##mit
##ken
##jo
##ju
##wamy
##atn
ing
##isit
##asl
##asm
##riger
##etha
beard
##verr
reass
rewards
wears
##ims
neph
shore
shell
liveli
##ppu
exagg
convey
suited
notably
notified
unanim
chol
chop
chau
chik
##tsd
##mented
##earable
##aper
usern
peas
ama
amen
spotted
appe
saas
oneplus
nod
node
novels
looph
yearly
manually
offences
slot
undergoing
crashed
ell
studios
intens
precious
brow
##forward
incur
scandal
marx
idp
##qual
tees
sheets
tryna
invoice
investh
roast
robe
redmi
genius
communal
happily
attire
attested
##upun
smth
blu
blown
blasts
##erted
sits
straw
##onds
surfer
hoped
##alley
wrap
##wardena
jobless
##aires
charitha
##ugoda
reads
infam
infected
possibilities
comeback
warr
confession
playlist
nightcl
cheated
10000
newsfirst
concerts
linen
partying
researched
refriger
contrary
cutoff
##iciently
sltda
##ylus
sends
excise
clauses
titan
organize
normalized
journeys
counts
##rill
230
devops
damages
balas
dailymirror
breakup
##verted
##naments
euros
collectively
creativity
misuse
samples
hosted
rainfall
independently
wishes
extremists
diplomacy
mrp
migrant
prepaid
winds
interestingly
exported
documented
011
collaps
undergrads
obser
observe
deny
shipment
flew
consulted
malaysian
initiate
arresting
reveals
robotics
proceeded
suicidal
buffets
stickers
wtc
destroying
dilith
maldiv
instructor
msg
cartoons
schedules
frameworks
withdrawals
flavor
federal
advisory
bcz
complications
unbearable
containers
cpc
cpu
pregnancy
lakshman
champion
vocabul
wooden
unlock
bmich
immigrant
tears
prosperity
dirt
vitz
sql
aligned
obligations
uniforms
assassination
compromise
overlooked
begun
peanuts
embrace
thrive
texts
remembrance
refugees
mystery
counselling
phrase
jayewardenepura
##jeewa
lodged
coalition
##otherapy
wholesale
intellectual
narciss
nishantha
gohome
remarkable
tongue
congrat
remittances
injustice
procurement
paralym
lucr
unofficial
peninsula
kittens
backlash
irresponsible
crocod
exorbitant
asbestos
appliances
indefin
beloved
unpredictable
brilli
vintage
livelihood
investhub
vocabulary
7am
9000
bold
cough
dull
ew
euthan
fds
giants
hors
ichem
kara
koth
m2
nous
o0
oi
ome
pg
pip
pensions
rd
rose
rlly
sg
siy
sands
somed
tna
tert
tipping
uy
##och
##overs
##gam
##post
##page
##hen
##yard
##dec
##bac
##bro
##nut
##nity
##nology
##vin
##fr
##fish
##uu
##uan
##uana
##million
thief
##annow
##onic
##onies
##atures
anch
##edd
##itary
##asun
##elp
isa
##store
##ecute
##acurric
##urated
##igs
alb
doomed
##imosis
sho
shes
liver
trending
mexic
##ander
##ulator
chunk
abund
ifs
##endous
deval
worries
##abeth
##orted
##osition
arpic
colors
exporter
peg
amman
spit
recom
hasar
##avi
timely
uprising
##agam
compass
clip
##ipitiya
residency
offsh
contents
##berry
underground
lodge
intol
##awath
brains
gotagogama
coe
phen
##izabeth
scars
marij
decently
pert
trim
trials
triple
engines
payed
currencies
mineral
##plant
wellbe
posters
consists
drones
preserve
basl
smiles
bliss
##spe
repro
earliest
rave
raises
##ictions
fiverr
economist
handun
cleans
showcase
protective
deleg
##roads
detect
swit
tops
cheer
cheat
distancing
pointless
ceiling
testim
##urai
##attle
preferential
ranatunga
refers
mobility
parliamentarian
24m
##parts
nonstop
cannon
cannula
mahela
harmony
harbor
diam
diyal
naming
complains
npe
ethics
focuses
painted
environments
60s
pursued
verbally
homagama
introduction
arche
dhamma
##isticated
skinned
coconuts
btu
straightforward
casino
summon
edm
emerged
corporal
##ifiable
impacted
counterparts
ranting
touched
murderer
utilities
laying
romance
bba
sirasa
hoard
wijeward
cycles
snorkel
revealing
squat
gemini
coloured
1977
1978
elders
occurrence
fatal
virtually
fluently
integration
rebels
oversized
intentionally
retailers
subscribe
highlighting
theaters
marrying
weerasinghe
occupation
astron
neighbouring
creep
settling
fitsair
unusable
##araswamy
fdi
pedest
tanks
ritual
retrieving
succeeded
escalated
cowork
borrowed
bicycles
piracy
functioning
pronunci
hustles
explosions
googled
olympics
kerala
sneak
floating
incompetent
fingerprint
refreshing
extracurric
devastating
traumat
bloated
powercuts
fryer
registrar
lighthouse
nliked
strangers
aunty
monastery
overcrowded
bungalow
sweden
##akumar
leeches
earbuds
indirectly
heartbreaking
disheartening
fixtures
aboard
##continent
bisexual
venez
##abahu
browse
gohomegota
lucrative
tertiary
marijuana
wellbeing
diyaluma
extracurricular
1h
aed
biz
bog
borders
dc
dl
df
dine
ech
gur
hug
ih
ken
kann
kites
lingu
mere
mens
mock
nbo
noc
nup
nair
nte
nasa
nlkr
nlanka
oat
ole
oman
pound
pans
patt
pcs
ptsd
rall
rag
rage
rash
sigh
sara
tir
tue
vets
vouch
vicin
wy
wished
werahera
yard
zion
zoo
##oz
##gie
##rot
##rists
##pura
##city
##cos
##lor
##dies
##nn
##vation
##47
##ua
##mad
##kg
##39
##ji
tht
##ener
anne
##educ
inade
inches
##omas
##omark
##rey
whit
forci
##economic
##uters
##utors
##ayana
ona
##ols
stones
hak
##igious
prints
##ths
##tering
##chik
shak
shits
liable
lipton
butt
soil
soap
concess
sue
chased
abduct
acs
wore
##osystem
colts
colomb
expects
expats
spacious
rechar
##avahini
daytime
##alling
outages
##cience
upv
imbal
##akuru
##umed
donald
clicking
helakuru
county
themed
gras
moh
moham
indie
crappy
elizabeth
##awns
brack
braz
param
parallel
universe
partly
scare
scoring
betting
bush
plea
##placed
##group
roaming
ems
transcri
instruction
securities
##uwawa
etiqu
trainer
endors
insider
1950
asshole
pubs
economists
policemen
informing
showc
delivers
addiction
retali
hearts
deterior
entr
worthwhile
valorant
socialize
vijaya
kidding
singers
waist
promo
waterproof
refun
messing
messaged
viewpoint
specifications
cricketer
135
deliveries
techno
capability
constrain
obl
parliamentarians
practiced
##park
greed
pmd
reaches
speedtest
limiting
hospitalized
21m
holes
devot
earns
vacancy
sentences
amazed
##ribly
halfway
glomark
saman
riders
coping
psychologists
corrected
labels
horrific
presentation
##endered
thermal
strip
battles
jeans
##ova
screening
revival
deadlines
tasted
versa
##ocratic
embark
recordings
observing
knock
circulating
ngos
submission
1999
subscriptions
dehiwela
eyeing
inspiration
implementation
saturated
hyd
debating
illust
polls
babies
400k
newswirelk
whey
backpacks
towers
scooters
ucl
calculation
clinics
adjusted
uploading
uploaded
gmt
sarong
512
teenagers
blindly
judgement
##etti
amendments
wheelers
burned
exploiting
alevel
briefing
volunteers
quitting
prayer
privileges
ironically
vocational
pedro
manipulation
hobbies
ofcourse
deserved
condemned
spectac
lanes
vitamin
amdt
unemploy
squeez
czech
thriller
compromised
bengal
washington
exemptions
culinary
supplements
mitig
wounds
##zerland
incompetence
fingerprints
html
inaugural
##lects
##adeepa
accredited
dislike
disposable
martial
cemet
lorry
##mavo
sthuth
hazard
aggression
1080p
##awickrama
dynasty
contemplating
pradeshiya
separatist
simultaneously
sophisticated
staple
gossip
##ramaniyam
jurisdiction
azzam
amenities
infamous
balasub
arpico
hasaranga
switzerland
vicinity
2m
3pm
9am
aia
b2
bos
cass
cited
capped
dare
dump
eae
figh
fame
git
gates
grie
hen
hil
hith
hamp
hinge
heter
kin
lung
m4
mw
nol
nid
nig
oic
oath
pion
ply
pim
pension
riy
raves
sip
sach
s23
vc
vel
vine
vall
wes
##oided
##iad
##taking
##bi
##breez
##nan
##vs
##fi
##82
##92
##99
##wal
##with
##wich
##watch
##zs
##zone
##qe
##qo
##anathan
##oust
##esl
tod
topped
inner
##itance
##arc
##arat
##isons
##eli
##elin
##elawala
forens
##eties
##ayo
itenary
staring
##igo
##igga
##adam
alerts
##irations
##cepts
##che
##cher
shake
shani
shifting
exac
congest
sums
notch
unin
abst
acbt
seo
semin
##unya
deport
##antry
##aba
enorm
##ears
arth
##ections
##apaks
peer
amended
spell
recie
recyc
leban
daylight
outbre
outright
compound
onei
##ivated
quo
resale
resched
interrog
slmc
slippers
contam
commuting
elites
looting
##awella
para
curs
inclusion
php
scales
marathon
herbs
##pled
wellawatta
carp
caret
thresh
roy
10am
attrib
smok
blast
longest
flip
poet
aws
endanger
avoided
insults
solicit
1900
guards
##liable
##weight
soup
charith
##ugan
infos
pura
##ologically
##amaha
bits
classified
playstation
raja
retake
boots
detain
swarn
musk
miracle
procession
2003
healthier
voter
approvals
187
ticketing
researcher
leftist
sunscreen
refuses
reflects
134
poson
##cedes
lowkey
grey
organise
organising
harv
harvest
pathir
barber
petty
professors
professionally
authoritarian
designated
patron
origins
fellas
bodhi
glory
frontend
saves
ncan
##ramid
err
respectfully
respectively
divisions
n15
lighting
##umbura
legitim
dhal
lecturing
judged
ramayana
revive
tasting
influences
launches
killer
merry
mercedes
ethnicities
consumed
dissent
mastercard
obsession
nfrom
attracting
junk
nicer
discriminate
##heads
n25
shipments
bangkok
regulate
tenure
convention
darkness
sweep
participated
1988
monitors
describes
manufactured
escaped
ecosystem
renewable
rejection
quieter
wheels
disputes
variations
##harma
meantime
durability
belongings
detailing
beside
indicator
ipad
nandakumar
##iversity
1972
disgu
withdrawing
cruise
negotiating
unrelated
nomads
accompl
psychiatrists
rebell
bcas
##offs
##ilingual
pyramid
unders
chaotic
n54
exploited
rumours
chandr
substit
substance
narratives
divorced
wisely
jews
conceal
sirimavo
allocate
coordinator
dimuth
dominant
festivities
breathtaking
ctb
spectrum
telecom
tempered
bombs
vessels
stamps
##arathne
elevated
krishbreez
kilometers
ambuluwawa
pilgrims
nelum
intercourse
cultivation
cruelty
dalada
mattala
refresh
mistakenly
sparked
chathuranga
poruwa
socks
##ythatn
instruments
sincer
gecko
writers
guesthouses
nostalgia
imprisonment
bandarawela
accompanied
irrele
mourning
murali
prestigious
segreg
attestation
intrigued
scrutiny
inevitable
unregistered
orthodont
throat
thesis
deemed
dikwella
##aderana
adventurous
rooftop
compatible
refurbished
predominantly
falsely
crocodile
brilliant
someday
offshore
intoler
venezuel
dfcc
etiquette
cemetery
balasubramaniyam
krishbreezythatn
krishbreezythatnigga
1tb
2x
4gb
5am
650
aj
bust
bass
bbs
bones
ck
dar
dah
een
fate
fusion
hint
halls
hinder
ib
iii
jr
ket
kath
ling
lou
lun
lasts
ming
nmin
npar
nike
nimal
pte
rect
td
tus
trem
vas
vue
yosh
##aed
##ien
##iudeen
##cts
##lock
##sar
##nt
##fy
##mans
##mouth
##ki
##8s
##wo
##wis
##inery
##inco
theor
theft
##anmar
##ona
##oni
##atra
anten
ananda
##esc
##orq
tobac
##itate
##itated
##arus
##reet
##icated
##icular
##rika
##leys
forbid
##eters
##otor
##stan
##ayer
itn
itak
beers
beast
bears
##acon
sticks
##idently
hap
##verts
reign
reels
##child
shri
shattered
##ppers
traction
conn
notion
chrome
atms
hefty
seater
seize
##aine
deaf
thereby
proving
ado
adaderana
ars
##apola
cola
amm
upstairs
##agr
##agiri
##ansa
quad
cliq
##asewana
##erie
needless
slower
visually
molec
underway
undermine
crooks
workouts
workplaces
joking
##izations
##anging
##quis
##quake
minist
twin
drum
rooted
redirect
understands
102
105
109
preserv
##pleas
airasia
bash
secular
secrets
smiling
##iana
diff
blasting
##amiliar
endoft
taxpay
raz
aviyana
insuff
impacts
##weera
generational
restructure
15000
founders
bites
mainland
protocol
corresp
apology
qualities
mature
retro
requiring
entities
113
mirr
honors
25m
cement
singh
##working
shortlisted
thoughtful
allowances
defam
##dha
regarded
caution
185
efficiently
pickle
breast
nuwan
nuwar
144
145
stored
ps4
safeguard
##prop
##ylum
artwork
youngest
youngsters
expectation
projector
222
speeding
175
mahind
pathum
filters
##ushk
absor
releases
medicinal
23m
unfamiliar
humanities
devil
cripp
commentary
massively
applicant
violating
winner
npost
##names
feeds
northeast
odis
pressed
jayasinghe
horm
horrif
n14
seasoned
burst
striking
grounded
##obia
essence
unsuccess
admins
latin
irl
076
070
volunt
gunpow
ensures
nfc
##uctions
emergencies
sangh
affection
1997
1995
nanay
consultants
aspiring
touching
ambition
1982
brainw
frequency
automobile
radi
surgical
upgrading
spirits
displayed
wilder
settlement
washroom
washrooms
kotelawala
bathiudeen
lasik
niladh
unreliable
organizers
gangaramaya
prisoners
oversight
earthquake
encounters
backpacker
termination
terminated
sabha
cathol
dsi
briefly
brutally
fulfilled
indonesian
irony
exhaust
unwind
vocal
kingsbury
manipulate
ukrainian
brutality
noooo
dramatic
emphasis
blogs
360p
inhab
thirds
fragrance
predictions
1883
kumaratunga
ncont
bollywood
bumble
beruwala
component
subsequent
cerave
mysterious
allergic
acknowledged
dawn
nallur
arunannow
bilateral
census
wimalad
torrents
blatantly
skyrocketing
coincidence
montana
1980s
1970s
##ikkal
humidity
divisional
cyclone
resilience
inclined
fossil
scotland
boycott
nawaloka
wijesuriya
unrealistic
excursions
declaration
ottawa
uncovered
milestone
voltage
vimuk
nephew
unanimously
username
titanium
maldivian
phenomen
cannonball
pronunciation
brazil
refunds
unemployment
pione
exacerb
outbreak
solicitor
rebellion
irrelevant
yoshitha
tobacco
endoftext
gunpowder
niladhari
1l
2d
2pm
3a
3m
8m
a0
bin
bilingual
cf
cif
cure
cme
dab
dys
ez
ees
eom
ese
eater
fp
fold
furious
gith
gta
ia
ij
jin
jon
kud
lent
lakes
mich
mph
mfs
nif
niv
nia
nie
nfe
rc
rish
rants
rushing
snow
sama
sss
tp
tan
tution
ubers
vert
vandal
wann
##rust
##aik
##power
##iu
##iac
##cam
##code
##lat
##des
##dial
##bell
##nic
##name
##vas
##vention
##73
##78
##2p
##uous
##mate
##mhz
##93
##jj
##wc
##wed
tha
thx
thil
##inity
##any
##atus
##orer
##orse
##organ
##eda
##edies
##alal
##aliya
##asiri
##owering
##ecd
##utt
##utan
itc
beverage
##ambo
##ida
hav
##adv
oral
neo
sher
shark
lied
trace
trish
##illai
condom
notable
unesco
##uli
chart
abn
##mentation
accepts
sequ
seized
seasons
##unted
##emb
adher
adoles
expires
expiry
recession
##oco
##ocal
levy
##uman
noon
loos
qui
quarters
clips
helm
helmet
manamp
advises
slaves
graves
moist
afterward
polar
cracks
crops
cracked
looming
intimate
##awl
hii
hier
mubar
actors
partial
coom
phimosis
##izers
scand
##athread
##encing
recommending
maz
curricular
minerals
carries
tai
taj
highs
consol
dragging
drastic
invented
genre
supplier
##ificent
finest
103
smells
##intale
##uwara
##uwela
flora
buddy
awe
endure
subpar
descent
avg
avurudu
surger
writes
realizing
imper
generating
politic
readers
handy
proportion
policeman
foundations
talents
ape
marketed
delight
##jectory
fares
bois
systematic
landmark
100mbps
##ceptions
forming
builds
##ucky
edited
menus
00pm
##ternally
refrain
pops
##cription
milo
137
producing
##ullah
##ipper
rupavahini
##annar
specialization
specializes
barista
diab
element
forwarded
authorization
ceylinco
borella
brigh
originated
stationed
calif
cashew
starving
snakes
265
violated
winners
npro
immunity
creator
creatures
silk
270
ndis
##iye
investigating
planted
##bitel
poorer
erad
repairing
moderation
n11
nthank
turkey
versus
greenery
influential
wouldnt
conditioned
lawsuit
maintains
progression
dissolve
esim
nwill
caption
urging
urges
lakmal
garments
nnpp
fleeing
machan
udawalawa
kurun
texted
practicals
bbq
brainst
buffer
buffering
dispose
durd
sacrific
trajectory
vanished
gbp
indicators
photographers
instructors
sustained
baila
flowing
disgusted
sandwich
lasith
negotiable
nurt
lieuten
wallets
disappearances
cosm
expanded
paan
##people
weakness
exploitation
chamika
chandrika
coaching
doubled
jayawardene
yohani
behaviors
incomes
revolutionary
makers
rolls
chemicals
myths
tweets
entitle
sibling
borrowing
shadow
sacrifices
boomer
magnificent
troubling
introverted
jkh
ryzen
feminism
ancestry
niros
newborn
trekking
dansala
nerd
disclose
refugee
dynamics
intimidate
counsellor
inefficient
exhibition
devastated
irrespective
phrases
folkl
gentleman
outrageous
knee
jayewardene
romania
worsening
conventional
enterprises
misunderstanding
indoors
fostering
anthem
blatant
bargain
avenue
santa
megathread
betrayal
ntransaction
alumni
telecommunications
arcade
crafts
micropl
baffled
jesus
##athilake
burgher
prosecuted
vigilant
mihintale
frozen
timetable
repetitive
cambodia
gambling
keheliya
george
perpetrators
chikung
elliya
nightclubs
refrigerator
summoned
whitening
obliv
spectacular
vinegar
toddy
legitimacy
sincerely
molecular
correspond
nanayakkara
wimaladharma
github
manamperi
mubarak
surgeries
sacrificing
2h
3h
4x
420
5h
720
9as
cen
ces
cub
cattle
e0
edu
fk
fakes
ffs
gc
gq
gum
gpt
gau
gsp
gaj
gulf
hq
hoo
kh
kite
lend
lud
loses
mama
nro
nph
nman
nmy
nresp
osh
pose
palle
packing
p2p
rud
rif
tc
tile
tata
uh
vapes
wth
xxx
yk
##ea
##eur
##oors
##gian
##rent
##rad
##rous
##aire
##hin
##iated
##cell
##sm
##tes
##bd
##bps
##74
##uber
##mor
##mac
##mind
##mons
##kins
##94
##inch
##anawa
##atissa
##ingy
##orking
##alawa
##alanda
##ares
##aract
##asam
##righ
##leep
whites
##otv
isb
##utor
onion
beans
##aco
##oling
stro
##amn
rek
prist
pradeep
##theless
mys
myanmar
asians
asylum
asleep
##imannar
neel
shade
shaming
shaping
tres
soy
soes
soda
exe
execution
cong
noting
uneduc
chai
atp
plag
acupun
seeds
gos
deme
debr
worn
wording
##aby
getty
##ostic
##eard
peel
peotv
ambal
ameen
spill
##ifier
##avali
leap
timer
outward
##akram
afaik
aflat
compact
##pted
##reeze
nok
agro
clo
clut
2030
manners
newest
interm
intervention
##aux
grain
thanking
mobs
indul
indigen
polling
cronies
elle
loq
reload
##ucking
prejud
brac
brake
brag
brave
hijab
paris
disk
uniqu
planes
curse
##gger
frimi
covent
phi
##angi
decrimin
recommends
##ruit
##odd
carving
carrom
carbon
dragon
invent
roi
redeem
medals
10x
downgr
downright
downhill
lottery
sita
stric
strings
repress
reperc
fiance
wrest
wrapped
assure
impair
imposing
weekday
homework
belts
charm
##tek
norway
handles
handouts
30gb
beachside
beachfront
purse
155
warri
bitch
corrid
bothers
confidently
salad
hella
lawm
chefs
musical
musicians
115
##heim
proficiency
budgets
##ussions
midst
majors
majestic
wax
offerings
##enger
1800
freak
##ospace
sunlight
168
1600
serb
serge
mobil
producer
technique
malicious
##ylon
austen
austerity
superintend
masc
##brand
chooses
namib
filtered
releasing
searches
##oken
40s
naa
socio
socials
starters
fortune
cleanup
ntorq
violate
sounded
competing
tarn
civilized
##undara
whitew
deepavali
ndf
confirms
correction
stafford
##ramas
cancelling
existent
youtuber
bandula
coca
necessities
n13
n18
n19
##sett
migrants
combinations
dhaka
ayya
essay
geforce
revision
conductors
approaches
appearing
ordinance
reservoir
validation
suitcase
murugan
challenged
70s
juniors
sanjeewa
##months
denying
declaring
installing
1998
regulated
consultancy
participant
1984
utmost
sixth
eclip
renewing
robust
executed
nvme
rounds
outdoors
therapists
estimation
strengthened
canceled
bangladeshi
academically
assaulting
prescribe
fedex
malli
comparable
recondit
nqo
fundamentals
anonymity
disturbed
submitting
cloudfl
sporting
aston
aunties
lengthy
deductions
fabrics
coordination
manipulated
tyre
coworking
fraudulent
##yyy
margins
postponed
cooperate
condemning
recruiters
reinfor
emphasized
constructive
tricky
superiority
rathmalana
habitat
arabia
lobster
365a
curtail
magnite
cigarette
functions
inherited
##ivaikkal
optimistic
feminist
assassinated
embarrassed
stigmat
rhyth
distracted
fulfilling
olympic
praise
esports
concentration
prefects
consensus
wander
wandering
bridges
bugger
traumatic
tunnel
pronounce
functionality
dhanushk
audiences
incorporate
incentives
enterprise
cnn
torrent
lalith
guesthouse
oppression
contradict
bakery
##cholai
plaque
athletes
stalin
chalets
insurgency
gopro
intervene
scalp
millennium
ceremonies
##etooth
priyantha
populist
residences
weerawila
serendipity
aerospace
warehouse
geopolitical
worshipping
maligawa
mullivaikkal
magazine
cocktail
unlawful
unauthorized
bluetooth
hugely
forcibly
imbalance
congestion
enormous
recycling
lebanon
endangered
pathirana
orthodontist
antenna
ministries
wilderness
catholics
vimukthi
phenomenon
taiwan
consolid
durdans
lieutenant
folklore
chikungunya
pristine
uneducated
acupunct
debris
##akramabahu
aflatox
indigenous
decriminal
repercussions
superintendent
eclipse
dhanushkodi
2am
380
480
5d
5km
6s
ail
aver
bp
bend
bans
bday
binge
ced
dot
dud
dang
dens
ere
ely
ff
fence
gat
gree
gaps
han
ira
iesl
kl
khan
lur
lse
lame
lending
nter
nick
nret
nwhat
oz
ooo
obe
oats
ode
pou
pud
pah
pots
pogr
rend
riv
s25
tick
tint
um
ull
vf
voy
valley
wc
wso
##rt
##pit
##hy
##hoot
##yas
##dg
##dog
##bow
##borough
##vu
##400
##79
##fruit
##uate
##map
##kar
##krit
##53
##83
##just
##jun
##wind
##qd
thomas
##ince
##anne
##anjaya
##atin
##atical
##atoes
##atisf
##eno
##oul
##orial
toe
toff
##eded
##itures
##alage
##arts
##arity
andare
##isers
##asse
##elds
##riv
##oto
##otine
##step
beverages
##olds
##oliber
stf
stim
stip
##urable
##amine
haul
hailed
reactions
prone
##thiya
alm
alter
lankas
##oose
##opping
##chair
##chandra
neoliber
shah
livest
troll
fron
##andu
unle
unaff
unsett
##uled
abc
plu
plum
##endum
sevent
segment
proxy
envelop
adhere
arav
colored
usaid
##avada
uphold
##umble
compr
compliment
##ptions
noises
aging
cler
clan
20f
##idepress
counted
advising
slr
slit
slic
slides
contained
##assana
##ickers
commence
moor
moones
undergone
polish
polished
logging
overhe
##aways
##dities
##ucked
hipp
##ommerce
##ileged
dispar
actor
##ggy
incumb
fries
cob
phy
backst
backward
##ogue
##epala
##alapp
##alaimannar
mars
perth
##quality
tee
paycheck
goverment
##ervice
careless
consulate
invis
inviting
invitation
roh
emigr
worlds
tournaments
104
##atched
smog
bland
##gets
remedies
poh
pok
pole
poker
continent
opted
booster
desert
rightfully
insists
lasted
belarus
evolve
##rapped
inflic
clever
nevertheless
showers
corn
12am
nationalists
salons
cardiff
##luded
matri
maturity
farmer
centred
boiled
hardest
detour
swipe
womens
learner
facial
biod
##bted
formally
newslet
##heera
profound
honours
##apple
listened
rajapakses
islandwide
preferable
waking
programmer
demons
esteem
freed
joins
166
##resh
50s
##lessly
##cued
138
coursework
##ovex
netball
selective
departed
1700
haris
lime
legality
affordability
crispy
sexist
filth
##ushi
motive
replica
illusion
coastline
authorised
unfold
##porary
surfers
sounding
hitler
npres
antidepress
dads
samud
lacked
sorta
akka
investigated
notebook
savvy
slowed
critically
panor
uduw
dreaming
dreamed
centered
spotlight
seasonal
blackmail
cooks
burgers
stripped
simplytek
bully
referendum
combine
surprises
jeeps
judging
revised
guiding
imagination
volumes
volcan
collar
celebrity
nicotine
innovex
olive
hurting
surveys
declining
pulsar
omen
photoshop
##ographical
flee
nhow
nano
aspi
aspirations
inspire
inspiring
convo
##ornia
colony
colonel
describing
debates
ohiya
333
tasked
ecommerce
niece
robber
prevented
sensible
wheat
wije
loudspe
varieties
prosecution
pilots
999
ninvest
otps
nlamp
upgraded
belonged
gpus
indicates
forgive
spiral
empath
academia
disciplined
proudly
settlements
convincing
satisfy
wiki
unfairly
krak
mnc
mutton
warmth
discounted
confidential
jayawardenepura
scenarios
nanuoya
anonymously
museums
incoming
announcements
penalties
structural
fulfil
defeating
dismant
maker
transformed
1964
licensing
ironic
ashok
350k
jailed
orientations
legislative
fertiliser
bhutan
analytical
noob
apologise
datas
uneasy
sacrificed
ctid
tolerance
prospect
nagadeepa
motorbikes
##mobitel
explosion
arabic
agendas
mislead
##haramah
sync
synops
fascinated
samarasinghe
praising
inconsist
neckl
unhappy
hotspots
disclosed
exchanging
twisted
intimidation
deceased
obstacles
biscuit
rigorous
privatization
confronted
downsouth
discourage
homophobia
overcharge
overcharged
supervisor
##uvil
##human
veteran
grooming
injections
nostalgic
skyrocketed
priests
1960s
facilitate
cherry
undermined
disadvantage
telecommunication
kiribathgoda
descend
gesture
clashes
mintpay
teledramas
macroeconomic
purif
shameless
veggies
surpassed
prevailing
ddr5
sanskrit
cloudy
wijeyadasa
toastmas
sathosa
vomiting
wuhan
helicopter
congratulations
recomend
pertaining
testimony
archeological
pedestri
bizarre
kitesurf
rallies
inadequate
recharge
endorsed
constraints
riyasewana
arthur
caretaker
threshold
venezuela
insufficient
unsuccessful
mphil
abnormal
coomaraswamy
mazda
california
intermitt
bracelet
coventry
stricter
warriors
neoliberal
moonesinghe
1x
2a
340
4am
6gb
8am
aan
aies
bg
b1
bms
bots
bitten
bhan
baked
breeze
cee
dg
dit
dair
daugh
ef
ein
eke
erect
fking
fuk
faded
gg
ges
gens
guts
hires
kith
kod
kah
kits
kills
kanch
ln
lact
m1
mage
mide
mics
mits
mma
magg
nip
nama
nsc
nco
o6
pse
pav
pie
puc
pup
pott
pann
pumping
qos
rats
rope
roses
sre
sided
serial
tense
tender
tags
viv
voa
vaj
wud
wade
wah
wires
wipe
xe
yap
yelling
zte
##6g
##oking
##odities
##gal
##rn
##rus
##rained
##ravel
##aic
##pool
##hires
##cas
##cases
##tt
##di
##bul
##bound
##bish
##ui
##uation
##uilt
##kud
##je
##wd
##qa
##qs
##eragala
##inum
##inction
##ananda
##eni
ans
anthon
inbox
##aruwa
##omic
##elong
whopping
##eting
##ethe
##etco
##etoric
##otive
##stud
##ecutions
##ilation
ond
##oli
stain
stagg
##urse
##amad
hae
haunted
reuters
##adier
alle
alarm
orch
aswell
##chef
##imated
ney
nev
neee
shine
shash
liking
liability
franc
frames
conqu
sul
succ
unsp
##ulates
canteen
chap
chained
chabad
ats
##atement
hege
plight
plastics
seper
##unned
##ainable
dex
deact
defer
deple
someplace
likewise
hows
##istical
##apers
##apath
exposing
##arded
spark
recons
##oca
##avour
appet
##ounding
outline
upl
upcountry
##akh
##aki
affor
noff
clause
cluster
##ipriya
20mbps
resigning
rescued
interf
offend
##root
slap
slang
accents
commod
commando
commodities
crude
crashing
logged
intact
overh
##awahini
##itement
prey
preced
preca
brah
brunch
bragging
countryside
paragr
muham
disprop
inclus
cov
joe
joh
scanned
marina
decency
ids
tripping
herb
##ruff
persu
shehan
2028
carbs
robert
emer
emissions
drill
accountants
transcript
preschool
##plex
instig
appreciating
servicing
flick
strain
reporters
earphones
buddies
submar
subcontinent
avid
passage
specify
speculation
realising
heyy
synd
impunity
provision
souls
charts
charities
charming
##aveen
founding
explod
corolla
numb
saloon
addict
##ypetco
skelet
bob
hardcore
##asha
##loat
entries
##aze
##redit
worthless
miris
headlines
255
vik
vihar
testament
singles
moms
##apper
pasta
linking
defended
waiter
##ario
portions
behaving
menike
146
##develop
refusal
protester
167
touristic
popping
stormed
viewers
cricketing
##malal
technicians
malcol
sltmobitel
institutional
cannib
179
credited
journ
inflow
matched
halted
fixes
borne
ceylonese
multin
multim
patiently
sentiments
accessibility
responsibly
fairness
tomato
26m
npers
npower
immune
civilization
risen
rises
##undai
##aneous
reviewed
batalanda
recognise
quicker
interviewer
lineup
##iyan
##iyaya
savi
ncust
odds
pressing
sadness
##shell
jayaweera
n17
threatens
lightning
290
turmo
ahmed
britain
rames
ramanayake
autism
geographical
straits
35k
windscreen
scholar
forcefully
associates
nmotor
45k
killers
fearing
freshwater
progressing
gunasekara
suprem
assisted
##808
dissolved
masterchef
prince
attraction
translations
translating
translates
translator
fucks
ngl
festive
sanity
sanction
urgency
lifelong
favorites
tenant
conflicted
darker
crossroads
creams
buffal
mechanics
cooker
radius
variable
gatherings
oceans
slightest
introduces
consisting
trendy
trait
reciproc
calculations
publishing
regretting
compensate
picturesque
hinduism
princip
bathrooms
cruiser
flavours
federation
unreason
fluency
nominated
integrate
comparatively
arrangement
sustainability
grabbing
owes
preparations
1952
hunger
consequence
outsider
reflecting
floods
recruited
speeches
inequality
chamara
chaminda
chandimal
pixels
alex
sabot
duoling
gladly
furnish
furnished
jewish
feasibility
rotaract
coordinated
unlucky
retrieve
oriental
scratches
jazz
orphan
characteristics
symbols
azure
prioritise
dominance
bleeding
spinner
booming
explosives
##ophobia
bombed
##faith
accomodations
toilets
narrowed
adjustments
fools
repayment
krishanthi
pouring
fisheries
decreased
ambulance
predictor
oxford
rhetoric
##stitutional
1881
patriotism
dictator
praised
contemporary
monuments
mortg
grief
thriving
sympathy
rosy
dodgy
dolphins
blessing
blessings
obstacle
##rella
sapphires
discouraged
deliberate
desserts
hacker
spoil
spoiled
registrations
stabilize
bloomfield
incentive
sincere
foster
bargaining
poisoning
recreational
crafting
tribun
underpriv
tshirts
umbrella
hasht
hypocrisy
sugath
outfits
hockey
rampant
prasanna
interference
slogans
gratitude
indecency
landslide
reimburse
trousers
hypothetical
dandruff
marxist
warrants
collapsed
observer
indefinitely
euthanasia
isaipriya
compassion
coworkers
extracurriculars
linguistic
annex
##chikade
hazardous
undersc
segregation
crippling
nivard
trishaw
delighted
##rights
stroke
wrestling
serbia
sergeant
namibia
reconditioned
cloudflare
curtailment
greek
aravinda
incumbent
invisible
pohott
wijeweera
nlamprais
purifier
toastmasters
aiesec
daughters
kanchana
anthony
succumb
precaution
paragraph
malcolm
turmoil
underprivileged
060
2n
2bs
8a
a6
a55
bam
bart
cro
dp
dt
d2
dum
dup
dars
dots
dumped
ero
eleg
erupted
fist
fog
gong
gull
hbo
hiv
i3
ioc
iced
ips
jar
ky
kms
lec
lanc
lamb
lords
mim
mul
mala
nla
nara
nread
o7
ost
oud
ook
pine
pitt
rocks
s0
sf
tk
tant
uw
uop
udaya
vest
vending
wip
wary
witch
wiped
yuk
yummy
yuan
yamaha
zs
##67
##600
##eel
##gun
##rating
##pics
##public
##pita
##held
##cab
##lie
##yak
##yles
##din
##bel
##bled
##bles
##via
##49
##fare
##fting
##uaries
##meric
##kun
##kade
##kirts
##57
##84
##800
##ql
thw
thur
##erating
##eratne
##erthi
##inence
##inna
##anu
##atile
##ativity
##enas
##enne
anil
anudi
##orith
##orable
inac
inmates
##itis
##itations
##alds
##arms
##arwood
##icer
##asus
##rio
##enter
##entina
forwards
##otat
##ayas
bees
##amel
##idact
##erequis
rever
revel
reapp
prawns
prerequis
##adheera
ally
albe
weights
dozen
##opic
##cey
##chchikade
shelf
shores
lib
troph
trucks
soe
socc
##illor
##illance
##andan
notify
notifications
unic
unite
unused
cans
chanc
chris
##geo
plural
sev
##unts
##unction
goin
goat
gosl
##usiness
##abh
getaway
adap
arise
##boys
allied
##ocation
##ocial
hasina
##avit
##avings
apples
lever
leaks
leased
outta
##astrous
upwards
upbr
##akrish
##agasc
afloat
comply
composed
compelled
nover
agarwood
whichever
interfaith
slam
slop
slide
##ached
##achment
themes
grams
accuse
sink
visibility
visibly
commut
undergo
underlying
crore
crown
cravings
logan
relent
relatable
overre
curly
##ggala
frizz
coating
backs
backdrop
backyard
##epa
marino
paye
payer
payable
buys
mait
##rup
##ensely
##ensitive
governing
prix
persist
##adevi
welligama
highland
draining
drums
invaded
invalu
rohan
roasted
emoj
communism
fintech
airports
basin
secluded
smugg
blessed
flaws
poem
endorse
subtle
surnames
surname
inscriptions
buri
##beat
asses
impart
impending
implying
proves
costume
generator
generators
evade
##rah
terribly
handover
infuri
agreeing
##ampitiya
srilankac
prototyp
importation
122
12k
funn
classical
classics
nationalities
mentor
educating
reth
skull
boiling
hardworking
morons
learns
landmarks
biomet
runner
negatively
111
11pm
mirrors
vijay
viharamah
cey
ceila
templ
##atted
##appa
define
typed
caasl
demo
othm
##arium
18m
personalized
1400
untouch
suns
sungl
arrow
arranging
messenger
viewing
viewpoints
nsa
nsw
nsat
contrace
mobiles
considerably
133
##print
sltc
obes
practition
rupa
titled
##overn
##anni
noneth
masala
walawe
crises
diets
digits
trusting
trustable
daunting
motives
licences
treaty
attackers
laund
235
nai
naf
senaratne
responsive
breaker
stark
creditors
npart
immers
immensely
batik
glow
glitch
hostile
##2022
occurs
interviewed
ndes
ndist
##iyagoda
staffed
planting
ruler
eras
sadd
respectable
panicking
##friends
militar
jayaratne
horn
homies
misty
racists
presentations
nthan
nthere
burgl
achievers
theravada
domest
turmeric
battling
combines
minimis
subjective
professionalism
##oba
traditionally
autonom
revisit
pcos
ethno
dishon
greener
wordpress
##ocracy
conditioning
neighboring
imagery
irish
hearted
volley
weirdly
behaved
kalu
magically
supern
bedrooms
knit
captions
emergence
banning
kumanan
deniyaya
surveillance
pulse
frustrations
##holding
epa
1000cc
madness
madagasc
cups
smartphones
scrap
swept
touches
ambiance
monitored
hyundai
measuring
surveyor
layer
copyright
automotive
mechanic
picks
wijepala
criticizing
attachment
nlast
consistency
assumption
assumptions
dumbass
tonnes
vanilla
prediction
nutshell
batches
uganda
empowering
delaying
witnessing
kochchikade
koggala
disciplinary
throwaway
bothering
acquaint
t20is
guarantees
advertisements
gangs
bids
rebel
arguably
punishments
watawala
watalapp
##alyzed
distributing
melody
reconst
reconnect
mafias
wheelchair
tokens
tokyo
outskirts
motorcycles
splur
nqc
labourers
dupl
affiliation
warmly
prevents
jayawarden
ccna
occupy
180k
700k
explanations
tennakoon
shouted
unwilling
gradual
##forestation
vocals
abandon
tailor
dimin
dealership
escalating
unnecessarily
organisers
postpaid
nadd
demonstrate
demonstrated
demonstrations
reinforce
spectacles
rainforests
sealion
expenditures
quantities
crabs
crackers
stamped
adapted
column
##arathna
fragile
##iarachchi
abolished
disrupting
thrilling
inconveni
unconstitutional
overthrow
littering
##akku
texting
throttling
rewarding
liquidity
kuluna
mattress
borderline
cryptocurrencies
steadily
gadgets
hookup
ambitions
whisper
dashboard
puppy
accelerated
prevalence
incorporated
aesthetics
rambukk
accreditation
misunderstood
kosgoda
nwhen
aunts
monasteries
bungalows
hbb
pledged
seaside
gravy
betrayed
hemidact
recreate
divisive
goddess
nabout
hayleys
##piece
mercant
astrolog
teledrama
humiliated
william
williams
climbed
biotechnology
sleeve
dividend
pivot
brigadier
discontin
condemnation
inexperi
algorith
flawed
distinguished
mushrooms
loophole
narcissistic
paralympics
##nutrition
anchor
album
mexico
pegasus
wijewardena
kenya
mitigate
fighters
infoschol
##pleasant
mirrisa
horrifying
##dialog
adolesc
entitlement
neelan
ambalangoda
rhythm
acupuncture
overheating
volcanic
loudspeakers
dairy
lactose
pseud
staggering
disproportion
multinational
rameswaram
albeit
soccer
upbringing
##akrishnan
loganathan
invaluable
ceilao
nonetheless
volleyball
madagascar
1gb
2s
2b
2mbps
320
4s
6a
6am
8pm
9k
aat
ave
aod
aoe
auctions
bind
bury
bhar
bamba
cet
cim
cried
cunning
cwc
doo
dood
epar
fade
g2
gast
gla
gib
glim
gril
grip
hm
hooked
ion
ials
jp
jel
jama
kd
kash
kinder
lb
mol
mam
mig
mant
mice
mata
mcc
merg
noun
nare
nty
napp
nres
nude
nhi
nmore
nerve
null
oes
oop
ppp
pend
pct
poth
panc
pamb
pains
pipe
qd
qur
roc
rata
rott
rows
rgb
rca
rags
sv
sag
ssp
tat
tubs
ue
ust
ump
v2
vested
wol
wag
woes
xin
yas
yak
yep
yapa
##oed
##gah
##rone
##rendous
##pec
##pse
##pad
##pala
##hala
##heng
##cry
##layer
##ypt
##tor
##tar
##tim
##trip
##bima
##nc
##vt
##2s
##foot
##felt
##fund
##uar
##uent
##kf
##kele
##54
##jor
##jmi
##watta
##zi
##zes
tham
thiy
thumb
##inos
##inium
##anama
##anayaka
##atug
angle
##ede
##edia
ink
##itative
##arr
##isive
##icon
##icron
##asth
forem
##etically
##utory
##ayed
onions
youu
youcab
##olon
sti
##urg
##urit
##amal
##amis
##ids
##itharana
prisons
praveen
##irc
myher
nem
shaf
tran
fraction
soor
soak
soya
sogie
meem
conform
converse
##andura
unpleasant
##ulus
##uliya
chan
chit
chee
abh
abduction
plunge
##oute
##mentioned
acju
sew
##uni
##unova
dee
##about
##ortions
proactive
env
ench
enqu
##eme
##orementioned
##osd
##osene
bye
##ector
##boy
allah
##ountry
peaks
peeling
appointing
##aste
##astrop
##ciously
upul
upwork
imran
##agath
aforementioned
comprising
sae
donated
##ipa
##ipts
##arepublic
needle
mang
newcom
resumed
slaughter
accust
moir
indis
underage
underval
polo
monarch
crunch
eli
##awaka
##awasam
braces
hien
paras
parakramabahu
disorders
disastrous
actress
curb
curve
coat
phishing
##ubai
marians
##aththa
pleased
maa
##ensed
persistent
shein
##plays
2029
carriers
caramel
highlands
##grotat
conscience
genres
internally
understandably
median
##xture
preserved
sme
smashed
##napped
##spot
downt
flir
flix
flagged
##cons
foodie
ende
avi
insensitive
19m
llm
##isms
realities
syria
departs
belly
readiness
restric
restoring
handb
30m
309
infants
##amped
examine
examiner
extender
explorer
openings
##asonic
lkr1
informative
coral
123
12000
confess
freeze
##ibi
mentorship
cardio
boi
morally
##ahuwa
negativity
11am
profiles
headaches
spends
receipts
vijith
vihara
ceypetco
putin
singhal
temp
temps
##ductive
lincol
listings
islanders
sigriya
demot
demod
##ariyan
##engine
breed
physician
promos
honesty
protested
nsf
nsour
increments
technician
##prot
missions
malta
mornings
##ippu
modify
projection
natives
##anny
##annawa
changer
itineraries
mahanama
harry
harness
normalize
managerial
dae
namely
peter
peters
filmed
filthy
professions
reliance
##sss
beautifully
tradem
url
##haul
selfie
lajmi
bribes
equation
potato
pottery
potatoes
4060
vacate
vacations
patrol
damm
stationery
destruct
##esterol
cashews
npd
daddy
immature
collections
glance
hostage
govpay
interviewing
ndo
ndel
ndown
sorting
bookshops
investigators
suspend
poorest
rulers
pressuring
pressured
multiplayer
benefited
erpm
respecting
panicked
panasonic
verge
lolc
jayantha
jayawickrama
jayatissa
horse
horrendous
heaven
##anthota
##anthika
partnered
hateful
n16
blackout
blacklisted
nthat
lightly
lightweight
299
burrow
strive
bullets
minimize
ahh
##dragon
geography
geographic
tasteless
strait
3500
encro
administer
selections
promotes
latency
suitcases
feared
heartfelt
nbec
fishy
freshly
argentina
kaluw
dissatisf
masterpiece
nwsd
yea
knives
aegrotat
communicating
denim
##asteride
1992
1991
firearms
photoshoot
madras
fleec
nhome
stupidity
scroll
attendant
clarence
rapist
palk
##wells
councillor
fernand
catastrop
coffe
fauna
discovering
layoffs
creamy
sensor
sensation
sensational
proceeding
##ruptions
featuring
criticised
forgetting
refunded
990
katug
399
traits
tendency
tougher
conservat
ipkf
remainder
contractor
nandri
bonuses
##ritis
alcoholic
maximize
pakistanis
##ropriation
kotthu
virtue
virtunova
advisors
doorstep
grabbed
padmini
lieu
1959
1944
complicit
subscribed
rumour
faiths
chamber
chamath
chandana
firmly
boundary
affiliations
johnston
makumbura
1965
creeps
objection
objectives
transitioning
cigars
liberalism
coordinate
coordinating
tweeted
flashy
encouragement
sixt
counseling
proclaimed
legislators
prioritizing
aggressively
nadar
apologized
blew
bellan
spinning
precision
contestant
habitats
wardro
perceive
maithri
labeled
foolish
elevation
administrator
tactic
synth
reckon
##kyard
morality
overlooking
ponder
voiced
unhelp
culpr
embraced
kerosene
baggy
roshan
swiftly
richer
prefect
episodes
ineffective
neighborhoods
gtx
##metics
consciousness
fuels
gnan
utilize
neduc
cremation
cremations
supervision
puppet
hamas
ontario
shrine
disposal
lyceam
geckos
injection
kuala
1990s
overcrowding
pledge
subsidies
athletics
goddamn
gopuram
prolly
accordance
underpaid
brushed
overstaying
bacter
ptf
resonates
commemorate
prostitution
disturbance
patches
dismissive
##avery
tossed
outfit
crafted
deprived
snapdragon
beggar
pistol
bounce
degrading
invasion
homestays
bureaucracy
abeysekera
##jobs
incurred
##qualified
livelihoods
grasp
mohammed
showcasing
sthuthiy
plymouth
swarnawahini
disguised
nparliament
tuskers
connects
pickleball
nposts
hormones
eateries
kudos
vertical
diabetic
rekawa
mascul
wso2
toffee
livestock
biodiversity
harischandra
npresident
inconsistencies
bhanuka
orchest
reconsider
appetite
npersons
saviour
tribunal
chancellor
commuter
sunsets
##overnment
laundry
domestically
jayawardenapura
hemidactylus
inexperienced
eparcel
rotti
myheritage
meemure
restricting
unhelpful
080
1b
1w
1mbps
370
5ghz
880
aad
b8
bou
bour
bible
bamb
baking
bump
cone
cess
cma
cells
d6
dz
duck
diction
eet
foo
gin
gag
gals
gifting
hn
hin
hos
hose
hats
hacking
iia
jas
jacks
kern
kaz
kuri
kicking
kasy
lp
ld
lis
lte
miri
madu
mocked
malai
nve
nud
nsp
nug
nmed
nmost
nnew
nasty
o1
ose
pn
pw
pig
pall
pian
pint
pale
pave
puth
puss
pouch
pairs
pumped
qod
rf
ration
rans
ruth
spp
sore
sak
sambal
tum
tilt
tiring
tyr
tagged
talaimannar
ugh
vt
v4
vw
vin
vith
void
varies
vedda
wm
wav
wiring
wadd
xt
xen
yi
yw
yay
yelled
##62
##0o
##oing
##rm
##rer
##rough
##rau
##rings
##pro
##lal
##lab
##dles
##dubai
##nia
##nadu
##notes
##uva
##mus
##kk
##kka
##58
##js
##win
##wig
##waran
##inis
##inates
##infl
##ania
##atri
##aturated
##oubted
tomb
##edling
infer
##itm
##alia
##aria
##iso
##rels
##asi
##riet
##ride
ford
##etr
##otas
isuru
##sts
##stones
##stein
##steps
##ecked
##ecraft
##aying
ong
##ankar
beet
##olanka
sta
stan
stut
stair
##amom
haunting
reiter
##iger
##igans
##adhapura
ala
alf
altered
alwis
##oop
##iraj
mydialog
anyhow
oracle
weaken
##cha
shen
shred
shaking
##ounced
trance
fres
frowned
lankabell
##anded
suman
supr
unve
unear
unpl
unjust
comedy
canal
chi
chad
chile
chlor
wasgamuwa
hee
heath
heels
plugs
##endran
seiz
sewing
seetha
goon
deities
deforestation
##anta
##usa
ene
enem
##osha
##udal
arame
byds
##apam
expolanka
##arting
ampl
spy
spas
spain
spear
recy
##0000
leo
lea
##cials
upward
##akar
##uming
##umbs
##umane
compiled
##ptive
saus
sauc
saarc
noh
agoda
##ivan
##ivate
donating
mane
resent
resemb
offending
##roved
##roots
sloth
slaf
gran
contested
sins
commenced
moe
polos
elit
##ishi
looted
intending
relo
prelim
hiii
##version
goto
parl
disney
planners
cured
##ggers
incase
incub
coke
phases
scor
##ubedda
##ubishi
##angara
peratug
##encil
busiest
payers
##ensively
wayamba
carri
carved
##issance
postc
thrice
consoles
dravid
genes
accounted
##plete
airpl
happend
instal
instinct
baseless
kandana
##identified
##upillai
smes
smelled
smiled
blends
blames
remedy
##oysa
creed
downside
downtime
downstairs
betterment
flats
fluct
flaming
poke
companion
stroll
##kets
awh
endured
##iously
tamilnadu
raided
desired
deshab
avons
passikud
insects
inserted
costa
costing
##weets
##ressed
generosity
nord
norwe
restoration
handwr
infections
respects
cori
corners
apar
121
saline
salmon
delus
cardamom
##esee
##yped
boh
boeing
morals
swall
systemic
##ahara
cheque
100s
100m
100km
negatives
formation
formulated
118
valent
miracles
headset
25000
roadbl
processors
cea
lined
rajapakshes
midday
cae
welik
freaked
147
141
001
sunsh
164
169
popped
50mbps
hospitable
serene
136
139
dialing
malnutrition
cape
affl
excer
dialogue
turnout
jane
janet
janaka
greeted
probable
mahath
barr
bark
##ushka
##ointed
platoon
laos
239
unfolding
rupp
crib
balcon
stationary
naan
calcey
cashless
##inkai
fairy
treks
soundcore
octane
npre
boarded
##gslt
antigen
musician
bodily
glb
creature
miser
misused
misgu
finalize
suffoc
hostess
flydubai
copper
switches
covid19
northwest
investigative
savior
ncl
cancels
cooling
admire
##shot
horosc
mounted
homeless
candy
strife
exceptionally
referral
grandpa
wickremasinghe
seniority
javelin
tuf
closure
imagin
modeling
nbl
nbank
collision
kalubow
kalkud
obsc
nicest
knocked
capturing
ngen
ngoo
applecare
garlic
denom
denies
strategically
declarant
lifes
logos
omicron
##holder
epid
impactful
removes
##ecutive
shouldnt
tenants
cloths
gifted
clarified
textile
pali
crosses
425
catc
solidarity
coffin
derail
derived
layout
nih
romesh
robot
sensit
microw
rejecting
channeling
automated
##lamation
criticise
##30s
lavish
75k
katubedda
embassies
tonne
nreg
nrece
nrecomm
dilig
granting
contracted
witnesses
shameful
1975
gateways
uploads
enrich
desperation
faulty
podi
fatig
equipments
negotiation
influencing
organizer
ninewells
saras
lifestyles
kilos
condol
colonialism
oversaturated
parental
pharmac
ghz
1949
hungary
subscribers
paul
calmly
undiyal
undoubted
browns
##ihad
rumor
excellency
accurately
accuracy
terminate
idiotic
reacted
clicked
mailed
substances
exclusion
doubting
##charged
unnatural
yogh
##ajudeen
leaned
asth
explanatory
enthusiastic
fantas
praying
dock
dockyard
interacting
roller
inspection
lenin
mythical
liberalisation
lyric
intentional
64gb
fermented
implies
manipulative
portugal
immigrated
939
enrollment
postponing
pirith
pirate
demonstrators
breathe
overtaking
excluded
sanctuaries
ubuy
quantum
contesting
assessments
explosive
admitting
danish
taller
naccount
suvs
magnitude
787
inhumane
exercising
obliged
prompting
scarcity
scarborough
feminine
pillow
territorial
sentimental
inconvenient
1kg
ponn
samba
cultivated
yahapalanaya
kaali
unheard
uncondit
clockwise
advocate
stirring
texas
concentrated
concentrate
axio
nexp
grassroots
dunno
stylish
revolves
rasp
acknowledging
hygienic
kohuwala
insulting
knees
bastard
decorations
puppies
stalled
aluthgam
worsened
##otherapist
compliant
empowerment
enlightenment
exorc
raids
neglected
shanaka
relocating
palestin
hatchery
##keeping
retreats
loser
undertaken
tribute
interpretation
ceremonial
renovation
bacon
kissing
thalawath
stagnation
reopening
resilient
astrology
ought
reversed
expatri
tshirt
unchanged
unchecked
portrayed
humiliating
atheist
atheists
steril
veggie
marshal
maternal
maternity
tesla
apprehended
##arajah
configuration
demolished
landslides
gimme
lumpur
mawbima
inexpensive
workarounds
puzzled
hewage
photocopy
homestay
rameshwaram
abeysekara
exaggerated
cholesterol
appease
dullas
##henpita
handunn
delegation
diamond
squatting
astronomy
gohomegota2022
pounds
1950s
retaliation
vallip
cursed
poetry
patronage
##manship
forbidden
jonathan
hierarchy
brighter
kurunth
pallekele
uniquely
impaired
corridor
aflatoxins
dangers
vfx
unsettling
plugged
hippo
backstory
panoramic
synopsys
necklace
pucsl
##studio
stainless
overhyped
submarine
syndrome
viharaya
unreasonable
duolingo
mortgage
hashtag
gullible
ookla
yukthiya
trophy
impartial
rethink
untouched
sunglasses
supernatural
rambukkana
mercantile
pseudo
glimpse
pamban
##roneedling
foremost
accustomed
vijitha
lincoln
nsource
destructive
kaluwitharana
nwsdb
conservatism
neducation
jackson
kasyapa
wadduwa
aramex
preliminary
peratugami
deshabandu
kalubowila
undoubtedly
aluthgamage
thalawathugoda
2g
430
550
520
5hrs
6o
a7
a9
bore
bib
bcc
bakers
bjp
cx
cfa
d8
das
dow
danc
dani
dipped
eq
ead
eos
eds
ecc
f6
fon
fom
fitted
fading
gab
giri
gps
hg
hans
hdd
hcl
iirc
jaw
kwh
kaj
lj
lam
lid
lick
lester
laug
m3
mans
mbs
munch
niz
nale
nps
nbr
oem
oos
pals
posed
paced
paved
q2
rog
roth
rendered
sanga
saint
tg
tac
tad
tents
tub
tuna
uf
uth
uts
uppu
vr
vil
vand
vicious
ville
vanni
wang
wwe
wives
wired
wards
wenna
xl
xm
x1
yen
ze
zen
##6d
##63
##69
##oi
##oia
##gart
##raw
##rals
##hiya
##iologist
##cers
##caster
##lower
##yagama
##years
##ti
##tv
##dra
##door
##bec
##born
##nbs
##vil
##vam
##vance
##vlog
##43
##fit
##fts
##food
##free
##mble
##making
##matic
##ko
##5o
##1st
##jour
##zb
thera
thush
##inks
##onal
##onze
##atuna
anesth
##eses
##orming
inorder
inception
##itory
##aral
##arama
##isance
##icting
##asan
##asco
##asuriya
##elcome
##elvam
##lek
##lex
whos
whist
##etam
##etted
##otion
##stal
##ayak
itch
stub
stylus
stunned
##idu
hailing
hajj
##vering
reap
rejects
rebrand
##ithra
##iga
##igala
##igoda
prag
thisara
##ady
##adel
##adors
##aduwa
alas
doe
doin
doses
##opy
##opia
asoka
##imag
shep
shades
shield
tram
execute
executions
##andi
sult
susl
nother
unver
unint
unwell
##ulam
##ulap
comed
cane
chic
chame
chanting
abd
abys
heating
heights
hemas
##outing
acer
acute
deer
dean
##abi
##abal
ener
##itya
##oso
##uda
##udh
##uding
##apan
uscountry
expo
##artment
ame
spree
spite
spont
spiders
##ifacts
justification
recalls
##aval
##indra
timelines
outings
outgoing
outcry
##astota
upi
upside
##herd
##akan
##akanda
sail
sailing
clues
hela
206
manth
manages
intercept
##roaches
slips
slope
slurs
sliding
vishn
##ported
underwhel
##ishes
##ishankar
overcoming
##awn
##awila
preach
brav
broth
brits
bronze
##ultural
parliment
paralyzed
disabilities
disruption
discharge
displaced
discharged
curated
##ggling
coex
cogn
##ogyn
scans
marvel
perplex
##athed
pleaded
mapping
maurit
heres
heritance
##enses
minecraft
prim
persecution
caravan
throne
##grow
draf
dracon
regiment
invade
roar
redund
emo
somethings
drift
finland
107
10km
bashing
attalage
lethal
smh
banknotes
##uwe
reminis
longing
ete
##ertation
flor
flies
fluff
floral
strap
repo
reps
repell
repatri
earrings
opting
endurance
desir
descriptions
0000
193
guise
llc
assa
assert
elector
beli
evac
chari
noroch
30min
extensively
founded
tales
informal
informations
proton
corps
apex
126
##ysis
confined
galleface
oppon
questionna
booth
boils
##eevu
detri
smallest
entc
swamp
packaged
stopover
bik
bios
muscles
##ambuwa
news1st
distilled
##heed
fullest
honking
253
metres
ceil
futures
kidneys
tempt
##words
gamble
pasted
defects
##dhi
demat
checkup
rani
##engen
18k
181
pretended
picky
##deal
sung
arround
50gb
specifics
nsb
nsub
psn
produces
humiliation
lowering
##icier
malik
capac
artifacts
projected
##retion
224
22m
probing
australians
covert
##esha
normalcy
citrus
hospitalised
ranils
210
filip
filming
hollywood
##asingha
storyt
##ierd
enjoys
equals
potion
406
vacant
gloves
balances
baltim
calam
starvation
tommor
treacle
statutory
ntop
stockbro
competence
##ribution
npack
favors
reviewing
bathing
misf
misapp
misogyn
finalized
27m
275
cables
akin
staffords
odo
births
stealth
slowing
critique
secretaries
erg
udana
coolers
admits
divine
folder
militant
mbas
rockland
80gb
expressions
spotting
##agedara
stresses
bulath
bullies
exceptions
##ooriya
cs50
ayu
ignores
varied
variants
ramen
##master
pcb
chillie
mixing
unsur
unsolic
unsupp
encry
closes
wildest
conditioners
imagining
nmem
contributors
validate
4500
90k
documentaries
heartbro
tracked
freshers
queens
queuing
weirdest
collateral
celebrities
progressed
dissertation
nwar
nwas
summit
historians
edward
yew
announces
announcing
nicely
circulation
stupa
narendra
sanj
denial
n2h
angular
logically
logistic
firearm
spreads
madh
favorable
nany
nanura
luxuryx
truths
rapists
effectiveness
liberals
1986
nthey
gaslight
hiriketya
measured
debated
sixes
gardening
330
emotion
macos
discoveries
robbing
resigns
sensors
microneedling
hrc
smoother
bowls
loudly
loudest
toxicity
vegetarians
rounded
nliter
predator
predatory
diluted
ipo
toyotas
complexity
kelani
##strust
appealed
venting
displaying
koong
pvr
tikiri
eldest
n3h
##ropriately
airbnbs
acquitted
acquiring
egos
egypt
gaza
homesick
permitting
withdrawn
nominal
integrating
dependency
sarc
harshana
owing
visionary
1947
1945
cosmetics
hungarian
weaker
recruiting
kicker
moonstone
shutting
theatres
absurdly
##adurai
ingredient
667
enthusiasm
1967
skyline
symbolic
rubbish
sirigaya
kaduwela
##amsa
dietary
ngeez
vastly
ashram
reminds
nalin
nalinda
pfc
pfizer
tailors
nepali
criticisms
pedoph
implied
brokerage
wwii
mdp
coward
triggering
ishara
cooperative
tolerated
shelters
prosperous
screams
artificially
foam
precise
exclude
sanctions
constructions
dolby
yogurt
bomber
cadet
barefoot
150kw
riverston
inherent
squeex
prabath
drainage
prompted
jewellers
noodle
ryt
##donalds
fragrant
scarce
juicer
niro
paranoia
depreciate
mixture
abolition
mechanisms
ekanayake
overlook
jaishankar
bumper
sarees
exempted
jackfruit
mortality
rabbit
advocating
advocacy
embracing
virginity
ceramic
##akkuliya
blowing
wounded
intimidating
vids
##wares
franchises
floors
orthoped
obstruct
cockroaches
conclude
terrifying
fcid
hackathon
punched
distressed
dashcam
rebuilding
wholesome
censorship
accusation
disliked
anthare
avenues
imprisoned
bandaranayake
circumcised
rationale
undermines
disadvantages
losers
swedish
expedite
extraction
jealousy
thunderst
prolong
renovate
fossils
##athilaka
downvote
downvoted
weerawansa
pisses
atlas
burghers
geopolitics
resellers
misconceptions
rathnayake
pivotal
beggars
clouds
slogan
positives
positively
anticipated
irritating
nreplying
discontent
siege
loku
physiotherapy
appeals
horsford
karaoke
koththu
siyambalapitiya
uyana
abundance
kannangara
olevels
shakthi
bracket
deteriorating
devotees
512gb
squeezing
forensics
seminars
##apaksa
rescheduled
attributed
harvested
substitute
theoretical
taxpayers
singhagiri
defamation
mahindananda
absorb
lakeside
rcb
sequence
highschool
cosmetic
microplastic
gumroad
ludwig
rudely
plagiar
nokia
prejudice
inventory
dudley
iraq
pudding
pogrom
voyage
##hydr
newsletter
antidepressants
samudra
dataset
recomendations
kitesurfing
erected
kithul
mitsubishi
pottuvil
pannipitiya
vivo
hegemony
interfere
precedent
emerge
##developed
journals
ncustom
reciprocal
orphanages
underscores
pohottuwa
succumbed
gongala
thwart
unicode
ndistrict
autonomy
acquaintances
watalappan
discontinued
algorithm
grilled
kindergart
newcomers
undervalued
katugastota
piano
staircase
shredded
sumanth
enemies
airplane
awhile
norwegian
coriander
delusional
balcony
fatigue
yoghurt
raspberry
daniel
laugfs
uppuveli
coexist
draconian
redundant
baltimore
staffordshire
unsolicited
heartbroken
orthopedic
kindergarten
1s
2hrs
3gb
4m
560
6h
8h
980
911
aie
aura
bim
bip
cac
cud
cue
cau
cep
cush
cuba
cunts
cinkai
dn
dac
dcsl
dunge
dasun
diana
e8
ets
eem
eden
fen
fath
faint
g8
gou
gow
gare
gents
gently
gune
hath
hod
hgd
iher
icu
jen
jab
jars
jagg
jams
josh
jbl
kim
kari
kola
kicks
kyc
lone
lender
lena
m0
mary
mish
mold
mills
mesh
nri
nass
nause
nade
nbs
nna
nra
nails
naut
n50
nunder
ngroup
o8
och
oven
oled
ousted
pec
pity
pens
pond
piy
pads
pgd
pantry
pencil
qed
rations
rsp
ripping
rena
rode
s2
sso
sds
santh
s10
tak
tire
tube
tca
vlo
vivid
vga
vowed
wplace
wierd
xy
yal
yaris
zo
zoysa
##6e
##oints
##gate
##god
##games
##run
##rast
##roll
##aes
##aus
##poke
##picious
##hit
##home
##hist
##hous
##hena
##iha
##cow
##cur
##lining
##ye
##yer
##sera
##srilanka
##tw
##tia
##times
##dm
##das
##due
##dled
##nant
##vis
##vity
##vron
##71
##uer
##uis
##uity
##uely
##mr
##mith
##male
##kill
##87
##wari
##wila
##zy
##x9
thi
thiri
##inas
theeks
##anes
##anam
##onn
##onia
##onna
##aton
##inges
##orth
toes
##iti
##alt
##alone
##armed
##isis
##isara
##rez
##icits
##aso
ofthe
foresee
##otuwa
##stores
##eca
##ecs
##uti
##ilateral
onc
onward
youre
bea
beac
##olice
##olina
stell
stung
staged
stairs
##uruw
hah
hake
##very
rept
prank
##thed
##thren
##oob
##oooo
##este
##estro
anyother
orbit
doom
##opes
##opard
asf
asha
##change
neb
shiv
shapes
shiva
frater
sof
soys
soaring
externally
meats
conduc
unil
unse
unhr
unqualified
unidentified
##ulas
##ulif
comfy
canvas
cho
chamb
chung
chores
##ustainable
heaps
heja
##gee
iftar
aco
seb
semb
deak
eno
energ
enables
adverts
##earted
##ository
##uded
ary
arre
bystand
##apuram
colder
peu
peep
peppers
##oured
amput
spi
spike
sphere
justpay
##dera
appr
ley
leaking
upali
imma
##umi
##agre
goodness
noa
nob
timefr
clums
clicks
207
203
205
208
2050
manus
mangala
resub
reselling
intervent
helpline
everyones
sls
slack
sliate
##achi
contex
##assa
##assed
commend
moons
indi
induc
induction
afters
underwater
poland
##acting
##actory
##activity
moneragala
crook
crawl
elia
relie
relied
overflow
overhaul
##awan
brick
hij
hizb
pars
parippu
muay
##fords
displays
planets
coated
coasts
phobia
backtr
scott
deck
betel
idol
##athm
plead
payouts
placements
mapped
minus
prius
prizes
##adeen
wellassa
##gram
consort
consecutive
twitch
drank
persona
invites
roaches
genetics
mayonna
transph
transplant
famine
finasteride
keerthi
106
10m
##atchath
appreciative
lett
servant
banker
bankers
##uwatta
##uwakku
remit
ideals
downward
flut
flown
flames
flirt
reporter
awake
enduring
taxable
raize
desires
suresh
suranga
surplus
insul
inscription
fiu
000t
bugging
192
1920
guild
##beh
assim
pubg
forefront
imply
provoke
evol
charlie
handic
3060
infact
infinity
proposes
propriet
##wheel
publicity
publications
discard
discretion
extro
extends
extortion
15m
159
informs
informatics
considers
thingy
cord
correl
127
12pm
1212
girlfriends
confuse
classification
classrooms
salv
delist
delta
deleting
playful
playground
cardiologist
educators
addon
addicts
addstudio
rajasinghe
oppo
retweets
develops
skirts
skipper
##ukwella
acknowledgement
##eeee
##loan
entren
swaps
systematically
##azing
hourly
##mination
seth
biker
biyagama
chevron
##manne
softball
softwares
similarities
proficient
budgeting
headline
directive
honored
25gb
roadmap
20000
opined
viy
ceos
##attaya
coupled
pastor
signatures
lining
listens
deficits
##dhar
midway
caulif
wela
demise
demographic
checklist
personalities
majoring
behold
##atsu
researches
brethren
edit2
joints
standout
148
untill
refill
protestor
##resent
sermons
millionaire
nsm
nsin
nsing
nshe
scammy
##otta
factcheck
132
bookmarks
bookstores
posing
increment
wrongly
wrongdo
##iciencies
amounting
mali
teamwork
transported
chargers
excitement
austin
modding
##onton
##ontec
nets
superst
greece
22k
probability
masse
mahab
mahaw
mahattaya
sourced
policing
specialists
eventual
legalize
barcode
crisp
sexy
diw
petitions
holistic
severity
inflows
matcha
exchanged
platinum
satkun
devoted
potter
vacu
patr
destit
gameplay
stares
starter
trinity
aiy
269
ntj
ntem
ntamil
arena
npri
biryani
antis
antibi
premarathne
strongest
strongman
favours
ethically
extrajud
gluten
misc
misery
misled
misplaced
commercially
waiters
##aggy
fasting
silently
westerners
painfully
recognizing
likeli
ndirect
##iyapitiya
akila
storey
correcting
corrections
dinners
ncre
pursuit
##lomerate
footwear
hikka
labelled
protector
erp
youtub
moderator
udara
bandit
willingly
willingness
jayasekera
cocaine
animations
##anthan
##ursed
blacklist
presenting
##umbling
anuradapura
introduct
feedbacks
referrals
positioning
billionaires
313
##ranty
webpage
jeff
ramakrishnan
permissions
354
winding
unsustainable
administered
selector
battered
lowered
##urian
btec
ordained
imaginary
075
nbusiness
hangs
hangouts
percentages
freeload
supun
dissap
mastermind
printer
esd
nww
nwere
sumatra
ensured
nfollow
##headed
husbands
bananas
corporations
corporates
kumari
communicated
##roph
replacements
handsome
hurdles
n22
installations
responds
epit
subspec
1000rs
machinery
implements
scramb
conviction
pushes
constitutes
powders
##eththi
murderers
textbook
ambience
1985
youths
finishes
authentication
telug
punct
layers
nihal
robes
insightful
londontec
surrender
executing
unitary
cookbook
hrw
annoys
dispers
dispens
fuckers
idealz
moscow
wijese
criticized
sharks
dangerously
destroys
mandated
nvotes
attachments
beginnings
roundabout
reformed
conveniently
uncomm
sickness
islamophobia
predecess
shootings
bespoke
royalty
eyesight
pinned
constitutionally
nrt
balloon
gazetted
doubtful
mcdonalds
laughs
nomine
integral
adsl
monsoons
##petty
800k
awarding
hurtful
owed
motivate
watery
distributors
diagnose
architects
1942
melts
consequently
subscribing
paed
burnout
dentists
mutt
shutdown
resolutions
reacting
captaincy
heroin
##ambalam
verifying
nuh
nuisance
weeratunga
incomplete
navigated
astounding
farewell
685
defeats
1968
inspectors
nursery
objections
boosting
deducting
2010s
nalso
ferr
kingdoms
ww2
jailor
pdfs
circumstance
excessively
leaflets
##guards
canadians
procrast
legislature
fertilizers
dominion
cargill
pirated
bleaching
spinners
splitting
lapstore
stretches
prospective
aquatic
nsee
dramatically
magistrates
footh
lantern
paradox
defenders
868
temperatures
bombers
dananjaya
dosage
troubled
inherently
inheritance
congressional
quarterly
obligated
administrations
scripts
organs
paranormal
disrupted
territories
ambulances
dusty
thrilled
resistant
distracting
eagerly
ponzi
contempt
cultivate
breakdowns
ambassadors
illnesses
bolster
dansal
tharaka
unhy
grim
sesame
reluctantly
throttle
rallying
dodging
kuliyapitiya
eliminating
rigid
acknowledgment
inaugurated
atrocious
downsides
kohli
nmeaning
sushi
distressing
hyperinfl
tentative
grinding
overcharging
utilized
exploitative
lighter
suppression
128gb
assembled
nestimated
aluthkade
accelerating
geek
instrumental
reposted
glorious
glorified
cbk
simpler
suspicions
veterinary
intellectuals
benchmark
contradiction
inappropriately
relocate
##guardian
santosh
onsite
##keeper
gravity
weighing
neurologist
plaus
amaraweera
##iscover
congrats
expedition
remittance
cyclists
clowns
evaluation
evaluate
microphone
stagnant
reopened
pawn
##eksha
fittings
deployment
hashim
dharmar
sponsorships
galement
hipg
wanindu
wreck
##anasara
unmatched
intrested
dragons
overloaded
excavations
magazines
cocktails
kiyala
vaginal
stabbing
quotas
accumulated
distinguish
puzzle
kirulap
stitches
trouser
invasive
geneva
pharmaceuticals
meltdown
zaharan
chauvin
loopholes
intensity
paralympic
edmonton
traumatized
zionist
concession
abducted
upvote
brackets
parameters
bushels
entrances
b2b
nolim
velupillai
forensic
uninter
deported
recieved
contamination
contaminated
harvard
sweeping
intolerant
dahl
protocols
voluntary
voluntarily
sangha
fpga
##advisor
helmets
brainstorming
niroshan
oblivion
gauge
nresponse
conglomerate
demeaning
clutch
carvings
repression
lawmaker
##heimer
contradictory
consolidated
density
elya
obey
fronx
envelope
krakat
dismantled
pedestrian
intermittent
pavithra
yapahuwa
allevi
unspoken
commodity
muhammad
instigated
skeletons
supremacy
malaiya
narahenpita
pineapple
revelation
slammed
infuriating
viharamahadevi
ceyloan
obesity
nafter
potholes
quran
wagons
handbag
demotivated
demodara
dammika
ndownload
fleecing
fernandez
wardrobe
synthetic
bacteria
orchestrated
dictionary
kerner
kazakh
wavy
fresher
sauces
carriage
postcards
dravidian
affluent
kalkudah
obscure
nrecommended
sarasavi
condolences
asthma
vallipuram
kurunthoor
shepherd
unverified
chameera
vishnu
underwhelming
perplexity
norochcholai
detrimental
bikini
dematagoda
storytelling
tommorow
misogynistic
nliteral
koongolla
plagiarism
sumanthiran
cinkaiariyan
jaggery
thirimanne
theekshana
hakeem
hejaaz
deakin
timeframe
interventions
contexts
hizbullah
mayonnaise
cauliflower
extrajudicial
likelihood
freeloaders
hyperinflation
0g
1am
1km
2km
2tb
2gslt
3r
3am
4mbps
5x
510
5mn
6ft
620
660
630
7a
8g
8s
8d
8x
920
960
925
a5
ait
aerial
bop
bould
bake
bern
bambal
baker
c2
cj
cia
cuc
caff
ding
dgh
dough
dread
dug
dizz
dorm
dbn
durian
eon
eed
eternal
eternally
fj
fw
fid
fount
faking
gaw
gah
gfs
guru
genders
hc
hater
hym
hanth
ix
jeth
ki
kay
kop
knight
kasun
lac
lance
lms
laced
lenders
lassana
laggy
moo
mast
mds
nke
nry
nya
npl
nget
nitt
natt
nmal
nha
naph
nfri
nfs
nspeed
nangi
oq
oed
ood
osc
o26
pb
pk
pater
piri
pane
pitted
pestic
qg
qh
qty
ral
rak
ross
rama
rib
rhe
ratt
rook
rites
rio
raging
ranga
sz
sut
sith
sind
sine
siv
sars
sik
sada
sane
sorrow
saga
tet
tate
tread
tins
tucked
uv
uol
umm
vist
wv
wk
wad
wir
wings
wits
wether
waving
woe
wolf
xp
xmas
yp
yam
yai
yards
yarn
za
zool
##0s
##0d
##eins
##gue
##girl
##rg
##rite
##ricket
##rences
##rane
##aan
##pc
##pat
##part
##pable
##pcs
##hers
##hem
##hra
##cn
##cer
##cdonald
##lon
##len
##lka
##yroid
##sling
##dt
##dag
##dens
##drew
##but
##bank
##buy
##brow
##build
##nr
##np
##nm
##nuts
##nostic
##vial
##vij
##flo
##uld
##mu
##mill
##mond
##kal
##300
##81
##jayan
##wick
##zo
thigh
thug
thama
thumbs
##erse
##erations
##erting
##inam
##inter
##inci
##intha
##anol
##aty
##atum
##atiya
##enia
##enium
##enheimer
##ington
ank
anat
anker
anecd
##esia
topp
inward
##itz
##itism
##itably
##alama
##alawe
##alapam
##arin
##aray
andrew
##oman
##omon
##omfort
##isan
##isen
##isal
##reens
##icle
##icism
##icially
##aser
##asena
##eliness
##rim
##eta
ismail
##start
##stick
##ecided
##iligo
itm
youll
bean
##acul
##olk
##ollect
stam
stakes
stems
##urp
##uradhapura
##amd
##amins
##idavit
reich
reaff
rehan
rewr
##sex
prp
pricier
##then
##thal
##through
##adas
##adipa
withdrew
##iron
myr
my3
anyplace
##terior
##opec
aso
##imen
##imation
shith
shack
shakes
shells
sheds
liy
##omex
trolling
frug
butcher
sog
sober
##ulu
##ulle
comfor
comics
choco
atomic
abilities
##usters
heir
hehe
plac
plague
##endously
acoust
theyre
sei
seik
seych
sewan
gob
##ainted
deity
##antically
##usc
##abit
##abay
##orting
enters
envision
##emocratic
adul
advers
adverse
##earing
##osely
arist
arises
aroma
##ecting
coloss
##boe
##gha
usp
usher
expire
expiring
aman
amana
amani
sper
reccomm
##avag
appla
##ackers
feudal
##rys
timers
timeless
outstation
upfa
##herent
vey
##akaratne
##agen
##agara
##ansen
composition
##ptic
saitm
noone
noice
agitated
agnostic
##ivar
##ivating
##agement
dondra
quits
clz
clout
clich
cliff
##iper
##ipola
##erio
204
20km
manpower
##ameen
resided
interd
interiors
interruption
interface
interrupted
offbeat
advances
advancing
slice
sliced
grapp
acces
visuals
##icken
commands
##ffeur
moj
moore
mofa
indicted
underst
underest
##ailway
loot
intric
intends
##awana
prepping
preaching
premalal
brink
hiked
##ulture
##hingya
gotago
parrot
mug
disable
planters
incel
incap
coils
jogging
##izable
##ogen
##ogatory
scul
scum
scrapped
##angana
marra
marcos
locking
locks
decisive
perc
peries
##aths
##athunga
bushes
trivial
recommand
bestbuy
##feit
##quet
hispan
payhere
friendliness
ops
prima
persian
schengen
carb
carolina
##issawella
intoxic
posthum
throws
drown
drowned
regain
invading
rovers
roomm
rohingya
redo
redef
##fulf
emd
embod
medias
meditate
accountant
transiting
finn
financed
10gb
presum
presently
preserving
basmat
kandi
secs
##upathi
bloc
blasted
##getic
##spalu
longstanding
etfs
flows
foodies
companions
stron
strapped
##itta
repository
simp
simulation
optical
optimal
subpo
tamilguardian
rahman
deserving
rightful
avali
surcharge
insign
insert
tripadvisor
fiasco
000k
1940
##bee
assessed
sysc
syring
advancement
advancements
impract
imperson
imposition
costumes
##web
hotlines
depicted
depuis
coursera
bele
belitt
belittle
charter
charism
##ugannawa
businessmen
norder
handbook
302
3050
infin
examined
srilankat
discs
discrep
discreet
extensions
extinct
badge
possessed
purple
153
opener
openai
showrooms
protects
corne
delux
nighttime
qualifier
oppenheimer
##ype
##ypso
skirt
##uthara
differentiate
boast
boasts
boasting
detaining
detective
moron
entour
entail
swind
sword
swapping
##ahe
##ahar
##aham
##ahgr
100g
100000
##ambantota
##btu
##perform
1100
customized
builders
distinction
socialise
miracul
##hea
##heets
##uwait
videog
directing
metric
metaph
metspalu
200mbps
receives
vijayan
futile
kidnapped
singlish
shortest
##tened
typography
programmers
welisara
checkpoints
clearer
ranwala
183
physicians
edits
leftover
standalone
menace
149
008
untold
##deen
refined
163
1650
messes
50g
502
50m
millionaires
nsen
faction
factions
cutlets
humor
##prising
malu
malaria
sender
constable
affir
affidavit
##dened
24k
modifications
annfield
superb
superher
superficial
##ordable
##oids
##oidable
canned
177
17m
173
mahapola
broch
policym
##brush
sexism
diac
diarr
digest
inflamm
trader
##fication
enjoyment
232
borales
satire
500m
50000
##mba
equities
multic
multilateral
40am
wedage
accessing
entirety
calib
calypso
massages
individually
cashback
##inkle
fortnight
successes
identical
aibs
ntry
ntmi
stockp
npa
npy
premi
immun
immerse
risking
favoring
glued
misbeh
insurances
suffice
sufficiency
samap
hostility
ridge
ridden
silicon
27f
nda
ndt
ndig
ndate
ndear
chemotherapy
rainbow
frontline
ncountry
##rams
steering
footprint
footsteps
eros
victus
udaw
udemy
diplomats
admired
divides
hairst
mounting
coco
homel
mistreat
expresses
candle
burma
burdens
domains
archaic
turk
turbo
combining
positioned
dhoni
312
315
purposely
jeopard
##drav
conversational
navam
antique
revello
windy
unsub
associations
promotional
nmat
nmess
nmcdonald
contributes
validly
audhd
irr
irreg
capitalists
merge
alleging
071
0117
ratan
tracker
volte
volatile
celebrates
kalinga
marriott
gotabay
gunman
gunaratne
gunathilake
princess
esa
bedfords
nfi
knw
banner
olig
sanjaya
adamant
garner
surveying
n29
pulls
lifts
seatb
representations
epfs
nnational
##ifiers
madam
nho
russell
broadcaster
catchy
catches
eyebrow
kurinch
consultations
smartest
scrape
inspected
attendants
democracies
32gb
pushp
sweating
clarifications
printout
hambanthota
palaly
colonies
amban
ambika
polonaruwa
utc
escaping
oho
punjab
hyped
ecg
deriv
derogatory
layovers
sensory
analyzing
microl
petti
cookies
picnic
sampayo
bowled
wijesinghe
forestry
250g
sharply
piles
pilim
##haran
reduces
ninc
towel
favourable
favourites
vegetation
colorful
dumbest
sickening
tony
squir
nutri
batchmates
miller
colourful
nandalal
sighted
dearly
shallow
calculating
calculator
nracing
nrailway
600k
harmless
athth
hszs
initials
wallp
compensated
prescribing
airbags
65k
enroute
ridiculed
scheduling
t20s
kotmale
virtusa
mcgah
flexing
fluid
490
letsdrav
commandos
dependence
malla
saravan
psychiatric
rebuilt
bondholders
padmav
blinds
punishing
distribute
distributor
diagnostic
satisfactory
disappearing
disappearance
ghr
thusiyan
hassan
casting
steamed
##flows
reflected
mathematical
undecided
undemocratic
miniature
recruiter
##alingam
chamal
chamari
architectural
mutually
bounds
sabry
5000lkr
gyn
cpj
ratnadipa
dsg
cmc
gearbox
pregnancies
nuances
isolate
astroph
lakshan
collaborating
1966
rollout
rubbing
siripala
kadugannawa
rotary
rawana
diversify
passe
abandoning
loneliness
ritigala
taboos
exceeded
unknowingly
leaflet
visitsrilanka
gsmb
frauds
mticket
tidy
immigrate
dominate
somthing
fortunes
altitude
450k
bleak
##urrent
overturn
aquinas
emphasize
emphasizing
iihs
djs
nbeen
vitiligo
wetland
buns
cadres
lamps
portfolios
lemon
vulgar
awaits
saltwater
laboratory
969
978
elevator
pourrez
promptly
jazeem
hdi
thirst
optimism
fisherman
forthcoming
postgrad
depreciating
embarrassment
abeywardena
decreasing
baskets
ekata
mudsling
distraction
samaraweera
samarawickrama
olympiad
julia
julie
scanner
cultivating
bumps
sedan
sedans
voicing
uncons
philosophical
siddhar
##rofit
stereotypical
littered
mismatch
perpetrated
vulnerability
rewarded
competitor
judgmental
dunh
rowing
vidyal
##warming
shockingly
eliminated
preface
mattakkuliya
brides
bridging
inefficiencies
lockdowns
exhibits
extravag
confrontation
htt
inauguration
bloating
pronouns
pronounced
gentlemen
punchi
spoilt
##avanandan
cellular
gnanasara
kneel
bastians
pitches
unavoidable
arrogance
sprays
controllers
aluthgama
resettle
lodging
negligible
cisgender
geeks
rambukwella
conventions
commemoration
instrument
reposts
broadcasting
buckets
moul
munasinghe
twenty20
simplified
narcotics
kuan
nimport
relocation
facilitated
unexpectedly
fetish
ganja
##keepers
cherish
undermining
disadvantaged
troublesome
monopol
##xxxxxxxx
##writer
undertaking
insurgents
cumulative
intervened
injustices
millennials
mongabay
reopen
enacted
resonate
marginalized
gestures
rustic
##hua
170k
dharmas
scrutin
hypocrit
mcqs
inevitably
lobbying
bundles
coupon
hunters
nazis
purification
reseller
excursion
misconduct
nmonth
prevailed
ddr4
shields
blurry
blurred
repealed
excavation
summarize
disgraceful
gimm
kiyanna
levies
levelled
quotation
reinstated
reinstatement
bahrain
hawai
guyssss
imperialism
photocopies
melted
shellfish
chauffeur
collapsing
observers
indefinite
shovel
cleanser
fatalities
bogus
echo
hakgala
concessions
transcripts
hydro
bengaluru
heterosexual
nigeria
oaths
##walk
##watching
interrogation
carpenter
accomplish
katharagama
tremendous
tremendously
##children
adobe
preservation
taxpayer
defamatory
144hz
sangham
brainwashing
inhabit
ncontact
jinping
samahan
condoms
adherence
scandals
brainstorm
niroshana
oblivious
4x4
720p
fkn
rifle
rifles
mysql
indulge
whitewashed
astonishing
stigmatised
nreturn
rivals
unleashed
unaffected
pokuna
uduwalawe
ninvestig
descendants
ditrau
einstein
##amadulla
affording
inclusivity
johns
vikram
multimedia
buffalo
principals
sabotage
darshana
elegant
lancer
vests
thurstan
inaccess
libya
##abhavanandan
adapting
relentless
maitrey
emojis
endorsement
burials
template
practitioner
binding
gastritis
jelly
yakka
shafi
tranqu
enchanting
eli5
endeav
##engineering
nsfw
masculine
bourgeo
jasmine
pouches
staunch
unearthed
recycle
resentment
fluctu
bohoma
sunshine
excerpt
miserably
ngoogle
sensitivity
microwave
fantasies
palestinian
fonts
stubborn
energetic
mauritius
drafting
desirable
chariot
misappropriation
ergonomic
unsurprising
nwarranty
ludwigahgr
hgdp
renaissance
foreseeable
unhrc
arrears
induced
backtracking
consortium
insulin
entrenched
diwali
youtubers
uncommon
nominees
foothold
plausible
nolimit
kazakhstan
cucumber
naphtha
##building
reaffir
comforts
acoustic
sewanagala
colossal
marraige
basmati
impractical
deluxe
policymakers
irregular
bedfordshire
eyebrows
mcgahn
mudslinging
1mb
1hr
2e
2c
2y
2gb
2yrs
3200
3mbps
3hrs
4c
4d
4ghz
5l
570
5yrs
6m
625
629
929
aay
aiya
aides
averages
b4
bse
bala
bows
bgo
billed
bpm
bins
bae
binary
bimal
cot
cyp
certs
dcc
daring
dfs
e7
e9
eer
ean
eag
e36
eruption
fel
fict
fyp
faz
fah
fitch
fax
foa
g3
gir
gro
gbs
hf
hse
hess
hie
hog
hints
hamm
iu
ian
iot
ieee
jv
jus
jord
jello
jpura
jihad
ks
kv
kes
kor
kank
kaya
kcc
komb
katchath
kuwait
lh
lv
lith
lust
lng
lagging
lags
lrr
mj
mern
meng
mute
mlt
mda
mls
mamm
ning
nly
nith
nts
ness
nct
nqu
ngr
nknow
nwhere
nosed
ncc
nbal
nmar
niy
nva
nawa
nathi
nintend
oer
oas
oot
oad
oak
oso
oms
oll
oxy
pent
pere
pus
pont
pins
puma
ponds
pigs
qw
qq
rays
rade
rounder
s6
s5
s9
sce
sone
sade
ssc
sont
srs
sacking
sarana
t2
tamp
tape
t10
tiru
tiff
tulf
tummy
uz
ufo
vl
v7
ved
vain
vant
vap
vade
vanc
vata
vatic
vadam
wp
wz
woo
wim
wart
wool
wale
wada
wll
w15
waved
xc
xk
xps
yn
yaw
yup
yoy
yanna
yada
yapping
yatra
zur
zomb
##6k
##07
##03
##eo
##eh
##eas
##o8
##odaya
##goti
##rens
##rador
##pig
##pace
##hx
##hot
##hall
##hours
##iant
##ioc
##cin
##cup
##camp
##cuff
##lr
##lists
##lined
##saken
##sius
##dos
##bat
##bir
##bone
##bied
##bling
##nical
##national
##vous
##vide
##vana
##vised
##vances
##2k
##fan
##function
##uec
##uved
##mt
##mbo
##match
##kas
##59
##5000
##1b
##97
##jar
##jot
##jana
##wi
##was
##wall
##wered
##z2
##zers
##xe
##xb
##x7
##qq
thb
thou
thay
thala
thajudeen
thyroid
##erly
##inj
##inil
##inha
##anath
##anigans
##atories
##ouver
ani
##eso
##esan
##esuma
##orala
inad
inne
inroads
##itre
##itled
##alk
##alin
##alanka
##aro
##omp
##omes
##isors
##reated
##ico
##icom
##ication
##icone
##icity
##elve
##rips
##riosis
wht
whipped
##entious
fores
##otry
iso
isso
##stru
##ecks
##vez
##ilot
##ilver
##iless
##ilated
##ilva
##ilaka
itching
ony
##anky
##ankind
begged
##acd
##olo
##olar
stil
stumped
stiff
stingy
##urday
hail
haired
rej
reel
revert
reverted
##igd
##igm
prend
prav
##thas
##adim
##adage
##adari
alr
alib
alah
withstand
withholding
##irst
##irical
ornaments
ordeal
weep
dop
dob
doping
##oping
##opies
##opian
##chup
##chuna
##chelvam
nea
neh
shin
shav
shaw
shaken
shocks
shining
shouts
shamed
shiny
##ounce
fred
fract
fresco
butch
exod
exotic
meagre
##andered
suri
sudu
sudh
unice
unci
unans
ungr
unload
unwa
unarmed
##ulators
canoe
chester
abu
abla
abrupt
wasim
heater
pluck
plots
plung
plaster
seett
##unition
gode
gosh
depl
##antara
##usf
##ortional
probs
ence
encom
envy
##emption
##emobile
##oster
adela
##osso
##elles
##ellors
##udaya
##uditha
##istol
ara
ard
arom
ardu
aruna
arson
##apada
colom
colpetty
##ghold
allion
usps
expon
expiration
peuge
peek
spine
spiced
spilled
spoon
spider
spoons
spikes
justifiable
##ocado
appre
feast
lek
##ounded
##cile
upmarket
uphill
upheld
upnp
vee
##akable
##umph
afg
compile
compelling
complim
sauna
noah
agg
agri
agrees
clergy
clusters
##iput
##ipher
##erience
##erized
209
20gb
2080
##ousal
resh
resur
resurf
interning
interruptions
sl20
slipped
##achch
##achute
grin
gray
grate
grated
grains
gramm
##berty
sinopec
becu
##ksh
commits
inde
indict
indika
poles
monter
monash
craz
crows
crores
crooked
logs
loaf
intensive
relies
relive
relics
relates
overhead
overrun
overdue
preci
prete
premed
brc
brass
brakes
bravery
bristol
guyz
workmen
workstation
parades
disability
univer
planner
curd
incense
phds
phev
backbone
sco
scout
scrib
scattered
##eph
##angs
marble
maroon
decker
beta
perahara
##athons
triumph
##ometriosis
##quiz
oph
opd
opn
mais
maul
##ensils
governed
minox
##irects
##plugs
##owns
takeover
takeaway
##adea
wells
carpet
postcard
tapping
highspeed
consign
personne
invoices
redist
redemption
redirects
eme
emper
emission
emdr
genitals
drifting
##ificant
aircon
happier
basn
baseline
appreciates
kandalama
attr
##duced
lethar
##upa
smthing
differs
serviced
blending
downp
##erto
##erty
flesh
poe
poon
stranded
##ittor
sims
simulator
earplugs
##amila
endpoint
endometriosis
subask
subaru
raa
raider
desist
desks
avocado
reddits
passively
insecurity
fiery
fibers
privet
solves
19f
guer
invests
assigning
electing
syrup
impat
costed
##week
homepage
##raang
##raise
##uga
##ugam
##ugala
##ugask
terr
readings
restrain
handcuff
30f
infested
infilt
propped
careg
discredit
discomfort
extras
purview
157
15min
15km
powerless
talpe
talalla
lego
apocal
apeksha
12h
confron
confisc
classy
mighty
nationalpark
salty
salted
salicy
##ibel
nearing
mentoring
qualifies
hoteliers
##velopment
rajitha
retin
retards
##ocktr
##ypse
##ukorala
hearings
##uthi
##uthale
deta
detached
##lobal
swords
swinging
topup
topjobs
custard
custod
biases
bikers
childish
cheesy
certify
musc
##ortune
rundown
formulate
11h
##ucker
distrust
mira
##heet
##heesh
honk
##uffle
viber
viability
ceased
shortcom
shortcut
stuffing
defaced
preferr
wae
checker
checkin
portals
portability
186
1818
majoritarian
believer
pickups
brew
physique
nuwera
freind
##ooker
buddhas
##ospital
14k
1440
mustard
activating
16000
##resha
populated
##crime
##cripts
storms
serum
nsec
nsend
nsss
nshow
nsouth
nsuccess
nservice
factual
1336
cuttle
humour
misses
missile
transporting
obn
obed
austria
practise
seriousness
modes
modelling
modaf
lateral
projections
##iterate
turnaround
grease
mahat
mahav
harming
mathew
specialty
specialised
##eshwari
legalisation
212
21f
##rorism
##asingham
##usha
ilmen
productions
matchmaking
trades
forwarders
platter
usdt
complacent
lafir
231
##gov
transfered
designation
equator
devilled
surfed
decentral
wedi
patas
dams
damith
baleno
sena
senadheera
breakers
destabil
shitting
begining
doctorate
despair
despised
starg
snaps
static
267
fellows
ntwo
violently
npay
npad
##named
tarrif
premio
premiers
immi
ethi
gona
misrep
misogy
miscell
##aggers
westernized
copying
recognizes
quickest
lineage
ndon
ndep
##iyas
28m
villain
ncanc
unpro
guesses
guessed
streak
steer
300gb
300mbps
dutuge
labrador
erase
udal
coolant
militarily
##inson
rocky
jayawick
horana
hormon
horribly
cocoa
homo
##anthurai
emailing
blackouts
performers
##aweed
fellowship
engineered
29m
domino
strips
archives
archchuna
richest
richard
keyboards
definite
turb
dhabi
sportspeople
310
311
csa
methodology
aye
ignition
essays
##expl
ramanathan
geomet
geological
revamp
revived
deadpool
cameral
ethnically
##aeus
analogy
##608
tuan
tuitions
closet
influx
sleepy
sleeper
selectively
lads
##urial
embil
nmm
contributor
latino
separation
walker
90gb
luxuries
heartwarming
ratwatte
nba
nbut
nbatt
fishers
collided
numberslka
kalaw
kalpit
gunathilaka
consumables
casc
casinos
germans
nyear
vaccinations
summons
crystal
eda
edd
edin
nfil
##lusions
baseus
baseball
rolex
discriminating
circulated
stupas
ngu
ngm
ngod
ngovernment
kumud
sanit
sanitary
denna
n24
n27
angl
lifemobile
logistical
omi
subset
nnumber
madiha
nhas
nhigh
nhuman
nhambantota
yalla
kurumb
campaigning
scrub
scraped
convoy
democratically
327
saturdays
penny
colonised
colonization
ambig
ntheir
ravan
utensils
crossings
ultim
ultras
debited
illum
334
339
macau
ecl
pandya
harassments
faang
karala
karanna
repeats
purposefully
filler
bioinform
meaningless
robin
surviv
preventative
400m
senses
surrendered
analyze
suicides
icl
icing
icet
smoked
55k
wijer
wijet
criticising
radar
venom
weightl
impressions
prosecute
lavenia
mandarin
nvs
pila
piling
resorting
n40
attaching
##araman
novice
consisted
nrec
squads
gp5
gp1
expertly
indication
conservatives
bait
gemstones
strengths
contractors
pinch
pinpoint
empires
nandare
385
1976
1979
athul
athukorala
bailed
ballot
ballpark
halluc
377
375
drying
pods
occurrences
gaze
markup
sandy
sandals
draws
negotiated
adviser
499
hesitation
comparisons
protectionism
kilog
padi
##icksh
guarding
guarded
motivational
motivating
entrepreneurial
gayan
1954
luggages
disappears
5kw
retailer
cosplay
melod
soooo
reflective
rwp
splend
##ihara
chandras
firmware
smoothie
krrish
terminals
torched
shuttle
duo
puberty
85k
mailto
##777
doubling
volunteered
gearing
paired
behaviours
nugg
seekers
occupying
mannered
merchand
makul
docked
transforming
1962
1969
equivalents
disconnecting
fertility
attorneys
sirimath
sirilal
boosts
clarifying
rti
rotating
mythology
disrespected
ashen
nalanda
burdened
tweaks
www
suspiciously
761
mdm
exceeds
escalation
symbolism
gigabit
shittier
rooting
bankrupted
organiser
somaratne
somalia
tearing
nooo
pornography
##gienic
demonstrates
uneven
dhammapada
karunanayake
recruitments
nsea
spectacle
upsetting
huh
hugh
vitamins
ntoday
lobbied
tutorials
accomodate
tissue
enhancing
enhanced
adaptation
quarantined
maithree
alignment
columns
peppermint
await
adjustable
inherit
##arathana
exercises
obligation
elevate
angeles
roofing
jayasundara
mosquitos
eighteen
feminists
fascist
kilometer
##crisis
rehab
predictable
kollo
##theid
compromising
distractions
patriots
patriarch
samarakoon
victorian
fulfillment
ncons
scanning
passwords
admirer
nerds
recalled
disclosure
editorial
sidel
stereotype
5mil
intermediary
perpetual
subtotal
bootl
carnival
competitiveness
teleph
hectares
kulasekara
n2024
n2025
revolving
revolutions
overwhelmingly
sapugask
comprehend
forecasted
tunn
kohom
fifa
tolls
hyperpig
substantially
databases
pitfalls
whispers
bastards
enforcing
memorials
worsen
accelerate
blooming
insecurities
bandwagon
flavoured
arbitrarily
alarmed
incentiv
reposting
glorifying
misunderstand
broadcasted
empowered
gedara
gedmatch
nlike
nwhich
disregarding
sheeran
blanket
distinctly
massacred
veterin
martin
oppressed
breached
accompanying
fetched
leisurely
prestige
aluminium
weighs
sodium
subsidiary
chronicles
interpreted
celerio
merciless
kbps
neatly
aggrav
residue
heartbreak
disturbances
aisle
nawalapitiya
maiden
inferiority
dharma
dispatched
nazi
onboarding
deprivation
rathnapura
crackdowns
orthodox
##innie
interfering
indecent
demolition
excavated
anticipate
wijeyeratne
dwind
ossd
aswesuma
mindfulness
cambodian
categorized
ariy
baht
tedious
teddy
reimbursed
ascertain
hewawasam
helicopters
boiler
physiotherapist
baldness
unlawfully
unauthorised
zahran
cholas
peasants
warrenty
dailymirrorlk
albums
mexican
abundant
devalaya
spitting
reproductive
reproduced
diamonds
hoarding
astronom
coworker
olevel
tiramis
shaky
buttons
upvotes
devotion
azzamameen
henry
heteron
lungs
siph
recieve
reschedule
smoker
errands
disguise
accomplished
concealed
hindered
kettle
ketchup
lingering
haputhale
shrimp
ammunition
razor
absorbed
brainwashed
pioneers
exacerbate
exacerbated
cmev
dyslex
lentils
michelin
wannabe
wanniarachchi
moisturi
imperative
eradicate
nthanks
microplastics
cubes
gajaman
nrespons
downgraded
lawmakers
whitewash
averaged
rendering
stipend
unaffordable
disparity
cobra
rohitha
inflicted
empathize
midea
mideaval
maggi
deactivate
uplift
coveted
persuade
exploding
exploded
sanctioned
orientalist
spoiler
sugathapala
reimbursement
precautionary
leco
mimic
reapply
prerequisite
overreacting
frizzy
funniest
biometric
nsaturday
immersive
ndescription
splurge
inconvenienced
astrologer
adolescence
disproportionately
ustocktr
downturn
flirting
trademark
gnanapala
bouquet
nugawela
pavement
ruthless
stanford
unveiled
unplanned
resembling
elitist
reloading
incubation
apartheid
valentine
roadblocks
ruppees
horoscope
leninist
ponnambalam
expatriates
dancers
pragmat
abysmal
spontaneous
manthri
intercepted
brothel
repellent
assaults
electorate
opponents
questionnaire
tempting
stockbroker
misfortune
bulathwatte
unsupported
sarcasm
thunderstorms
caucas
cepex
fathom
beacuse
stellar
##estroyer
chambers
clumsy
commendable
overflowing
handicapped
correlation
vacuum
antisocial
subspecies
telugu
lanterns
unhygienic
kirulapone
krakatoa
malaiyaha
dingiri
dizzy
hanthana
piriven
sitharaman
yamu
liyanage
gotagohome
hispanic
finnish
presumably
stronghold
avaliable
insignificant
diacrit
diarrhea
boralesgamuwa
multicultural
turkish
seatbelts
microless
pilimage
saravanabhavanandan
astrophys
dunhinda
extravagant
resettlement
dharmasena
hypocritical
nmonthly
sanghamitta
inaccessible
endeavor
unsurprisingly
ludwigahgren
dfsk
fictional
jordan
katchatheevu
lrrp
nintendo
oxygen
vantage
vancouver
vatican
zurich
prendre
alibaba
shavendra
exodus
unicef
uncivil
unanswered
ungrateful
unwavering
ablaze
encompass
adelaide
peugeot
subaskaran
apocalypse
salicylic
shortcomings
ilmenite
premiership
misogyny
miscellaneous
jayawickreme
hormonal
cameralk
bioinformatics
sapugaskanda
hyperpigmentation
tiramisu
dyslexia
050
1pm
3u
4a
5s
5b
580
540
529
670
623
760
780
790
8b
8mb
820
8km
810
822
9g
9a
950
a1
aur
aide
aah
aero
arid
a15
b6
bw
bing
bled
bata
bera
bai
bawa
bns
bunk
cic
cst
cine
cie
cah
cbt
cuss
casing
cgi
d1
dq
dus
dak
dro
diya
damp
dime
dances
eens
eft
ered
eric
egb
eerie
fz
fq
fad
fiss
foll
faf
fae
foe
f30
fenty
foul
gz
gis
gly
gist
gart
gage
ggg
gara
gama
ganna
grill
guli
hk
hx
hame
hala
hoss
hond
hoe
hinting
hoops
hodi
iw
ike
ich
icent
ivy
iusf
iresha
jub
jason
jds
jets
jung
jagath
jdm
kk
kent
kast
kass
kale
kular
katt
kok
kada
kink
kai
kpm
kob
keth
k11
kudu
keto
kiw
lc
lf
lx
lays
latch
luth
lash
laz
lament
laughter
linger
lhr
m6
mri
mbt
mjp
moose
mvt
nent
nend
nain
nenc
nlank
nana
namb
nphone
nhs
nchar
nisa
nayan
o2
oan
oon
oom
oun
ober
oie
ostr
p6
p0
pes
pom
pant
pci
pms
pcc
pune
pco
q3
rr
rut
rau
rick
rie
rience
racks
ragged
rfc
raggers
ricksh
sill
sall
sft
scept
sacked
sindu
salley
tay
tere
tine
tret
tink
tires
tiers
ticks
ticking
ticked
uo
ure
uday
uok
vow
vay
vad
vile
vod
vta
wl
wen
wdy
wych
xs
xn
x2
x5
ys
yat
yud
yana
yuck
yupun
zz
zsc
zheng
##0e
##eer
##eor
##ement
##efs
##oin
##gic
##gas
##rp
##rw
##rat
##rice
##rav
##range
##rates
##rute
##raining
##rani
##ragamuwa
##ael
##pick
##paya
##hir
##hoe
##hitha
##houses
##help
##iam
##iem
##iens
##cw
##cation
##creat
##cott
##caf
##lation
##lust
##lak
##lery
##yia
##sight
##tg
##tic
##tion
##tronics
##trips
##db
##dn
##dam
##dig
##direct
##dling
##ben
##bad
##boo
##bulla
##bells
##nim
##nna
##note
##nakoon
##vo
##vre
##vol
##vila
##fel
##fil
##fos
##fold
##fathers
##uated
##mh
##mk
##mel
##mos
##mite
##maid
##mitted
##makers
##malai
##kb
##52
##51
##8a
##8d
##91
##jam
##japaks
##wm
##will
##wura
##x15
##xistent
##qf
thor
thot
thamb
thiru
thald
##iners
##inous
##inals
##incom
##inished
thee
##anya
##anapura
##anella
##anarepublic
##onance
##onaut
##atal
##ataka
##ativu
##atille
##enal
##enad
anna
anula
anantara
##eswaran
##oro
##ori
##orian
##edasa
inactive
inbound
##ito
##itor
##itting
##itech
##arse
##arks
##arital
##araya
##arma
##arosc
##arudaya
##oment
##omera
##isp
##isely
##iscu
##isthen
##real
##reach
##ican
##asd
##asion
##eled
##rik
whining
##ento
##enth
##enters
##entions
forte
forged
forbes
##otun
isle
ishow
isadeen
##stair
##ecourse
##utant
##iler
##ilder
itern
ono
beads
beira
##acr
##acc
##acial
##olas
##oline
sto
sting
stent
stared
stacked
##urug
##idil
##idiya
reint
reuse
reef
reimag
##itharan
##ithivu
##iththa
##ithuwakku
##igt
##iginal
##seat
##sever
##thood
##addy
alk
alan
alme
alban
alaud
aligning
##ooped
ors
wew
##opulation
asa
ashan
##imuth
nek
nemail
sha
shoo
shim
shys
shantha
sharm
shacks
shoba
lia
liv
liz
liabilities
tracing
trumps
trrute
frick
frying
framed
soh
soaked
sofa
meka
##illar
conse
converter
##andy
##andah
sued
suites
sufi
notifying
uno
unise
unsc
unpar
unbox
uninform
unfulf
##uling
##ulgala
canons
cante
chu
chun
chich
chail
chuck
choke
atap
abb
abide
abled
abortions
washer
heen
heed
heist
hemp
heinous
##geon
##gevity
pless
plucking
##endi
##endment
##endiva
aced
##ighter
seq
##uns
##unika
goe
##ainting
##ante
##antes
##antra
worms
##abol
##aband
##abouts
prost
enna
##iese
##emore
adore
adoring
##osas
##ellow
##ellawa
##udent
##udge
##uduwa
##uddha
ares
arose
aryan
araliya
bybit
bygone
collo
columb
uss
peac
peetam
aml
amber
amaya
spat
recount
reclaimed
##ocd
##ocell
##ocide
##octr
hast
##00h
##indam
appoints
##acker
leases
leverages
leaver
lewis
##allu
outflow
outreach
upt
img
imat
imitation
##again
##agalla
goodies
afker
compos
saivar
noble
noya
##ivud
loops
dong
quora
quaint
clad
clone
##eriors
20min
newara
intervals
##roit
sla
slb
slut
slices
slows
slams
slapping
slvlog
##acht
##ongs
##ongrass
gracious
graze
acclaimed
conting
hereby
whereabouts
thinly
thanku
thanked
comma
commuters
commotion
##iea
mogo
mofos
indoctr
underne
polhena
monar
monstr
monster
cram
craw
crave
cracking
crushing
crony
crosso
##ishka
intrest
overb
prez
prefers
prehist
bred
brute
bricks
workflow
##hinged
goth
parachute
##ilee
disper
disinform
planter
curtain
##ggle
frigh
cog
co2
coarse
jog
joker
pho
##yaanth
##ogical
scd
scent
scra
scaring
scape
marital
marred
marawila
locker
decad
idf
thinkers
perceptions
##athna
##athiya
tribe
fires
hisense
teasing
payback
opa
mao
##rule
##ilyan
minuka
priyaanth
sheik
##plan
schl
##ationalist
##odo
##odhi
carnal
thennakoon
##grown
consciously
twins
##bson
drape
##formin
emble
embody
genie
sayrah
medically
supplied
communists
transp
transc
transports
caller
keeri
1050
10bn
10mins
presume
airc
airing
attidiya
smith
##naf
blas
bloss
blond
blouse
blows
blaster
blunt
##uwas
##uwatte
remix
eticket
trainees
flop
flush
flims
poetic
stren
strays
strained
straps
##itty
repar
repaint
repurp
buduruw
optics
endow
suba
rah
rapper
rafting
deshap
rightly
avissawella
insuar
fiba
fierce
wraps
specimen
##aterally
solitary
builder
19l
191
##bek
##bewela
asserting
impe
improp
impuls
##wardana
depot
belive
charitable
##rafts
greatness
##tef
terrain
giveaway
readable
resting
restrained
handmade
307
infect
discern
discred
followup
extinction
baddag
possib
154
152
15am
1540
foundational
respec
powerpoint
lkr8
##meg
warzone
warfare
showering
bitters
proteins
apis
129
marketers
confessed
freezer
freezing
complement
salads
delve
delicate
nightmar
qualifiers
retd
retaining
retention
ski
skim
skies
skype
##ukka
hearses
##uthentic
boating
bojun
hardwork
detentions
swell
swapped
bigotry
##ahut
##ahena
topical
##enef
landline
lawn
shopper
shopify
setbacks
chew
cheering
musaeus
runners
117
11k
distill
socialising
socializing
levelstair
mirisa
similarity
fulltime
headlights
directory
metall
metals
meticul
metformin
memoir
processions
conclusive
conclusions
vii
viu
tester
singled
singular
couriers
pastry
pastries
signalled
##ivery
ministerial
deflect
deficiency
##screens
sigiri
chinth
portra
184
pretentious
effected
seconded
secondhand
majorly
pickled
gibson
editors
freest
standpoint
menstru
143
unto
untapped
untitled
##degama
refinery
162
##resse
##crimin
milage
506
508
5060
sermon
nsan
nsel
nsome
nsign
nsup
nsince
eachother
contraction
opportunists
131
bookable
cutlery
poses
technologically
##prs
dialect
##iciaries
malini
malki
malfunction
artistic
obv
youngster
##deniya
247
24f
245
##nda
modem
modification
##iterrane
annum
neth
turnover
janith
janata
greens
nonly
organisms
223
employable
employability
selv
selves
selendiva
cannons
176
17k
1796
mahar
mahesh
mahendran
sourcing
haritha
financials
mathale
specialising
specialisation
pathmalal
##eshan
normalised
normalizing
legalization
barking
barrel
sexes
digger
totals
217
211
2100
daih
namini
discusses
reliably
##rugged
replic
relev
streamed
halocell
traded
cyril
cysts
cynical
literate
laa
23h
233
boru
unfinished
humane
500ml
bribing
##porarily
deviate
surfboard
surfboards
workspace
patel
patent
operative
periodically
balm
naaa
senate
senarath
responsib
##max
destiny
calmed
calmer
calisthen
fueled
papadam
snatch
sniff
snickers
sniper
snooker
tommy
##aiy
cleanest
bayyas
statistical
additions
##vertently
ntt
ntom
hitters
memberships
npolon
antip
premature
premawath
premarital
immoral
totaling
civilised
favored
collector
ethanol
eyed
eyel
glen
gloss
glaring
glocal
deepening
mispr
misdirect
finalise
dougl
suffers
samantha
##209
flyer
flyover
copf
dambadeniya
277
ndec
ndia
##iyans
##iyagala
cabins
akbar
centralized
285
289
noteworthy
suspends
##aphil
corrective
dinemore
staffs
60m
globalized
formerly
steven
sorento
febrio
pressures
pressuri
hikkad
multiply
benefiting
beneficiaries
protections
protectors
achchi
eran
saddened
existential
panchik
moderately
udarata
peacekeeping
fundra
verifiable
verandah
dreamt
##shots
jayasekara
jayalal
80km
horny
cocos
homage
mistrust
animated
##kaattu
racecourse
loanme
presenter
294
293
295
anuradha
##ventional
strikers
randoli
keynote
defining
definitions
turf
combos
legitimately
contentment
ahung
ahnaf
swimmers
csn
##obiles
navaras
virat
viraj
##roomtv
bodybuilding
cams
versed
encl
influen
worded
sudan
oversees
laden
##vaan
promoters
nmo
nmay
nmade
chatter
ikr
separates
walkable
housed
irfan
##ija
capitalistic
documenting
merissa
heartless
074
01st
nbi
nbro
nbanan
nbenef
argues
hangover
collab
kali
kalhara
kaluthara
progresses
##ltry
modernise
modernization
tangalla
tangelle
restrictive
dissanayaka
mastered
nyy
vaccinate
nws
nwomen
obsess
edo
nfr
nfam
150gb
dmr
knot
circus
captive
captures
captivating
ngood
ngalle
chickpe
naround
bananarepublic
festus
kumana
kumaraswamy
laka
milky
denmark
strategist
hurried
hurdle
submerg
submissions
n28
angoda
banging
firecr
firewall
cafet
nns
nname
1000gb
madush
nhand
favoritism
stupidly
broaden
nanotech
individuality
sonet
holidaying
##breaking
aspire
convictions
attendees
counterfeit
325
shiranthi
035
nonexistent
pushpa
drinkers
clarke
ssid
touchpad
##ethnic
murdering
penn
penis
hindut
hindsight
ravindra
manufactures
measurable
initiation
initiating
passionately
cataly
punarudaya
practicality
pandan
pandem
harassers
derm
deran
karen
karann
karanawa
polluting
layered
layoff
niw
romantically
preventive
hoist
icta
automate
sticky
hrt
5500
wijeratne
wijedasa
cyclings
bombarded
veneration
valuables
250cc
variation
shariput
mandela
nvi
criminalised
##hams
knowingly
vacationing
behavioral
nlp
katana
upgrades
dumbbells
toned
scooty
39th
##awardena
nrep
squandered
dilhan
tenders
tendencies
shooter
royalists
gemstone
afternoons
maldive
complexes
complexion
photographed
##iatric
contracting
contractual
fbi
millim
uga
hasnt
cybercrime
ventured
ventilation
##opsy
beatings
familiarity
387
383
388
bonnet
osd
calculus
alcoholism
supplying
gflock
##cafe
athle
maximise
carte
width
n36
##undera
regretted
vatadage
adjo
adjusting
656
6500
dedicate
414
homeschool
sandakan
drawbacks
bathe
situationship
innovations
495
toothp
toothbrush
organizational
commanders
sarvan
saradi
compares
controversies
controversially
condensed
564
bcis
blindness
preparedness
punishable
watering
wattalapam
1955
1958
satisfying
sponsorship
hassles
castle
complicity
pocketed
dye
dyed
paused
memorize
glassdoor
undi
947
433
unblock
sabragamuwa
shutter
resolving
idioms
4700
renamed
affiliate
pizzas
8518
alias
genocidal
##charu
heroics
pairing
##mnt
weerasekara
sigiryia
occupancy
paysages
isolating
kitchenware
666
curfews
collaborative
innocents
makandura
njaffna
transformative
equivalency
diverted
20kg
analyses
inspections
exempl
armour
transitioned
blazer
blazers
rotten
##payment
battlefield
##class
conceptual
ngee
vastu
##regate
ashes
unusually
pearls
tailoring
##ormative
alerted
longevity
pedal
dimension
dimensions
nstructure
siwura
counselors
tattooed
nkal
collapses
ftth
graveyard
minimalist
fundamentalist
proclaim
##rogen
embarked
azimuth
ebooks
propagated
auspicious
pornst
shadows
demonstrating
696
690
bleed
screws
laparosc
n6h
shelves
prosper
aquarium
nagoda
nofake
screamed
bubbles
jetty
nchath
quantitative
160gb
##ophobic
danasekara
danushka
rathu
arabs
lobbies
cadets
nacc
dosha
curtains
cvs
lemongrass
awaited
wickramasuriya
adjustment
inhuman
exercised
congressman
obligatory
administrators
hubs
ringing
tagline
jayasundera
##calc
scares
optimized
optimize
nuns
pillars
skewed
732
##kyk
abolishing
justifying
ekak
muddy
thrill
patriot
patriotic
patriarchy
1kwh
newbies
admiration
admirals
bengali
dansals
tharuna
tharindu
unconventional
outraged
jacket
lahiri
mortar
ttt
advocated
advocates
crashes
virginia
misman
disagrees
experiments
drafted
dalhous
vidura
##warts
styling
prefix
float
revolut
meritocracy
deception
deceived
bridal
inefficiency
gti
rigged
varying
##144
forecasts
privatized
privatize
privatisation
concluding
traumas
tuned
tragically
discourses
kohuwela
fck
tacky
chathuri
manifestos
celltronics
nproc
whisky
140k
hobbyist
lighth
rooster
stabilise
decorate
decorated
suppressed
cremated
cremating
satellites
dhananjaya
spirituality
istg
stallions
lodges
incorporating
cottages
alarms
prophec
glorify
recklessly
censored
nescaf
pardons
rockets
shrink
dislikes
remarked
simplest
simplicity
pasikudah
teaser
12goasia
neglecting
contradicts
relocated
facilitating
misinformed
flagships
catered
jurists
nishan
pledging
gohomera
remarkably
honourable
verdoy
coincide
sympathetic
tongues
neuro
shampoos
##flowers
mesm
##131
chalk
##akumara
cumin
##burg
thundermac
millennia
cgt
mongol
nxk
nikini
pti
pelawatte
pelwatte
peliyagoda
descended
baffles
reversal
unofficially
prostitute
##alleled
buzzing
infantry
nshould
boycot
peninsular
deploying
##liners
worshipped
ncommon
sleeves
declares
unregulated
dvb
dividends
hirunika
nceylon
apprehensive
1300cc
brigade
anticipating
irritated
sweaty
mawanella
necks
tamiz
vaguely
algae
lipstick
timetables
accumulate
repetition
restarted
milestones
ariyan
nmax
##ukku
bureaucratic
perpetrator
pooping
zahira
reassure
conveyed
chopping
230k
horsesh
pipes
shoots
handunetti
npeople
hoarded
creepiest
sneaky
traumatised
gurus
kanneliya
voucher
vouchers
##jiang
abductions
transcribe
deteriorated
entrusted
singersl
illustration
squeezed
sthuthi
fighter
grievances
hithe
##aratna
interrogated
intolerance
bustling
louvre
rectify
redirected
preservatives
secularism
radiology
pioneer
ijse
michael
rishad
vandalism
looser
moistur
hierarch
partiality
eradicated
nurtured
corresponding
tcp
xxxx
trespass
soyza
demean
downgrade
repressive
fiancee
waxing
tarnishing
reinforces
reinforcing
lurking
lurker
nterms
poultry
tinted
seventy
comprised
comprador
complimentary
emigrate
matrix
unfolded
nhowever
robberies
empathetic
krakot
shamelessly
pedestrians
intermittently
kodithuwakku
wahab
nevada
conquer
seperate
deactivated
depleted
##avoury
uplifting
johann
numbness
addictive
##apperuma
erode
uwu
wiping
prerequisites
prototype
biometrics
arrowheads
nparty
dishonest
reconstruct
reconstruction
inconveniences
astrologers
adolescents
disproportionate
1gbps
burying
cetaphil
doodle
jamaat
kdk
lbq
ntype
pancakes
wolff
xinhua
xinjiang
cheeks
enquire
indiscrimin
singhalese
ndelivery
encroachment
dissatisfaction
sixty
bellanwila
bellanvila
culprit
culprits
npresidential
bumpy
kurikaattu
pussellawa
rationing
shenanigans
suprise
seizure
spyware
leavers
sausages
granite
handwriting
swallow
welikada
suffocated
epidemic
unconditionally
appeasement
handunneththi
bibile
thushara
shielded
trampled
sultan
bravo
cognitive
beliatta
capacities
nmembers
sanjiva
obstructing
prolonged
bipolar
etsy
iherb
xyz
##curate
nebula
fraternity
energies
aryuved
bystander
leyland
manuscripts
transphobia
flutter
evolving
sethupathi
nsingapore
mahabodhi
satkunanathan
ntemporarily
antibiotics
scrambling
paediatric
##iscovered
dharmaratne
alleviate
nittambuwa
##vijaya
thighs
anatomy
##thalm
shithole
seiko
seychelles
adulthood
reccommend
applaud
intricate
incapable
sculpt
embodies
sysco
swindled
metaphor
superhero
fortnightly
premiere
ndigamadulla
mistreatment
nmessage
gotabayar
garnered
ambanwela
squirrels
wallpaper
padmavati
gynec
moulavi
inhabitants
johnson
maitreyi
kayaking
mammals
nawaiting
radeon
vladim
wartime
inadvertently
dopamine
frescoes
seettu
arduino
resurfaced
becuase
pretext
ophthalm
redistribution
emperor
lethargic
impatient
restraint
cuttlefish
obnox
modafinil
mahatma
ethiopia
embilipitiya
sanitizer
ultimatum
survivors
wijerama
wijetunga
weightlifting
kilograms
nuggets
kohomada
veterinarian
mercilessly
astronomical
heteronormative
ustocktrade
gartmore
hossain
kularatne
kpmg
mbti
nayanjot
ostrac
pcoi
udayanga
zscore
thalduwa
ishowspeed
iternary
almeida
alauddin
unparalleled
uninformed
chailert
plessis
noyahr
underneath
prehistoric
disperse
disinformation
scrapping
priyaanthini
sheikh
flimsy
buduruwagala
insuarance
baddaginnie
##iterranean
daihatsu
calisthenics
premawathie
douglas
navarasam
nbananarepublic
firecrackers
cyclingsrilanka
shariputra
sarvananthan
saradiel
azimuthal
dalhousie
gohomerajapaks
kurikaattuvaan
vladimir
1o
1c
1n
2q
3n
3bs
3yrs
3pcs
4b
410
440
4hr
4bn
5a
5mbps
6b
680
622
626
6months
7m
730
710
8mbps
825
9h
970
930
924
923
916
aab
aip
aiding
ajay
averted
aversion
bk
b3
b5
bx
bq
bere
bbo
bong
bie
baw
bens
balle
bapt
bss
bha
boud
bells
busting
bizz
bmi
cq
cite
cries
cuck
cde
ccs
cmon
cette
cww
d4
d5
dere
dice
dia
dade
duw
dale
dense
dmed
dune
dwell
dule
dali
dunk
ddd
darn
dumps
eor
eal
esw
ecs
eruptions
fou
fas
fend
fos
fso
fau
fuse
f16
gac
gol
gill
gust
gour
gue
gated
gade
gond
gde
gng
gcc
gases
gae
ganga
gags
g29
hl
hj
het
hul
hive
hollow
hitch
hett
hooks
hooking
hinges
h1b
iil
ibs
iata
ioe
ionic
jain
jak
jag
jath
jury
jasinghe
jumps
jaliya
kp
kow
kend
kag
kaw
kens
kug
kata
kush
kurs
kissed
kaud
kinn
karting
lr
lest
lors
laps
lhd
lashed
mre
mec
mest
mould
mason
mik
mums
mansion
nout
nment
nect
nart
nive
nact
nform
nstand
nident
nond
nms
nata
nook
nrem
nval
ncle
nwork
n200
ngs
nback
nuse
nanda
n30
nspe
o5
oor
ola
ote
omed
oval
oma
ota
oops
pj
pess
pab
pach
pors
pata
pits
paving
pung
pium
pda
pita
pacing
paws
poco
pappa
q1
qoo
rin
rus
riz
rda
rcm
rods
raux
sx
sank
sere
sop
sack
sry
sange
sash
sari
sangama
sizz
ting
tout
tuc
tug
tying
tipped
tabled
tls
tiran
taco
uu
uwa
u19
vu
von
vass
vra
vows
viva
vaping
vector
wend
wie
wiz
wath
wakes
wats
wss
wih
wield
wigo
woken
xoom
yl
yd
yb
yer
yan
yom
yest
yess
yos
yath
yale
yee
yakk
yaga
zh
zam
zig
zim
zoz
zonal
##6a
##6z
##05
##01
##ei
##e9
##eine
##o6
##o0
##o3
##oise
##gm
##g3
##gw
##gent
##gia
##giya
##rl
##rine
##round
##rag
##rick
##rums
##rudu
##ais
##aign
##pb
##pak
##pjp
##hg
##hp
##hw
##hat
##his
##hart
##hya
##hub
##hod
##hik
##hift
##iel
##iod
##iards
##cor
##car
##cings
##cery
##cels
##cover
##corn
##ln
##lm
##lit
##lar
##las
##low
##lot
##lates
##lift
##yst
##yam
##year
##yos
##yata
##yawa
##yards
##yawasam
##si
##tol
##tops
##dain
##dem
##bin
##bet
##bay
##burn
##bane
##nen
##nas
##nst
##nos
##nap
##nite
##nering
##nects
##vd
##vine
##vast
##4g
##2c
##fis
##fly
##fig
##fest
##fied
##fuck
##from
##furt
##figer
##ujan
##mast
##mable
##money
##mese
##munu
##killed
##kanda
##3b
##31
##360
##5h
##8k
##990
##jat
##jug
##jah
##jula
##wat
##wim
##wath
##watt
##wife
##zation
##zema
##x2
##xed
##xuals
##q0
##qr
##qc
##qed
thuy
thiv
thada
##erk
##erver
##erth
##ercial
##erby
##inan
##inav
##intern
##inarily
##inuwara
##anitary
##anagam
##onne
##atore
##atize
##atistics
##enade
##enote
##enawa
anom
##esd
##esis
##orp
##orers
##orgh
##orich
topper
ina
ines
inima
inorgan
##itin
##itic
##itas
##itly
##itol
##itters
##itaries
##alan
##alath
##alini
##arg
##arct
##arry
##arna
##artered
##armony
andre
andhra
##isia
##reter
##rell
##icum
##icited
##icacy
##icule
##asu
##asat
##asen
##asana
##asters
##asuma
##asgamuwa
##asurable
##elia
##elaw
##rian
##rive
##riend
##ribe
##riever
##rids
whore
##enton
##entre
forie
forsaken
##owm
##owers
##etes
##etting
##etiya
##otle
##otte
isc
isip
isbs
##stress
##staking
##street
##ecops
##ecoming
##utch
##utthi
##illy
##ilate
##ilia
##ilog
##aye
ith
ity
iter
onec
onda
onsl
##ankotuwa
bef
beam
beards
##acres
##olor
##olly
##olical
std
stove
styl
stained
stacks
stoked
stodd
##uruk
##urances
##idd
##idist
##idenced
hapl
haunt
hazel
hague
reun
reoc
reacts
regress
rejo
##ithri
##sem
pry
pran
prak
prado
prawn
##that
##thene
thiss
##adz
##aden
##ados
##adable
aler
alice
lanken
##ooby
##iro
##irs
##iram
##iratory
##esters
ork
doha
dodge
##teries
##opoly
asalanka
##chu
##chester
##chez
##imp
##imeter
##imhers
neon
neven
nepo
shs
sht
shelling
shook
shines
shane
shaved
shrugged
##ouncing
liar
##ppuwa
tray
traces
trsc
truec
trenton
fran
fren
fris
frost
frnd
fredd
soared
soora
soggy
exh
exited
exhum
mea
##andum
##andering
suw
suble
suriya
notary
notices
unv
unlic
unatt
unapp
unsh
undeveloped
unexpl
unhinged
##uliar
##uloya
comr
coma
cana
canon
canel
canals
chor
chell
chak
chery
chills
choked
chatted
chittor
chiththa
abay
abus
abra
wast
##ustion
hea
##mently
acd
acing
acron
seaweed
##unn
##unities
##uneration
gog
goi
##ainagar
deo
dement
dehuman
deyak
dehydr
##usp
##usan
##abble
proces
##emes
##emas
##osting
adc
adn
ador
adik
adresse
##eare
##osaur
##eller
##ellers
##udy
##isty
arachchi
artef
arteries
##apit
##apist
##apart
##apanne
##apasi
##boh
##bohydr
##ghai
allian
alliances
alluding
usability
usjp
pea
##arta
##artments
amg
amp
amj
amw
ample
amused
amila
ambewela
spans
spared
spills
sparing
spousal
##ifes
##dering
recite
recapt
recitation
reclaim
reccos
recollect
hassel
##007
##00k
##00lkr
##00mhz
##aven
##avil
##aviya
##avila
##avorable
##indi
appric
appalling
fey
feild
levi
leheng
daya
daytrips
##aller
##alleng
timed
outbound
##asties
##astia
upro
##heras
vehe
ima
immin
imao
imorich
##akam
##akari
##akaya
goodwill
afresh
compress
complying
compressed
comptia
##ptor
##ptember
##soft
saa
sage
saff
sahan
saeg
ourself
agr
agit
agitation
donor
yearn
quir
quoting
timezone
cli
##erian
needles
20h
20am
2060
manly
manger
maniac
manusha
manjula
##iax9
##oused
resides
reserving
resurg
inters
interst
interchange
intersex
offenders
offenses
slo
slain
slaps
slums
slpa
slugg
slavery
##achandra
grit
graded
groped
##berish
##berries
sinn
sinking
##assic
##assist
thinner
visite
commie
commite
commons
commited
commision
commutes
##iee
##ieval
##ieurs
mog
mok
underline
underwear
underdeveloped
mono
criter
crumble
cramped
crinkle
elise
elli
##ailing
loolk
intakes
##ditional
##ucts
bru
bras
brun
brunt
##icals
hiya
countrymen
##igned
gotu
parr
parity
parata
paratha
disput
displace
disrep
disorgan
disasters
curl
incarc
parting
partake
partition
partaking
coer
coir
coven
coax
coimb
coaster
coerc
coherent
joked
pharma
backfire
##ogo
##ogies
sciss
scummy
scorer
scooby
##ubquiz
##anganaya
mara
marie
maruti
marmite
decipher
decibel
idh
idc
idle
idiya
peru
peril
perod
##athe
##athis
##athana
##osexuals
trivia
pleading
##ometer
##quer
##quacy
engages
payout
payee
friendliest
mae
mai
herds
hernia
##rups
##ensis
mined
minod
minuw
minced
minster
minivan
##ervices
##ervient
persue
persists
wayyyy
takeout
##adeva
wellalage
wellington
##oding
##oded
carts
carlt
##issive
posture
postings
postbox
tae
conson
consul
twelve
drp
roamed
rede
redline
##veless
ema
eminence
genz
geneal
genaral
##licking
mediterranean
medieval
tourney
degener
drip
##ollo
transitions
transnational
famously
keb
kevin
10s
108
1060
1030
presided
airways
instill
##nection
kandav
issu
##idental
##upon
smg
smear
smash
##nappa
sinha
blot
blade
blues
blush
blended
##arajan
##space
remuneration
seema
ideological
creations
downpayment
ett
trainride
lotion
lotions
flab
floss
flashing
flfp
poised
stricken
repr
repaid
optic
subcons
booze
tamilians
rae
rai
rapp
ravers
raiding
desi
descript
deserted
avent
avec
passbook
passerby
hopkins
insect
wrench
speculative
0007
solheim
solomon
buld
1936
1930s
gujar
##like
##liance
##bekaduwa
assurances
forehead
elective
syne
syrups
kindle
##echnology
depicts
courthouse
generals
generates
politeness
politbur
belih
belgian
evo
evils
evidenced
##raz
##razen
##tea
##ugama
norwood
restraining
handagama
303
infest
proportions
proportional
##ampaha
##ampola
discerning
badass
baddegama
purity
156
15gb
15iax9
respiratory
##measurable
warming
bittern
protien
cores
surety
12r
1234
girlies
classify
classmate
nationalization
salaray
##iba
##iban
mentors
playgroup
playlists
##phemy
cardboard
cardiac
##duk
qualitative
matured
rajiv
rajasth
retains
retaking
retires
retiring
retriever
##eseen
##ukul
##anaa
farther
centigr
boq
##aksha
detection
dettol
easing
morgan
sway
swamy
##azi
bigots
programe
rss
landmin
##minster
biking
biopic
100th
100rs
seeni
negambo
formulation
formulas
11m
11000
customary
valve
distort
softened
rajapas
##hewa
headings
videography
videographer
meanings
251
metre
metered
meteor
200m
concise
conceded
vih
viii
testify
testified
testifying
tempted
couch
pasting
pastures
##comp
defect
defective
defying
defensive
typo
votre
midrange
waiver
weliw
portcity
ranaweera
ranawaka
##english
182
1815
prett
behaves
histories
brewing
freenas
brandix
14m
untr
##dev
##dead
##devi
sunder
sunflowers
refere
activism
array
protestant
161
storing
milinda
50cc
authent
nsl
nsy
nsecurity
dealings
cutter
cutlet
humbled
safeguards
goofy
##price
threewheel
dialects
dialysis
missiles
amounted
malim
sltpb
obese
obsole
oki
okk
241
249
24hr
westminster
##ndd
sucked
annou
##akening
turnitin
superm
superbox
superpower
rupies
##parable
##annala
closeby
pmb
221
22million
selenium
178
171
1782
maho
contactless
routines
routinely
harb
harmed
harras
harris
financi
limo
limbs
oneself
specials
specialise
walp
walnuts
legalized
cites
barb
barbers
barring
barcl
barbar
barrels
dio
dietic
digs
digana
##ergency
215
daa
petite
moto
motions
elec
reliant
ilk
illicit
focuss
makeshift
entert
platoons
platonic
selfies
cyst
developmental
conditional
lax
laure
237
unfit
unfolds
unfavour
unfriend
unfavorable
briefs
rupt
equidist
surfaced
multitude
parkinson
4080
weda
weds
improves
patali
originates
gloom
damned
##issioner
balangoda
naes
naadh
sociology
commentators
responsiveness
breakouts
breakthrough
calming
cashx
cashiers
starring
starlet
##coat
snus
snob
fortnite
involunt
successor
##50hx
identifies
identifiable
figur
billboards
billiards
263
nta
ntime
ntechnology
violates
competed
wini
creditor
npf
npam
npublic
nperson
collects
tarmac
middleman
feeders
anton
antagon
antarct
civilizations
##unders
bode
ethos
batons
beneath
glare
glock
deepen
deepest
misusing
commercials
samosa
samosas
##208
##2025
riddled
ridicule
dambula
psychop
psychologically
painless
2700
interviewers
ndi
ndd
ndata
##iyak
##iyage
chemo
akds
284
287
investigator
villains
savage
diners
dinosaur
605
ncg
ncent
ncost
ncpi
ncricket
canceling
birthplace
nationally
nationstrust
steals
stevia
slowdown
sorcery
marched
labeling
ache
achcharu
ern
erased
pani
panama
udp
particulars
diplomatically
eek
environmentally
banda
dreamy
##shad
fitit
##afa
##afresh
jayak
jayalath
80g
808
hora
horrors
anurudh
racking
n133
blacky
traffickers
performer
performative
##awewa
nthen
nthese
plusieurs
slept
burg
burqa
burmese
therm
domination
randonn
bulge
bulking
##vpn
archive
archived
religiously
riches
articulate
definitive
battal
battic
combating
spaceylon
pictured
minimise
minimized
##naruwa
webin
webcam
swimmer
csr
##obar
sceneries
noticeably
navail
ignite
antiques
geoff
revital
revoke
revoked
chillies
355
35th
35mm
versatile
ethnocratic
unsung
unsavoury
unskilled
encamp
disharmony
closeted
greenware
greenhouses
wildly
wildfire
selectors
##uriarachchi
promoter
validated
45min
killinochchi
separating
audition
browsed
murukku
commissioned
fearful
mercy
alleges
allegation
07th
ratios
nbb
nbas
nbur
thirdly
fishes
commercialized
piqu
kalavit
progressively
##toks
gunshot
gunshots
superiors
consumes
modernized
modernize
assistants
caskets
princes
bedrid
nyc
nyesterday
vaccinating
nwa
nwi
nwelcome
nwrite
edc
edith
edible
edged
edgy
edtech
nfood
nfound
nface
nfirst
yeast
yevan
dmc
dmz
godaddy
olcott
wasteful
sanjee
##oao
##ropic
##monial
lakvijaya
appleasia
denims
denounced
##oeo
angles
lifeline
banger
logitech
omd
omm
subservient
##ographics
nny
nnon
nnet
nnuwara
impacting
madd
madman
madurai
madiga
nhon
nhis
nhere
nhave
nhospital
stupidest
cupboard
lunchtime
nanuradhapura
##rolled
regulator
udawalwe
363
kurthas
inspo
inspiron
counterpart
32m
328
321
shirting
confirmations
039
pushy
truthfully
chairperson
accidental
ssl
campaigned
raping
##hanjaya
boxer
2000rs
penet
palms
colonists
youthful
gasoline
ravaged
##akaali
escorted
ultran
debacle
debatable
illiterate
renegoti
telesc
shyam
shyness
424
422
catam
macros
macbooks
hyping
ecocide
eczema
freedoms
faire
karate
karainagar
pollen
polluted
gddr
dubious
robbers
citizenry
injunction
sensed
analyzed
frequencies
blueprint
096
##aaan
icj
channeled
##ridges
annoyance
typescript
552
pureit
cycled
bombard
##301
profitability
nvij
nvisit
n45
eggplant
inquiring
998
nino
ninv
ninter
criminality
criminalise
##jaj
roundtrip
482
488
4800
48cc
nls
colorism
dumbulla
ooh
oof
unionist
##agnosed
squid
squint
vanishing
predicting
dilru
dilute
gpay
nutr
tenda
shooters
estimating
indicative
royalties
bao
bajaj
gemunu
ipg
werent
##strap
forgiveness
recipient
cryptic
msgs
sightings
academies
bono
bonfire
osmo
disciplining
encourages
nrn
nruss
nrfc
schema
60000
120gb
athurug
tiktoks
cartridges
37k
proposition
easterners
adjutant
cebassist
washes
occurring
suspecting
kotahena
fatty
sandal
drawings
drawback
signaling
mcd
mcrice
cruising
flavored
gmaps
nilwella
niluka
nilanthi
advisories
cinemat
innovate
491
curricula
circumvent
gangod
ganguly
sarcast
coldplay
800m
disconnects
deterrent
annoyingly
516
515
kilow
nurawa
paddle
condos
condesc
##office
##official
prepares
motivates
1957
1953
1951
materialistic
5kg
thusi
sponsoring
intentioned
casted
powdered
##romos
reconcile
sooooo
##flot
memorising
memorization
memorandum
motorcycl
falsehood
n58
splash
##ihare
dentistry
##onymous
speechless
chamuditha
chandran
chandilyan
886
republican
terminology
torras
handedly
urbanisation
reno
clickba
formalities
pizzeria
pizzahut
coached
856
8500
torturing
fundamentally
exclusivity
cmf
jayawardana
jayawardanapura
absurdity
aids
ccbm
gears
545
nuance
nuanced
weeraratne
weerasekera
occupant
astrazen
wiser
makkal
interacted
transforms
transformer
1963
1961
defaulted
auntie
divert
lengths
disconnection
vietnamese
conceive
champika
lgbtqia
nasal
sirigiya
shoutout
boosted
kadapasi
rotate
rotated
unwelcome
diversified
diversification
hybrids
ocpjp
ashoka
overpricing
nalt
plateau
monetisation
fermentation
ferdin
flashback
595
nstate
nstarting
sibo
unlocked
nkoll
ritz
##iderate
tyrant
pleasantly
minimalistic
scratched
fundamentalism
litro
##guide
##337
seafar
proclamation
##rogena
triggers
benif
mlm
prioritized
672
dominos
bhathiya
danceflo
soma
insistence
nadditional
altru
699
bleach
spineless
screwing
condemns
tolerant
tolerable
stretched
nago
spectators
precisely
paradigm
863
mullait
nchange
nbee
contestants
assessing
yogeshwari
tallest
lounges
dosent
nerves
katunayaka
cdc
aligns
wickramaratne
laborers
laboratories
fooled
inhal
inhale
inhaling
##arathunga
repayments
krishan
##travel
kitulgala
kiriella
thirum
thirty
neutering
neutrogena
fragment
optimization
greeting
ancestor
ancestral
juices
juggling
nirvana
nunawatuna
nuniversity
pillar
vaas
meeks
meewella
assassins
depreciated
radioactive
cautiously
rehome
##ulsion
abeygun
abeywick
disruptions
12500
navaloka
fabrication
nelu
nelections
##iasis
intimacy
victorious
dictated
bolt
bolgoda
bummed
kaush
nisrael
sedo
tharushi
stringent
berry
culmin
mortars
sidelines
advocata
overthink
virgins
birdwatching
gripping
tilap
assemble
##akkody
reluctance
concentrating
axela
nexus
nexcell
prohibit
depths
epicentre
implicated
dalawella
dunes
sneaked
vidanagam
##rajapaksa
headquartered
filtering
oysters
sapiens
wandered
##567
enlightened
deceiving
swearing
obstruction
jammed
##risis
##vania
exhibited
exhibitions
sparking
acknowledges
toiletries
tunes
inaugur
gregorian
brightness
reefs
chathura
abeyr
hyperactivity
fuch
fuelled
gnana
gutter
nprice
nprawns
pitak
whiskey
outlaw
outlined
utilised
utilization
fmg
pitched
socket
solemn
medalist
supervisors
romanian
stalling
seamstress
acceleration
##ommunication
dileepa
rambling
spamming
warnapura
calendars
bedsheets
kosala
koswatta
nwho
wagonr
disregarded
veterans
ghosts
ghosting
ghosted
ndef
rivalries
sketched
vvip
##444
toddlers
##repared
a330
a340
kupp
shanghai
fetal
fetching
hatching
hatchbacks
rationalize
cherished
horizont
nutritional
ntransfer
sympathize
sympathizing
mourn
muralitharan
yielded
aluminum
neuros
220k
haircuts
aqi
hoodies
stalwarts
healed
undertake
attesting
extracting
##burgh
##100100
stemming
quizine
intervening
scaled
1658
experimental
celeste
pelawatta
pumpkin
seeduwa
enacting
enactment
paralysis
endlessly
populace
commemorating
7kg
nosy
nindia
reversing
prostitutions
residencies
scotch
mintage
hopelessness
buzzwords
auditor
kolamba
nneg
polymer
polythene
disheartened
prosecuting
prosecutors
dynasties
vigilance
bundala
hunter
muthal
nawinna
ppf
sterling
sugary
sugars
unmist
peeking
intrusive
fixture
snapshot
sleeveless
nmoneragala
separatism
reccomendations
kavum
ncee
napole
[...]
